#version: 0.2 - Trained by `huggingface/tokenizers`
. .
Ġ a
i n
Ġ t
Ġ Ġ
Ġ o
r e
h e
.. ..
Ġ s
o n
e r
t i
a l
Ġt he
e n
Ġ p
e d
in g
e s
Ġ b
n d
Ġ f
o r
Ġo f
i t
i s
.... ....
ti on
a n
i c
r o
Ġ c
a r
Ġa nd
a t
en t
Ġ d
Ġ in
Ġ w
Ġ m
ĠĠ ĠĠ
Ġo r
Ġ l
Ġ re
Â ł
al l
Ġt o
Ġb e
i l
c e
Ġs h
e c
e t
u s
a tion
v e
m ent
........ ........
Ġsh all
t r
i d
i g
a c
Ġ n
Ġ S
Ġt h
Ġ e
o t
Ġ C
Ġ A
Ġp ro
l e
l o
o m
u c
a s
Ġf or
i m
p p
q u
Ġ P
Ġ (
u r
d ing
a y
Ġc on
it h
Ġa n
it y
Ġ D
Ġw ith
Ġ 1
Ġ 2
Ġo n
i re
l l
Ġs t
ig n
Ġ h
an ce
u re
Ġa re
u b
Ġ us
es s
Ġp er
u l
a nd
u n
t ed
Ġa pp
Ġa s
Ġ is
Ġ R
Ġb y
u il
i on
................ ................
l ic
0 0
T he
Ġ g
uil ding
Ġe x
a b
ar d
Ġ O
qu ire
he r
u m
u t
tr uc
l an
ĠĠĠĠ ĠĠĠĠ
g e
ec tion
at e
Ġ .
ig h
Ġd e
Ġn ot
o s
p er
c c
e et
is tr
h ic
o d
o l
a in
t er
i al
Ġre quire
m it
at ed
â Ģ
Ġan y
t ure
l y
ve lo
t her
a m
Ġc om
f f
Ġ M
Ġ B
p ment
Ġpro v
Ġp ar
d i
Ġb uilding
ic t
igh t
Ġs p
Ġth at
a ge
u nd
ation s
istr ict
t y
o c
uc h
Ġs ign
ment s
Ġf eet
v er
Ġ N
velo pment
Ġth is
id e
s t
i f
Ġo ther
Ġa d
d in
r i
re et
Ġin c
Ġm ay
on ing
lo w
ro m
en ti
Ġus e
truc ture
Ġw hic
Ġ I
Ġre s
i r
ec t
din ance
a ce
Ġf rom
Ġs uch
Ġwhic h
p os
Ġa t
Ġ U
Ġ F
Ġl ot
at er
Ġ T
is t
ab le
a re
im um
t h
ti es
o re
u p
Ġcon s
Ġ he
ti c
is ion
ĠC ity
Ġs ub
a d
en d
w n
Ġ L
Ġs tructure
a p
Ġper mit
ro v
k ing
Ġpro per
Ġa cc
Ġ2 0
in e
l u
Ġa l
es t
ar y
Ġare a
ĠĠ Ġ
w e
Ġ v
e m
er s
Ġ un
id enti
or m
Ġth an
Ġl oc
ub lic
Ġa ll
Ġp lan
o f
ĠO r
s e
Ġl and
ĠS ection
ĠP lan
er v
Ġapp lic
Ġ 3
Ġprov id
i ties
Ġ Z
Ġwith in
identi al
ĠOr dinance
Ġinc lu
Ġst reet
it e
om m
an t
s ion
Ġ H
Ġ2 00
Ġ r
Ġproper ty
Ġ -
di tion
Ġde velopment
ĠD e
Ġrequire d
Ġ E
re s
o us
i p
us t
ĠR e
on t
Ġf ac
e w
Ġp ublic
Ġd es
e e
i z
Ġcom p
Ġn o
in imum
Ġa c
Ġus es
Ġapp rov
t ain
w ay
il l
ard s
g ul
Ġ The
Ġt r
................................ ................................
he d
Ġd istrict
f orm
t en
Ġprovid ed
ĠĠĠĠ Ġ
e l
ac h
ce p
Ġ 5
Ġ en
ĠD istrict
Ġon e
n ing
Ġ20 1
Ġp l
i b
Ġc o
Ġ z
ĠZ oning
om e
Ġ it
re d
ol low
ĠS t
e as
Ġfac il
Ġpar king
Ġ 4
il y
Ġw he
Ġcom m
O N
Ġf ollow
Ġc h
T I
Ġ G
Ġdes ign
Ġh a
or y
r ont
Ġrequire ments
i es
ti ve
c h
Ġin t
j ect
Ġm ore
p or
i ed
r tic
Ġloc ated
ic e
Ġ y
ac k
all y
ll ing
p ar
Ġpermit ted
Ġs ite
Ġsp ec
gul ations
re e
a il
rtic le
m in
or d
Âł Ġ
we lling
pos ed
i ve
o un
o w
Ġ 6
Ġof f
Ġfollow ing
i v
Ġ ro
di v
Ġacc ess
c re
Ġ im
Ġ âĢ
_ _
ĠĠĠĠĠĠĠĠ ĠĠĠĠĠĠĠĠ
Ġsp ace
ĠPlan ning
Ġare as
t s
Ġs erv
Ġo wn
o ur
as e
Ġs et
is sion
o p
Ġm inimum
s es
Ġp re
Ġp r
ĠC omm
on s
Ġl ine
Ġ W
t ing
cc up
am ily
ro und
l is
Ġt w
Ġres idential
an c
Ġcons truc
Ġm an
o od
d e
ff ic
ision s
ĠDe velopment
f ac
and ards
end ed
ĠI n
v i
Ġ ve
Ġa b
a x
Ġ1 0
Ġm ust
Ġf lo
s c
u g
Ġf ront
Ġp ur
ad e
Ġpro posed
ur al
a g
Ġsign s
Ġ und
Ġus ed
p l
Ġs u
ĠA rticle
Ġha ve
ist ing
1 0
âĢ Ļ
Ġun it
Ġd et
cep t
Ġe ach
ĠB uilding
ab lis
Ġz oning
it ed
Ġs ide
Ġd is
Ġd welling
Ġfacil ities
1 2
en s
b er
ater ial
Ġ V
er al
Ġhe ight
sc ap
b ack
c t
n y
if ic
Ġm ain
on e
tion s
Ġ 7
I N
in ess
p en
us iness
ut h
Ġstructure s
I n
Ġ est
o ve
Ġa m
is e
Ġinclu ding
Ġs a
Ġ up
TI ON
u ff
Â §
qu are
Ġ 8
Ġh ome
o ard
od e
in c
s u
er c
Ġapprov al
Ġbuilding s
ti l
Ġund er
i x
Ġs e
ac es
an s
Ġn on
am e
Ġest ablis
Ġr ight
Ġve hic
ing le
Ġs ur
Ġo ccup
2 0
Ġad j
Ġm aterial
1 1
u fac
Ġg r
Ġn e
Ġcon dition
Ġthe re
ip al
k s
Ġw ill
Ġf t
Ġpur pos
Ġapprov ed
Ġl im
t he
Ġp ri
Ġs quare
ce ed
Ġapplic ation
Ġl eas
Ġwhe re
Ġl ess
.. .
en c
ĠComm ission
ĠA d
u al
Ġy ard
Ġim p
o und
erc ial
d uc
âĢ Ŀ
en ce
Ġex isting
par t
o wn
Ġsub ject
ax imum
ug h
Ġin ter
ĠC oun
Ġre gulations
ĠU ses
Ġal low
iz e
ĠS ign
ic es
o in
ti f
Ġre c
il e
Ġ 9
f in
ĠS p
Ġt im
Ġtw o
mit ted
ti v
l ess
Ġb ut
Ġst andards
Ġinclu de
as s
id th
Ġ if
A ll
Ġprov isions
Ġto w
e al
on g
Ġex ceed
ire ct
uff er
Ġcon t
e ar
o b
Ġa r
ac hed
Ġb usiness
vi ew
ic al
Ġleas t
a k
Ġ Â§
ÂłĠ ÂłĠ
Ġo ut
Ġw ater
c on
o ul
a tive
en eral
ĠP er
in es
Ġd ay
Ġcon tain
l es
or age
Ġd o
ĠC ode
00 0
inc ipal
Ġconstruc tion
Ġper s
Ġs o
re n
I I
p a
Ġ Y
Ġw all
i ance
Ġo pen
Ġsu pp
Ġsp aces
Ġup on
) .
ufac ture
g r
Ġcomp l
Ġin s
part ment
2 1
t e
ĠA pp
Ġland scap
il ity
Ġprov ide
S ection
E N
Ġre m
er m
Ġm eet
if ied
Ġor dinance
ĠB oard
ĠRe quire
Ġlot s
Ġapp ro
Ġtim e
s s
Ġown er
div ision
oul d
Ġad dition
ĠP ro
Ġit s
Ġin d
Ġh as
Ġon ly
N o
Ġ u
Ġl e
an g
Ġacc ord
E R
y p
Ġo per
Ġd r
us tr
ĠĠĠĠ ĠĠĠ
ĠR es
L E
al e
1 6
ĠP ar
ure s
un ic
ent er
Ġl ight
5 0
ĠâĢ ľ
ĠA l
Ġis su
ufacture d
ac ent
lo s
Ġas s
Ġhe re
Ġflo or
anc es
Ġs ingle
Ġapplic able
o v
ti t
Ġset back
Ġloc ation
ĠĠĠĠ ĠĠ
a ding
c il
Ġ ................................................................
Ġex cept
or t
ac t
i a
Ġs im
ib le
uth or
at ing
Ġaccord ance
Ġen c
i or
we en
Ġab ove
Ġw idth
t o
Ġmaterial s
Ġstreet s
Ġe qu
Ġpar t
A ny
Ġbe t
0 3
Ġt re
n er
__ __
Ġac tiv
Ġu til
in d
m an
ĠN o
v ent
1 4
0 2
er min
ul t
u tion
ob ile
E S
f ter
il ar
Ġbet ween
Ġserv ice
r it
Ġc l
cre en
T h
min istr
o ut
ation al
IN G
ĠL ot
a v
iz ed
us e
Ġs ame
Ġre ar
form ing
he s
E C
Ġadj acent
Ġaccess ory
Ġtr a
o or
t al
Ġdesign ed
n e
Ġst orage
1 3
Ġallow ed
Ġd ec
Ġapplic ant
ĠCoun cil
im en
0 4
um ber
a w
Ġw h
ri ve
c ent
Ġpr incipal
res s
Ġv i
on d
Ġbe en
ur b
Ġ1 00
I S
Ġsim ilar
v en
er tif
m is
Ġlim ited
ĠRe gulations
Ġ200 5
Ġg ro
om es
Ġm aximum
em por
Ġt yp
A R
v ate
Ġre view
c ess
Ġp or
Ġg re
Ġb uffer
ĠA re
ĠU se
Ġg round
A L
st reet
ro ugh
Ġ1 1
I C
por t
Ġde fin
ve l
Ġre l
Ġo b
ĠDe partment
Ġc or
f amily
imen sion
o ot
an ge
Ġf in
) ,
ous e
Ġmain tain
or s
2 5
empor ary
ĠE n
Ġfacil ity
h ip
ec ess
Ġa g
ul ti
ro ve
ul ar
f ace
Ġcondition s
Ġa uthor
ing s
Ġcomm ercial
f or
Ġspec ific
Ġl ines
Ġm eas
Ġper cent
ens ity
ĠU n
ĠE x
w ise
Ġn at
mis es
Ġunit s
tr ic
Ġe l
ĠâĢ ĵ
div id
os e
b or
ĠM an
1 5
Ġd ist
p ri
he re
Ġs ize
Ġestablis h
Ġre qu
st all
Ġo ver
ec ial
Ġs ection
Ġp res
N D
re c
Ġat t
Ġother wise
0 1
Ġpurpos e
s o
ti ce
Ġpers on
Ġt en
cc ess
Ġday s
Ġde velo
ĠRes idential
0 5
f e
man ent
id ent
S t
Ġm e
Ġc an
igh bor
u e
ĉ Ġ
ĠRequire ments
ĠA ll
i ent
con forming
Ġsub division
Ġal ong
Ġn umber
ecess ary
Ġe le
Ġint o
Ġ1 5
ten ance
Ġs y
Ġdet ermin
Ġwhe n
Ġex t
ur ing
ar ing
ĠA m
Ġ k
Ġtre es
Ġ1 3
Ġch ar
Ġpro t
irect or
m p
ac ed
o ol
Ġapp ly
Ġflo od
d oor
Ġre cre
ustr ial
Ġspec ial
Ġs creen
EC TION
ĠS ub
Ġv ar
Th is
Ġ X
Ġro of
pri ate
Ġn ew
Ġpri or
S uch
st em
Ġtr ans
way s
s ection
Ġestablis hed
Ġe ff
ec ted
Ġ5 0
n ed
1 8
Ġs c
p re
h ib
al es
Ġun less
g ine
ent r
Ġsa id
Ġin stall
Ġconstruc ted
ĠAre a
ĠD irector
T R
Ġdistrict s
Ġint ended
ce l
Ġpurpos es
Ġtra ffic
d er
Ġ1 2
he n
Ġm in
cep tion
I f
Ġro ad
ure d
am a
al s
Ġpar k
Ġth rough
pa ir
Ġpro ject
ab ama
Ġcon form
Ġd ate
c ed
ĠA ny
Ġv is
w al
ent y
Ġl o
Ġappro priate
i pment
lo c
as on
ĠM inimum
Ġd rive
et y
Ġb ound
Ġper manent
S ee
O R
Ġpre mises
Ġpri vate
a ti
Ġsur face
o ver
anc y
ed i
0 6
Ġc le
Ġserv ices
Ġin divid
Ġn ecessary
oc i
c ri
ĠAl abama
ertif ic
at or
L A
un ity
Ġ j
ĠL and
ĠH ome
Ġpr im
e ll
Ġst ore
Ġal so
Ġimp rove
Ġex p
ten n
Ġ201 7
tr i
Ġth ree
Ġs ix
Ġtow er
Ġvehic le
h ood
........ ....
b y
ter ior
Ġ3 0
Ġ200 4
Ġm et
Ġman ufactured
ighbor hood
R e
ec tive
ide red
Ġm ade
ĠSign s
Ġt ree
Ġf ive
ĠO ffic
ment al
Ġst ate
Ġf amily
gine er
ĠPar king
Ġg eneral
Ġatt ached
ant s
Ġa fter
Ġtw enty
Ġown ers
Ġfor m
Ġcons idered
Ġpl at
Ġindivid ual
Ġvehic les
Ġ qu
Ġf oot
ĠC on
2 2
Ġf e
Ġam end
Ġdefin ed
ĠSp ecial
h all
Ġsy stem
Ġse par
Ġt erm
Ġthe se
Ġb as
as t
ter n
Ġpl ace
Ġc ase
Ġrem ov
Ġto tal
b e
Ġad op
Ġpor tion
ĠAd j
e x
Ġin form
et back
ĠT h
ed es
v ing
Ġequ ipment
pl ay
ac ter
Ġinclu d
g et
Ġ2 5
y s
Ġcomm on
w ater
Ġcomp ly
Ġactiv ities
um in
Ġ1 9
ch it
et er
EN T
f t
i od
Ġproper ties
os t
edes tri
Ġthe ir
ĠPer mit
tit ution
ccess ory
ain age
Ġex c
ĠT able
age ment
Ġissu ed
Ġ entr
Ġc are
Ġnat ural
Ġno tice
Ġe rec
dition al
TI C
hib ited
ĠA n
p le
Ġre g
and ing
Ġsub mitted
Ġth ose
Ġh omes
Ġapp eal
e p
Ġpar cel
Ġ 0
u ll
Ġdo es
Ġlim it
ĠIn s
Ġgre ater
Ġc enter
i tion
at es
Ġmaintain ed
Ġres p
Ġrec ord
Ġchar acter
Ġper iod
f er
Ġhere in
Ġre gul
Ġf our
ï Ĥ
Ġw rit
Ġmain tenance
a j
Ġan tenn
res idential
ak e
aj or
ro l
Ġc ity
Ġre pair
Ġmeas ured
Ġaddition al
Ġst orm
ÂłĠ Âł
em b
Ġfront age
ĠSt reet
TIC LE
Ġa ff
ul uth
................................ ................
R E
Ġvi ol
ĠSt andards
ĠD uluth
ĠAd ministr
truc tion
Ġw as
Ġdis play
los ed
Ġspec ified
Ġrequ est
Ġ enti
Ġad d
iv ing
I T
c tion
f ety
oin t
chit ect
S ign
Ġcompl iance
Ġp h
ust ment
Ġd imension
ot h
Ġpl aced
ĠĠĠĠĠĠĠĠĠĠĠĠĠĠĠĠ ĠĠĠĠĠĠĠĠĠĠĠĠĠĠĠĠ
Ġass oci
Ġsh ould
Ġside wal
Ġinform ation
ic ial
Ġthere of
Ġwith out
o we
erv ation
Ġres tric
Ġor der
A n
Ġhe aring
ag es
Ġplan s
ir c
unic ations
Ġf if
ĠDistrict s
ar ies
Ġw ould
Ġz on
or k
f are
Ġ1 4
Ġre t
Ġbe low
ĠS etback
ĠO ff
ect or
F or
it her
Ġm ulti
Ġfor th
i i
ĠO F
Ġcompl et
Ġtyp e
ĠG e
ot her
are d
in u
Ġt emporary
re am
enc y
or g
E x
Ġw ay
ix ed
owe ver
Ġp edestri
Ġe ase
ĠC h
Ġy ear
f ore
Ġsh own
Ġch ang
Ġdist ance
ĠY ard
A N
Ġadj oin
ĠS tructure
Ġpro duc
Ġint ent
Ġs ew
2 8
e ight
Ġg u
r y
Ġs ales
und red
Ġint e
Ġimprove ments
Ġf ur
C ity
o ll
Ġm ap
Ġsh ow
A pp
le x
Ġex terior
s ide
es ign
Ġre ason
Ġele v
s hall
Ġd i
Ġco ur
Ġab ut
Ġerec ted
ind ow
M ENT
Ġh igh
Ġam ended
Ġl aw
ut om
tic al
ar g
Ġutil ity
Ġ ill
ĠS ec
Ġdwelling s
Ġs ec
Ġle vel
Ġp os
Ġch ange
Ġel ec
Ġs ale
ĠAdj ustment
Ġs tr
p ed
ti s
R D
Ġ identi
Ġc ar
ch ool
Ġcon n
Ġc re
ar ily
Ġm on
Ġlandscap ing
ertific ate
ĠS erv
ĠA ND
3 0
Ġm od
Ġe mp
l ay
Ġsa fety
qu ate
org ia
C E
Ġpro cess
Ġind ic
r a
Ġe ither
Ġbe ing
Ġde v
Ġz one
ec h
er ve
ar m
Ġdes cri
Ġcon duc
Ġd ensity
ion al
2 4
Ġinc hes
Ġsur round
Ġrecre ational
Ġh undred
Ġ J
ĠGe orgia
Ġf ence
Ġc ol
ren t
Ġm obile
ous ing
lo y
Ġf ir
ver y
is ted
p tion
Ġre ce
Ġdr ainage
Ġfe at
Ġl ic
Ġe vent
ĠC om
Ġlo ading
ar ge
Ġamend ment
Ġ et
Ġ "
ĠP ublic
truc t
Ġcons ist
Ġprim ary
ĠOffic ial
b le
Ġad ver
l ine
3 2
l and
Ġar chitect
im in
o ugh
Ġthe y
Ġlight ing
ir on
Ġdetermin ed
ter s
Ġidenti f
B uilding
Ġout door
ĉĠ ĉĠ
a ir
en g
Ġdesign ated
ĠR E
ĠI nd
1 7
ĠS h
Ġa v
Ġ3 5
Ġco un
ĠC ons
Ġd irect
vi ous
ĠĠĠĠĠĠĠĠ ĠĠ
ĠG eneral
Ġoff icial
Ġco ll
____ ____
id er
enc es
Ġf l
or th
Ġad e
Ġpl us
Ġwall s
IS TR
Ġgro ss
Ġret ail
Ġs m
ĠC l
f ive
Ġpedestri an
Ġs it
en er
Ġtow ers
U D
Ġb ack
ĠSt ate
Ġha ving
a pp
Ġc al
Ġ4 0
Ġestablish ment
f ess
Ġth ir
Ġ201 5
Ġoff ice
ĠCoun ty
for ce
a use
Ġlandscap e
4 0
Ġenc losed
i e
Ġ201 9
r ic
as es
g al
g round
u d
ĠS ide
ul ation
ĠN on
Ġemp loy
2 3
v iron
Ġre p
Ġ200 6
ĠPer mitted
lu ding
o le
Ġfin al
titution al
b ed
Ġin v
ib ility
Ġpers ons
2 7
al th
or ies
ous es
is h
TION S
ĠD welling
Ġrequire ment
Ġv al
Ġpro hibited
Ġwrit ten
Ġcomm unity
ag ed
Ġadjoin ing
W here
Ġme ans
Ġade quate
em ed
Ġ200 8
Ġoccup ancy
ĠF ac
Ġs f
Ġg over
Ġviol ation
id ence
b in
ĠF ront
Ġb o
ĠA ccessory
Ġman ner
an ted
Ġne ed
Ġactiv ity
en se
Ġco p
ĠApp lic
an ti
Ġ201 6
Ġrel ated
E D
u ment
Ġhe alth
h ouse
gr ic
ced ures
Ġprov ision
Ġsurround ing
Ġnon conforming
ot el
ĠV II
fe ren
Ġr un
a di
and ard
Ġcle ar
e red
Ġc irc
Ġw indow
ĠS ite
ĠP r
Ġro om
Ġvar iance
M inimum
Ġf ull
em p
Ġf ood
a ur
Ġb ase
id es
Ġde p
ĠM ap
ĠI V
m ission
S ec
P er
Ġac re
il d
A d
ve y
Ġy ards
Ġauthor ized
pos e
ab ility
Ġf ace
S E
ĠA R
Ġg ood
O r
ol es
T A
ent s
Ġac tion
1 9
p ro
Ġs ol
Ġsub st
rov al
Ġne ighborhood
force ment
Ġinstall ed
p s
Ġ ver
n ot
Ġsupp or
IC T
I G
âĢ Ĳ
Ġet c
Ġdevelopment s
Ġcont rol
ult ural
i ti
Ġ1 8
Ġgr anted
Ġcl ass
Ġf re
Ġthir ty
Ġdevelo per
ĠS ECTION
as ter
ident al
e es
âĢ ¦
Ġplan ting
0 7
Ã §
I L
a Ã§
ffic ient
Ġw ork
Ġex ception
Ġdec ision
Ġre st
Ġre pl
Ġcont inu
Ġb oth
Ġre n
z oning
ISTR ICT
D e
ec omm
Ġfeat ures
Ġres ident
Ġal le
Ġ &
Ġm ar
ut e
fess ional
ĠD esign
ĠO ccup
Ġind ustrial
ĠUn it
Ġenti re
is hed
ro ss
oun ted
ver age
omm od
Ġac res
Ġeff ective
Ġa ir
Ġcom bin
eng th
Ġve get
Ġbound aries
y ing
ific ation
Ġ200 7
S ECTION
Ġp oint
est anding
iv ision
ĠAdministr ator
ĠAR TICLE
R O
ĠA c
Ġmeet ing
Ġsepar ate
ïĤ §
4 1
Ġout side
P ro
ic ation
ĠM in
ĠH eight
ur s
ĠLand scap
Ġg ar
Ġad ministr
Ġchang es
p h
ust om
Ġm ajor
Ġcons ider
ot or
Ġill umin
Ġins p
w ith
Ġinc re
ow er
Ġdevelo ped
R es
Ġde emed
ufac t
Ġfif ty
Ġf ire
Ġacc ommod
Ġst ream
Ġh or
form ance
Ġentr ance
Ġl isted
Ġwhe ther
op s
aÃ§ ade
ufact uring
ĠS ingle
rit er
Ġresp ons
t ent
Ġcomp ati
Ġh ouse
Ġprovid ing
Ġw ire
âĢ¦ âĢ¦
U P
ĠP rov
Ġdet ached
om p
Ġoper ation
Ġpermit s
P ar
pp ing
Ġadd ress
o ff
Ġl ong
el ecomm
ut ure
Ġsupp ort
il ities
ĠB usiness
i tions
Ġf il
Ġplan ned
Ġme an
a ve
St reet
Ġav ail
Ġl ength
ot e
ĠĠĠĠĠĠĠĠ Ġ
Ġvi ew
Ġterm s
Ġantenn a
riter ia
Ġb uil
Ġman agement
1 00
y c
Ġc urb
Ġelec tr
ent ers
uff ers
Ġe ight
Ġvar i
Ġremov ed
Ġf ound
pos al
ĠBuilding s
Ġtr ail
ĠP l
Ġan other
Ġcontain ed
Ġapp ear
Ġfir st
istr ib
erv ed
Ġsew er
or ough
Ġc los
ap h
Ġd am
Ġan im
ĠRequire d
Ġs q
C on
ĠF lo
z ard
ub s
Ġg ener
Ġbas ed
Ġ1 7
Ġh is
in al
ĠR o
ĠAm ended
Ġadop ted
Ġex ten
l imin
Ġn or
Ġassoci ated
oc ation
Ġissu ance
m ber
op y
Ġoccup ied
l us
Ġext end
ed eral
Ġbe fore
ĠD ISTRICT
ĠĠĠĠĠĠĠĠ ĠĠĠ
Ġen viron
emb ers
eal s
Ġc ustom
Ġre duc
ĠRe view
Ġutil ities
Ġprot ection
k et
er y
ĠO ne
Ġeff ect
Ġinclud es
d u
ĠA r
Ġrem ain
Ġa utom
Ġsidewal k
Ġelev ation
Ġto p
as h
Ġinc idental
Ġspecific ally
Ġl iving
Ġcon ven
Ġ1 6
ĠO ver
Ġs chool
iz ont
Ġoccup ation
ist or
Ġgr ade
Ġconduc ted
i ver
Ġ er
ĠP UD
Ġpar tic
ĠAm end
Ġscreen ing
Ġstorm water
orough fare
I t
Ġ2 2
ĠComm ercial
i um
s ite
ep t
Ġ *
Ġo cc
Ġcomplet e
Ġsm all
ĠEn gineer
Ġavail able
Ġal ter
Ġen gineer
feren ce
D C
Ġre f
Ġun til
Ġrec omm
Ġauthor ity
Ġw ell
unic ipal
g re
i el
Ġ ed
Ġl i
s ive
Ġpres ent
Ġcop y
Ġd uring
Ġmon th
Ġ |
Ġh owever
limin ary
ur n
g es
he l
gric ultural
Ġfur ther
Ġshow ing
L ot
ON ING
c o
k e
Ġc ur
ĠZ one
Z oning
Ġsub mit
Ġqu al
ĠM aximum
Ġpur su
te red
e le
C omm
o pping
Ġd ire
ut door
Ġstore s
Ġright s
E ach
a fter
Ġp at
Ġf aÃ§ade
Ġcon f
ĠU DC
Ġ6 0
Ġgover n
7 5
or ding
ace ment
ĠStructure s
Ġbe c
Ġtr act
Ġpr ac
Ġvehic ular
ore s
Ġcon tr
U R
ĠF or
ĠD ensity
elecomm unications
Ġf uture
Ġm otor
ĠC or
u ally
Ġpre vent
ĠMan ufactured
Ġrecre ation
o gr
o lic
an y
3 4
din ances
Ġm ounted
ĠR ec
. ,
it s
un ction
Ġrestric tions
n el
Ġb oard
Ġc ap
Ġlandscap ed
ĠServ ice
Ġsubst anti
du ce
al f
ow ers
ĠSp ace
Ġstr ip
Ġthe n
Ġd istrib
Ġs truct
te en
Ġle gal
Ġex ist
Ġscreen ed
ĠSub division
Ġcontain ing
Ġext ent
pre t
iel d
r id
Ġveget ation
O M
Ġd oc
Ġm embers
Ġn ame
Ġ2 4
Ġres ult
iz ation
oun t
Ġvis ible
Ġarchitect ural
it able
Ġsc ale
ĠI f
an it
Ġpar ks
Ġinclud ed
Ġb od
ĠC ont
em ber
Ġloc al
Ġabut ting
Ġ200 3
S p
s p
ĠT ree
Ġease ment
id ed
our s
' s
Ġe very
ĠT r
Ġc ode
Ġowners hip
Ġp av
Ġob tain
. )
a id
ur pose
pl ain
Ġl arg
cre te
n s
ĠN e
ĠRe ar
Ġob s
izont al
Ġw ord
Ġcondition al
Ġbound ary
f ul
Ġc ause
Ġpro m
Ġwh o
Ġproduc ts
Ġ =
ar ding
ig ure
ĠInd ustrial
re st
App lic
v ed
Ġre zoning
id ing
imension al
Ġresident s
c es
iv en
A rticle
Ġh ousing
Ġtyp es
ĠOver lay
Ġapp l
lus ive
A TION
Ġenc our
Ġgro up
F amily
Ġm ake
ĠOr d
Ġfollow s
ÂłĠÂłĠ ÂłĠÂłĠ
Ġzon ed
Ġver tical
l d
w o
ic tion
Ġh ig
Par king
U ses
p ing
s ible
Ġ end
Ġs erve
Ġl an
ĠIns p
Ġpartic ular
er g
Ġw ood
2 00
W hen
I ON
Ġs ides
er tain
Ġ201 2
Ġpursu ant
Ġcor ner
ĠS u
Ġplan ted
Ġpre p
Ġinv ol
istor ic
Ġ /
per vious
Ġr adi
om in
ĠB uffer
loc k
Ġf r
Ġin ten
Ġremov al
c hes
Ġp e
Ġch ild
Ġ................................................................ ................
5 00
Ġf ee
Ġinstall ation
Ġclos er
Ġc riteria
Ġg as
Ġ201 8
div isions
Ġnat ure
s ity
The se
fin itions
Ġsit es
Ġcompati ble
ĠEx ception
enti al
Ġb ar
m edi
AN CE
ĠProv isions
at s
ĠW idth
Ġzon es
ate ly
ĠV I
Ġinter ior
Ġinter section
Ġhere by
ĠW ater
Ġsu fficient
ific ations
ĠApp roval
Ġmin im
Ġfre estanding
ove mber
e hic
Ġw a
Ġl et
I V
a wn
Ġar r
Ġf low
Ġto wn
Ġst ory
Ġg l
Ġd ed
Ġm at
Âł ĠĠ
u ous
ĠC enter
ĠN ovember
ĠZ ONING
Ġsystem s
p r
qu e
Ġg iven
Ġinte rest
Ġm ov
aur ant
Ġde m
rov ed
unic ation
u ted
Ġres idence
Ġdimension s
ech n
Ġ enter
ĠO pen
Ġ201 1
hen sive
h ouses
Ġa rticle
ĠC are
Ġex emp
Ġdet ail
Per mitted
Ġt ele
Ġpro fessional
ter ial
ĠL ight
Ġreason able
O T
Ġacc omp
a ff
Ġcons tit
ĠĠĠĠĠĠĠĠ ĠĠĠĠĠ
ap ter
l ing
tr u
ĠM ay
u le
em s
Ġrecomm end
Ġ20 21
Ġwire less
Ġmonth s
O n
l ines
Ġw ide
ix ture
6 0
O P
en tion
ĠC UP
is d
Ġdrive ways
g an
ro om
Ġal tered
Ġno ise
Ġcomm ission
Ġown ed
3 5
le ment
Ġsetback s
Ġc ases
Ġplan ning
Ġco ver
Ġgood s
D ING
on ic
ĠD ivision
ĠT H
ĠMan agement
ĠC ertificate
ĠA ug
ol d
ĠPlan ned
v es
Ġestablish ments
land s
Ġb an
ection s
per ty
Ġinte gr
ĠM ulti
ati o
Ġantenn as
Ġcal c
Ġhor izontal
Ġadop tion
ĠL ine
ĠPro t
Ġdi ff
b uilding
cep tions
Ġdis c
ens ed
ĠAug ust
Ġp ass
od es
Ġha zard
m ing
Ġ i
Ġc ertif
et ail
Ġc enters
Ġ1 50
ak en
Ġh ours
âĢ ĵ
erm ine
ĠNe ighborhood
Ġsidewal ks
anit ary
T o
y ond
Ġ ing
ad es
Ġ................................................................ ................................
Ġs w
or por
is on
ac ts
Ġdrive way
Ġp ain
Ġn orm
ĠS ee
ĠLot s
tis ing
Ġp ool
ro ad
we l
Ġease ments
Ġcombin ation
F A
ur isd
our ce
Or dinance
Ġocc ur
Ġprot ect
Ġdescri bed
Res idential
Ġbod y
L and
enc ing
Ġim medi
pret ation
os p
Ġor gan
as ed
Ġ7 5
Ġne are
9 9
Ġs el
ed ical
ot t
Ġequ al
Ġvis ual
Ġconsist ent
Ġalle y
Ġadministr ative
Ġcur rent
im eter
Ġcon crete
ĠH igh
Ġappear ance
G U
quire d
................................................................ ................
IG N
Ġprep ared
O ff
Ġd en
Ġbe yond
Ġoper ations
ul es
Ġexc lusive
ĠPr incipal
ĠP re
Ġst ories
âĢĻ )
ĠPar k
U S
ic ally
ĠF amily
up lex
ĠOff ice
P ublic
Ġw el
Ġsh ops
tr y
Ġe v
Ġappro ve
A l
Ġsign age
h od
ĠI mp
ĠT emporary
Ġprovid es
Ġdet ermine
Ġlic ense
O D
m e
Ġw al
port ation
it le
ĠM ain
ist urb
Ġpl ay
Ġgr ant
Ġele ments
ĠFlo od
osp it
on ed
ic yc
ĠI N
Ġdirect ly
Ġbuil t
he ver
at her
ĠCons truction
x im
Ġplan t
Ġimp act
i ous
Ġl ow
ĠA t
ĠT o
ĠE ach
Ġsupp ly
Ġcor por
ĠVII I
urisd iction
l ed
ee ee
Ġam ount
Ġprim arily
Ġenviron ment
s ign
u ary
Ġacc ording
Ġserv ed
IT Y
Sign s
ĠRo ad
C C
Ġ x
Ġo pp
ĠL o
ap hic
Ġaccommod ate
GU LA
Ġsa fe
Ġloc ations
Ġsc hed
Ġwel fare
D D
g ing
Ġf ail
ic ated
um b
Ġph ys
ĠOccup ancy
Ġreg ard
ĠD imensional
Ġpre liminary
Ġsa tis
H owever
Ġc ut
un k
Ġsec ond
Ġdep th
p on
r ubs
iv ed
Ġman ufacturing
N on
p d
s ure
Ġinter n
ĠProt ection
Ġneare st
Ġst ations
p end
Ġc ost
ĠA ss
ĠO RD
ĠApp eals
P lan
Ġor dinances
Ġpos sible
omin ium
ro ach
Ġst andard
res ent
Ġoff ices
Ġc ertificate
all el
im ming
AR TICLE
Ġgu est
Ġstruct ural
qu ent
Ġdev ices
ist ered
Ġassoci ation
) ;
E L
Ġdist urb
Ġlimit s
I D
i ence
Ġin iti
ĠO ther
Ġsub section
Ġapplic ations
Ġso il
v ision
Ġf ill
Ġre fer
ĠFac ilities
Ġclear ly
Ġf ree
Ġac t
s ub
ti g
tion al
Ġd iv
Ġex cess
Ġbusiness es
Ġd ri
Ġpro cedures
creen ing
ĠRE GULA
Ġreduc ed
A t
w orth
en e
AR D
3 9
Ġbas is
. âĢĿ
O W
Ġ '
Ġst ation
Ġwhic hever
Ġtr uc
ree ment
Ġsuppor ting
ĠAc worth
in s
Ġer os
T ER
ĠN one
Ġal tern
Ġflood plain
Ġcomplet ed
Ġfil ed
ĠB e
ri vate
ĠW here
Ġdiff e
ĠS ur
Ġsur fac
ĠInsp ector
u di
Ġt elecommunications
Ġb ed
is ed
ac ity
ĠF A
ĠSu pp
Ġpar ts
our ces
Ġeros ion
b an
Ġf ixture
oc k
Ġnon residential
C h
Ġm ess
ards hip
ag r
Ġwas te
ĠLandscap ing
Ġconsider ation
Ġdam age
at ory
Ġper imeter
Ġtre at
Ġelectr ical
Ġalter ation
Ġinc orpor
Ġhe ld
Ġa verage
Ġp en
Ġp ot
Ġw e
Ġth oroughfare
ĠIn tent
Ġdimension al
Ġgener ally
* *
Ġm ost
lo g
tic s
Ġoper ated
ric k
Ġrepl acement
es ted
us es
Ġe m
tic es
ĠIn ter
inc luding
ĠServ ices
Ġcirc ulation
ĠAugust a
wel ve
Ġno tif
Ġmet hod
Ġb lock
Ġc ertain
ĠD E
Ġgre en
ĠORD IN
ĠREGULA TIONS
A ccessory
Ġin f
ir ing
ĠRec re
% )
ĠO utdoor
Ġcoll ection
ĠApplic ation
M aximum
lo p
edi ment
3 6
b r
Ġj urisdiction
ĠSetback s
Ġb r
Ġl arge
Ġpar allel
Ġfin ished
ĠTh is
Ġlic ensed
Ġrun off
Ġded icated
A re
Ġt aken
le mental
âĢ ¢
Ġen forcement
oin ts
Ġroad s
Ġrecord ed
G eneral
re es
ro w
ĠO n
Ġperson al
............ ..
Ġfif teen
Ġcre ate
Ġadver se
Ġidentif ied
n ers
y d
nd er
ĠS ize
Ġen sure
eal th
ate g
if y
Ġcons tru
Ġinsp ection
ĠA ct
ĠI X
tain ment
Ġdis posal
Ġtra vel
Ġincre ase
at a
ve red
ĠI I
ĠU S
Ġindic ated
) :
Ġs anitary
Ġac cept
ech an
Ġconstit ute
s uch
Ġ ïĤ
Ġt welve
on al
il le
Ġcle an
Ġmulti ple
Ġillumin ated
Sp ecial
ĠORDIN ANCE
Ġf ences
ĠM ad
ablis h
Ġmet al
Ġconstru ed
S h
Ġs ee
ĠMad ison
2 6
h alf
o g
er k
Ġfor ty
Ġ................................................................ ................................................
Ġdetermin ation
Ġfur n
Ġsol id
Ġren tal
Ġc am
ĠH ill
ĠV ehic
O ne
Ġt ake
ĠU til
Ġim pervious
Ġval ue
ĠLo ading
ul f
ill b
Ġdefin ition
pre hensive
I AL
l ot
Ġp ole
Ġst aff
st ances
orm water
Ġco vered
ug ar
Ġc odes
Ġcon c
ĠL ocation
Ġplace ment
Ġrespons ible
Ġb uffers
ĠS ugar
ard en
ĠAre as
Ġlarg er
ĠD is
Ġanim als
icyc le
Ġor ig
ĠSp aces
a king
Ġspecific ations
ex t
ĠFac ility
Ġconf lic
Ġcalc ul
- -
S ite
Ġyear s
Ġroom s
g ress
........ ...
Ġus ing
ĠPro cedures
Ġemploy ee
Ġsubstanti al
Ġt an
ect ing
Ġsur vey
Ġexemp t
E T
P P
Ġp ip
ol f
se quent
Ġland s
Ġen g
Ġmin or
Ġcontinu ous
Ġgar age
Ġcap acity
erg ency
f it
w ard
Ġt echn
Ġm ove
................................................................ ................................
Ġ4 5
Ġtop ogr
Âł Âł
truc ted
n a
ith in
am es
ĠEn forcement
c ons
w in
w here
Ġd ue
all s
ĠI II
Ġpav ed
f ront
Ġ â
ire d
per s
Ġk n
Ġregul ar
y ard
Ġ ................................................
Ġn urs
ĠCon ditional
emb ly
ĠTH E
Ġf arm
The re
ĠĠĠĠĠĠĠĠ ĠĠĠĠ
ced ure
get her
Ġprocess ing
ĠMin or
Ġqual ity
Ġminim ize
Ġre duce
Ġh ardship
ĠDe finitions
loc ation
M an
u el
Ġor ient
um ps
ĠF eet
Ġcomm unication
Ġtim es
Comm ercial
ĠP RO
Ġcour t
u tions
dition s
ĠComm unity
ort able
ĠCons ervation
on es
ti tion
at ure
et s
ĠM ar
ĠL im
IS ION
ĠCom prehensive
ĠMay or
m ise
Ġb re
ĠM aster
ap e
Ġv ol
ĠH ealth
Ġit ems
Ġdescri ption
Ġf encing
Ġpro ceed
Ġsub sequent
Ġ201 0
Ġstore d
Ġ1 20
ide lines
Ġadver tising
Ġdire ction
Ġwal k
f oot
Ġm ixed
Ġst ud
ĠT ra
ĠUn ified
Ġconform ity
Ġlan es
I nd
U se
.... ..
Ġ2 1
Ġ8 0
II I
av y
tig uous
Ġsign ific
Ġcomm unications
Ġclass ification
ĠPl at
Ġschool s
ĠA ir
ab ly
Ġar terial
Ġover all
............ ...
f eet
Ġc ross
ac ing
ĠE st
Ġag ent
Ġcan opy
Ġinten sity
3 3
Ġp oints
Ġto gether
Ġroad way
Ġrep resent
ĠCont rol
l ec
er ies
Ġp oles
Ġsh rubs
ut es
Ġsub divisions
ĠPlan s
ĠâĢ ¢
Ġ [
Ġf ederal
ĠH omes
con form
Ġprom ote
Ġmess age
agr aph
ĠD rive
Ġh and
lis hed
Ġexceed ing
ÂłĠÂłĠ ÂłĠÂł
Ġdr aw
Ġprot ected
............ .
ave ment
Ġintern al
Ġtreat ment
B LE
Ġper formance
ĠF ederal
Ġ3 00
ĠSp ec
Ġconn ection
Ġcol or
âĢ¦âĢ¦ âĢ¦âĢ¦
U IL
Ġf unction
lo ading
Ġk ee
r ban
Ġne ar
Ġcirc um
Ġexten ding
Ġphys ical
Ġdiffe rent
a und
Ġre v
Ġgro w
UIL DING
ĠS ept
co h
or din
an nel
ur ally
ĠD ate
Ġh istoric
ten tion
Ġed ge
ĠMain tenance
T ED
Ġo p
........ ..
ĠM unicipal
Ġsu itable
Ġwindow s
w hic
Ġt ion
re l
Ġcon d
lu d
ag er
ĠAmend ment
P urpose
Ġp ub
ĠM ajor
Ġhere after
Ġword s
Ġaccomp an
Ġb rick
Ġde partment
Ġfac t
aterial s
Ġdr awn
Q U
c omm
Ġs lop
st ory
ous and
Ġmeas ures
Ġemploy ees
Ġdoc ument
ĠTr ans
echan ical
ĠC our
Ġcon tiguous
ul ture
ne x
Ġfull y
Ġhig her
Ġlet ter
S ide
and oned
ĠN ot
Ġgr ading
ang ed
ĠOffic er
Ġexc luding
t own
Ġlimit ations
Ġexten sion
U M
U N
ĉ ĠĠ
ac tion
Ġ2 8
if e
ĠF OR
ĠF inal
Ġexp ress
ur ity
ĠR est
em eter
ph one
S aid
âĢ ĥ
iz es
Ġen l
In s
I R
Ġre port
Ġbe g
se e
ib r
Ġdec or
ĠCl erk
Ġval id
De velopment
rid or
Ġp ower
an e
Ġre ference
ĠĠĠĠĠĠĠĠ ĠĠĠĠĠĠ
if t
Ġdis ch
Ġthere to
pa ti
ĠSub section
Ġwrit ing
ĠLandscap e
o id
Ġm unicipal
Ġ200 9
Ġtow ard
Ġstate ment
Ġp ay
Ġc os
ur ch
Ġ1 10
Ġrespons ibility
Ġdistrib ution
Ġsel f
b ut
Ġth ousand
Ġr ules
ason ry
Ġentr ances
Ġelec tric
Ġair port
Ġelectr onic
Ġchild ren
Ġsurfac es
Ġt ermin
et ached
ĠS IGN
l aw
.... .
at h
ĠA g
od ging
................................................................ ................................................
LA N
Ġappl ied
A m
U n
m ay
oll ution
ĠSept ember
2 9
a z
Ġst one
Ġplan ts
Ġrec ons
Ġins tit
Ġlight s
Ġreview ed
Ġext ended
aur ants
p rov
at t
Ġh ouses
Ġh yd
Ġins titutional
Ġrequ ested
Ġamend ments
Ġsepar ated
Ġabut s
M IT
u is
Ġc ertific
ar i
ect s
Ġv ac
ĠSt orage
ĠPermit s
Ġsignific ant
B A
Ġ ec
ro y
ĠA ccess
ay s
ĠN orth
Ġdesign ee
Ġimp acts
Ġnorm al
Are a
in ic
Ġs ome
it ch
ĠT yp
Ġk ept
ii i
Ġcertif ied
at ural
im ary
ĠF e
Ġcons ervation
Ġ5 00
ÂłĠÂłĠ Âł
Ġfl ag
Ġpool s
M obile
b ility
Ġm aster
tern al
Ġencour age
ĠD r
ate ll
ly ing
Ġam en
Ġhigh way
Or d
E n
T H
k ed
Ġc ul
Ġl ay
Ġsh opping
ĠS ales
st anding
ĠU SE
ak es
AR K
Ġcircum stances
4 5
Ġc ateg
el s
Ġimprove ment
oll y
Ġdev ice
P D
Ġa gricultural
Ġp avement
Ġcon vey
Ġcons um
Ġthere on
Ġmeet s
Ġdire c
ĠImp rove
Ġorig inal
Ġkn own
Ġt all
Ġb ene
us ed
Ġe ar
ĠT own
Ġcomp le
whic h
Ġm asonry
Ġbec ome
Ġcond ominium
0 9
ĠA PP
ĠG r
Ġcontain s
Ġissu e
Ġpermanent ly
edi um
Ġcharacter is
Ġmar ket
Ġfound ation
aph y
Ġradi o
Ġaltern ative
Ġ ...
Ġs hel
Ġs ource
Ġp ic
Ġst ated
Ġproper ly
Ġconform ance
Ġautom obile
V I
s h
Ġre le
ĠP age
ol ine
ĠI ll
ĠL oc
Ġexc av
Ġcoun ted
ĠNon conforming
f rom
i per
it ation
ĠR ed
âĢ Ķ
ons tr
ES S
Ġreg istered
Ġre tain
et t
ĠA D
ĠR etail
ĠM ax
Ġch annel
Ġle g
Ġenc roach
Ġrequ iring
MENT S
Ġcomple tion
Ġ $
Ġm edical
Ġpro j
Ġex am
ĠI t
Ġcomplete ly
Ġfixture s
atell ite
Ġt able
al ties
ĠS creening
ul k
ĠT wo
ĠSt andard
ĠG ulf
Ġob j
Ġsection s
Ġpark ed
Ġfe es
Ġindic ating
l i
Ġre ad
ĠU rban
ĠF igure
erv ice
ak f
Ġappro xim
Ġrefer red
B L
F OR
S ub
a tic
o log
Ġf uel
ĠP ER
ub le
Ġunder ground
Ġcan not
ĠDwelling s
Ġdem onstr
Ġtele phone
Ġrecommend ation
Ġimmedi ately
Ġcorpor ation
Ġcos ts
S ingle
T emporary
Ġt ri
ab il
Ġfac es
20 2
Ġ................................................................ ................................................................
er ch
Ġc a
Ġm ax
ot ed
Ġne ighbor
Ġcustom arily
OM M
ĠLight ing
ĠUS ES
ĠAir port
.... ...
........ .
part ments
Ġrece ip
ĠFront age
otel s
Ġsol d
il es
Ġon to
ĠU N
ĠW hen
Ġag reement
Ġregul ated
ĠCh apter
Ġcoll ector
________ ________
Ġmov ed
erch and
5 2
G E
Ġ ri
he st
ĠC ON
low ed
Ġpres cri
Ex cept
0 8
pp er
Ġh ol
Ġpre vious
Ġdec l
Re fer
app lic
Ġpain ted
Ġpot ential
om as
ĠR ES
ut y
iz ing
IN I
âĢĿ .
Ġag ency
Ġcenter line
Ġenti ty
Ġsw imming
erchand ise
Ġm ember
âĢ ľ
Ġen h
iv al
de velopment
Ġoccup ations
Ġk ind
Ġsew age
Ġsit u
Ġaccompan ied
Ġ es
Ġst and
Ġfac ade
Ġass embly
Ġfir m
ĠHigh way
Ġneighbor ing
Ġc e
Ġillumin ation
Ġconflic t
T able
v ille
Ġpro posal
Ġcomp on
Ġparcel s
IG H
Ġc red
Ġad v
ĠU pd
pl iance
ustr y
Ġtrans portation
I RE
h old
Ġf ield
ent al
Ġd ata
ab ric
Ġres ul
Ġimp roved
own er
Ġsupp l
Ġwh ose
entr al
Ġaff ected
Ġneighborhood s
Ġem ergency
ĠUpd ated
F ront
g o
r in
ļ «
um an
Ġrest aurant
Ġref l
Land scap
ĠVehic le
Ġâ ļ«
O ther
u ties
re ct
er ing
at ors
Ġin de
Ġm ail
th is
Ġqu es
ĠStreet s
Ġdisplay ed
Ġobtain ed
Ġgl are
Ġorgan ization
Ġclean ing
A S
U C
ab les
ĠB uffers
Ġmeas ure
Ġtrail er
Ġarr ange
Ġtown house
ÂłĠĠ Âł
in ity
Ġp olic
Ġm echanical
Ġst udi
ĠO wn
Ġinc h
are a
ĠG win
Ġaccess ible
op e
ER AL
Ġ19 75
Ġmat ter
Ġcharacteris tics
M in
l ight
n ett
ĠS E
Ġde f
ĠM obile
pa que
Ġenc los
I F
n ess
u es
quire ments
Ġal coh
Ġco verage
loc ated
Ġcar ry
Ġcre ated
oles ale
Ġanim al
Ġconven ience
Ġcontr act
Ġregard less
akf ast
omas ville
3 1
L ocation
h ie
y stem
Ġa round
Ġb ond
ar r
Ġsh ared
Ġ2 6
Ġat tr
Ġ20 22
Ġ3 6
Ġac hie
Ġdet ention
ĠGwin nett
re t
ĠD ay
ore d
Ġhe ar
ĠG u
Ġconn ected
Ġcombin ed
Ġgar ages
Ġarr anged
T E
Ġ K
Ġsub divid
ĠZ ones
pl es
ĠX X
in ue
ĠS c
Ġan g
Ġh ospit
ĠI s
ĠDevelopment s
Ġoccup y
est ing
est ock
Ġ3 4
iv estock
Ġform s
Ġaff ect
oth ing
Ġeng aged
Ġreceip t
H ome
o per
tr ument
ĠA uthor
ut o
ollow ing
Ġdis cre
Ġ9 03
Ġdr ain
Ġaff ixed
Ġexist s
Applic ation
Ġhig hest
al ys
ro up
ul y
Ġcons isting
ĠE lec
Ġco ven
Ġpat h
Ġsatis f
Ġmove ment
F lo
e ed
Ġn a
Ġr ail
Ġserv ing
Ġoper ate
Ġthrough out
Ġlong er
ott age
pend ent
alys is
U pon
u tive
ic inity
Ġm ach
Ġn uis
EN ERAL
D istrict
M A
u ments
Ġo paque
Ġd uplex
Ġe gress
ĠC oll
ĠP rivate
Ġpar ty
ang er
Ġutil ized
Ġdev oted
QU IRE
Ġbeg in
O utdoor
g ate
p ublic
on om
en a
et lands
ac y
ĠT O
Ġ200 0
ĠĠĠĠĠĠĠĠĠĠĠĠĠĠĠĠ ĠĠ
20 21
Ġgr ass
gr am
urb an
air man
Ġdistrib uted
Ġb icycle
ec utive
ĠS P
ĠM ixed
ver ages
Ġres id
Ġfac ing
Ġac cep
Ġchang ed
Ġrece ive
Ġdisturb ance
Ġincorpor ated
Ġpub lished
Ġinstit utions
P age
U RE
Ġo d
is ing
ro ll
Ġl ab
est he
iv ic
anc ial
tiv es
Ġso le
ĠY ards
Ġle ft
Ġregul ation
arg ed
Ġengineer ing
Ġgovern mental
Ġsched ule
se a
ĠSh ores
Ġsuppor ted
Ġing ress
Ġopp ort
c our
l in
ĠP ARK
Ġper tain
ĠRe g
Re quired
ĠIns titutional
Ġreason ably
Ġcour ts
gre en
Ġsubstanti ally
Ġaccept able
w ork
are house
ĠH ousing
ord s
ĠPro perty
wal ks
ĠTh oroughfare
hel sea
A D
al t
ac king
Ġst at
ĠĠĠĠĠĠĠĠ ĠĠĠĠĠĠĠ
ĠB UILDING
Ġspec ies
Ġtan ks
comm ercial
Ġec onom
8 0
Ġf ile
ĠS ystem
Ġper form
ĠT rees
se where
Ġleas e
Ġwater s
Ġpres erve
Ġrecord s
ĠĠĠĠĠĠĠĠĠĠĠĠĠĠĠĠĠĠĠĠĠĠĠĠĠĠĠĠĠĠĠĠ ĠĠĠĠĠĠĠĠĠĠĠĠĠĠĠĠĠĠĠĠĠĠĠĠĠĠĠĠĠĠĠĠ
Ġbo arding
Man ufactured
Ġorient ed
Ġdiscre tion
Ġ ĉĠĉĠ
or ing
Ġd own
Ġw or
Ġm erchandise
ĠC helsea
ĠB o
Ġac ross
ĠMan ufacturing
Ġneed s
Ġneed ed
Ġgovern ment
Ġev idence
Ġtruc k
B uffer
W ithin
Â °
re estanding
Ġm ent
ĠS uch
Ġg olf
am eter
ĠThe re
Ġrestric tive
Ġmod ified
Ġentire ly
Ġtrail ers
ediment ation
Ġtopogr aphy
' )
3 7
S TR
Ġb illb
Ġh arm
Ġcomp ound
Ġallow able
tiv ity
ĠPer formance
Ġfin ding
Ġrepl aced
Ġalle ys
Ġgl ass
br uary
ablish ment
o ke
Ġe ee
and er
Ġoff ic
Ġplanting s
ĠCour t
Ġlay out
O F
en nel
Ġf abric
ĠH el
res ses
ĠPro hibited
Ġwh ile
Ġelev ations
Ġcol um
Ġstream s
Ġeffect s
Ġprac tices
Ġpe tition
F igure
R ec
ĠS chool
Ġrequire s
ĠAl lowed
umin ated
Ġconduc t
Ad ditional
Ġincre ased
Ġenter tainment
Ġsecond ary
Ġ ................................
ar s
Ġoccup ants
IS H
Ġag ain
ĠCl ass
Ins titutional
Ġdecor ative
ĠFe bruary
Ġb al
an sion
lo se
Ġcon ver
ĠL e
ont inu
Ġdr y
Ġdiv ided
Ġconc er
j unction
Ġn et
par ation
Ġpor tions
Ġpav ing
Ġvol um
D welling
c k
h ing
Ġcon forming
ol s
ĠM aterials
Ġad ult
Ġpres ervation
Ġway s
lex ander
Ġexclusive ly
f our
Â ½
Ġ ï
Ġs he
Ġf ore
Ġpro duce
Ġcon cept
ul ed
ĠF ire
Ġim posed
Ġline ar
Ġab andoned
enc ed
Ġins titution
Ġass ign
Th at
ors hip
ĠEx ceptions
Ġindividual s
Ġill ustr
ĠDISTRICT S
Ġli ke
ĠïĤ ¢
Ġques tion
b ing
g ed
Ġs k
ĠB re
end ar
por ts
utom obile
Con ditional
Ġlan e
ĠSur face
E ET
f ill
l et
Ġp a
Ġre al
Ġbe verages
Ġn ames
Ġan nex
Ġh ab
Ġcons ecutive
ers onal
ĠH ouse
ĠSt ormwater
Ġsu per
ne ver
ĠRE QUIRE
law ful
1 50
Ġa wn
it ure
ĠS o
ĠC ITY
ur ation
uil t
th at
Ġman ufacture
Ġins ide
Ġind oor
ĠAdministr ative
ground s
Ġbo x
Ġlarg est
rel ated
f ull
h ind
ĠA lexander
Ġsub mission
Ġ20 2
vent y
ĠSh opping
ie f
Ġcontinu ed
7 0
C ON
Ġe ver
ĠP urpose
ĠN ew
Ġcont inue
Ġtrans mission
Ġli qu
Ġact ual
M P
i k
in k
al v
Ġthe m
ar t
Ġl it
ĠT itle
ist s
Ġr a
Ġcoun ty
ĠFlo or
ĠAmend ments
IV ISION
9 0
l ass
n ecessary
Ġsh op
ĠC le
ire s
Ġinter s
Ġwh ole
Ġfl at
Ġenviron mental
ĠCor ner
Ġgrant ing
ID EN
Ġinde pendent
O pen
i qu
Ġa esthe
er o
Ġp ost
Ġl aund
ĠA gricultural
Ġex ceptions
Ġinc om
Ġac tions
ag ing
Ġrem ove
Ġcal endar
ĠHel ena
, âĢĿ
r ing
ĠSection s
Ġ3 2
Ġro w
op ies
inc ip
Ġse ats
ear ing
Ġcl ub
ven ue
Ġel sewhere
Ġresp ect
ash ing
Ġinvol ved
og n
Ġstud y
Ind ustrial
Ġconsum ption
ĠImprove ments
Ġexcav ation
Ġsuppl ies
A s
x t
ĠF ort
Ġ9 0
Ġproduc t
a zard
n o
s tructure
Ġs us
ti m
ĠC over
Ġcomp any
ĠPro ject
Ġcar ri
U L
o k
y ards
ĠĠ Âł
it ate
ro sion
ĠP en
Ġg o
ĠIn c
Ġunder lying
ĠPar ks
Ġequ ival
Ġover lay
Ġsix ty
5 8
ic ing
Ġv icinity
Ġne xt
Ġinter pretation
pre mise
Ġvis ibility
Ġdisch arge
ĠPER MIT
Ġaccep ted
R o
Ġp itch
ĠO R
ĠB ound
ist ance
TI AL
Ġ7 0
Ġse ven
Ġoccup ant
13 9
Ġlo ad
Ġcour ses
Ġlaw s
B D
al u
al ed
al id
Ġbe hind
ig ious
Ġst ee
Ġg arden
Ġde ed
ĠT owers
gric ulture
Per mit
ĠMulti ple
ĠColl ector
Ġsh ape
ur ance
Ġ2 50
Ġst y
Ġtr ash
oin ted
Ġtrans fer
Ġproject s
Ġ19 9
Ġbuil d
pr il
ĠRecre ation
Ġenl arged
H eight
i ally
o ccup
y ear
re en
ar ant
ac cess
ur ther
ĠM H
ĠF ood
ĠRe pair
Ġcomp r
Ġpor ches
ĠTh at
Ġentr y
Ġgu idelines
Ġmod ifications
Ġfil ing
Ġdam aged
Ġbar ri
Ġslop e
Ġamen ities
ĠLoc al
Ġprescri bed
Ġcolum ns
C ode
is ter
le ep
uc co
Ġis lands
ĠH istoric
................................................................ ................................................................
fin ed
Ġproject ing
Ġrestric ted
Ġmap s
Ġdi ameter
ĠCor ridor
umb ers
Ġmethod s
V EL
o ding
ĠO p
Ġde line
ri or
Ġch urch
av es
Ġmod ification
Ġtele vision
Ġcoven ants
Ġequival ent
C ons
in ion
Ġp ond
Ġf un
Ġ1 12
un e
Ġres erved
EN D
erm s
pre mises
ĠTh omasville
Ġidentif ication
Ġpat tern
Ġopp os
Ġdraw ings
rin ted
roll ed
) (
i ol
m b
t ached
Ġs iding
Ġ2 7
ub urn
Ġsign ed
Ġch apter
Ġse venty
Ġrep rinted
ĠAss oci
Ġguest s
ĠRecre ational
Ġtall er
Ġri ver
full y
A BLE
f l
p lan
ĠC al
ĠN ational
Ġpl aces
Ġdo ors
Ġind ustry
ĠCon cept
ex c
ĠAdministr ation
Ġrece ived
Ġevent s
Ġclass ified
De finitions
IDEN TIAL
leep ing
Ġa partment
Ġt itle
or ation
Ġcommon ly
Ġreg arding
Ġencour aged
Ġmov ing
Ġimmedi ate
Ġresid ences
o ards
s ac
ti me
Ġp owers
ĠC enters
ĠP res
Ġ1 11
Ġh uman
enc ies
Ġinter fe
ĠNo tice
Ġten ant
Ġsec urity
Ġed uc
Ġsatis fac
Ġpip e
Ġgrow th
Ġcateg ory
IGH T
Ġs atellite
Ġd ivision
Ġpro gram
Ġan n
ĠR iver
ĠN umber
Ġplan e
Ġfront ing
Ġrec ogn
pa per
Ġpos ted
Ġlet ters
ĠUtil ity
Ġop inion
Ġnuis ance
Ġagain st
Ġw ee
Ġl ife
Ġpar ti
if ying
Ġun lawful
se l
Ġha z
Ġrem ed
ang es
Ġpercent age
Ġfoot age
Ġadd resses
Ġcour se
Ġlaw ful
ra ft
ĠPr imary
n is
it c
ĠS U
ĠC ol
ĠA uburn
ĠD ec
ĠM od
Ġres ources
ĠU PD
Ġ3 3
ĠSub divisions
ish ing
Ġconven ient
Ġdetail ed
isturb ing
ĠAuthor ity
VEL OP
Ġhaz ards
R ear
i que
o king
Ġa is
ar iance
tr ation
Ġn umbers
un ities
Ġapp ointed
Ġex pen
Ġpar agraph
Ġimp lement
ĠPro fessional
eter in
pro perty
Ġcompati bility
Ġref use
Ġwalk ways
M ulti
Ġa x
Ġt er
Ġs izes
Ġthe ater
Ġw ind
Ġg ive
um s
Ġwh olly
ĠEx isting
Ġroad ways
Ġwe re
Ġkee ping
Ġdecl ared
a h
d ay
o tion
o tive
an opy
Ġc he
at est
et e
Ġh old
ir ation
Ġat tention
ew er
Ġ4 00
ack s
Ġexp ansion
ÂłĠÂł ĠĠÂł
Ġcol ors
viron mental
Ġradi us
Ġsched uled
ĠAssoci ation
T r
d erm
Ġre nder
ĠS TA
ĠA s
ĠĠĠĠĠĠĠĠĠĠĠĠĠĠĠĠ ĠĠĠĠĠ
In tent
Ġdo uble
Ġrel ation
ex cept
Ġintersection s
Ġcred it
derm en
c om
qu ipment
ations hip
th rough
Ġthere in
ĠApp eal
ĠMan ager
Ġacre age
ph alt
Ġhazard ous
Ġnorm ally
Ġtruc ks
A GE
w ood
ĠS quare
ire less
ĠR OW
ter m
Ġhe avy
Ġest ate
Ġcontain ers
Ġground s
Ġrece iving
Ġnotif ication
ari ances
Ġprevious ly
Ġenh ance
T ree
Ġl ower
il ing
ĠR ight
ĠM A
ĠN atural
Ġad min
ir able
Ġfac ades
Ġpr incip
ĠMan ual
chitect ural
ener ally
isturb ed
Ġrail road
Ġever green
t wo
Ġ ess
Ġ ir
Ġt ax
Ġsh ift
ol i
Ġtr ade
ens ation
Ġheight s
Ġsupp lemental
Ġsy mb
ĠEngineer ing
Ġstruct urally
applic ation
V E
er ic
er ation
Ġc emeter
ac ted
Ġh alf
Ġde ad
ain ing
di x
el ik
Ġflo oding
Ġappro ach
ĠAl dermen
Ġdetermin ing
Ġcle aring
Ġindic ate
gre es
ordin ate
Ġdirec ted
ĠElec tr
Ġaesthe tic
elik a
D E
V III
b age
he never
en dix
Ġpro pos
Ġst ucco
ill age
Ġserv icing
Ġins trument
Ġass ess
Ex isting
Ġadver ti
ĠUtil ities
Ġcalcul ated
FOR M
ĠPARK ING
P r
e velopment
Ġf ind
is a
Ġl ater
im al
Ġcon junction
Ġex ternal
Ġpar ties
Ġun loading
ĠG LA
ĠAd ditional
Ġdo or
Ġpedestri ans
Ġfail ure
Ġcertific ation
ĠIs su
L ight
ĠĠ ĉĠ
Ġp ortable
Ġb l
or ne
ĠS hall
Ġv ote
ĠOr dinances
Ġr ange
Ġcl inic
Ġtrans mit
Ġqu ar
edestri an
RE A
Ġev alu
ĠREQUIRE MENTS
ĠOp elika
T OR
Ġs leeping
on y
Ġsh ort
Ġpro cedure
Ġan alysis
ul a
ĠB an
st ate
if orm
ĠT elecommunications
hib it
Ġcoun cil
Ġadministr ator
Ġvari ous
Ġtrail s
Ġconven tional
Ġadverse ly
ĠRest aurant
ret ary
C H
H OP
M IN
O U
Ġ Q
Ġp an
it ations
Ġc eas
Ġn orth
ĠP LAN
ĠR S
ion s
Ġde grees
per mitted
ver se
em i
Ġun necessary
Ġr atio
Ġnew s
Ġerec tion
truct ural
Ġcop ies
Ġfail s
pd f
ĠDr ainage
p ace
¿ ½
Ġc all
ar age
Ġw arr
Ġl odging
ĠS e
ĠA G
ĠL ast
lu de
ĠH e
ĠH azard
Ġdesign ation
ĠIn tern
Ġob ject
Ġel imin
ĠCon ven
Ġbec ause
Ġinvol ving
Ġwa ived
pati ble
Ġshel ter
Ġinterfe re
b uilt
Ġt urn
ĠĠ ĉĠĉĠ
Ġs um
Ġb on
Ġc lose
Ġd anger
ĠC OMM
Ġh ard
ĠF l
own ers
Ġar t
Ġwh olesale
Ġcor rec
Ġpres erved
Ġappeal s
ĠCom pliance
Ġautom atic
room s
Ġpass age
Ġdri ves
Ġproceed ings
Ġnear by
Ġear th
VELOP MENT
m pervious
it al
ĠN urs
Ġpre paration
ens pace
Ġopen ings
av ing
Ġreduc tion
sub ject
ane ous
D rive
S u
a fety
p et
y l
Ġ ĉĠ
Ġd in
ac tive
velo ped
Ġab s
Ġroof s
ĠAdj acent
Ġlevel s
ĠJ an
Ġfeat ure
Ġav oid
ĠOccup ations
Ġvari ances
Ġgas oline
ÂłĠĠ ÂłĠÂłĠĠÂł
Rec re
d isturbing
p tic
ĠRe l
Ġim pose
ĠEx cept
ĠAn tenn
ĠTra ffic
ĠTrans portation
3 8
4 4
D esign
S ION
m s
Ġp ollution
Ġb ulk
gul ar
St ate
Ġidentif y
Ad ministr
Ġhouse hold
gre gate
Ġrecommend ations
ention ed
Ġden ial
F urther
P rivate
t in
ĠP h
Ġnot ed
ĠF air
ĠL ow
Ġco oking
In ter
âĢĿ ,
Ġu pper
Ġoper ator
tric tions
Ġconn ections
ĠPre liminary
Ġenclos ure
A ND
A TIONS
P UD
Ġa way
in t
Ġin j
ĠW all
Ġdec ide
loc ks
ĠCh airman
Building s
Ġinv alid
Ġaccommod ations
Ġvari ety
umb ing
Ġexcess ive
lud es
ĠTown house
A ccess
F INI
N ot
h ousing
Ġs ight
Ġd ust
Ġsh ield
ĠC RD
ĠA M
Ġv ibr
Ġund isturbed
Ġse ptic
Ġmin i
Re gulations
Ġplat s
Ġph ase
Ġcal iper
Ġpat r
ores try
OM E
Ġdocument ation
STR EET
Ġoffic er
M ay
S P
T UR
g ree
at ch
Ġres ol
Ġun c
Ġfacil itate
TI ES
ang le
Ġ13 7
Ġrepair s
pro fit
Ġnurs ing
Ġrepresent ative
BL ISH
ĠRES IDENTIAL
ĠCover age
ĠJan uary
V ehic
i tive
es cri
Ġf eas
ro p
Ġm ul
TI N
Ġ100 2
Ġj oint
Ġmon ument
Ġprac tic
Ġwa iver
Ġarrange ment
Ġ #
Ġ ................
Ġor na
ĠC ar
ĠA L
Ġh otel
Ġres tr
ĠE rosion
ER V
Ġcor n
TA BLISH
Ġremain ing
Ġalcoh olic
eterin ary
P rov
m ade
Ġa ge
are housing
ĠL isa
ap et
Ġ6 5
Ġnon conform
ĠEn vironmental
ĠUn ited
Ġlimit ation
Ġsm oke
On ly
Ġcorpor ate
Am ended
Ġsty le
R est
e en
ic k
Ġd one
Ġl ivestock
Ġapp ur
Ġex erc
ain ed
ĠSt ores
enc losed
Ġwidth s
Ġfin ancial
Ġcontr ib
ĠPres ervation
P re
m ore
er a
or ts
Ġn ight
qu ency
Ġsp acing
Ġhe d
Ġun ique
ĠĠĠĠĠĠĠĠĠĠĠĠĠĠĠĠ ĠĠĠĠ
Ġpur ch
Ġpri v
Ex am
Ġfr ame
Ġintegr al
ĠInter pretation
lud ed
go ing
FINI TIONS
B oard
P O
m all
Ġs ti
Ġb ur
Ġb est
ve hic
as ing
ĠD own
Ġus able
lan k
st orage
Ġsub ordinate
ad ed
Ġcomp ensation
ĠComm on
vi ation
Ġoper ating
Ġtyp ically
Re quirements
Ġdetail s
Ġsitu ated
Ġcompon ents
Ġachie ve
Â° )
Ġwee k
M IL
W ay
a uty
w imming
Ġt ur
Ġs eas
an ish
Ġe fficient
ĠC OD
um er
ut ing
ter tainment
ĠL O
Ġ3 1
ĠG FA
ĠAd d
Ġexceed s
oul try
Ġj unk
Ġgover ning
Ġsmall er
Ġang le
re quired
Ġs ent
Ġp atio
Ġm and
Ġre feren
Ġn ecess
ĠA venue
Ġfor ward
Ġst ep
ĠR M
ĠR em
um p
ĠF arm
ĠT ND
are n
ers hip
Ġoff ered
iv es
pl acement
Ġar c
pa ired
ĠUn ion
Ġj ud
Ġadd ed
Ġmod ify
Ġrun way
ARD S
ĠNorth port
ĠTyp e
Ġcarri ed
Ġess ential
7 2
d istrict
in ery
Ġf lex
ĠC ore
am ps
pos ition
Ġpermit ting
ĠSt ates
tif amily
Ġar tif
use ment
St andards
ĠOF F
ĠOccup ation
ĠUnit s
Ġapproxim ately
Ġresul ting
Ġhospit al
Flo od
Ġincom patible
Ġpond s
I M
S etback
r as
s ervice
Ġs l
Ġf av
Ġd a
Ġl ist
Ġan ch
ĠD etached
Ġst ay
ĠB ed
Ġun ob
ĠPlan ner
Ġpl ot
ĠG ENERAL
Ġdis app
su pp
Ġwh at
Ġrel ationship
Ġclear ance
Ġdoc uments
ĠPRO V
t ee
Ġt ext
or ting
ic ular
Ġw etlands
ot al
pp ed
Ġst ating
Ġr ather
Ġdes irable
Ġcomp re
Ġac tive
par king
ag n
Ġdet ri
Ġout lin
Ġrel igious
St orage
Ġele ment
Ġrest aurants
ĠRo of
Ġcontr ary
99 9
Ġiniti ated
Ġexpress ly
ĠRed evelopment
Landscap ing
Ġbegin ning
Ġadverti se
A r
B e
S tructure
Ġd uties
us ter
ĠA REA
ure ty
Ġus ually
ri es
Ġ5 1
rtic les
Ġph r
App roval
Res erved
Ġsole ly
Ġvolum e
Ġnews paper
ĠIntern ational
MIL Y
Ġcompre hensive
A gricultural
B ER
w are
Ġp age
Ġb ott
Ġf ixed
Ġre paired
ĠA utomobile
ĠD IVISION
Ġas phalt
Ġex posed
Ġpre c
tif ication
ĠPer manent
ĠApplic able
Ġtown houses
Ġlow est
ĠFA IR
ĠïĤ ·
Ġkee p
ĠOwn er
Ġsubdivid ed
Ġax is
Ġpractic able
TABLISH MENT
b el
re ad
or ks
as tic
ur ches
Ġ2 3
Ġde gree
ĠN C
identi ally
ĠE ase
hed ule
Ġj us
Ġph ot
Ġgu arant
Ġban k
pend icular
Ġhyd r
occup ied
Ġexpen se
R etail
a vel
g u
h ope
m inimum
o y
Ġ her
Ġ urban
ce ll
ĠM edium
Ġsub s
Ġdist ances
stall ation
Ġden ied
Ġfill ing
HOP E
ĠFair hope
ĠFAIR HOPE
C om
m ar
p g
v ant
Ġd est
Ġpro of
qu ee
Ġ2 9
ĠT ABLE
ĠH E
ĠH or
Ġthere after
ĠSp anish
ĠAm eric
ĠĠĠĠĠĠĠĠĠĠĠĠĠĠĠĠĠĠĠĠĠĠĠĠĠĠĠĠĠĠĠĠ ĠĠĠĠĠĠĠĠĠĠĠĠĠĠĠĠ
Ġdisc ontinu
Ġexam ple
Ġeconom ic
6 5
Ġs uc
Ġs ens
Ġm aking
Ġon ce
ĠF in
Ġun us
ten sity
Ġco ul
Ġimp air
ĠPro posed
ov al
Ġgre enspace
Ġrel ative
ĠEx emp
Ġexp and
ition al
Ġproduc tion
app ed
Ġren ew
ogr aphic
ATION AL
road c
Ġthoroughfare s
âĢ¦âĢ¦âĢ¦âĢ¦ âĢ¦âĢ¦âĢ¦âĢ¦
ĠAg reement
Ġrecons tructed
IF IC
Ġbillb oard
g ment
he ther
en ding
Ġb in
ce mber
et ermin
ĠC riteria
oc ial
ĠT R
iv id
ĠW ireless
scap e
In sp
ER E
rough t
gine ers
Ġconsist s
sign s
ĠSpec ifications
Ġwor king
ras tructure
Ġcoul d
3 00
i an
Ġ ,
Ġf am
ec tives
ĠS TR
Ġfor ce
ĠP ell
Ġper pendicular
ul ated
ut ter
Ġcom posed
ri e
enti f
Ġun s
ĠSt ories
ĠĠĠĠĠĠĠĠĠĠĠĠĠĠĠĠ Ġ
Ġgr aphic
Ġinter v
ear ch
ĠApp endix
Ġmeet ings
Ġcustom ary
Ġrecomm ended
Ġbec omes
sel f
oli tical
4 8
he ad
ĠS afety
im ilar
am p
Ġsign als
ver tising
ust ments
ee ping
ill s
Ġcomm ence
Ġserv es
âĢĻ -
Ġcont rolled
Ġins ure
Ġfloor s
Ġag ree
Ġexp ected
Ġviol ations
Ġadjoin s
Ġstr ict
ĠApplic ability
Ġexemp ted
ĠSupp ort
Ġregular ly
Ġvac ant
Ġpolic e
Ġappur ten
C IL
O L
p e
Ġs ound
Ġp umps
Ġre development
il ies
Ġ1 25
Ġper mission
Ġas ide
Ġg all
Ġres identially
ail ure
Ġdis h
Ġtre ated
Ġsepar ation
Ġextend s
ĠAr terial
echn ical
xim ity
Ġsurvey or
alv age
ĠPERMIT TED
6 6
M ar
T URE
o u
w enty
ic h
Ġw orship
igh ted
ill uminated
Ġen j
op ted
gr ade
Ġten ants
Ġdisplay s
ĠCh ange
ĠCom p
Ġobs truct
Ġrele vant
Ġod or
Ġbal con
Ġlaund ry
ĠPen alties
Ġdin ing
F eet
e y
f ollowing
m ounted
Ġd uly
ĠP ersonal
ĠD uplex
Ġex tr
tic ip
ĠH OME
Ġr ate
ĠDe cember
Ġz ero
Ġdis p
ĠV illage
Ġcont ext
Ġcompl ies
ond ominium
Ġag encies
Ġadequate ly
Ġfre quency
RO V
UR IS
sp ace
Ġintegr ated
Ġdri ving
ĠSur vey
Ġhand ic
Ġleg ally
ĠGu idelines
TIN G
ĠDown town
A P
D ay
N ew
S ervice
r ap
w y
Ġp ati
ig ation
Ġst abil
istr ation
ĠI ND
ir m
ĠH ospit
ĠG as
Ġoff ense
cept ac
ĠY es
Ġdetermin es
Ġplat ted
Ġlaw fully
with standing
Ġalter ations
Ġplay grounds
ĠIN S
Ġpertain ing
Ġannex ation
CON FORM
exc luding
MIN ISTR
tin ent
Ġda ily
Ġfam ilies
5 1
V II
a fe
n on
Ġt aking
Ġs emi
Ġs ocial
Ġm ass
ĠC BD
ĠD R
Ġde l
res p
el f
ĠV ariance
Ġoccup ying
con ditions
ĠRes ources
ĠEn tertainment
ĠSub ject
Ġqu anti
Ġcustom er
Ġtopogr aphic
1 10
A C
F t
G enerally
m obile
r u
Ġs ket
Ġp oultry
ig ures
ĠS F
ĠC entral
Ġg e
Ġpar apet
ĠF reestanding
Ġro ot
ĠW ithin
In c
Ġse ver
Ġsupp lement
irc raft
________ ____
Ġrest oration
Ġrecons truction
prov ided
olog ical
Ġparti ally
itc hen
Ġorna mental
Ġfav or
ticip ated
9 6
P ell
Ġb ord
Ġm edium
ĠC irc
Ġh ow
Ġper tinent
ĠSt ore
Ġman ager
the ns
tiv ities
Ġwater cour
Ġpor ch
Ġsy n
ĠCon ditions
Ġcoun t
Ġcalc ulation
ĠIN TER
ĠSupp lemental
ners hip
ISION S
but ting
eed s
ĠBre akfast
ĠBound aries
Ġbarri er
S U
T ra
a f
h ang
r ight
Ġm iti
Ġre ceptac
as ons
Ġtr unk
Ġ4 8
Ġse x
Ġse ll
Ġbuffer yard
IC TION
Ġregul ate
App eals
Ġval ues
Ġer r
Ġcalcul ations
Un less
Ġconver ted
Ġnet work
Ġawn ing
orne y
M ax
N e
n ight
Ġb ay
Ġc ab
Ġper mis
ĠL OT
ĠE N
Ġcomp lex
Ġapprov ing
Ġund ue
ove red
ĠPro cedure
AR E
Ġsec ure
Ġcustom ers
Ġbene f
Ġapproxim ate
Ġopport unity
Ġoutlin ed
Ġunus ual
S IGN
T own
d r
s tructed
t le
Ġ ice
Ġo il
al ing
Ġp aid
Ġc ivic
Ġsh ade
us h
ĠA N
as tal
Ġst anding
und er
ĠU nder
Ġun ified
Ġ5 2
ĠG round
ĠG reen
Ġdo ll
act or
Ġprot ective
Ġwas h
Ġbase ment
Ġgar bage
ĠAr t
ÂłĠÂłĠÂłĠÂłĠ ÂłĠÂł
Ġdirection al
Ġperform ed
4 2
c tions
e u
Ġ Â½
it es
Ġc ell
Ġre asons
Ġe ven
ĠA thens
ĠR ental
ĠT en
ĠH earing
ĠE X
ĠComm unications
Ġam ong
ob iles
ĠRes trictions
Ġag gregate
Ġten nis
Ġexp iration
Ġ19 58
with in
Sp ec
Ġobs truction
Ġobs erved
ĠSu per
Off ice
Ġiniti al
ĠEst ablishment
Ġhyd ro
Ġes tim
Ġrefl ect
Su pp
bel t
Ġsuc cess
W ater
c ont
h ome
l ife
Ġs and
Ġm ix
tr ip
Ġn one
ot ing
le ge
uc k
ur ist
Ġcon v
Ġ1 13
ol ia
st ream
ĠL odging
Ġun iform
Ġ5 5
ch ange
ens ities
ob by
Ġcl ubs
Ġcl uster
EC IAL
Ġcor rect
Ġvis ually
tern ative
Ġappeal ed
Ġrequest s
Ġocc urs
Ġsubmit tal
Ġconf ig
Ġexist ence
Non conforming
ĠBe ach
ĠDE VELOPMENT
Ġstud ents
Ġslop es
Ġpath s
Ġfinding s
iqu es
Ġstep s
I X
V ER
m ant
Ġa partments
Ġa ircraft
Ġs ing
Ġs hed
ic ted
Ġc entral
Ġc ottage
Ġm ic
Ġl ive
ĠP ollution
Ġtyp ical
fer red
ild life
Ġmajor ity
Con forming
rid ors
Ġwa ive
Ġdem and
Ġpain ting
EL L
ĠOn ly
Ġfurn iture
Ġsatisfac t
ĠPROV ISIONS
URIS D
C IAL
Ġsh are
ĠC opy
ĠA b
ĠA butting
ur rent
velo per
ver s
ĠT ax
Ġacc ur
Ġv ary
ĠH wy
ĠV ariances
fin ition
Ġauthor ize
Ġcan opies
Ġvari ation
Ġbod ies
Ġappl ies
ĠAPP ROV
Ġobj ection
Ġgo als
ĠHe avy
Ġresol ution
Y ard
r ub
Ġt esting
Ġp red
it ing
Ġd umps
Ġpro ximity
le v
Ġ( $
Ġcon ges
Ġper pet
Ġg iving
ain tenance
Ġsp aced
are as
th an
ĠE quipment
ĠG roup
ĠW indow
Ġconstruc t
Ġne g
Ġ................................................................ ................................................................................
Ġidentif ying
Ġaddress ed
Ġmean ing
Ġnotif y
Ġinf rastructure
ĠSTA ND
Ġartif icial
Ġunob structed
MINISTR ATION
Ġconges tion
C l
S hall
b s
k eeping
Ġa uto
en ess
Ġc and
Ġd ensities
Ġm otion
im ne
ol id
ĠE vent
Ġpl astic
ĠĠĠĠĠĠĠĠĠĠĠĠĠĠĠĠ ĠĠĠ
Ġ8 5
Ġse q
Ġrec yc
ĠEn gineers
Ġatt ach
Ġ19 8
Ġhigh ways
Ġrep eal
adi o
Ġpresent ed
Ġintegr ity
ÂłÂł ÂłÂł
ĠTyp es
ĠSc hedule
Ġrecogn ized
ivid ual
Ġenj oy
URISD ICTION
1 12
7 4
A TE
P l
Ġs edimentation
Ġp op
or ient
Ġbe l
ĠC o
ĠA pril
ĠP DD
um ul
od y
ĠM edical
ver t
ater n
end ent
Ġ3 8
Ġprovid er
ĠIn tensity
Ġaddition s
AR Y
Ġrel ating
Ġroof line
Ġconform s
Ġsec ured
CE D
Ġremain s
Ġban ner
Plan ned
Ġbre akfast
ĠTra ditional
Ġmunicipal ity
Ġlab or
Ġobjection able
A Y
D ensity
D imensional
E very
M H
S S
ro priate
Ġc r
Ġw ast
Ġpro por
Ġan ticipated
ĠH C
Ġunder t
Ġse ating
Ġwhere in
Ġdec k
Ġtrans port
Ad j
Ġautom obiles
UR PO
ĠRec ord
ĠAt tached
CC ESS
UM BER
ĠSo il
Ġfind s
Recre ational
Ġsing ular
4 00
A c
S creening
V C
Z ONING
c ery
i pped
l ig
Ġb locks
it or
Ġm otel
om ing
Ġcomp act
Ġpl umbing
ĠSt ory
ĠV iol
vent ory
rit ten
ĠEx p
St ormwater
Ġapply ing
Ġsuppor ts
Ġban ks
ĠPre mises
Ġfurn ish
Ġtechn ical
Ġnurs ery
ĠLim itations
Ġretain ed
Ġcompon ent
Ġstudi o
Ġopport unities
Ġï ¿½
Ġeduc ational
Ġvibr ation
Ġfeas ible
Ġmand atory
Ġexpand ed
orient ed
P rior
T MENT
U til
f lic
h abil
he ight
Ġs urety
en es
Ġp ack
Ġd omes
Ġl ie
Ġl akes
us ic
tr us
as ses
Ġcon ference
un eral
Ġsp ir
Ġres erv
ĠU pon
ist ent
ĠE m
ĠSt ream
ĠPro cess
Ġpart nership
Ġdec ks
oot h
Ġatt end
Ġregul atory
fess ion
Ġseparate ly
Ġbed room
ĠFA A
Ġobj ectives
Ġcontract or
Ġsatisf y
Ġconcer ning
Ġnonconform ity
N othing
T wo
k en
k ers
re ason
Ġb ays
Ġd uty
Ġm is
ĠC O
ĠA T
ĠP R
ĠR V
Ġhe ard
Ġhe ated
Ġgr avel
âĢĿ )
Ġrec ording
ren ce
IC E
Ġdevelo p
ex isting
Ġresp ective
ĠSide walks
Ġsol ar
Pro hibited
Ġgener ated
istor ical
Ġstrip s
FA C
ille gal
Ġdraw ing
Ġpay ment
Ġpic k
Ġassign ed
Ġsymb ols
Inter pretation
Ġdetri mental
Ġappurten ances
Ġsket ch
imne ys
4 7
4 9
C le
I LE
g rie
ĸ ¡
in a
Ġb ath
Ġm eals
Ġcon ce
uil d
Ġcom ments
ĠN P
ĠT roy
Ġwhe els
pl ete
isting u
ens ing
ĠEn tr
Ġchar ge
Ġret urn
ĠSec retary
arge ment
Ġemploy ed
Ġtan k
conform ities
Ġmeasure ment
Ġhear ings
ennel s
Ġpa per
ĠCal era
Ġdest roy
grie ved
A DING
G r
S C
b ow
e veloped
l or
Ġb lank
Ġf all
Ġf ewer
Ġin st
Ġh ar
and on
Ġde pos
ĠN ame
ĠL iving
Ġpublic ation
Ġen act
Ġen for
ĠW H
ag s
Ġallow s
ĠSign age
Ġins truction
ER S
ER CIAL
Th ose
Ġdefin itions
Ġform al
Ġconn ect
Ġarchitect urally
ie ce
Ġbo ats
Applic ations
Ġpip es
ĠSchool s
Ġinters ecting
Ġquar ters
ĠCOD E
Ġflex ibility
Ġreceptac les
4 3
B an
S T
T yp
d esign
r ame
en ses
Ġp et
Ġre ct
ĠP RD
ard ens
ĠM et
ĠN UMBER
ide o
ĠH otel
Ġtr ust
ĠĠĠĠĠĠĠĠĠĠĠĠĠĠĠĠ ĠĠĠĠĠĠ
Ġcont ent
Ġag grieved
Ġchar ged
Ġflood way
wal k
Ġexp ire
ĠAn n
Ġinvol ve
Ġwe ather
Ġtechn iques
Ġhol ding
Ġce iling
Ġfun ctions
Ġadmin ister
Ġprincip le
Ġshield ed
escri ption
Ġsens itive
Ġinterv als
F ences
G roup
L O
a e
c are
d ed
d is
p ended
â ĸ¡
Ġo ption
re at
Ġf ine
Ġc ro
Ġd er
ĠC H
ĠC anopy
im ize
ain bow
ĠF ult
ĠF AR
ĠF ences
Ġhe l
ĠL AND
Ġv oid
ĠPlan ting
Ġcomp et
Ġtr acts
ĠW orks
Ġab ate
Ġdis mant
IN E
Ġoper ators
Ġmin utes
ell ant
ĠJ une
Pro posed
Ġprac tice
US TR
ablish ments
Ġconvey ance
olog y
Ġstand s
Ġliqu or
Ro of
ĠElectr onic
ĠQ u
Ġpatr ons
N ING
z oned
Ġa p
Ġa fore
in yl
Ġs ediment
Ġb erm
Ġd ated
ĠS edimentation
le y
ĠD imension
um es
ĠB al
ĠL I
Ġcomp uted
Ġset ting
ĠEn c
Ġauthor ization
Ġover hang
chit ec
Ġcharacter ized
Ġprac tical
ld g
Ġcertif y
Ġadv ance
C K
D r
d welling
Ġ edi
Ġ illegal
Ġb rought
or mit
an ch
Ġpro f
ir ty
pos es
ch arge
Ġ6 00
lis h
Ġleas ed
Ġind irect
Ġass ure
ĠX I
cel eration
OR Y
utom otive
ĉĠĉĠ ĉĠĉĠ
ĠNon residential
Ġbo at
iti z
ĠCor ps
Ġcover ing
Ġexpress ed
ĠIll ustr
Ġmach inery
Ġbox es
Ġinj ur
Ġbott om
5 5
D ISTRICT
F ailure
L IC
O ARD
a im
b o
l im
Ġ ĉĠĠ
uc tion
ĠD U
ĠD uties
Ġex per
ĠB ar
Ġsign al
Ġad ap
Ġinc ons
ĠF ees
ĠPlan t
Ġco ordin
Ġ10 5
Ġless er
Ġinter pre
Ġinter ference
ond ary
Ġmaintain ing
Ġestablish ing
Ġk itchen
ator ies
ÂłĠÂł Âł
Ġrestric tion
AN U
CE MENT
TA BLE
Ġadministr ation
Ġinsp ector
li very
Ġhospit als
Ġremed ies
Ġpriv acy
Ġpermis sible
C or
a u
r up
s hed
Ġe rect
ĠD o
Ġst age
Ġex ec
am s
Ġprovid ers
ĠE ast
................................................................ ................................................................................
Ġ5 02
Ġspec imen
Ġab out
Ġcondition ing
Ġwh om
Ġcor ridors
tri e
Ġcre ation
Ġfl ashing
Ġveget ative
ĠAr chitectural
Ġenter pr
Plan ning
ĠLim ited
Ġcondominium s
Ġproj ection
Ġstat us
Ġguarant ee
Ġerr or
eu ver
ĠAPPROV AL
ANU FAC
H e
W ELL
a round
d entif
f low
al and
en ic
Ġp iece
Ġf as
ar aland
Ġl ink
Ġn ine
ĠS araland
im e
ĠP URPO
ĠN ON
ir d
ĠL aw
Ġcomp ar
form ation
ĠSt ation
ĠIn terior
Ġtow ards
Ġrel ief
oll ut
Ġdep icted
Ġrepl ace
Ġmar ked
Applic ability
Ġcut s
ĠInter section
br is
ĠSpec ific
att ached
Ġflag s
Ġretain ing
lass ified
Ġoppos ite
Ġtheater s
Ġclinic s
Ġdoll ars
chitec ture
WELL ING
C D
Z A
c al
e ver
i er
m y
s ed
Ġb ro
Ġf it
Ġf und
ro lling
Ġre tention
Ġbe auty
Ġpro hibit
Ġpro fession
ign ment
Ġun cons
ĠSt ations
ĠG arden
ĠW h
ER T
ĠAdj ustments
Ġ0 8
Ġren ted
Ġinsp ections
Ġcap able
Ġinten tion
ĠFlood plain
Ġbed s
Ġfurn ished
Ġdemonstr ate
Ġresul ts
Ġalcoh ol
Ġharm ony
Ġdeline ated
Ġcemeter y
read y
cell aneous
umul ative
5 4
A fter
B H
F ac
G ENERAL
f lo
m on
m entioned
Ġf igures
at us
ĠS ERV
ur able
ub bing
Ġex it
tic ally
ĠL ic
op le
Ġcont act
ustr ies
Ġtra ditional
Ġadop t
Ġeight een
Ġqual ified
US IN
Ġpen alties
ĠAg ency
Ġrele ase
Ġattr active
Ġmul tifamily
ĠAmeric an
euver ing
A T
M od
W henever
m eas
n ial
ĠC LA
Ġde bris
ĠM oul
ĠRe v
Ġ4 2
Ġch o
Ġim age
anc ed
Ġab ility
Ġ10 3
Ġsu it
Ġse al
ĠAd vertising
con n
Ġopen ing
ES TABLISHMENT
ven tion
Ġcor ridor
Ġprivate ly
ĠOffic es
umin ation
Ġorder ly
eng er
ĠInd oor
Ġback ground
Ġthir d
emed ies
ĠAc tivity
Ġclos est
Comm on
ĠInsp ection
Ġpe ak
Ġded ication
Ġden y
ĠRest aurants
BA MA
Ġ34 3
Ġsatisf ied
Flo or
Ġmanufacture r
Tr ans
Ġautomatic ally
Ġjud gment
Ġedi tion
USIN ESS
ĠMoul trie
. "
6 1
B UILDING
E W
I ll
L OT
P erm
v ail
z one
Ġa part
Ġp ad
Ġn ative
ĠS trip
Ġst acking
Ġh all
Ġh istorical
Ġsign ature
ĠN O
ĠI mpervious
ĠT ower
ist on
Ġaccess ed
Ġunder story
Ġins urance
Ġel ect
Ġover night
Ġindivid ually
Ġreg istration
Ġgu ide
ĠCl inic
ĠMin i
iver s
Ġpe ople
Ġdisturb ing
Ġfact ors
Ġfore going
Ġstee l
Permit s
Cons truction
Ġais les
Ġpropos als
Administr ation
Ġrestr ict
ĠRem oval
ĠEase ments
CONFORM ING
ĠEm ergency
andon ment
ĠAnn iston
7 6
: :
F F
I ES
b all
s ec
Ġw rec
Ġre verse
Ġn in
ĠC ertific
Ġpro p
ĠR ainbow
velo p
am m
ĠM X
ĠF CC
est s
Ġ- --
ĠE very
res sion
Ġdes ired
Ġno tices
Ġpl az
Ġit self
Ġfollow ed
sc ale
Ġ7 7
fin ished
Ġout ward
Ġcontain er
ren nial
tit ute
ond ale
Ġreview ing
Ġbuffer ing
ple x
Ex ception
Ġchange able
Ġcar ports
pro of
elecomm unication
omin ant
Ġsoil s
Ġorient ation
IF S
Ġhab it
Ġlit eral
ĠCle an
ĠConven tional
Ġseas onal
ĠFult ondale
O ccup
O ffic
T EN
U BL
i ary
m ical
s ur
u it
Ġ ii
Ġp olitical
ed e
is m
Ġd istingu
Ġm or
Ġbe aring
Ġn ar
ĠS wimming
Ġe as
velo c
enti ally
el ed
Ġ201 4
Ġcomm enced
par cel
Ġspec ifying
ĠâĢ Ķ
Ġthere fore
Ġob lig
air s
Ġview ed
Ġfr atern
Ġbr ing
Sh opping
Ġproj ected
Landscap e
Min or
Ġod ors
Ġsuper vision
Ġexerc ise
Ġhydr ants
ĠHE IGHT
Ne ighborhood
ĠSTAND ARDS
habil itation
Ġspir it
UBL IC
8 7
B usiness
E st
P en
W h
g ation
h as
w all
Ġ ]
Ġ veloc
Ġp le
Ġb i
ĠC ondominium
ĠA LA
om et
ĠP ortable
Ġh our
ĠO N
Ġde livery
ff ective
Ġal ready
Ġland fill
ĠDe f
ee es
Ġtr im
Ġpl ural
por ted
min ent
ow l
op en
pl aced
Ġthere by
Ġ100 4
Ġph ases
Ġcre ating
Ġindic ates
Ġbo ok
Ġconsider ations
Al so
Ġshel ters
Ġpic ture
Ġawn ings
Ġais le
Ġelimin ate
ou fl
Ġsatisfact ory
Ġneg ative
Ġdestroy ed
Ġincons istent
Ġuncons titutional
ĠALA BAMA
B ed
C OMM
I B
I P
O wn
o e
u f
Ġ Â
an gular
Ġc itiz
Ġor din
Ġl atest
et ention
ĠC R
ire ction
Ġst o
un t
mit tent
ĠB ond
ĠN A
ĠN R
Ġinc enti
Ġres ource
ĠT our
ĠE d
ĠSt aff
Ġcomm od
TI VE
ail er
Ġ6 03
Ġpre mise
ĠW alls
anc ing
Ġapproval s
Ġinter pret
ĠUn less
IT E
Ġelev ated
Ġdi ffic
Ġpos s
ud y
Ġgover ned
Ġ18 0
Ġexception al
Ġmar quee
Ġhouse keeping
Ġwire s
ÂłĠÂłĠÂłĠÂłĠ ÂłĠÂłĠÂł
Ġprep are
building s
Ġsel ected
Ġinf il
ĠEst ate
Ġtion s
Ġbene fit
Ġencroach ment
Sub division
Ġbillb oards
ĠSo uth
Ġann ual
Ġche ck
ĠLO ADING
Structure s
roadc ast
Ġconfig uration
5 6
5 9
L eeds
N ATIONAL
d en
Ġs il
Ġs od
Ġf er
Ġm ents
Ġl ibr
Ġbe ar
ĠA ction
as ting
Ġus ers
The y
ĠO pp
mit tee
Ġres iding
ĠT erms
ad j
ĠZ ON
Ġaccess ories
Ġutil izing
ĠApplic ations
oles aling
Ġhor izont
ium s
Ġmat ters
Ġpass ive
ĠImp act
.âĢĿ )
li ke
Ġread y
Ġhol der
Ġfield s
Ġachie ved
oper ative
ĠThoroughfare s
Setback s
agn olia
Ġphr ases
ĠSTR UC
ĠINTER NATIONAL
Ġpop ulation
Ġcompet ent
USTR IAL
Ġhorizont ally
C ar
C ertificate
E lec
F l
L oc
g ated
ro duc
at to
et land
ĠA griculture
ĠB Y
ĠB USINESS
ĠL et
ĠL ab
Ġv ideo
Ġun occupied
Ġr amps
Ġpublic ly
ill ing
ĠIn stallation
ablis hed
Ġgr ades
ĠÂ§ Â§
Ġso uth
empor arily
Ġob sc
Ġexc luded
ĠIns urance
Ġherein after
Ġchang ing
Ġsew ers
ra f
Ġdep ict
Ġren t
Ġcurb s
ĠCont inu
lement ary
Ġincorpor ate
ĠSIGN S
Ġsubdivid er
Ġliqu id
Vehic le
Exam ples
Ġreferen ced
ĠExemp tions
Ġdomes tic
Ġlie u
" .
6 2
A ss
A pril
P ersonal
d ensity
g s
p ic
Ġc ultural
id uous
Ġe e
Ġe aves
ĠA cc
Ġpro ble
Ġst ock
Ġapp ellant
ĠR ural
th ough
Ġacc ount
ĠDe fined
Ġtr aining
Ġdesign s
Ġund eveloped
EN S
IS SION
Ġgre atest
ĠEx terior
Ġappropriate ly
Ġpos ition
Ġhealth y
Ġentire ty
Lot s
sp ec
ÂłĠÂłĠÂłĠÂłĠ Âł
Ġorgan ized
Ġrev ised
Ġattr act
Ġfore st
Ġir r
Pr incipal
Ġdiscontinu ed
Ġenjoy ment
ĠWH ERE
Ġhel p
Ġafore mentioned
ĠPURPO SE
D OT
F arm
P LE
i ency
in king
Ġs ources
Ġs alvage
Ġp ump
Ġof ten
Ġc umulative
Ġl ighted
ĠC odes
ĠP rior
ul ations
ĠR EC
Ġde partments
ol ar
ĠM on
ĠB G
ĠB ZA
are houses
em ption
Ġdes truction
cep ti
Ġ4 4
Ġoff ering
Ġro ck
ĠâĢ ĺ
Ġman euvering
Ġse en
Ġar row
ĠPro duc
ĠPar agraph
Ġsim ple
Ġel ig
Ġaff ord
ĠPr ac
Ġantenna e
Con ven
Ġobtain ing
Ġgrow ing
Ġenl argement
Ġra ised
Ġcorn ice
Ġhed ge
Ġbenef its
CCESS ORY
G arage
a tives
b usiness
c ar
o ber
s et
w ich
Ġ ent
in ct
Ġt em
Ġf orestry
Ġc able
Ġm usic
ĠS elf
ĠC ut
ĠC DD
ĠC ottage
ĠA rticles
Ġcon cent
ĠR A
ut ters
ir st
ĠU C
Ġv ision
ous ed
ĠSt udy
Ġ4 3
Ġch urches
ĠW est
Ġdec isions
ĠAn imal
Ġpain t
FA MILY
Ġcurrent ly
isturb ance
Ġcut ting
illb oards
Ġtermin al
Ġcertific ates
Ġproj ections
Ġï Ģ
Ġabs ence
Ġcab in
Ġenact ment
Ġnin ety
A ir
D S
T ENT
b ate
u ity
w arehouse
Ġ 06
Ġt emporarily
Ġb us
Ġb icyc
Ġf enced
it ches
an es
Ġd uration
ĠS TOR
Ġth ough
ĠP C
ĠP ool
ĠP olic
Ġh alls
ĠR un
per manent
up on
ap ed
erv ing
Ġ3 7
Ġstreet scape
ĠRe gul
ĠW ords
fac ilities
ct ober
Ġ7 2
ugh t
Ġrec ess
Ġsc enic
Ġlo an
Ġsepar ating
Ġproduc ed
Ġpos ting
Ġsurround ed
ĠApplic ant
Ġmean ings
Ġview s
Ġdem ol
ĠAss ess
Ġnurs eries
Ġca uses
Ġarrange ments
Ġdrain s
ĠReg ional
Ġshe et
Ġsti p
Ġanch ored
supp orting
Ġbin ding
Supp lemental
reason able
ĠBal d
Dr ainage
" ,
D I
M UM
N atural
P A
T owers
U T
e ach
i erc
k er
Ġ 02
Ġf umes
an ent
ar ning
Ġl ap
le tic
im p
Ġst op
ter y
ĠM agnolia
ri tical
Ġacc ent
ĠH olly
Ġr ural
ip e
ĠRe placement
Ġ4 04
ĠG C
Ġ10 4
ĠRequire ment
ss ential
Ġtrans ient
hib ition
Ġcoll ective
Ġcontrol s
At tached
Ġsurfac ed
ĠMar ch
Ġchannel s
INI MUM
Ġannex ed
Ġsus pended
Rest aurant
ĠAdd ress
Insp ector
ĠINS ERT
Perm anent
raf ts
pic uous
A B
B o
C oun
E AL
E MA
H IC
I TIES
R ES
c ing
c ape
d etached
t on
v esting
Ġ 00
Ġs eries
Ġb all
Ġb rid
Ġto il
Ġn um
Ġpro fit
ĠD isturbance
Ġis land
ab led
ate way
âĢ ĸ
ĠB ulk
ist ant
Ġhe ating
Ġun related
ĠDe finition
ĠE S
Ġcomp acted
Ġch ass
ow led
Ġoff er
Ġfront s
pl ace
Ġse lling
Ġallow ing
Ġ9 5
ang ing
Ġdr ug
ĠEx am
Ġinstall ations
Ġwas hing
Ġeight y
ĠAr my
Ġpass enger
Ġdisch arg
Ġang les
Ġfun eral
Ġter r
ĠIssu ing
ĠNurs ing
ĠAM END
dentif ication
atto o
ĠWHERE AS
6 3
A uthor
E X
H O
N ame
i ers
p aren
is l
ar ages
at ures
Ġw ildlife
ĠC an
ĠB OARD
Ġsp orts
Ġland ing
Ġr anges
Ġ5 9
Ġch imneys
Ġpr in
ood s
Ġse a
Ġenc omp
Ġcor ners
Ġdist inct
der ly
OR T
Ġexp los
Ġfour teen
Ġshow s
Ġrun ning
ĠPl aces
Ġsewer age
Ġintern ally
ĠSupp ly
Ġextension s
Ġpolic ies
ĠXX X
Ġwor ks
ĠLe vel
ĠCol lege
ĠMod ifications
Ġcemeter ies
DE FINITIONS
Ġassess ment
State ment
Ġtur ning
Ġquanti ty
enes tration
Ġchass is
D ivision
D etached
N urs
U nder
a uthor
c los
h ab
i ar
s ix
Ġt ent
Ġt ex
ed ing
ar ten
Ġw arehousing
Ġm id
Ġl od
Ġl umin
ac re
ac hes
Ġe mission
lo ss
ĠP edestrian
ĠD am
Ġh otels
Ġh oused
ĠR ules
Ġcons ult
Ġcons picuous
Ġloc ate
ib er
ĠSt udi
ĠG olf
oun ts
ĠĠĠĠĠĠĠĠĠĠĠĠĠĠĠĠ ĠĠĠĠĠĠĠĠĠ
ĠW al
ĠW henever
Ġ10 2
Ġ10 6
Ġsu pers
Ġ8 02
ak er
ĠAl a
Ġfin ish
Ġover head
Ġnew ly
Ex emp
Ġstr ing
Ġconn ecting
ud itor
Ġautom otive
Ġmembers hip
Ġappl i
erg arten
Ġaccomp lished
Ġoccur ring
Ġphys ically
Ġfill ed
ĠImprove ment
Ġconver sion
Ġra ising
Ġeduc ation
Light ing
dr aw
Ġenterpr ise
meas ured
Ġinfil tration
4 6
E M
G reen
L Y
P RO
U SE
h ave
o ir
v ices
w h
Ġ iii
re me
Ġp ec
Ġp un
Ġf ulf
Ġor d
Ġl ying
Ġre location
et r
ig ital
ĠC re
Ġex pos
Ġex emption
per mit
ĠM e
Ġsp e
enti l
th ing
ad ding
ĠL ines
ĠL aund
Ġv ia
Ġr ain
ĠE lev
Ġen umer
red it
oun ge
Ġro ll
op ole
ffic iency
Ġ8 2
Ġ8 00
ound aries
Ġ100 8
Ġten se
Ġtrans itional
over n
ĠJ ud
Ġeffective ly
Pro ject
Ġinsp ected
Comm ission
Ġprom oting
Ġparticular ly
Ġflow s
Ġdiv iding
Ġorig in
Ġcross ings
Ġexam in
Ġbl end
Ġceas e
Ġcall ed
Ġwarr ant
ĠCO UN
irection al
ĠBald win
6 7
9 03
G as
J URISDICTION
Ġa rtic
en ior
ro le
Ġc ast
Ġd urable
Ġin ventory
Ġsh rub
ul iar
ĠO ctober
um ping
ĠB y
st anti
Ġv inyl
ers on
erv ices
ow ling
Ġ10 1
Ġ10 7
ens ive
Ġadj ustment
Ġgr aded
the n
Ġinter mittent
Ġbuffer yards
Ġsc aled
Ġcomply ing
org an
ĠCl ub
ĠPl ace
Ġ60 8
Ġinvol ves
Ġinterest s
Ġconstit utes
Ġdisc us
ĠAt t
Ġwalk way
ĠDrive ways
ĠAD J
Ġhol id
Ġvolum es
ĠBound ary
access ory
Ġcompr ise
Ġturn around
ĠCOMM ISSION
ĠHor tic
Ġbalcon ies
Ġcoordin ated
Ġcompar able
ĠMX D
Ġnar row
Ġirr igation
HIC LE
Ġenumer ated
B R
M aintenance
N A
R ON
S mall
a ula
c ol
e get
t led
w ing
Ġ iv
Ġa griculture
ti ll
Ġp ollut
Ġb erms
at um
Ġm ight
Ġbe er
ĠA wn
Ġg utter
os s
ĠM aterial
ir t
Ġcons ent
Ġ3 9
iz ations
Ġch ain
10 2
Ġcont our
Ġar chitecture
Ġreg ional
Ġperiod s
oint ment
ĠSh ops
app ropriate
Ġver tically
Pro perty
istrib ution
UR ES
Ġban ners
Ġoccur red
sub section
ĠDE FINITIONS
pers on
Ġfunction al
Side walks
LAN K
Ġbene ath
ĠGr ade
Ġdown town
Ġhab itable
Ġsex ual
DISTRICT S
amm able
uf aula
Ġelig ible
Ġconcent r
role um
6 8
8 5
A b
I mpervious
P RE
P edestrian
T roy
c omp
s imilar
Ġ ____________
an ty
tr ans
ĠS hel
ĠC emeter
ĠR R
ab ilities
ard ed
ain ts
ty pe
Ġother s
ĠF ee
Ġv entil
of t
ĠE ufaula
vi ations
Ġdet er
Ġgr ubbing
Ġless ee
Ġrec ent
Ġtim ber
Ġequ als
Ġutil ize
Ġpres ence
Ġlo g
ĠCon formance
Ġaff ecting
Ġgu y
chool s
Ġdescri bing
Ġemploy ment
Ġincre ases
ĠCont ents
On ce
US ES
Ġwal king
Ġbr ight
Ġaccept ance
Sh ould
light s
Ġmach ines
ĠBUILDING S
ĠClass ification
Ġindependent ly
structure s
Ġpattern s
Ġevalu ation
Ġbon us
Ġpurch ase
ĠChange able
Ġhandic apped
Ġsever al
Ġwatercour se
Ġreserv oir
Ġintention ally
Ġdistingu ished
Ġpec uliar
5 3
5 7
A LE
M ajor
P ortable
a ight
Ġ 05
Ġ ________________
Ġt a
he red
al ty
Ġb ul
Ġf oc
Ġf air
Ġin und
Ġe ating
Ġst all
Ġst adi
Ġst oring
Ġde ems
Ġinc ur
ĠT OW
ad em
end er
Ġ20 20
Ġfac ts
Ġ6 4
Ġim port
ĠW orship
Ġfront ages
Ġhome owners
ĠAd ult
Ġimp r
ĠApp roach
ĠRes ource
14 01
use ums
street s
Ġmet ers
Ġform ed
Ġbas ins
RE E
Ġofficial s
Ġthen ce
tru ments
Ġpot entially
Are as
Ġconflic ts
cons truction
ĠDrive way
Ġread ily
Ġstudi es
Min i
Ġcontract ors
Ġbarri ers
Ġche mical
Ġstabil ized
Ġwast es
Ġundert aken
ĠCLA SS
C W
G round
L o
T rees
b oard
f rame
l are
m ary
s ale
x ic
Ġf igure
is su
Ġc ub
Ġw id
Ġm m
Ġm edi
Ġl ast
Ġre habilitation
as te
ĠD on
Ġ1 000
Ġg ain
Ġex change
mit tal
ĠB LANK
st and
ĠI S
ĠI lex
ĠF ence
ĠF uneral
Ġhe ad
end s
ĠL INE
Ġ20 5
ĠG ross
Ġpre ced
ĠW ith
Ġgr and
oin ing
Ġ9 8
Ġins er
Ġequ ipped
Ġmin ing
AN C
ĠJ unk
Ġsit ing
app roval
Sec s
ĠPl acement
Ġplay ground
eeee eeee
Ġsafe gu
ID E
Ġtravel ing
Am end
VI EW
Ġdemonstr ates
Ġca used
Ġprogram s
ĠElectr ical
OU SE
Ġpan els
Ġjoint ly
ĠFin ancial
Ġestim ated
Ġtransport able
Ġenfor ced
Ġadap ted
Ġhabit at
Ġproble ms
6 00
A G
B uffers
C ol
I A
T O
a us
h undred
p oint
in ning
is es
Ġn ull
Ġe mit
ĠA viation
om ic
ĠP e
ĠP ay
Ġst ages
ĠR emedies
Ġg ate
Ġg ift
ĠO ak
ter ing
ter ation
Ġad here
ir ting
ĠF aÃ§ade
Ġcomp action
Ġ5 01
Ġen force
Ġ6 01
Ġ6 05
Ġ8 3
Ġcompl i
Ġdr inking
Ġass emb
ov ing
Ġpart ly
Ġ11 5
loc ate
An imal
Ġstr aight
ĠJ uly
Ġsm ooth
Ġren ov
Ġgener ate
Ġed ges
urn iture
Ġobs truc
Ġminim al
CC UP
ĠAss embly
ĠVehic les
ĠEst ablishments
Ġcateg ories
FOR CEMENT
Ġstudi os
ĠElec tric
ĠSP ECIAL
Ġwaters hed
iqu or
Ġsatisfac tion
Pr imary
ĠAntenn as
vehic le
etermin ation
ĠHospit al
ĠCirc ulation
CED URES
Adj ustment
ĠDimension s
Cor ner
8 00
9 7
A utomobile
F reestanding
L e
S tructural
e ce
o oc
Ġin n
Ġre zoned
Ġsh aring
ĠS H
ĠC urb
ĠP ass
ĠD BH
ĠR atio
Ġex isted
um e
ĠB E
ĠB icycle
ĠT otal
Ġ3 04
Ġ5 8
por ting
Ġspec ify
ĠĠĠĠĠĠĠĠĠĠĠĠĠĠĠĠ ĠĠĠĠĠĠĠĠĠĠ
fac ed
Ġdis hes
pen ding
Ġ8 4
Ġ8 36
ĠPar cel
Ġcl ause
Ġ100 3
St ory
ĠX II
Ġtrans ported
ĠAn alysis
Ġresp ects
Ġenti tled
Ex terior
Ġidentif ies
Ad opted
Ġwell s
Ġmotor ists
Ġfr am
Ġbar ber
Ġintegr ally
ĠCON DI
Ġce ce
Front age
Ġmach ine
ĠCle ar
Ġann oun
Multi ple
Ġuns afe
Ġpati os
ĠIND USTRIAL
Ġhydro log
Ġpropor tion
ĠViol ation
Ġinst ance
Ġinterpre ted
Ġmor als
Ġveloc ity
ĠLet ter
ĠïĢ §
ĠCOUN CIL
ĠADJ US
Ġcub ic
2 50
I s
N umber
f all
m ain
s quare
Ġ <
Ġ >
Ġ velopment
in ter
Ġo wing
on ly
Ġf ar
Ġd on
Ġin stances
Ġw ine
Ġre located
il iary
ec tivity
ot echnical
le ges
ding s
Ġg ame
ĠM ust
ĠT wenty
Ġcons tr
Ġun enclosed
Ġ4 6
Ġ4 7
ĠG arage
ĠIn formation
ade quate
TION AL
man ufactured
Re view
Ġbas ic
ex p
Ġrequest ing
Ġcar s
CE P
Ġlic enses
Ġrest ored
Pro t
Ġpartic ip
erg y
200 5
Ġdisturb ed
Ġnotif ied
Ġgreen belt
row ave
Ġcam p
ĠIll uminated
Ġmeasure ments
Ġlab eled
ĠLe gal
Ġconcept ual
Ġsk y
Ġriver s
Ġir re
ĠRel ated
Administr ative
vehic les
Spec ific
ĠSuper ior
Ġperpet uity
Ġrepeal ed
Ġeas ily
Ġtex ture
Ġexpos ure
Ġpollut ants
M ixed
W indow
o on
r ange
s ame
y e
ľ ĵ
Ġt e
ar ation
Ġm entioned
ĠC ell
ĠP UBLIC
ur poses
ĠB T
ĠT E
ĠT ri
Ġal though
dition ally
Ġcomp ut
ten ant
ĠG S
ail road
ĠâĢ ķ
Ġab andonment
10 6
Ġmain s
ĠApp roved
Ġle aving
Ġsix teen
ĠTh irty
ĠSec ondary
Ġcre ates
Ġcoll ect
pro posed
Ġvari ations
Ġappl iance
Ġpe rennial
Ġmess ages
Ġcam oufl
ĠDis play
Ġâ ľĵ
Ġrev isions
Ġamen ity
Ġread er
Ġtri angle
Ġfabric ation
Ġillustr ation
ĠIssu ance
ĠCOMM ERCIAL
Ġsti ll
Ġnecess arily
ĠEN FORCEMENT
flo or
Ġfratern al
ENS ITY
Ġcollective ly
stanti al
Ġincur red
ĠCLASS IFIC
Lo ading
7 9
9 5
A wn
C emeter
H ospit
P ER
h omes
l ors
o ked
t op
Ġa qu
re quirements
he aring
Ġs ust
en ing
Ġp ress
or ial
Ġw arehouse
et ween
us hed
ĠS UP
ĠA uto
Ġg ather
Ġex act
ĠO CCUP
ĠM c
Ġres earch
Ġsub grade
ĠZ BA
Ġac ting
ĠThe ater
ib ilities
TI T
iv able
Ġro und
op tion
ĠW etlands
Ġam usement
the re
ĠAm usement
Ġinform ational
ENT ER
Ġ14 03
ĠMap s
Ġmar ri
ĠAc tivities
Ġinsp ect
ĠProv ide
Ġanim ated
ket s
Ġremain der
ĠPUD s
ĠTr uck
Ġfr action
ĠWater way
Ġaltern ate
Ġeng age
There fore
BA CK
ĠAD MINISTRATION
ĠBo arding
Cons ervation
Ġadmin istered
ĠAntenn a
TUR ES
Util ity
Ġconce al
Ġhar vesting
Ġposs ess
loss ary
6 4
D ate
G u
N C
N ote
R el
W all
b ul
w ide
re ar
re pair
Ġl awn
ac co
Ġth ick
ĠR D
Ġex its
eet ings
Ġun reasonable
ĠH ue
Ġr acks
oun ting
de quate
ĠV E
Ġam ounts
Ġcompl ied
Ġass isted
Ġcl aim
ING LE
Ġground water
Ġel derly
ĠSub mission
18 0
ĠCh urch
Comm unity
anit ation
Ġ................................................................................ ......
Ġorgan izations
lot s
ĠTra vel
Ġvac ation
ĠMH P
Ġimplement ation
Ġhed ges
Ġagree ments
Ġpred ominant
Ġdumps ters
ĠEntr ance
Ġdismant ling
Ġexec uted
Ġcitiz ens
ĠEd ge
Ġlibr aries
Ġfulf ill
N ON
c l
f ort
f use
l it
m ajor
p resent
u tr
y town
Ġ _
he e
al m
Ġf lu
or n
ro cery
Ġd ental
all ey
ĠS aid
ĠS ewer
ĠS mall
ĠC ul
ĠC lay
le ys
ĠD i
Ġst ren
Ġh im
Ġper vious
ĠO f
per ties
ff ect
ver ts
ĠL ane
ap id
ĠDe p
ĠDe velop
tain ed
ill i
par agraph
ĠV is
Ġhome owner
til iz
ind er
ult aneous
Ġcl othing
Ġchar ges
ĠCon n
Ġsec retary
Ġprocess ed
ĠCom mittee
Ġfl ush
Ġalle ged
Ġmar kers
Pro fessional
Ġgroup s
Ġstation ary
prov ide
ĠTown houses
ĠGr ading
Ġmarket s
ĠIll umination
ĠRed uction
Ġenclos ures
Ġrow s
ah ooc
Ġpan el
Ġobject s
ĠConven ience
Ġadvertise ment
Ġcommence ment
design ed
ĠSERV ICE
Ġsuit ability
Ġoblig ations
ĠLab or
ierc ing
ĠADJUS TMENT
ĠHue ytown
Ġstren g
ahooc hee
A uto
R ed
b ased
e wel
m ed
o es
p ole
Ġa rticles
ĠĠ ĉĠĠ
re cre
Ġp ound
Ġp awn
Ġf ish
Ġc hic
Ġc itation
Ġc ritical
Ġc rafts
Ġl umber
ve ys
le ments
Ġde al
ĠM ANUFAC
ĠB uild
Ġsp eed
Ġad ding
ĠI CW
Ġres ub
Ġres ide
Ġat h
ĠF M
ĠF if
ĠL E
ĠDe vices
ill ary
Ġen ergy
min or
Ġsu ff
Ġdis eas
Ġcondition ed
ĠAl ley
ult urist
Ġapplicant s
Ġk ennels
Ġtrans ition
ĠIns titution
ĠCh ild
ĠInd ividual
app roved
Par ks
Con ditions
Ġmat ch
Al abama
ĠFA MILY
ban k
illb oard
Man ufacturing
UN IC
att ahoochee
Ġgrass ed
OF F
ĠBre w
Exam ple
Ġdisapp roval
Ar chitectural
Ġphot ogr
Ġrenew al
TURE D
ĠHospit als
Ġaccur ate
ĠSTRUC TURES
ĠAtt orney
Ġmarri age
D uplex
F ollowing
J unk
M aster
R adio
S c
V ariances
W arehouse
c ase
n ic
o ons
s f
s ing
Â ³
in ch
Ġt ub
Ġs ited
er t
al so
ed s
Ġc ash
ar atus
at om
Ġw etland
Ġm ile
Ġl in
Ġre building
Ġto urist
id av
ĠD istance
ĠR C
am ped
ĠN OT
ĠF our
ĠF orestry
end or
Ġ20 Â³
Ġv eterinary
ĠH yd
ew ater
ĠG ateway
oun ges
Ġ6 04
Ġro t
Ġman s
Ġ7 4
Ġ8 1
ear ings
ob b
Ġso ught
Ġsim ultaneous
ĠNo ise
IC S
rec ted
Ġatt orney
Ġroof ed
Ġsc ope
Ġregul ating
Ġaff irm
Ġcour ty
Pro cedures
Ġillumin ate
Ġcurb ing
34 3
Ġend s
Ġaccomp any
Ġ................................................................................................ ....
Ch ange
ĠInter state
ĠDE LE
ĠDis charge
Ġhand ling
Ġop tions
TH ER
ĠAPP LIC
Ġsitu ation
ĠSystem s
STR UC
Ġharm on
itc hed
Ġceas es
Ġdanger ous
Ġsent ence
Ġrecyc ling
ormit ory
ĠCertific ates
Air port
Ġencomp ass
Ġexplos ive
ĠDam age
draw al
Ġholid ay
ewel ry
. ).
7 3
8 6
B oundaries
C RD
M aterials
R ight
c illary
d ec
e ad
Ġa uditor
er n
es tig
nd ered
ic i
ro of
ar k
ar ized
ar acter
Ġd itches
Ġto xic
Ġsh ore
ac tions
ĠS anitary
ĠC U
ĠA partment
ĠA fter
qu acy
ĠP owers
Ġex cep
ĠB l
ĠF ive
ĠF actor
ĠT all
ĠT IT
Ġ20 7
ĠH all
tain s
Ġpl ain
iv ided
Ġro utes
cept able
Ġoccup ies
Ġinter state
Ġcont rolling
ĠAl ternative
Ġbet ter
AL L
Ġag ed
pri vate
Ġext reme
Ġvis it
Ġexp lan
ĠCon crete
ĠCon flic
Ġconduc ting
ĠState ment
Ġbo ards
Ġaccommod ation
Ġqual ify
Al ternative
Ġiniti ate
sub division
Ġsubsequent ly
prov isions
Ġmax imize
ĠCON TENT
ĠOwn ership
ĠReg istered
Ġdown stream
Ġ199 6
Ġbuild able
Ġsymb ol
Ġcorrec ted
ĠNurs ery
Rest aurants
Ġbord er
Ġconv iction
ĠEvent s
Ġcommod ity
Ġdiffic ul
Elec tr
ĠPrac tices
author ized
Ġstring ent
atom ical
8 1
8 2
9 2
C ont
C anopy
D R
F AR
H omes
I mp
M ore
m otor
n as
n ants
o astal
ï ¿½
Ġ ïĤ§
Ġo pment
Ġs ized
Ġf a
is hes
Ġc ream
Ġm ort
ĠS us
ĠS olar
le gal
Ġcon du
ĠD oc
ĠD escription
ĠD WELLING
ul ate
Ġapp aratus
ĠM D
ĠM U
ĠM ore
ĠB lock
Ġsp r
ĠF t
Ġhe at
est ablished
ĠH I
Ġ200 2
ĠE ssential
ĠRe qu
Ġen ough
ĠG lossary
Ġ6 02
Ġ8 7
erc ent
enc hes
ĠPro bate
Ġdr ink
Th omasville
ĠUn loading
Ġsc rap
Ġform ing
Ġfoot pr
ïĤ ·
Ġdimension ed
Ġoutdoor s
ĠSh op
ĠSide walk
Ġinv estig
IG URE
Pro cedure
Ġfound ations
Ġenter ing
Ġaccomp lish
Ġconstit uting
Ġaccording ly
Plan s
Ġfact ory
ĠSubsection s
Ro ad
Ġcompr ised
Ġcompr ising
Ġassess ed
Ġreferen ces
Ġbalcon y
Ġextr a
Ġhandic ap
ĠGas oline
Tra ffic
Ġshed s
Ġmic ro
Ġfas ten
Fac ilities
Occup ancy
ĠTour ist
PLE MENT
Ġdemol ition
Ġmans ard
ĠTIT LE
D ry
L im
T N
c lassified
d ate
p eal
s ingle
v is
Ġt ables
Ġp umping
Ġb at
Ġb lo
Ġc up
Ġd ance
Ġm echan
Ġre ach
Ġre ndered
us ing
Ġn av
ĠS C
Ġth reat
ĠP os
ĠP atio
Ġan atomical
un it
ĠR adio
am ed
ĠB ody
ri ent
ĠI dentification
ĠF ollowing
Ġ3 50
ĠH and
ĠH uman
Ġr ub
Ġr ise
res h
ĠThe se
Ġ4 1
Ġch airman
ase ment
Ġset s
Ġ10 8
Ġund ivided
ĠV er
ĠV eterinary
Ġ7 9
Ġ8 03
20 5
Ġleas ing
IC ES
Ġdevelo ping
Ġaff idav
Ex p
ĠCh attahoochee
ĠInd ustry
ĠSh rubs
Ġrest ore
ustom ary
Ġavail ability
lus ion
Ġli ability
Ġdoc ks
ĠInsp ections
Ġadministrative ly
cons tructed
law s
En forcement
Be fore
Ġge ographic
ĠAb andoned
Ġdepos ited
ĠDo uble
Est ablishment
ĠHortic ulturist
Ġbright ness
Ġath letic
Ġsimultaneous ly
Ġharmon ious
7 7
9 1
A CE
O ut
P h
R IC
V iol
W ith
W ords
b uffer
Ġ %
Ġp il
Ġf owl
Ġw eight
Ġm o
Ġl at
Ġe fficiency
Ġh ad
Ġus er
Ġg utters
her n
Ġde lay
Ġcom position
ĠM O
ĠB MP
Ġres emb
Ġr id
Ġ- -
Ġcomm unities
ĠG oods
ail ers
Ġoff ensive
ĠW ood
12 0
inc lude
ĠAd opted
ĠY ARD
ang u
Ġissu es
Ġass ist
ind ustrial
Ġspecial ized
ex ceed
ĠAn nex
Ġfl ammable
pro duc
aÃ§ ades
Ġpresent ation
Ġwood y
** *
-- --
Ġvol unt
Ind ividual
applic ant
ĠGu arant
Ġpatr on
TUR AL
district s
Ġsubs tit
ĠĠĠĠĠĠĠĠĠĠĠĠĠĠĠĠĠĠĠĠĠĠĠĠĠĠĠĠĠĠĠĠĠĠĠĠĠĠĠĠĠĠĠĠĠĠĠĠ ĠĠĠĠĠĠĠĠĠĠĠ
Ġmic rowave
Ġcro ps
Ġindirect ly
Ġinjur y
mon th
Ġrecess ed
Ġdischarg es
Ġdeter ior
5 12
7 1
B ILE
P LAN
b us
d ra
g ical
m ax
v al
y n
Ġb roadcast
Ġb enches
is cellaneous
Ġc losed
Ġd imin
Ġl isting
Ġre ception
il it
et c
tr ac
ĠS m
ĠS ET
Ġe ast
ĠD ata
ĠO THER
Ġpar lors
st andard
ĠL ake
ĠL iquor
res pon
ip her
Ġdes ires
Ġ5 4
Ġen able
Ġpl acing
Ġ4 9
ĠW IT
fac ing
pen sion
Ġ8 8
pa ved
EN SION
Ġcl ient
Ġcl erk
Ġcor respon
Ġauthor izing
St ream
ales cent
Re placement
Ġ19 0
Ġreg ion
ĠCh ief
AN T
Ġpos ts
ĠJ un
Ġcol leges
ĠCom bin
not e
Ġclass ifications
Ġcontinu es
De f
Ġbuil der
Ġdam ages
Ġgener ation
iver sity
Ġdisc our
me able
Ġtreat ments
Ġpen alty
Ġsee king
Ġcam ps
Ġcam pers
Ġcontinuous ly
coh olic
Ġaccompan ying
Ġfact or
pati bility
Ġtermin ate
Ġear then
Ġfuel s
Ġsitu ations
Ġnuis ances
Ġduplex es
Ġstat ute
com pliance
Ġbur ial
IM ENSION
Ġphr ase
Ġjus tif
Ġwatercour ses
SC AP
cepti bility
Ġbrid ges
Ġtoil et
Ġimport ant
Ġsafegu ards
Ġblo od
RIC UL
dra wn
Ġcorrespon ding
) *
A partment
D ec
F in
H igh
c ce
f arm
h igh
l er
l ets
re gulations
Ġp aren
Ġf em
Ġf enestration
Ġw arning
Ġm otels
Ġbe half
Ġbe ams
Ġe ave
ĠA S
ĠA CCESSORY
om est
as ts
ll an
ul ts
ab ove
ĠO ut
ate ur
Ġnot arized
if ies
ĠF uture
ĠT echnical
ĠT ime
th ru
end a
ĠH otels
ĠE IFS
ĠRe fer
Ġac adem
ĠG lare
Ġoff ers
anc hes
ĠIn ternal
vi e
sc ri
ag ne
âĢĻ .
12 5
In terior
20 19
11 1
Ġins truments
Ġind ustries
vent s
Ġsimilar ly
ertif ied
Ġroof ing
hib its
Ġbound ed
Ġfe ed
ĠTh ree
Ġlimit ing
Ġenti ties
Ġmon uments
Ġemp has
ĠRE VIEW
ĠFac ade
Per formance
Ġfre quent
Ġdeveloper s
Ġconsider ing
embers hip
Ġsubmit ting
Ġ................................................................................................ ..............
Ġsw ales
ĠFlood way
ĠFA CIL
Ġgreen houses
Ġtechn ology
Ġproceed ing
Ġrev oked
Ġdocument ed
Ġsignificant ly
ĠUN IT
Ġsuppl ied
Ġrefl ected
Ġcarry ing
AD MINISTRATION
Ġinters ects
ĠProject ing
ĠInc idental
Ġwarr anty
Recre ation
Further more
ĠAL L
Ġjus tice
Ġattend ance
Ġpet roleum
Ġbro ken
Ġsto ops
Ġincenti ves
Ġfer tiliz
Gas oline
Ġimpr ison
Ġpress ure
ĠVE HICLE
ĠSET BACK
agne tic
A IN
A utomotive
C A
C O
G olf
M edical
O ver
P CD
U rban
Y ARD
b re
p urpose
s im
Ġ iron
Ġt ire
Ġt ile
Ġt ang
ed ed
ro ached
Ġd red
Ġw est
Âł ĠĠĠ
us al
ac c
ĠS creen
ĠS tructural
ot es
qu es
ĠP LA
ur face
Ġcon fined
ĠD ENSITY
Ġst ops
Ġst art
ure r
ul tifamily
Ġg ardens
Ġde viation
ĠI T
ĠF H
Ġ3 03
Ġ200 1
res ted
Ġ5 7
Ġco inc
eas ure
Ġ4 03
ow s
Ġ6 2
iv il
Ġaccess ibility
Ġpre vention
Ġpre vail
ĠIn iti
Ġab le
Ġ10 9
10 5
âĢĻ ).
ĠV ac
Ġ7 02
Ġ8 01
20 12
Ġar ts
EN AL
erm ost
ĠRes earch
ES T
Ġwh y
Ġwh olesaling
Ġel ection
Ġtrans it
LA TION
ĠGe otechnical
Ad ditionally
Ġaccommod ated
Ġreduc ing
Ġli en
Ġbar s
Ġcertif ying
Ġsafe ly
Ġpen ding
Ġpen etr
Ġconc urrent
Ġfarm ing
ĠLim it
Ġletter ing
ĠFOR T
Ġdecor ations
ĠFe atures
Ġcul tiv
PD ES
Ġleg isl
Ġca f
ah ue
Ġprincip les
SP ECIAL
Ġcorn ices
Ġpriv ile
ĠExemp t
Mar ch
Cle llan
lim ited
Offic ial
IP AL
Ġordin ary
spec ified
Ġappli ances
Ġstadi ums
ĠDon ahue
Ġconstr aints
ĠDELE TED
ĠCONTENT S
Ġfootpr int
Ġcup ol
ilit ary
A PP
B icycle
C al
G LA
J EC
S wimming
c ia
d ress
i os
l ies
m aximum
s ets
x ious
Ġt ail
Ġt elecommunication
er ate
al ong
it ness
ar bage
at ur
Ġm iles
Ġre vision
ĠS ale
ĠS INGLE
ĠC ENTER
Ġpro minent
ĠP AGE
Ġan ti
ĠO ption
ĠB illboards
ĠT op
we ll
Ġloc ating
Ġland owner
Ġen acted
Ġ6 6
cre ens
ĠW hether
ĠV R
Ġinter conn
Ġout er
Ġass istance
Ġgro cery
Ġrel ate
Ġ13 5
Ġeff ort
Ġlo go
Ġcle ared
ell ed
Re pair
tern ally
ĠIns titute
An tenn
Ġdi agr
Ġfl or
Ġrep roduc
ish able
Ġsubst ance
Ġrespons ibilities
sp aces
lop es
Ġcam ping
Ġfarm s
Ġbre w
Ġtermin ated
Ġconvey ed
Ġdecl aration
oper able
Ġhab itation
ĠFl ag
Ġunc ertain
Ġquanti ties
Ġmiti gation
Ġdumps ter
Ġwrec king
Pen alties
omet ric
Ġcabin et
ĠAssess or
Bo arding
Coun cil
ĠElev ation
ĠMc Clellan
Ġpound s
Ġaffidav it
ĠWIT H
C L
C omp
D F
D is
F ire
N R
S TA
T itle
W hether
W ritten
a ks
a ugh
c le
e b
f ree
p tions
t ree
t ended
t wenty
t aker
Ġs lo
ti re
Ġp itched
ing les
Ġb u
ar c
Ġd il
Ġw iring
Ġm useums
Ġre built
ve get
ĠS and
Ġan cillary
ĠD ES
ĠD IMENSION
un loading
Ġas p
00 1
st ations
ĠF IGURE
est ablishment
Ġv ending
ten sion
Ġ201 3
Ġit em
par ture
ow ing
Ġ6 10
ĠComm unication
In ternal
Ġ9 05
ov en
ov ative
Ġdec re
oci ety
Ġmet er
Ex ceptions
Ġcar port
Ġmon opole
Ġmod el
Ġprocess es
Ġcoun try
Ġrep lan
Ġinv est
Ġhor ses
Ġ* *
Ġsmall est
Ġdiv ides
Ġfloodplain s
Ġpen ins
ĠDE TA
umps ters
ĠMar ina
Ġdemonstr ated
Ġcred ited
Ġcoven ant
ĠCle aring
sac s
Ġpropos es
ĠAL DOT
Pre mise
Ġrelative ly
resp ass
Ġmiti gate
reat ment
ĠLAND SCAP
ĠClinic s
Ġplaz as
ĠZON E
Ġsupers ede
aus ole
Ġvisit ors
Ġsubstit uted
7 8
= =
A TER
M on
M INIMUM
N ED
S ize
U B
U pper
Y es
a ult
e am
e rected
g le
Ġs am
Ġf iber
Ġin trus
Ġin hab
Ġm ixture
Ġre in
Ġre use
ĠC ertain
ĠC ateg
qu al
ĠD irect
Ġst ar
ub ric
Ġnot hing
os a
Ġcom fort
ĠM otel
ĠN VC
ĠF EMA
ater ing
ĠH earings
ĠRe zoning
Ġen s
ĠSt orm
ĠG overn
Ġdesign ate
Ġy ield
Ġro ute
ĠĠĠĠĠĠĠĠĠĠĠĠĠĠĠĠ ĠĠĠĠĠĠĠ
ĠW ritten
Ġ8 04
Ġrec over
Ġrem od
Ġhere of
Ġenc roached
Ġactiv ated
Ġexc ludes
Ġresp ond
owe red
AN ISH
Ġav o
Ġrun s
Ġsubst ations
Ġhor tic
iver ies
Ġmotor ized
Ġprom ul
Applic able
Ġmat ure
Ġbed rooms
ĠPRO CEDURES
ordin ary
Ġ110 3
ath s
ari an
Ġpic nic
ĠIt em
Ġkind ergarten
Ġdef ine
ret ail
ĠSP ANISH
let ed
BD IVISION
Ġdeline ation
exc lusive
DE VELOPMENT
ĠQ ual
ĠPLAN NING
Ġmini ature
Ġcontrib uting
Ġdisapp rove
Ġprec lude
ĠEase ment
Ġdisp ensing
Ġprof iles
ĠLic ense
Ġtem per
EAL S
ĠES TABLISHMENT
Ġrain fall
omic iliary
ĠCONDI TIONS
utr al
3 04
B ar
D H
E rosion
M M
V ariance
W AY
c ul
d ays
g a
k n
p ub
s per
s ales
u ation
ï Ģ
Ġ ide
Ġt ren
Ġs ion
Ġs truc
Ġs oft
en ial
Ġp ets
Ġb er
Ġc ited
Ġd rop
Ġl ake
Ġl oss
tr act
ig id
ĠS um
ĠS ix
ĠA utomotive
Ġpro pri
le a
ĠP M
ĠP ole
ĠP ercent
ur ring
ĠD istribution
Ġwith drawn
Ġst air
ess age
Ġg ates
ut ting
Ġde ep
Ġcom pos
ver sion
ĠN othing
rom agnetic
ĠF orm
ĠF ast
ĠF RON
ĠT ele
ĠL arge
we ight
ee ees
Ġno w
Ġ5 6
Ġen gine
ib ly
Ġwhe el
ree k
Ġ6 1
ĠâĢ ¦
ag oon
Ġdis posed
Ġup ward
Ġ9 2
Ġ9 4
Ġ9 00
Ġcont ours
ak eries
Ġout line
ĠRes idence
Ġhere to
Ġdec iduous
aw ings
Ġgro wn
Ġover flow
rec i
ĠSub urban
Ġtrans paren
be low
Ġreg ister
Ġmon it
Ġrece ives
Ġroom ing
yc ling
Ġprom otion
Ġinten sive
Ġdetail ing
ule v
Ġdiff er
Ġprotect ing
CC D
Ch apter
ĠVehic ular
Ġobj ective
Ġenh anced
ĠBo at
Ġimplement ed
Ġclose ly
atch ing
Vehic ular
Prov ided
Ġcontrib ute
ĠHor izontal
ĠSTR EET
Ġcell ular
Ġsuccess ors
Ġvary ing
Ġlabor atories
Ġabate ment
ĠEnc roach
Ġfund s
Ġbear ings
adj acent
Ġ02 5
Ġventil ation
Amend ments
Ġgather ing
ĠVis ibility
Ġextra ordinary
trac oastal
Ġuncertain ty
sper ity
6 9
F U
F inal
G S
L I
O OR
S ales
c y
t a
t ower
Ġ 03
Ġ ............
Ġt ies
Ġo ld
Ġs un
Ġs alv
ti ble
Ġc ables
Ġd ense
Ġw ider
Ġsh ingles
tr actor
ĠS I
ĠS ediment
Ġth us
ĠC r
ĠC OM
as hes
ĠP V
Ġan al
Ġst amped
Ġper col
ĠO per
ĠO VER
Ġnot withstanding
Ġany thing
am in
ver ns
ri x
ap anes
Ġ20 3
ĠH ouses
Ġr ule
Ġ5 04
Ġ5 05
Ġ6 3
Ġ6 9
Ġ6 07
Ġman ual
Ġman made
ag og
In stallation
Ġup h
Ġ8 9
Ġse aled
20 20
Ġimp ound
Ġ9 6
Ġ9 9
ear ning
Ġout let
te gr
Ġoper ates
Ġutil ization
Ġcor resp
Ġ50 8
Ġform at
ĠIns trument
Ġaff ords
Ġph one
Ġph arm
ĠCh anges
ĠSec urity
Ġadver tis
ĠSh ort
IL ITY
Ġmar king
ĠProv ision
Street s
Ġend anger
Ġ................................................................................ ..........
Ġminim izing
Ġdisc arded
Ġ150 3
ĠPark way
Al lowed
Ġlicense e
ĠBe fore
Ġbr anches
Ġvac ated
Ġcul verts
ĠOwn ers
light ing
ĠĉĠĉĠ ĉĠĉĠĉĠĉĠ
Ġsk irting
OU ND
Ġhydr ant
ĠComp ut
Ġelect romagnetic
Own ership
Ġdepict ing
ĠMon ument
Ġbicyc les
ĠExam ple
ĠJud ge
ĠCemeter y
bul ance
STRUC TION
tire ment
Ġpropri et
apanes e
Ġcorresp ond
3 03
C urb
H otel
P e
S ever
S chools
T elecommunications
U FF
Y ards
c ontinu
p ons
s etback
Ġp iers
Ġb ins
Ġf oun
it an
Ġin junction
Ġm ed
Ġm akes
Ġl ies
Ġl ubric
Ġto ols
Ġn ational
ĠC ivic
ĠC VC
ĠA nd
Ġpro gress
as ters
ul ic
ab olic
um ed
ge red
Ġde em
Ġde vel
ol itan
ĠB ase
ĠB ldg
Ġinc lusive
Ġinc lusion
ĠF urniture
ĠT ermin
ĠRe port
Ġac ted
Ġac ts
Ġac quired
Ġtr ue
ĠG ardens
Ġy et
ĠĠĠĠĠĠĠĠĠĠĠĠĠĠĠĠ ĠĠĠĠĠĠĠĠĠĠĠĠ
Ġpre par
Ġpre ferred
Ġtw ice
anc ies
ade ga
10 1
eral s
Ġ7 50
Ġ8 6
su itable
Ġsur gical
Ġne on
Ġimp ro
ĠY ARDS
Ġrem ote
ĠPar t
ĠAl so
Ġcl ar
Ġ100 1
Ġchar itable
ĠX VI
LA Y
Ġj un
umin ous
Ġresp on
Ġperiod ic
Ġviol ating
Ġidenti cal
Ġconn ectivity
Ġmod ular
ra ulic
Ġcol location
ĠSh ared
ĠCl ubs
Ad ult
Ġcur ve
Ġobs erve
orpor ated
Ġiniti ation
Ġdiffe rence
Ġbre ak
pati ent
Ġtri ps
Ġcompound s
ĠBan ners
ĠLO C
Ġrenew ed
AP TER
Ġmass ing
ĠDR I
Ġsyn agog
Ġcr ushed
Ġmis cellaneous
ILE D
ĠEntr ances
Ġrect angle
Ġplaz a
Ġple as
Ass isted
owled ge
Exemp t
Ġreservoir s
Ġannoun ce
CEP TION
ĠDep th
recre ational
Ġcourty ard
Ġfa ith
bus tible
% .
8 3
C ivic
D escription
H or
M S
M et
N one
N OT
P C
T en
T otal
U p
W ood
X IM
b ell
b oth
c ertain
e very
m aintenance
n ew
s he
t or
t ly
re ed
en ch
or ative
at able
Ġd igital
Ġin operable
Ġsh oe
us ted
tr a
Ġn amed
ĠS atellite
ĠC E
Ġpro mp
Ġpro sperity
qu et
ĠP or
ĠP et
Ġst able
ĠR ecomm
lic it
am b
ĠM iscellaneous
ĠB on
st ormwater
Ġres istant
ĠF ace
ĠF ield
we ather
Ġv ested
Ġplan ter
ĠH M
el ing
ĠSt one
Ġ4 06
ail s
ive red
ĠW aste
lis hing
fac ility
ĠIn tracoastal
Ġ7 1
IN D
erc ially
20 9
Ġne utral
Ġinter ven
Ġ9 7
pa id
Ġoper ational
ĠAl low
rit ory
Ġ11 8
Ġag ents
Ġag rees
Ġk ennel
Ġ13 4
Ġeff orts
Ġsc he
ell er
be ing
ep endent
Ġ0 7
ĠIns urer
Ġindic ation
Ġlic ensing
ument ation
Ġincre asing
Ġexten sive
Ġ60 9
Ġencour aging
Ġact ually
Ġpen nants
Ġsee ks
Ġrev oke
ĠCour ts
ĠNot withstanding
En tr
Ġdirec tions
Ġrele ased
Ġencroach ments
Ġadv ant
Ġdef ault
ĠĉĠĉĠ ĉĠĠ
Ġconcer ned
Ġlike ly
Ġpa pers
Ġlit tle
Ġoppos ing
Ġexpen ses
ĠBan k
ĠBan ner
Ġcorrec tion
rop olitan
Ġmul ch
Ġnonconform ities
Ġdiscontinu ance
âĢ¦âĢ¦âĢ¦âĢ¦âĢ¦âĢ¦âĢ¦âĢ¦ âĢ¦âĢ¦âĢ¦âĢ¦âĢ¦âĢ¦âĢ¦âĢ¦
Ġdel ivered
Town house
Ġ113 0
ĠPR IN
ĠCH APTER
ormit ories
ivers ities
Wh ile
Conven ience
ĠStudi o
Ġlog os
Cemeter ies
Ġfasten ed
angu age
Ġdred ging
ENAL TIES
ulev ard
Ġadvertis ed
Sever ability
D WELLING
G arden
G arages
H IB
L RD
S I
S elf
W alls
Y P
c over
c yc
e quipment
k ens
l able
m ond
m aterials
r ases
s aid
u x
w idth
Ġt ar
Ġt est
Ġt urb
Ġt akes
re g
Ġb acking
Ġre d
Ġto t
Ġbe verage
ec ause
ac ting
ĠS ew
ĠS DS
ĠC OR
ĠC redit
Ġfor fe
im als
qu is
ay ed
ĠD irectional
Ġwith drawal
Ġ1 16
Ġ1 14
ire c
Ġst ability
Ġh oles
ul p
ul ing
ut ine
Ġde viations
Ġnot e
ain s
ĠM organ
ĠB rick
Ġsp lit
ĠF encing
ĠT ur
are l
ĠL ay
ĠL ivestock
ap es
Ġpermit tee
Ġal ways
Ġ3 05
ĠH OUSE
ĠE ffective
res ents
ĠRe al
ĠRe ce
Ġ5 3
Ġwhe never
ĠW arehousing
Ġdis rup
12 2
ber y
ĠV eget
Ġup stream
Ġne ither
Ġrec on
Ġ9 02
Ġ9 06
Ġ9 07
Ġ9 09
ĠSp acing
ear ance
Ġout ermost
con formance
ĠPro gram
Ġlight weight
Ġhere under
Ġcl oth
Th ree
out hern
ress ed
Ġag reed
ĠX VIII
Ġtrans form
18 9
Re g
ex ception
ĠTh rough
App roved
arg er
Ġcre m
Ġconsist ency
ĠCons ider
Ġcoll ected
ie ve
Ad ded
Ġcontinu ation
Ġfil es
sp ecial
ÂłĠÂłĠÂłĠÂłĠ ÂłĠÂłĠÂłĠÂł
Ġradi i
Ġ................................................................................ ..............
Ġ................................................................................ ...............
Ġsee k
Ġcalcul ating
ĠMar ket
Ġbeg un
az ing
Ġinstit ute
att ended
Ġcertific ations
ĠDr awings
Ġpolic y
ĠSc ale
cour age
ĠĠĠĠĠĠĠĠĠĠĠĠĠĠĠĠĠĠĠĠĠĠĠĠĠĠĠĠĠĠĠĠĠĠĠĠĠĠĠĠĠĠĠĠĠĠĠĠĠĠĠĠĠĠĠĠĠĠĠĠĠĠĠĠ ĠĠĠĠĠĠĠĠĠĠĠĠĠĠĠĠĠĠĠĠĠĠĠĠĠĠĠĠĠĠĠĠ
UL TI
Ġstee ples
Ġoppos ition
ĠAG RICUL
Drive ways
Ġunc lassified
Ġseas on
Ġelement ary
Ġuns ight
ich mond
Ġsupplement ed
Ġsex ually
Ġsecure ly
Ġsand wich
Ġattach ment
ÂłÂłÂłÂł ÂłÂłÂłÂł
Ġwast ewater
ĠExp iration
Util ities
Ġfas cia
ĠIntersection s
ĠWh olesale
COMM ERCIAL
imp roved
Author ity
Ġord ers
Ġinund ation
issu ed
Ġmedi an
Ġinser tion
Le gal
Hospit als
Ġemphas is
Ġcupol as
atur ated
ĠDIMENSION AL
ĠDETA ILED
Ġpromul gated
Ġimpro per
XIM UM
8 4
9 8
9 05
A M
A griculture
A dequate
B OR
C ondominium
C IPAL
E IFS
L ine
L DD
O US
P or
P AR
S quare
S imilar
W idth
W ireless
b es
c enter
d escri
e ment
h and
m as
m od
p ec
p ut
p ower
x es
Ġ ~
Ġs al
Ġs anc
Ġs anitation
ti ous
Ġp s
Ġp ol
Ġb ird
Ġf ide
Ġw arehouses
Ġm ph
Ġm ounting
Ġl um
ec es
ĠS ITE
ĠS enior
ĠC ARE
Ġpro l
le vel
ĠP urposes
ĠD IS
ĠD DH
Ġst ag
un its
ĠR O
ĠR ate
lic ensed
Ġg en
Ġg able
ol ete
ter ies
ĠM ach
ĠM otor
ĠB est
ad r
rov als
Ġal ignment
Ġv endor
Ġ3 20
Ġ3 06
ĠDe veloper
Ġ6 7
Ġ6 06
ĠĠĠĠĠĠĠĠĠĠĠĠĠĠĠĠ ĠĠĠĠĠĠĠĠ
Ġpre f
Ġ7 6
Ġsa ve
Ġ8 37
erc us
Ġnon profit
Ġimp ede
Ġ9 1
Ġ9 3
ĠRes erve
Ġgre ase
Ġrel ates
tric ted
Ġ13 6
Re qu
Re gul
be red
Ġcenter lines
Ġdisplay ing
Ġ14 4
ĠJ URISDICTION
Ġade quacy
Ġrep resents
Ġdep reci
RO U
Ġ17 0
iel ding
Ġqual ifying
Ġprevent s
Ġcap ital
ĠTr ailer
Ġbar rel
Ġded ic
ixture s
Ġdisc ern
Ġsubsection s
Ġgreen ways
ĠLim its
Ġsignific ance
Ġarterial s
Ġcross ing
Ġrepresent ed
az ed
att le
Ġmail ing
ĠSP ACE
Ġharm ful
ĠREQUIRE D
END IX
ĠMod ification
ĠMA P
ĠMA IN
Ġbon a
Ġhard ware
ĠFl ags
Ġfeas ibility
Ġexerc ising
Com pliance
Ġpack age
Ġcro wn
ĠEnc losed
Ġprof ile
ĠBar ber
:: ::
Ġwrec ked
Ġbi ke
Ġliquid s
ĠPolic e
Ġstip ulated
ĠWal king
ĠAwn ing
Ġwid ening
ANC ES
Ġcompli ment
Ġinn ovative
Is su
ĠTE LE
ĠTall adega
ĠVer tical
Ġprivile ge
Ġtemper ature
ĠCE OD
Ġinterven ing
8 8
8 02
9 4
B re
B ldg
C ertific
C ontinu
F ees
G AL
M ust
M ANUFAC
O per
P R
P ARK
P ORT
_ -
c row
d le
f if
l der
l ists
l legal
n one
t owers
v as
w w
w er
w alls
y r
in ks
Ġs er
or ized
ro log
Ġd orm
Ġd irector
Ġd air
id s
ĠC he
ĠC amp
ĠA C
ĠA cre
le ast
im ated
ĠP lay
Ġper forming
ĠO P
Ġde celeration
os es
Ġpar lor
ĠN ames
Ġres erve
th s
lu e
Ġv ent
em pl
erv es
Ġr aw
Ġr apid
Ġco astal
ord er
ord ance
Ġro utine
fac es
ĠIn n
Ġsu ite
Ġse am
Ġestablis hes
11 3
Ġdo gs
No tice
ang ers
ĠAl leys
Ġ100 9
ĠEn sure
St andard
mp loy
ĠSub mittal
Ġexp ression
Ġperiod ically
Ġinte rested
Ġstr ong
Ġsurround ings
ĠInd ustries
Ġback fill
ĠNon conformities
Ġsuppor tive
Ġclass room
IL L
ĠLandscap ed
Ġappear s
Ġocc as
Ġqual ities
ĠFor ty
Applic ant
OP Y
Ġcover s
ĠPre vention
Ġsecond s
ĠAss isted
Ġfurn ishing
Ġbre ast
conform ity
IR M
ĠDr ug
Ġexam ples
ĠIt ems
Ġtri angular
Ġca using
Ġes cape
Ġce ment
ĠXX VIII
Ġstat utes
Ġeconom y
Ġeconom ically
Ġassign ment
Ġload s
Ġremed ial
Ġrender ing
ĠPh rases
Ġvibr ations
Ġtur f
roadc asting
Ġextr action
Ġtopographic al
ĠCirc uit
Ġsell s
Ġcomplex es
SIGN S
ĠUnder story
ĠTen nis
Cl ubs
Ġcand id
ĠIllustr ations
vail ability
sur face
COMM UNIC
Ġinterpret ations
adj oining
ĠZON ES
ĠREC RE
Ġlod ges
Green belt
Ġchemical s
Ġobstruc tions
main tained
range ment
Awn ings
Rel igious
Ġpredominant ly
ĠLabor atories
PLEMENT AL
Ġresemb le
ĠJun iper
Ġfertiliz ers
ĠâĢ¦ .
Ġuph ols
ĠPRIN CIPAL
descri bed
Ġstag gered
D U
D irector
M O
R em
R eal
S atellite
b b
e ff
f ence
i ew
i pping
l m
l iance
m et
m ust
m ost
s ervices
t of
w ill
w hether
Ġt respass
Ġs aturated
Ġf ast
an a
Ġc raft
Ġc atering
at eness
Ġd ates
Ġl anguage
et te
id ences
ĠS N
ĠC obb
lo aded
ĠP ower
ĠP awn
ĠD ry
Ġst anch
ign ed
Ġper ipher
Ġper meable
Ġapp oint
ĠR DD
Ġg az
os ter
ĠM OD
oc ational
st s
st ant
if er
ri end
ĠT V
up lic
Ġv irt
ĠH ab
res ident
ip s
ĠSt ay
ĠG re
ĠĠĠĠĠĠĠĠĠĠĠĠĠĠĠĠ ĠĠĠĠĠĠĠĠĠĠĠ
ĠW a
ĠW ork
ĠW ildlife
Ġman aged
de veloped
vi i
12 3
su fficient
Ġsur v
11 8
Ġne at
Ġcondition ally
Ġthere from
the se
Ġinter rup
ĠSign ature
ass age
Ġday care
Ġissu ing
13 1
Ġcor r
Ġag enda
Ġauthor izes
bor ist
Ġover l
so ever
Ġperson nel
Ġ15 Â
Ġ13 02
Ġspecial ty
ĠSub paragraph
Ġ12 2
Ġ12 4
OR D
OR ARY
Ġj ewelry
Ġ19 76
Ġaff ects
RE EN
Ġwas hes
Ġgu ard
De veloper
Ġhor se
Con flic
Ġprevent ing
ogr aphy
Ġ................................................................................ ..
Ġ................................................................................ ...........
ĠWater shed
pr imary
Ġdisc ount
Ġwal ks
ĠLo an
Ġdiv isions
ĠBe verage
Ġ................................................................................................................ ...
ĠDis abilities
Ġwalk able
Ġ110 1
Ġ110 2
Ġtermin als
Ġcul vert
ĠAPP EALS
Ġtri p
________________ ________________
Ġrefl ective
Ġques tions
AS H
ĠReg ister
MP ORARY
ĠProject s
ĠRepair s
Ġ111 5
Ġaesthetic ally
ĠBan ks
CH ED
int ended
Not withstanding
Prov ide
Ġweek ly
Ġnecess ity
Ġarc ades
Ġflex ible
agn os
Inc ludes
Ġsupplement ary
Tra ditional
ARE A
Ġuniform ly
Ġperpet ual
Ġcand le
Pl aces
ĠViol ations
Ġinjur ious
Ġexper i
Ill ustr
plex es
Ġordin arily
Ġobsc ure
Ġlap se
Nurs ing
clos ing
Ġlumin a
Ġemission s
Ġpreced ing
Ġdon ation
PER MIT
Ġdifficul ty
Ġasp ects
Ġinvest ment
ĠQual ity
Ġmonit oring
Ġpercol ation
Ġfoun tains
HIB IT
pec ially
tof ore
, "
8 9
E E
E IGH
F ood
M eetings
S ervices
c and
c her
e gress
g ments
h or
i entif
j ected
n umber
o tic
o uth
s ize
t urn
Ġ quirements
Ġt ires
Ġo lder
re quire
Ġp oor
Ġf ishing
Ġf aÃ§ades
Ġc em
Ġc ivil
Ġd ark
Ġin operative
Ġm ills
Ġm ilitary
Ġto b
us tification
tr ailer
ĠC BR
le ase
qu ar
ĠP O
ĠP avement
Ġan ce
ĠD etermination
Ġh ood
Ġh ipped
Ġus age
ul as
un ch
ĠO rient
ĠM C
ĠM ail
ĠM otels
oc ket
ĠI m
Ġres c
ĠF ree
ĠT YP
ĠL ee
ĠL DD
ĠL agoon
Ġal one
Ġun iversities
Ġr ates
ĠRe placed
ĠThe y
Ġen ce
eas onal
ĠG rocery
par k
Ġconstruc ting
Ġman y
de fined
Ġund ers
pl ies
Ġdis abled
12 4
Ġ7 8
Ġ7 00
ak ery
ĠPer imeter
50 2
Ġhere tofore
Ġ................................................................ ...............
Ġ................................................................ ..........
av ity
EC IFIC
13 5
AR I
Ġ11 7
Ġ11 9
ĠUn iform
ĠCon ference
Ġdi verse
Ġcre ative
eng aged
Ġbase ments
TA GE
Ġver ified
Ġcontinu ance
ops is
ash ion
ĠCor n
medi ate
Ġdem arc
ĠTH ERE
Ġ................................................................................................ .
Non residential
OW N
Ġdiffe ren
Sh ort
Ġ................................................................................................................ ..
Ġcam per
Ġmove ments
ĠTrans itional
En gineer
Ġdirec ts
Ġexcav ating
Ġes pecially
Ġoffic ers
Ġfabric ated
Ġshe ep
Ġshe ets
Ġsus pend
ĠSU B
Ġter ritory
Ġrestr aining
Ġarc ade
Ġwhat soever
mar k
Insp ection
Ġgraphic s
Ġgall ons
Ġgall eries
Ġstabil ization
Town houses
Ġsuccess or
Ġdemand s
Ġrecyc lable
Ac tive
Ġpack aging
Ġconce aled
Gr ade
Ġenfor cing
Ġrect angular
ĠQu ercus
Ġpad s
Ġincenti ve
Ġent ered
ĠPool s
ĠRun way
HO OD
ĠLaund ry
ALE S
ĠPe tition
Ġrenov ation
Ġcollect ors
Ġsust ain
ici encies
Imp rove
Ġimprison ment
JEC T
ĠVR M
ĠOVER LAY
BOR HOOD
riend ly
EIGH BORHOOD
ientif ic
" )
A ction
A SE
C ottage
D i
F E
F aÃ§ade
H E
L ow
S e
S q
e an
n atural
u de
Ġ +
Ġa im
in divid
Ġt on
Ġt ure
re m
Ġp as
ed ication
Ġb le
or ity
is c
an ing
ic it
ic ulture
Ġc ust
ent ly
Ġd itch
Ġw atch
Ġm uch
Ġm ausole
Ġsh aped
ve re
ac tivities
ĠS ight
ĠS lopes
Ġth orough
ĠC L
im ate
ur ned
Ġapp ra
ĠR adi
ĠR ailroad
Ġex ternally
Ġde pending
ain t
ĠM embership
Ġprov ed
Ġsp ires
if eration
ri ving
ĠU nd
th ree
ĠL ounge
ers ons
Ġun finished
Ġun authorized
Ġun improved
Ġr igid
ew ork
Ġcomp an
Ġcomp el
el ec
Ġ4 20
ĠG enerally
de veloper
ĠIn ventory
10 3
Ġam ateur
20 1
Ġexceed ed
con ies
Ġle ading
ER Y
ĠRes erved
Ġ................................................................ ...
Ġ................................................................ ......
Ġ................................................................ .........
Ġsim ulated
Ġenc lose
Ġcl adding
Th rough
IS TING
Ġ11 12
pri ateness
here in
Ġk ey
Ġvar ied
Ġroof top
18 2
Ġj oin
Ġstore front
Ġexp end
Ġph asing
Ġdi agnos
Ġmod erate
ĠRE P
app ing
Ġdep endent
TA TION
pro p
Ġsubst andard
Ġfre ight
ĠRo oming
Ġref usal
Ġpresent ly
Ġfurther ance
Ġtract or
ĠWidth s
ĠVI O
Ġmat urity
60 8
Ġorgan ic
Ġneare r
eeee ee
ĠRoad s
Ġaltern atives
Ch ild
Sh ared
pers ons
Ġkn owledge
ĠSpec imen
Ġfunction ing
comm on
Other wise
ĠSc ope
Ġassign s
Ġgarden ing
Ġparti al
ĠSU BDIVISION
ĠDec ision
Ġbl ack
ĠRel ief
TUR ING
Ġbur den
Flood plain
Ġdetri ment
Ġjus tification
ĠProcess ing
Ban ners
ĠMet hod
ird ers
Mod ular
Ġlandfill s
ĠPolic y
ĠAMEND MENTS
Ġprin ting
Ġbul bs
Ġfram ework
TIT U
ĠAPPLIC ATION
Ġauditor ium
Ġinvestig ation
Ġrid ge
ĠGuarant ee
omest ay
Ġacadem ic
ĠIniti ation
ĠDES IGN
Ġinhab it
Ġrespon se
Ġpromp tly
Ġadvant age
ĠTELE COMMUNIC
4 03
6 03
A V
A cc
B ase
B uild
C ross
D oor
S B
d ated
f reestanding
h a
n ipe
r ist
t otal
v d
v idence
z e
Ġa er
re ll
he rent
Ġs creens
Ġp ent
Ġp ut
Ġb uses
Ġb owling
Ġf ew
Ġf ashion
it uminous
Ġc ent
ar ch
Ġd ues
Ġd uplic
Ġw earing
Ġl ost
Ġl ounges
Ġre fin
Ġsh ielding
ation ally
ĠS T
ĠS alvage
ĠC am
Ġpro ve
le af
lo red
uc ed
ĠP ENALTIES
ĠD ormitory
Ġ1 21
Ġon going
Ġst ables
Ġh ards
ure au
un less
Ġde parture
Ġcom mit
ĠM R
ty p
ri er
Ġat ten
ĠU s
ĠU sed
est one
Ġun able
Ġ3 01
ĠE duc
Ġdes ire
ee k
tain ing
Ġco ol
Ġ4 02
TI L
Ġim minent
Ġminimum s
ons tructural
Ġdis s
ific ant
ound ation
âĢĿ ).
Ġcont amin
50 5
EC TIVE
Ġ100 5
Ġ100 7
Ġdefin ite
imension s
Ġmeas uring
ĠEx tension
divid ed
Ġpres erving
Ġ13 01
ĠX V
Ġtrans mitted
ati le
over ning
ĠHome owner
Ġstate ments
Ġ14 0
Ġret urned
ĠJ apanese
land scap
ĠSh ow
ĠCl ause
emp loy
TA IL
Ġcombin ations
ĠAc res
ĠBusiness es
Ġlength s
ĠPl umbing
Ġref resh
Ġcur ves
ĠCor por
Applic ants
Ġencour ages
Ġgroup ed
Ġminim ized
Ġflow ers
OT EL
ĠTH IS
Ġpass ed
Ġ................................................................................................ ...............
Ġsw ine
Ġenvironment ally
ĠRoad way
Ġdri ven
Ġbr anch
Ġconc urring
Ġ120 1
ĠEst ablish
whic hever
Ġvalid ity
Development s
Ġconsum er
ĠGr ant
ĠLoc ations
ĠAD A
Ġadv ise
Ġmail ed
Ġdef iciencies
Ġpa vers
alid ity
Ġstee p
plan ting
ĠRiver front
Ġwee ks
Ġremed y
Ġshort est
Drive way
Ġabs or
Ġnight time
Ġforward ed
Ġsyn opsis
Ġbenef icial
Ġconv alescent
Ġattach ments
trus ive
ĠLI MIT
ĠNON CONFORMING
proof ing
Offic es
Loc ations
ĠContinu ance
ĠRegul ation
RES IDENTIAL
Ġball oons
Ġartic ulation
Ġshrub bery
Ġconcentr ation
Ġbul b
ĠCLASSIFIC ATION
Ġthick ness
ĠMANUFAC TURED
ĠBl vd
Ġlat tice
Ġcultiv ation
ĠCateg ory
Ġstar ted
Ġremod eling
Ġhortic ulture
Ġtot ally
Ġsanc t
Ġprol iferation
Issu ance
Illustr ative
Ġtob acco
individ ual
prop elled
F uture
L ivestock
M otel
N ames
P atio
b ar
g let
l iving
m ate
o ks
o osa
s on
t emporary
u til
u aries
v ol
w ards
w orks
y m
Ġ \
Ġ quired
Ġ .............
in ce
in us
ti le
Ġp ens
es irable
Ġb road
Ġb ench
Ġb ureau
an n
ro wn
at hered
Ġd enti
Ġw ave
Ġw itness
Ġre ject
Ġre vert
Ġre locate
tr ailers
ĠS od
ĠC CC
ĠA partments
Ġpro hibition
uc tions
ĠP rom
ĠP ine
ĠP ipe
ĠD em
ĠD ATE
Ġ2 40
Ġh un
Ġh ip
Ġh anging
Ġper il
and f
Ġby laws
Ġg ases
Ġg amb
ab b
ĠO glet
eet ing
ain ted
ter min
Ġcom e
ĠM INIMUM
ĠB OUND
ĠN RD
rom ats
ĠF irst
ĠT ER
ĠT ables
em n
ĠH RD
Ġr ated
Ġr iding
Ġr ags
Ġtr acks
form s
Ġ4 05
Ġcomm ercially
Ġch ance
TI F
ĠG arages
Ġdesign er
Ġ6 11
Ġim ages
Ġim poses
ĠâĢ Ĳ
ĠW V
ĠW ash
vi ii
pl ot
Ġdet ect
Ġ7 03
Ġ7 05
Ġse vere
Ġadj ustments
Ġwhere ver
Ġwhere by
Ġless en
Ġ9 01
Ġcont empl
ĠApp rovals
ĠRes pons
50 8
ov ed
Ġ................................................................ ..............
Ġpart ment
ĠNo tification
Ġcl ay
ĠEx tended
ĠX IV
section al
Ġ50 9
Ġ12 7
Ġform er
water shed
ple tion
ĠIns truction
Ġviol ate
Ġ14 02
Ex c
Ġdi ver
Ġhigh ly
ĠCom plete
Ġrep e
Ġcirc le
Ġrepl acing
Ġcontinu ing
De partment
off ice
Ġer ty
Ġ* **
Ġref ers
Ġprac tition
Ġmotor ist
Ġstrip ing
pret ations
rid ge
Ġprom otes
Ġ................................................................................ .........
Ġbar bed
ĠWater front
Ġ................................................................................................ ...
Ġoccur rence
ĠBe auty
ĠDis till
Ġ................................................ .............
ĠSpec ified
Ġelectric ity
Ġhyd raulic
TH E
rin ting
ĠSP AC
AD E
ĠBo ulevard
Ġment ally
Ġillustr ations
Ġinters ect
Ġlaund ries
Ġsty les
Ġrailroad s
ĠPLAN NED
Ġabs ent
Ġinvalid ate
Pre mises
Ġpurch as
Ġpurch ased
Ġsl augh
ĠAmeric ans
Ġstrict ly
Ġgall on
Ġdel iveries
Ġroot s
right s
cont ained
Ġbel t
Ġder ived
ĠSERV ICES
ĠNA ICS
Fl ag
AB ILITY
ĠCan opies
Exemp tions
Ġpun ished
Ġspe ech
Ġorigin ally
ĠAwn ings
Ġcomput er
Ġstreng th
Ġchic kens
Ġdiseas ed
dec iduous
ĠCombin ed
ĠScreen ed
Ġdiagr am
Ġslo ping
Ġdil ig
Ġens uring
Ġavo ided
ïĢ ¸
Ġtren ch
ĠPercent age
PARK ING
ĠRECRE ATIONAL
ĠOglet ree
3 41
5 18
A CCESSORY
C ESS
C lass
E ffective
F R
F EMA
G ross
H ouse
H otels
M E
N ER
V eget
d own
m en
m ap
m ulti
n ant
p ass
w hen
Ġ ulti
Ġ ...........
Ġa udi
Ġt ab
re f
re r
re view
he et
Ġs ense
ed ar
Ġb or
or ied
it ating
is ms
an na
ro ut
Ġc as
Ġc ott
Ġc attle
Ġd u
Ġm it
Ġm alt
Ġl ack
Ġl amp
Ġto ur
ac tivity
ĠS B
ĠS L
ĠS av
ĠS CCD
Ġpro tru
Ġpro sec
lo sion
ĠD enial
Ġst ays
Ġh obby
Ġas certain
ĠO bs
ol ding
ĠM echanical
ĠB etween
ĠB illboard
Ġpar abolic
Ġsp ot
Ġsp ill
Ġsp read
st ore
if ts
Ġuse able
ĠF IN
ĠF ull
ĠF uel
Ġv ap
Ġv ents
Ġv illage
Ġun p
erv ious
Ġ3 02
ĠH ard
Ġr is
ĠDe line
Ġno xious
Ġ5 03
Ġ4 29
Ġdesign ations
Ġint ends
ree z
Ġ6 8
ĠĠĠĠĠĠĠĠĠĠĠĠĠĠĠĠ ĠĠĠĠĠĠĠĠĠĠĠĠĠ
ĠĠĠĠĠĠĠĠĠĠĠĠĠĠĠĠ ĠĠĠĠĠĠĠĠĠĠĠĠĠĠĠ
lis ted
pl ified
âĢĻ ),
Ġ7 3
Ġ7 06
Ġam b
Ġsa ved
Ġrec l
Ġtow ing
ak ers
EN CE
No ise
ĠRes ol
Ġ................................................................ ....
out door
13 0
Ġvi i
Ġfin ed
Ġel ected
Ġ13 8
ĠSub watershed
ĠX III
section s
hib itions
ĠHome owners
Ġexp licit
Ġcharacter s
ĠStreet scape
Ġviol ator
ĠĠĠĠĠĠĠĠĠĠĠĠĠĠĠĠĠĠĠĠĠĠĠĠĠĠĠĠĠĠĠĠ ĠĠĠĠĠĠĠĠĠĠĠĠĠĠĠĠĠĠĠĠĠ
Ġassoci ations
Ġproduc ing
App eal
Ġelev ator
Ġsec uring
Ġstr ateg
Ġdescri ptions
________ __
Ġdep ression
ĠMap le
TA IN
Ġstream ers
Ġview ing
lus ions
anit ar
ĠCont ain
Ġprom o
iven ess
Ġwood en
200 6
Ġ................................................................................ ....
Ġ................................................................................ .....
IV E
Ġ................................................................................................ ...........
Ġ................................................................................................ ......
Ġsw itch
Plan t
Plan ting
ID TH
Ġinf irm
og s
................................................................................................ ..
front age
Ġ................................................ ............
Ġ120 3
Ġrepresent ation
Ġrev ocation
Ġ110 4
ĠAPP ENDIX
ĠLoc ated
Ġleg ible
Ġdemonstr ating
Ġprescri be
Ġfirm s
District s
Ġbal ance
Ġindoor s
Ġaesthe tics
Ġpost age
Ġsus pension
Ġgo ats
Ro oming
Ġ199 7
ĠMH R
ĠCal c
com plete
FORM ANCE
Ġelimin ation
int endent
ĠAdd ed
ware houses
ian a
Ġpati ents
CED URE
Ġfurnish ings
Ġpick up
Ġdepos it
Ġdismant led
Ġexper ience
ĠRev ised
ĠStrip s
TEN ANCE
omet hing
Ġpicture s
ĠCut s
Ġcabin ets
ĠExam ples
clos er
Ġta verns
ĠPay ne
ĠClear ance
ĠConn ection
Electr onic
ĠAnnex ed
PLAN NING
Ġdiscour age
Ġfrequent ly
Ġlegisl ative
Ġpenins ulas
ĠLANDSCAP ING
ĠEncroach ments
Ġsalv aged
ROU ND
rist mas
Ġwitness es
Ġgamb rel
TIF IC
Ġcontempl ated
ĠDeline ation
9 3
B y
B al
C ul
C oll
D OOR
E ES
F encing
F uneral
H R
H ealth
L aund
R S
R EC
U TH
V ari
Z ero
b ish
d rive
d istance
g inning
h our
m otel
n ame
r ay
Ã ©
Ġ :
Ġt ied
Ġt ie
Ġt attoo
re present
Ġs or
Ġs omething
Ġthe at
en u
Ġp ast
es tiv
Ġb and
ic o
Ġc ore
Ġd ancing
Ġd irt
Ġd ormitories
Ġin adequate
Ġm y
Ġm ode
Ġl amps
all ow
us ion
ment ation
ĠS IDE
Ġth ings
ĠC ross
ĠC urrent
ĠA F
Ġpro b
uc t
ĠP P
ĠP ost
Ġcon ting
Ġcon fer
Ġst alls
00 00
Ġg irders
ard less
ĠB N
ĠB r
Ġsp orting
ĠN PDES
st ores
Ġad ults
Ġinc ome
Ġuse ful
Ġres ale
ĠF rom
ĠT W
ĠT elecommunication
ĠL LRD
Ġacc um
Ġun exp
ĠE ar
ĠRe f
ĠRe ference
Ġcomp lement
Ġtr ict
Ġ5 13
ĠSt ock
ĠSt atus
ack ed
Ġpre paid
Ġ7 04
Ġsur veys
20 15
20 40
Ġgr id
the tic
ass ing
con dition
Ġappro aches
50 4
Ġass ume
Ġ................................................................ ...........
ĠEn try
Ġatt ested
Ġcan vas
Ġ13 1
TR IC
Ġ12 6
Ġ12 8
Ġform ula
ĠTh ose
Ġcare taker
Ġdescri be
Ġdescri bes
ĠJ eff
ĠRE AR
ĠSh ield
Ġfl ash
Ġcontinu ity
Res trictions
100 8
ele br
Ġconf used
ĠTr act
ĠBuffer yards
Ġwa iting
ÂłĠĠ ÂłĠĠ
pr incipal
Ġmov able
Ġcertif ies
Ġfail ing
Ġcut off
ins ula
Ch anges
Ġincorpor ation
Ġem bell
Ġinf l
ĠOn ce
Ġ................................................................................................................ .
Ġ120 2
Ġ120 6
ĠRest oration
Ġelectronic ally
Ġenclos ing
ĠLe g
Ġconcer n
Ġillustr ated
art Code
Ġincom plete
Ġ111 1
Ġparagraph s
Tr uck
Ġrender ings
ĠMA Y
Ġtax i
Ġevalu ate
Ġsum mary
ĠAntenn ae
Ġinj ured
Ġanch ors
Ġstay ed
Ġdisapp roved
mar ket
Ġfavor able
dr ainage
Ġestim ates
olid ay
Ġlabor atory
Ġattend ant
Ġbath room
Typ ical
ĠMet al
Ġdiffic ult
Loc al
roduc tion
cepti ble
ĠRun off
Ġnum bered
Ġprin ted
Nurs ery
Ġconsult ation
Project ing
PRE TATION
ĠTOW ERS
ĠIS R
Ġirre gular
ĠGS MM
ĠCLASSIFIC ATIONS
Ġexplan atory
Ġcondu its
ĠMD RD
ĠHand ic
Ġrub bish
Ġvolunt arily
Ġclient s
Ġconcurrent ly
Ġdecre ase
kn owled
Ġmarking s
UFF ER
Ġjun ior
Ġpleas ure
Hor izontal
ĠSew age
ĠConsider ations
Requ ests
mploy ment
Ġstanch ions
ĠHab itable
Ġcem enti
Ġcompan ies
anna h
ĠJeff erson
Ġembell ish
3 05
5 60
9 06
B AN
B lock
B ecause
C over
E vidence
F rame
H istoric
K ennel
L arge
M R
M otor
S ITE
T EST
c or
d etention
f ire
f ield
g y
g age
g eneral
l arge
w ould
Ġ ings
Ġa id
in ine
Ġp its
Ġp acking
ic ially
Ġc ashing
Ġd atum
Ġm as
Ġm ut
Ġl aid
Ġbe am
il ed
us ters
Ġn ance
Ġn umer
ĠS ame
ĠS ep
ĠS ave
ĠS outhern
Ġth ru
Ġe y
Ġfor t
Ġcon veys
Ġst atic
Ġst eam
Ġh um
Ġapp ointment
uil ty
Ġg ender
Ġg uilty
Ġex hibit
ab ling
igh ter
ter ations
Ġcom bustible
ĠM ULTI
Ġsp ect
Ġad hered
Ġres ort
ĠU pper
ĠF low
ĠF ailure
th irty
ĠL ength
ap acity
ĠZ ero
Ġr ace
ĠDe vel
res istant
ew ay
ew ays
ĠG lass
ons ored
ĠW ay
round ing
10 4
12 1
ĠV alley
inc idental
Ġgr aves
Ġgr avity
Ġallow ance
Ġ9 04
Ġwater front
ines e
Ġso ut
ĠApp lying
ĠApp liance
Ġtime ly
Ġoper able
ĠAl coholic
Ġhere on
ind ergarten
man ner
out s
av ail
13 02
Ġgro oming
ĠUn classified
ĠEx hibit
Ġpres erves
Ġ12 3
ĠIns ulation
Ġaff airs
Ġforth with
other wise
ĠCh urches
ĠSh ould
ider ation
ĠCl adding
ĠPr in
emp t
Ġver sion
De finition
Ġveget ables
RO VE
Ġlong est
Con ce
Ġ17 41
ĠAr chitect
Ġconven tion
Ġmotor cyc
OM O
Sp aces
Ġfr ing
Ġ................................................................................ .............
OP TED
Ġban quet
road s
Al ong
Al ley
ĠBe ginning
Sh rubs
Ġconflic ting
Ġ................................................ .....
ĠPRO CESS
Ġbre eding
Ġrepresent ing
Ġfunction ally
ĠCour se
Ġtermin ation
prov iding
ĠTyp ical
Ġlay er
ĠCON STRUCTION
Ġadv is
ĠGu ide
ĠReg istration
Ġsus ceptibility
ĠPERMIT S
Ġpropos ing
Ġadverti ses
TOR Y
ĠĠĉĠĉĠ ĉĠĉĠĉĠĉĠ
Ġcorrec tive
Ġunc overed
Ġunob trusive
Ġguarant ees
etermin ed
Ġinterv al
Ġdisp atch
CONFORM ITIES
Ġaccur acy
Ġbel f
ĠAT M
Cle ar
Ġinst ead
Ġfit ness
ĠLic ensed
ĠCertific ation
Wh olesale
Ġsto op
ĠContinu ed
ĠProduc t
ĠProduc ts
ĠSTOR AGE
UT OMO
permit s
ĠJud icial
Ġinund ated
ĠSH ORT
Ġhydrolog ic
Prot ection
Ġcamoufl aged
Ġround ed
illi ard
Ġdeal ership
Ġbat teries
Viol ations
Ġpil asters
ios k
Ġintrus ion
cul ine
ĠFRON T
tra ffic
Ġunsight ly
ĠPlay grounds
Ġuphols tery
Rem oval
ĠMOD IFIC
ASH TO
Ġdetect able
ĠSPAC ES
ïĢ¸ ïĢ¸
B ulk
B illboards
C UP
C enters
D BH
D irectional
G arbage
H OME
H OUSE
L P
L arger
P res
S H
S UP
T S
T ECTION
V eterinary
Z one
c ivic
c overed
e v
f ee
f ied
l ighted
n ival
o ffic
p oles
t t
Â ·
in ing
Ġt ents
Ġt eller
Ġs ick
ed ge
Ġb ull
Ġf ed
or ily
or ia
it als
ro xim
Ġw ishing
Ġm apped
Ġl av
Ġre ports
Ġre charge
Ġbe ach
et ermine
ac tiv
ĠS urety
ĠS ites
ĠS ALES
ĠC oving
ĠC ustomary
ĠA ve
lo ad
qu ees
ĠP ub
ĠP aving
ĠP alm
ur ations
ĠD iv
ĠD umpsters
ĠD HR
Ġst ates
ĠR et
Ġex plain
Ġde le
per cent
ture s
ĠM easure
und able
st andards
Ġmay or
rom at
enti ves
ĠF r
ĠF re
ĠF oot
ĠF EES
are r
ĠL ive
ĠL umin
ĠL ibr
Ġ20 4
Ġ20 6
Ġv ital
Ġloc kers
ĠDe partments
ĠRe fuse
ĠRe peal
ee p
Ġcomp rom
eas ures
Ġ4 01
ĠG R
Ġpr un
ĠW arehouse
de pendent
ĠIn f
10 7
âĢĻ /
12 8
ĠV iew
one y
Ġ7 01
ode tic
Ġse gments
Ġadj usted
11 5
11 6
ĠAd option
own ed
ob acco
Ġday time
Ġdo g
Ġso on
pa ign
Ġwall ed
ĠApp ointment
Ġle aves
tit utions
Ġequ ally
Ġdefin ing
for ced
ĠUn iversity
Ġ13 0
ool s
Ġsc ulp
ĠLand fill
Ġsepar ates
umin um
ĠPermit ting
Ġrepair ing
RE D
Sign age
arg inal
ĠSec s
Ġidenti ty
Ġcar t
Ġemp owered
ĠJ urisdiction
ense es
TA UR
pro cess
Ġver ify
Ġair space
ph y
ĠProv ider
Ġappear ing
limin ation
ket ball
ĠAr ts
Ġautom ated
Ġ................................................................................ .......
Ġbar ns
Ġ................................................................................................ ............
Ġ................................................................................................ .....
Ġsel ection
Al teration
ĠORD AIN
Ġdri p
ĠSur faces
Ch urches
Ġwe eds
Ġ................................................................................................................ ..........
Ġtechn ique
................................................................................................ ...........
ĠPRO TECTION
ĠMar ine
Ġrepresent atives
Ġpay able
ĠAg ree
Ġflag pole
Ġamen ding
En c
Ġcateg orized
Sub mission
applic able
Ġinde x
Ġdef ray
ĠK ennel
ĠAuthor ized
Ġpath ways
Ġoffic ially
Ġpetition er
Ġillustr ating
ĠPen insula
Ġload ed
Ġdeline ating
ĠCal iper
ĠCol or
Ġevalu ated
Ġpan ic
ĠSe ver
ĠNurs eries
Su fficient
Ġjud ge
ĠBed room
Ġactive ly
rap y
Ġpati ent
Tra vel
Ġ113 1
Ġsatisfact orily
Ban ks
ĠMet ropolitan
ĠIllustr ative
Ġinterpre ting
He avy
proof ed
Conven tional
Ġterr ace
Ġterr aces
ĠCre m
Ġexamin ations
Ġmedi ans
Ġhydrolog y
TIT LE
Ġpossess ion
Gu est
roof ed
Ġnav ig
Ġmo vie
ĠBMP s
ĠSm artCode
Ġide a
ĠSum mary
ĠSix ty
Ġtar get
Ġbarrel s
Ġdorm ers
ĠChe ck
Ġcust od
Ġmausole ums
Ġappra ised
Ġfring e
ĠCoving ton
TAUR ANT
ĠORDAIN ED
3 20
3 11
B C
B rick
B MP
C DD
D uring
D etail
F irst
F RON
G e
G AR
M ap
M ED
P H
P DD
S D
S olar
T Y
T OWN
V U
W etlands
W arehousing
b ur
b ase
c ks
e ither
f ood
g in
i ability
l ist
m a
m aking
s ided
s creening
s afe
v ised
z z
Â ®
Ġ very
in sp
Ġt es
Ġo aths
Ġs tri
er r
er ce
al one
Ġp ave
Ġb orne
Ġb reez
an ized
ic tions
Ġc er
Ġc ee
ar terial
at cher
Ġd ig
Ġd ies
Ġd ress
Ġd angers
Ġin sufficient
Ġw ed
Ġw ording
Ġm um
Ġm unt
Ġm oney
Ġto o
id ance
Ġn arr
ĠS or
ĠS emi
ĠC ER
ĠC FR
ĠA ST
as ic
ĠP iercing
Ġcon cep
Ġan s
ĠD etention
Ġh ang
Ġus ual
ul ting
Ġapp arel
ĠO b
lan ta
Ġde ferred
Ġde leted
ain ting
am us
ĠM T
ĠM ic
ĠM erchandise
ĠM ultifamily
ict oria
ĠN ote
Ġinc ident
ĠI llegal
ĠF und
ĠF LO
ĠT attoo
ĠT REE
ĠT reatment
ad er
ad dress
ĠL ist
ĠL ED
ap ing
ap se
Ġun suitable
Ġloc ally
Ġland owners
ĠPlan ts
ĠH SB
ĠE ffect
res hold
ip itation
ust ered
Ġfac ed
ee l
Ġco operative
ĠSt anding
ĠG od
Ġy our
Ġspec ifies
Ġro d
ĠĠĠĠĠĠĠĠĠĠĠĠĠĠĠĠ ĠĠĠĠĠĠĠĠĠĠĠĠĠĠ
Ġpr ice
ĠW eek
Ġman ually
vi er
pl it
12 6
ĠV ice
Ġ7 07
Ġunder p
Ġunder ne
11 4
the st
Ġleas able
Ġless or
Ġsubject s
tif y
Ġar ti
Ġwater ways
con ven
ĠPro perties
Ġ................................................................ .....
Ġcl utter
Ġcl ustered
Ġrel ieve
ĠUn enclosed
tric tive
15 2
Ġ13 05
Ġ50 6
Ġ50 7
Ġsc ientific
entr y
Ġbound s
Ġremov able
RE ES
Ġviol ated
ĠĠĠĠĠĠĠĠĠĠĠĠĠĠĠĠĠĠĠĠĠĠĠĠĠĠĠĠĠĠĠĠ ĠĠĠ
Ġ14 1
ĠCh annel
App ropriate
ech arge
Ġarchitect s
17 5
Ġdep rive
Sec urity
Ġsol vents
ĠAc tions
Ġcap ability
ĠNe arer
Ġobs olete
Ġinten se
Ġ................................................................................ ...
Ġ................................................................................ ............
Ġwa iving
Ġ................................................................................................ ..
FA A
ĠPre vious
ĠImp acts
ĠAt lanta
ĠSupp lementary
Ġem ble
Ġgreen way
Ġinf ill
Ġtravel ed
Ġtechn ically
................................................................................................ ........
Ġ................................................ ....
Ġ................................................ .......
umps ter
Ġ120 5
Ġpub lishing
Ġbeg ins
Ġcos me
uis ance
Ġear li
sh ould
sh aped
ĠIll icit
abil ization
Ġsatisf ies
Ġdiscretion ary
Ġcolum n
Ġcarri er
Ġ199 1
Ġ112 0
fl atable
Ġ111 6
ĠDec isions
eterin arian
Ġenhance ment
Ġelimin ated
ĠPh ot
Ġartif icially
ĠOFF IC
Ġprec ipitation
Ġsubs urface
Ġdest in
Ġaccur ately
olid ated
Adj acent
Ġrespective ly
Ġbath ing
dis play
Roof s
FF ECTIVE
Own er
Ġsod ded
Elec tric
Ġent ries
Ġbicyc lists
Ġmid dle
Ġpun ishable
Ġroll er
Ġexamin ation
Ġturnaround s
ĠShel ter
ĠCemeter ies
Ġfoc al
there of
Ġconceal ment
Ġchic ken
Ġphotogr aph
ĠHyd rolog
Ġnav igation
Ġdeterior ated
Ġfem inine
ĠFACIL ITIES
Ġpenetr ations
Ġreplan ted
ĠComput ation
ĠAGRICUL TURAL
Ġperipher y
Ġdiagnos is
Ġcool ing
Ġsanct uary
Ġris k
ĠResol ution
Ġsor ority
Ġunexp ired
Ġmas culine
ĠSep tic
Ġbelf ries
ĠAgree ments
Ġmunt ins
Ġnarr ative
ĠAST M
Ġconcep ts
Ġunderne ath
% ).
3 06
8 04
C M
C P
C are
D o
D oc
D etermination
F orm
F ast
H obby
I O
I OR
M IS
M FU
P UBLIC
R emedies
T V
V D
b ody
e a
e ess
f ig
f ord
f ences
i et
i ke
j ections
m ills
p t
r ise
t rees
u its
y ch
Ġ @
Ġ q
Ġa pr
in to
in terior
Ġt in
re ading
Ġp on
Ġp iercing
Ġb uff
Ġb lin
Ġf oster
Ġf estiv
or ations
or king
it ems
Ġc ance
Ġc ans
Ġc aring
Ġc ats
at rix
Ġd ominant
Ġin lets
Ġm ater
Ġm isd
Ġl obby
ce ece
et ers
us ical
ac ies
ac tional
ĠS w
ĠS el
Ġth in
ĠC overed
Ġpro pose
ĠP ersons
Ġ( âĢľ
Ġcon stant
ĠD OT
Ġst ub
Ġare nas
Ġex ch
Ġex hibits
um ption
ate ver
am ic
ff e
ĠB UL
st orm
ĠI L
ĠI CC
Ġres istance
pos ing
th ouse
tic ular
tic ides
Ġsub urban
ĠL ess
ĠL anes
ap el
Ġv en
Ġv an
em ean
Ġun b
Ġr abb
Ġdevelopment al
ĠE LE
ĠE limination
Ġac celeration
Ġtr an
Ġpl aster
Ġ4 22
Ġ4 28
ch aracter
__ _
our ist
Ġpre fer
Ġpr one
ĠW e
Ġman h
ag in
Ġund uly
10 8
12 9
ĠV alidity
Ġ7 12
Ġup dated
20 16
Ġthere with
ĠCoun try
Ġ9 08
Ġtim ing
Ġar tis
Ġout lines
ĠApp earance
Ġle ave
ang les
ĠAl teration
Ġequ ity
Ġcl asses
Ġ100 6
AR IES
Ġground cover
ĠEn g
ĠEx c
ĠEx tr
Ġ13 04
Ġchar ging
Ġflood water
LA TIONS
Ġj urisd
Ġexp ired
Ġexp losion
Re fuse
Ġbas in
Ġexc lude
Ġmulti p
ĠCh ristmas
Ġgu idance
ĠCom pletion
ĉĠĉĠ ĉĠ
ĠPr incip
pro ject
Ġrest oring
ĠAc er
ĠMin ing
Ġconsider able
ĠPl ats
Ġ17 87
Ġreduc tions
Ġ16 0
Ġalter ing
Ġcur ved
Ġdistrib ute
ĠTr ash
Ġwood lands
Ġfr uit
Al low
eeee ees
Ġdri ver
ins titutional
ĠDis posal
................................................................................................ ....
na mental
Ġ................................................ ..........
ĠMar quee
Ġvol atile
Ġ120 4
Ġhand led
ĠTrans ition
Ġdisch arged
................................................................................................................ ........
Ġec ological
Ġdirec ting
Ġcharacteris tic
ĠAD EM
oper ator
ĠBo ok
Dwelling s
Ġsk ating
alv anized
azard ous
occup ancy
Ġax les
ĠRight s
Ġquar ter
Ġevalu ating
ĠFl or
Pre liminary
ĠOFF ICE
Ġsl ate
Ġgall ery
ĠSurvey or
ĠDR T
Ġbord ering
Ġsyn thetic
ĠLOT S
Ġoil s
ĠEX ISTING
Ġcluster ing
Ġ198 8
ĠCo astal
Ġfall ing
Typ e
ĠIllustr ation
ĠLaw s
ĠRev ocation
Ġcho ice
Ill uminated
Ġcitiz en
Ġcommod ities
ĠSTRUC TURE
Ġafford able
Ġtoil ets
Ġdiscus sed
NA ICS
Ab andoned
Ġfram ing
Red uction
ĠMANUFAC TURING
ĠLE GAL
Ġcondu it
sim ile
Ġcoinc ide
Ġbrew ed
eb os
ĠPV A
Ġanal y
NOT E
ĠMAIN TENANCE
MANUFAC TURED
crow ding
Ġstrong ly
Ġcandid ates
Ġgaz ebos
Ġdifferen ti
Ġaim ed
Ġjoin ed
AV Y
ĠCorpor ate
ĠPP M
ĠTW O
ĠMODIFIC ATIONS
ĠSever ability
ĠBUL K
emean or
7 02
9 07
C redit
C ustomary
D el
D irect
G rocery
H alf
J OR
L OW
P Z
P olitical
P rinting
P ervious
R ules
S k
S ame
T US
U LE
W est
W arehouses
b etween
c urrent
d imensional
i o
j ud
j ectives
l as
n n
r un
r ances
t ors
v oc
w s
Ġ ..............
in er
Ġt or
Ġt ests
Ġt rout
he alth
Ġs ions
en ity
en ities
Ġp ict
Ġp alm
es ter
or um
Ġc ure
Ġc cc
Ġc elebr
Ġd iction
Ġl a
Ġl ighter
id iol
ĠS ociety
ot ential
ĠC reek
Ġfor ces
ĠP H
ĠD etail
ĠD PZ
ĠR IGHT
Ġg alvanized
Ġex ting
ab idiol
ate rer
Ġde gr
mit ting
am eters
ff ee
ĠM ix
ĠM eetings
ĠM VU
ĠB C
ĠB uilt
ĠB lank
ĠB ridge
Ġsp eeds
ĠN L
ĠN NC
ĠN EIGHBORHOOD
if olia
ri v
Ġat tics
ĠU TIL
ĠF O
ist ances
th us
Ġhe a
Ġsub div
ĠL ivable
ĠL earning
Ġal ph
Ġal uminum
Ġun paved
Ġun attended
ĠH obby
ĠE ight
Ġfac simile
Ġac quire
Ġen ding
Ġco ffee
ĠSt and
Ġown ing
Ġpre m
de emed
Ġ10 28
pl ing
10 28
Ġdis position
ens is
ber ry
ĠV ictoria
back s
Ġam plified
Ġ8 05
inc tive
Ġse gment
Ġne ver
Ġthere under
Ġinter mediate
21 3
EN C
16 1
Ġ................................................................ ............
14 2
Ġcl ad
use um
13 4
Ġwh ite
Ġwh atever
Ġpor ous
vel t
Ġrel ax
ose velt
Ġover story
Ġover crowding
Ġchar t
18 1
Ġlo ud
Ġbound ing
Ġexp ires
Re peal
ex terior
Ġ0 9
Ġaff ix
RE GULA
RE QUIRE
Ġviol ates
An gle
irc ulation
Ġ14 01
ĠGe ological
ĠJ ack
Ġsm ok
viron ment
Where ver
anti ty
feren ces
Ġsubst ances
ĠAc ceptable
ĠMin imize
ph ones
with out
Par k
Par cel
ĠRo om
ĠRo osevelt
gre ens
Ġli ens
Ġmonth ly
Comm unications
OM ES
Ġdoc king
Ġdoc tor
ĠTr ade
ÂłĠÂłĠÂłĠÂłĠ ÂłĠÂłĠÂłĠÂłĠ
200 8
Ġ................................................................................ ........
Ġsufficient ly
Ġflow ing
Ġgl azed
60 9
Ch urch
Ch imneys
Ġincorpor ates
ĠInter pretations
Ġjurisdiction al
Ġ................................................................................................................ ....
Ġ................................................................................................................ ..............
Ġ................................................................................................................ .............
pers onal
Ġhardship s
Ins truction
Ins ert
................................................................................................................ ...........
Ġconsum ed
Ġear ly
li en
Sub stantial
ĠCON F
ĠCON TR
Ġcred its
ĠK itchen
ĠXX VII
ĠĉĠĉĠ ĉĠ
Ġ................................ ..............
plan ned
Ġrecogn ize
Ġrecogn izes
Ġparti tions
sel ves
ĠMod ular
ĠMA XIMUM
Ġtransmit ting
Ġwarr anted
TIN U
ERV ED
Ġsent ences
Ġnecess itate
ĠRoof s
Ġappurten ant
ĠINS TITU
Inc idental
Ġsever ally
Ġerr ors
ĠGround water
ĠEX CEPTION
ĠAb ove
Ġ198 3
MH P
Ac tivities
Ġder ives
Ġoverhang s
Ġadap t
flo od
Ġsuit ably
Est ablishments
ĠEd wards
Ġlibr ary
Ġstip ulations
ĠWal k
Ġfoc us
Ġassemb led
Ġobstruc ts
Ġfar ther
ĠTri p
Ġcamoufl aging
Awn ing
Gu y
Ġfulfill ed
ĠFif ty
ĠNOT E
ĠConflic t
ĠConflic ting
Ġmechan isms
Ġfem ale
ĠOut side
ĠFACIL ITY
ĠVac ation
Ġcaf es
Cal iper
Comp act
ĠSand y
Ġcompos ite
Ġsynagog ues
Ġbird s
Ġgen itals
ĠWa iver
Ġinterrup tion
Ġoverl ap
Ġpas ture
ĠTELECOMMUNIC ATIONS
landscap ing
Ġrefresh ments
ĠRespons ibility
Ġprotru de
Ġamb ient
Ġfort une
avail able
ĠPrin ting
ĠLumin a
Ġvital ity
ĠSor lien
Ġmisd emeanor
) -
. /
/ /
3 12
4 06
6 01
A nd
B ody
C R
C re
C our
D own
D NR
E ssential
E ffect
F IN
H OD
I m
I dentification
J oint
M atrix
N orth
P OR
P TH
P erson
R ise
S chool
S ERV
S outh
T ourist
V EN
W ork
Z E
] .
a per
c hed
f r
g as
g row
g roup
i king
j ection
l argement
m ile
o vie
p m
s ized
s chools
t ation
t age
in as
in stall
Ġt end
Ġt ee
re ce
Ġthe r
Ġp ine
Ġp ose
Ġb inder
Ġb roadcasting
Ġf ro
Ġf oli
it ures
is le
an other
Ġc yc
Ġc lock
Ġd uc
Ġd ye
Ġin vent
Ġm ental
ĠĠĠĠ ÂłĠ
Ġl ounge
Ġre ading
Ġre zone
Ġre tirement
Ġto ol
Ġto uch
ac ceptable
ĠS HOP
Ġe ye
ĠA RE
ĠA vailability
ĠD une
Ġh ire
Ġh ost
Ġh ole
un ks
ĠO I
Ġnot ation
od ies
ĠM essage
ĠB A
ĠB ay
ĠB owling
ĠN ight
ĠI MP
ĠT echn
th letic
ore sc
ap ets
Ġv ist
Ġv ines
Ġv oting
Ġv ocational
se q
ĠH ours
ĠH OMES
Ġr az
dition ing
ĠDe al
res tricted
Ġdes iring
Ġno vel
Ġtr unks
el sewhere
Ġpl ac
ib urn
ĠSt op
Ġcomm unic
ĠG ener
ĠG overning
ack age
ord on
Ġ6 50
Ġoff set
Ġro cks
ag az
scap es
Ġsa v
inc ludes
Ġse eded
20 79
ĠSp eed
Ġwater way
te le
ĠRes ort
16 0
ĠPar ts
Ġ................................................................ ..
Ġ................................................................ ........
Ġabove ground
14 1
14 5
13 3
13 01
Ġpor tr
Ġmaintain s
Ġauthor ities
Ġme at
Ġ13 2
Ġtrans action
Ġlo ans
ati os
cri bed
Ġplat es
ĠSpecial ty
Ġbas ketball
ĠTh in
Ġ19 99
Ġ19 74
Ġerec ting
Ġph ased
Ġ14 2
Ġ14 3
Ġ14 7
Ġcomplet ing
AN OPY
ry ing
Ġpos es
ĠPublic ly
Ġfl uct
Ġretail ers
Ġdep end
19 0
pro t
Ġsubst ation
Ġclass ify
Ġentrance way
Ġaddress ing
Ġ17 1
Ġli able
Ġsubmit s
ĠBuffer yard
IV ATE
ĠTH AT
................................................................................ ............
................................................................................ ..............
ĠImp lement
umb rances
Ġfree ly
Ch airman
Ġwe b
Ġbr aces
Ġpip ed
Ġeng ines
33 8
Ġpub lish
ĠGr ubbing
akf asts
FOR E
Sub ject
Ġ................................................................................................................................ .......
Ġreceip ts
ĠRES ERVED
Ġes c
ĠK indergarten
ĠAuthor ization
Ġaccep ting
Ġthem selves
Ġlit ter
Ġclub house
Ġdeed s
Ġdeed ed
Ġbon ding
ĠĉĠ ĉĠĠ
ĠRel ating
Vehic les
Prov isions
Ġmand amus
ĠFarm s
Ġphot ographic
Ġsubs titution
mar ks
ĠFin ishing
etermin ing
Mar quee
Ġsever able
Ġdoll ar
Spec imen
Ġbel ong
ĠExp ress
Ban ner
Typ es
ĠDU TIES
He ating
ĠWh olesaling
Ġnum erals
ĠAMEND ED
ĠStudi os
Ġartic ulated
Ġdiscus sion
ANC Y
Ġcamp grounds
Ġirre voc
Ġtexture s
Ġaqu atic
NON CONFORMITIES
Ġtub ing
Change able
Ġexplan ation
ĠSus ceptibility
Ġspr ay
Lim itations
vis ory
Ġvolunt ary
Dec orative
Ġtang ent
Antenn a
Antenn as
veget ative
ĠGovern mental
Ġkindergarten s
ĠTele phone
Ġtransparen t
Pe tition
ĠTermin al
Ġprepar ing
ĠRecomm end
Ġcrem ation
Ġps ych
Ġlum ens
Ġdair y
Ġoccas ion
Ġvirt ue
Ġexpend itures
ĠDem and
Ġdilig ently
Ġbor row
ĠSav annah
UTH OR
Ġconting ent
err aces
atcher ies
Ġwed dings
Ġans wer
Ġmater ially
Ġhea vier
Ġalph ab
Ġinvent oried
iburn um
6 10
8 21
: //
A W
B oth
B uilt
B OARD
C o
C opies
E quipment
E lev
F LO
G H
G IS
G FA
I ED
M easure
O OL
Q u
S ur
S ight
S ING
S urface
b ors
b rid
e re
f irst
g ross
i ences
l ar
m ately
m edical
n umer
p edestrian
r act
s n
s anitary
w indow
Ġ ..
Ġ 04
Ġ __________
Ħ ¢
in tent
in tegr
Ġo ur
Ġs pp
Ġs up
Ġs ince
er ical
ti tive
Ġthe me
en ed
en gineer
Ġp ed
Ġp ure
ed icated
Ġf ix
Ġf riendly
at ess
Ġin appropriate
Ġin herent
Ġw oven
Ġm em
Ġm arginal
Ġre venue
Ġre hearing
ce iling
id ers
ĠS k
ĠS und
ĠS FA
ĠS afe
ĠS easonal
Ġth reshold
ĠC ur
ĠC ement
ĠA ff
ĠA dequate
ĠA ASHTO
as i
ĠP op
ĠP RE
ĠD igital
ĠD edication
Ġ2 10
and wich
ĠR ent
ĠR echarge
lic atess
Ġg abled
Ġex hibition
ĠO l
um n
Ġde part
Ġany where
Ġcom mittee
ĠB ack
st ance
st ories
ĠI r
ĠF rid
ĠT CO
ĠT REES
Ġcons ignment
Ġcons erving
ĠL M
ĠL od
ĠL IGHT
Ġacc ident
Ġal located
Ġun ion
Ġloc ker
of ar
se ling
ĠH alls
ĠE PD
................................................................ .
Ġco ated
Ġco ordinate
Ġcomm erce
ĠG ordon
Ġha uling
ch arg
por tion
cre ated
Ġim plies
Ġim agin
ĠW IDTH
ĠIn stall
Ġ10 11
10 9
IN ST
Ġ8 07
inc orporated
ans hip
20 17
Ġadj ust
Ġadj ud
11 7
11 12
Ġgr ants
Ġne igh
the ir
the ning
Ġimp rov
Ġ9 15
Ġtow ed
ĠPer iod
ĠApp rove
yp ress
Ġdr af
Ġdr illing
ĠRes idences
LE D
50 1
Ġass umed
Ġ................................................................ .......
Ġenc umbrances
ner gy
rit orial
Ġrear rangement
13 2
13 8
Ġdec al
AR ING
Ġfin ally
Ġfin ishes
Ġdist inctive
Ġpres ents
Ġ15 2
Ġ13 3
Ġ13 9
Ġ13 03
Ġmin ute
ati s
Ġexp ed
Re zoning
Ġplat ting
Ġqu iet
be en
be fore
Ġadop ting
Ġinform al
ĠAn gle
Ġrecord ation
ĠGe odetic
ĠCh inese
RD S
30 9
CE OD
ra di
arm s
ĠJ ustification
Ġcol lege
Ġcol locate
ĠInd ic
ĠInd ependent
Ġcoun ter
Ġcoll ecting
ĠCl asses
Ġval ves
Ġbo oks
Ad dress
iti mate
RO W
tent h
100 4
Ġenviron ments
ĠAr c
Ġqual ifications
Ġcontr ast
sp ective
Ġobs tructed
Ġfr uits
Ġsel ect
Al leys
eeee es
umb rell
Ġregard ed
Ġpot able
lop e
Ġ................................................................................................................ .....
Ġcam paign
................................................................................................ ...
................................................................................................ .....
Ġ................................................ ......
Ġhand le
ĠTrans mission
Ġ110 7
................................................................................................................ ............
................................................................................................................ .............
Ġtall est
sh opping
Ġleg itimate
ĠPER FORMANCE
Ġenh ances
Landscap ed
UC K
ĠK ennels
ĠXX VI
Ġdrain ed
Ġlab el
Ġ................................ ...............
Ġillustr ate
Ġlaund romats
ashing ton
no tice
Ġgo al
Ġ199 5
Ġprogram med
Ġann ually
ĠSTA TUS
wood s
ĠROW s
VE HICLE
Ġdead line
Ġapproach ing
CH OOL
Ġceas ed
ĠĠĉĠĉĠ ĉĠ
Ġbon uses
Ġwaiver s
Ġcontrib utions
Ġsl ab
Com prehensive
rie f
ĠDuplex es
Ġdisp ensed
110 3
ĠAN TEN
Cl inic
Ġpropor tions
Ġpropor tional
ĠAT TEST
Ġbath rooms
Gr ading
Typ ically
ĠCH D
Ġenterpr ises
Ġcho oses
ĠClean ing
Ġfratern ity
Ġveloc ities
ĠTour ism
spec ific
ĠProduc tion
Ġafford ed
PA IR
Ġbrid ge
Ġdrug s
hab itable
Ġtent ative
Ġconsult ants
ĠMe an
Ġdiscus s
ĠShel by
ĠShel ters
stand s
Ġemit ting
Ġassemb ling
ĠTE MPORARY
Hospit al
Ġsust ained
ĠTheater s
Ġflu ids
Ġstreng thening
Ġdeal ers
ĠFif teen
Junk yard
Ġauditor iums
Ġexcep ted
produc ts
Ġdimin ished
Ġcamps ites
acc ordance
Mon ument
ĠGovern ment
Bar ber
Ġtransparen cy
Ġsche me
Entr ance
Ġtransform ers
Ġser ious
ĠJuniper us
Ġ15Â ²
PERMIT TED
ĠOrient ation
ĠTYP E
Improve ments
Ġwatch man
ĠRadi i
ĠREP EAL
ym nas
ĠBOUND ARIES
Ġulti mately
Ġrecl aim
allow ed
Ġaccum ulation
TRIC TIONS
Ġnavig able
Ġdig it
ĠKitchen s
Ġfoli age
oresc ent
Ġirrevoc able
' ).
3 10
4 04
6 04
8 16
B O
B Y
C ertain
D ue
D IVISION
H ours
M ultifamily
N O
N ational
O f
P owers
R R
R V
R iver
R ental
R ailroad
R ichmond
T attoo
V ac
] ,
b earing
c urb
c opy
c anopy
f urther
g ating
g arden
i able
n urs
r ig
w a
w est
w ery
Â Ń
Ġ ____
Ġt ional
Ġt ier
re quis
Ġs ure
Ġs end
Ġs em
Ġs ug
Ġs truction
Ġs ociety
ti tions
Ġp o
Ġp es
Ġp ig
Ġp ly
ed ges
Ġb oll
Ġf lea
is s
is ture
Ġc ation
Ġc ured
Ġc reek
Ġd istr
Ġd omiciliary
Ġw ines
Ġw ishes
Ġm os
Ġm eal
Ġl unch
Ġre im
Ġre developed
ce es
us ually
ac her
Ġn onstructural
ĠS EC
ĠS imilar
ot ted
ĠC ond
ĠC ertified
ĠA UTHOR
as tern
ĠP OP
ĠD atum
Ġh o
ĠR oot
ĠO UT
um ns
truc tions
Ġde aling
Ġnot ations
per iod
od ible
ĠM ET
ĠM eeting
ĠB akeries
ĠN ature
if lor
ri ers
ir gin
ĠU p
ĠU ND
ĠT an
ĠT esting
ĠT obacco
Ġsub paragraph
ad ation
ad dition
Ġal location
est ation
Ġv ul
Ġun ity
Ġplan ters
Ġland ings
Ġ3 15
Ġ3 41
ĠH ar
ĠE D
ĠE dition
ĠE lements
res c
Ġdes ist
ee e
Ġac knowled
el low
Ġpl ate
Ġco al
Ġco at
Ġco pper
ch ild
par ate
par ts
par ian
Ġspec ially
Ġoff sets
ĠW OR
ĠW ell
Ġman age
vi ate
vi ol
Ġ10 20
ug ated
ag ent
Ġsu ited
Ġdis gu
Ġdis conn
12 02
ĠV ARI
In iti
Ġse arch
Ġcondition ers
tif icial
Ġbut t
Ġwater ing
ĠApp ro
ĠPro f
LE X
Ġissu er
Ġ................................................................ .
Ġcl erical
av ation
Ġdec ay
Ġob trus
ĠEn courage
15 1
rec ord
Ġ15 1
Ġdetermin ations
Ġ13 07
Ġtrans porting
Ġ12 9
Ġj ob
Ġmet es
Re f
Ġplat forms
Ġqu adr
ĠCon tractor
ex it
Ġcare ful
Ġmulti pl
ĠCh aracter
Ġproduc es
Ġpos itive
RD P
Ġcar ts
Ġconduc ts
24 1
Ġ35 5
ĠCons titution
bed room
Ġrun ways
Ġcirc uit
Ad vertising
Ad option
Ġ18 1
aster ies
Ġrest rooms
Ġair ports
Pro of
Pro perties
Ġillumin ating
ording ly
Ġbec ame
ĠRec ycling
unction al
Ġstrip ed
Ġname pl
ĠTr ailers
ĠNe ighbor
Ġgroup ing
lock ed
Ġfr ames
Ġfr actional
Ġ................................................................................ .
Ġminim izes
Ġtown homes
Ġtele gr
ĠProt ect
Ġ................................................................................................ ........
ott ling
Ġplant able
Ġsupply ing
Ġdepth s
sub divided
Ġdiv ide
Ġsurfac ing
Ġnotif ying
Ġbr ack
Sh rub
Ġ................................................................................................................ ............
................................................................................................ ..............
................................................................................................ ..........
Ġ................................................ .
Ġ................................................ ...
ĠMar tin
ĠMar kets
ĠLim itation
ĠEst ablished
ĠTrans it
Ġenl arge
IR PORT
Ġelectronic s
................................................................................................................ ....
................................................................................................................ ..............
En tertainment
Ġconvey ing
ĠIll umin
ett es
Sub divisions
Sub urban
Ġfuel ing
Ġtri ed
Ġ................................................................................................................................ ...........
Ġ................................................................................................................................ .........
Ġri bb
abric ated
ĠSP ECIFIC
Ġconcer ns
Ġliqu ors
ĠInc orporated
Permit ting
Ġtransfer able
Ġtransfer red
Ġ112 9
Ġinterfe res
ony m
ĠFl at
Design ation
Ġoutlin ing
Ġprec ise
Ġher b
Ġsubs titute
Ġge ometric
Ġbord ers
Ġpermis sive
Cl ub
Ġenjoy ed
Ġreserv es
Ġoption al
ĠQu antity
Mod ification
Ġcho ose
Ġprop ane
parcel s
Ġple asing
Fl ags
Ġdemol ished
ĠAssess ment
Author ization
Ġlod ge
PRO CEDURES
Ġnarrow est
Ġcompli ant
Ġparticip ate
Ġparticip ants
Ġtexture d
Cemeter y
apid ated
ici ans
Electr ical
ĠSus pension
ĠDoc umentation
Viol ation
Ġparen t
bre viations
sim ple
Ġinterconn ected
Ġreproduc ible
STA ND
cle aning
Ġstair ways
Ġdense ly
Ġimpound ments
Ġcorrespond ence
Ġlubric ation
AM END
Por ches
Ġsal on
ĠMach inery
Ġdepreci ating
_- _-
fif teen
ĠOP EN
REEN ING
elec tr
ĠMethod s
Ġinhabit ants
Door s
Ġduplic ate
Ġatten uation
ĠEduc ation
Ġcontamin ation
ĠGrant ing
ref undable
Ġexplicit ly
anitar iums
ĠEar ly
Ġcementi tious
Ġspect ator
Ġmotorcyc les
Ġdealership s
process ing
Ġtes tim
ĠOFFIC IAL
Ġblin king
Ġmanh oles
ĠPrincip le
Ġrelax ation
ĠARE AS
ĠGener ation
Ġsav ings
numer ary
Ġdisgu ised
Ġobtrus iveness
. ]
3 36
4 13
6 06
9 09
B ur
F ee
F ort
F urniture
F IRM
J urisdiction
K ennels
M C
M ain
N PDES
P ass
S w
S ome
T ax
T ime
W TN
b on
c er
c an
c am
d o
d irect
e vent
e ech
m er
m aterial
n abidiol
p he
p ay
p ared
r ical
r imin
u ate
w orking
Ġ ic
Ġ umbrell
Ġa ward
Ġa uctions
Ġt ap
Ġt one
Ġt ained
Ġo mission
Ġo ught
re fl
re gular
Ġs n
on n
Ġp al
ed om
Ġb ldg
Ġf o
Ġf ib
Ġf ores
Ġf resh
it t
ic ed
ro us
ro ken
Ġc ess
Ġc itations
Ġc yl
at tered
Ġd id
Ġin let
Ġw ild
Ġm ill
Ġl os
Ġl atching
Ġl earning
Ġto pping
Ġto ler
il t
ĠS q
ĠS iding
ĠS olid
ĠC oven
Ġpro spective
im arily
ĠP an
ĠP AR
ĠP resent
Ġcon e
ĠD ance
ĠD uring
Ġon site
Ġst umps
Ġh omestay
ul ators
Ġapp endix
ĠR ichmond
ĠO s
Ġnot es
ol ving
am end
am ended
ĠB R
ĠB ir
ĠB erms
ver n
enti ve
ĠI ce
ir ted
ace u
pos it
pos sible
ĠF ig
ist ency
th ose
th ird
Ġsub jected
ĠL ounges
Ġstructure d
Ġv ided
Ġplan ner
Ġ3 19
Ġ3 74
Ġstreet scapes
ant en
ĠH O
ĠH alf
ĠH ardship
Ġr ad
Ġr inks
ĠDe leted
ĠE mployment
ĠE FFECTIVE
ĠRe venue
Ġcomp uting
ill ars
Ġtr ades
el ess
el ines
ĠSt acking
Ġch i
Ġch air
Ġch ief
Ġch apel
ĠG DOT
ch ae
ree ks
iv als
Ġpre val
ĠW etland
ĠW illi
ĠW ashington
Ġund esirable
pl at
Ġdis pose
Ġdis abilities
Ġdis repair
12 7
IN TER
Ġ8 06
Ġunder standing
20 4
Ġne go
Ġimp edes
Ġimp lements
ound ary
Ġcont ents
ak ed
Ġle ad
ĠAl terations
Ġ................................................................ .............
act ors
Ġsim ulate
Ġcl imate
Ġcl usters
IS T
tric tion
ĠMan ufacture
Ġdist ant
so il
Ġten ancy
St udi
Ġme re
Ġnumber ing
Ġflood s
Ġeff ec
Ġsc attered
over s
edi ments
oci ated
Re placed
22 2
ENT AL
Ġcare fully
ĠIns titutions
Sign ificant
ĠĠĠĠĠĠĠĠĠĠĠĠĠĠĠĠĠĠĠĠĠĠĠĠĠĠĠĠĠĠĠĠ ĠĠĠĠĠĠĠĠĠĠĠĠĠĠ
An nex
Ġ14 8
AN G
Ġmod es
ĠJ oint
Ġrece iver
ĠCom patibility
ĠCom plexes
32 9
ĉĠĉĠ ĉĠĠ
Ġcoun seling
ĠCl othing
Ġ40 8
ĠFac ades
Per imeter
19 2
Ġfre edom
Ġwork ers
ĠDesign ed
Ġref used
Ġli que
Ġcur v
Ġqual ifies
Ġconf irm
34 8
Ġboard ed
Ġinten s
Ġbar b
Ġpass ing
Ġ150 1
Ġev id
ĠImp roved
Ġiniti ative
sub stantial
OW ERS
Ġmethod ology
Ġclean ers
Ġ................................................................................................................ ...........
................................................................................................ .
Ind ependent
Ġcross walks
Ġrepresent ations
IR ABLE
pati o
Ġtermin ating
ĠAg gregate
................................................................................................................ ......
Un its
Un enclosed
En vironmental
Ġlay ers
ESS ION
Ġexam ine
olog ically
Ġ................................................................................................................................ .
Ġri parian
Ġrefl ecting
Ġattr action
ĠIs land
oper ation
cour t
cour se
Ġpertain s
AD EM
Ġ................................ ...........
Ġillustr ative
CON TINU
Ġra ise
Ġsus ceptible
fl ag
Ġexpansion s
ĠAs phalt
Ġprincip ally
Ġcorrec tions
Ġrelationship s
ĠPROV IDE
Ar terial
Ġphot ometric
ĠHE ARING
Ġbord ered
ĠINTER PRETATION
ĠUnder w
ĠEX HIBIT
Supp ort
Ġ................................................................................................................................................ ...............
reason ably
Ġmis sing
bo xes
Mod ifications
ĠCLA USE
Trans itional
Ill umination
Ġhall ways
ĠCondominium s
ĠÂ ©
ĠÂ ·
Fl at
Ġobsc ene
Ġrecess es
ĠXXX IV
ĠCre ation
Ġconcentr ated
comp ly
trans fer
Ġ________________ ________________
Ġstadi um
ĠTOW N
ĠTOW ER
CEP TIONS
Ġte acher
ĠSUP PLEMENTAL
cl ubs
ĠLabor atory
Ġsuff ix
Ġdiseas e
Ġrot ating
Ġexcep ting
Ġdifficul ties
ĠRequ iring
Ġmicro phones
ĠAnnex ation
Ġparen ts
ĠPLA CEMENT
Ġanti que
cle ar
Ġbu y
ĠSI ZE
ĠCOM P
Ġpropriet or
ĠLOC ATION
Ġannounce ment
Ġsche m
Entr ances
Ġforfe ited
quis ition
ĠTur tle
Ġdedic ations
Ġcompliment ary
Ġsurv ival
Conflic t
Ġlumina ires
cand les
Ġresc ue
ĠTHERE FORE
Acc ordingly
Ġhards cape
ĠDistill ery
Ġtour ists
ĠHard ware
ĠCalc ulations
Bal conies
Coll ector
ĠLeg isl
Cover age
Conce aled
Pres ervation
tt p
Ġlav atory
RED IT
Ge orgia
MED IES
bur se
Ġearli er
ĠHydrolog ic
Ġbuff ered
ffe rent
Ġtran scri
Ġjurisd ictions
Sk irting
jud ice
ester ly
REGULA TIONS
Ġraz or
Ġalphab e
Ġinherent ly
ĠFrid ay
Ġneigh bors
ĠMET HOD
resc ible
Ġtestim ony
Ġfores ted
Ġcyl ind
Ġnego ti
Ġlique fied
- (
1 000
2 20
3 50
3 19
8 27
A TIVE
B lank
B asement
C r
C BD
E ast
F ence
G ROUND
L ic
M edium
M assing
N et
N OW
O rient
P ay
P ING
R ural
S enior
T erm
b l
c ity
c lim
d ri
g arage
l ivestock
m eet
n ivals
p urposes
s q
s chool
s paper
s afety
t ops
w ire
z ones
in ned
in formation
Ġt y
Ġt ic
Ġt une
re zoning
he it
he ast
Ġs izing
Ġp lic
Ġb oring
Ġb ooth
Ġb ituminous
Ġb illiard
or namental
it ates
is y
is tics
Ġc entr
Ġc reeks
Ġd umping
Ġd ormitory
Ġm uff
Ġm ound
Ġl ift
Ġl ivable
Ġto y
il s
Ġsh or
Ġsh ine
et ed
tr avel
id a
id ity
ig hest
ac tical
ĠS il
ĠS am
ĠS anitation
ĠC REDIT
ĠA O
Ġpro hibits
pp ers
ĠP ond
ĠD EC
ĠD og
ĠD AY
Ġ2 25
Ġh ot
Ġh atcheries
Ġg un
Ġg ives
am ation
Ġcom b
ĠM ex
ĠM FU
ĠB ur
ĠB ased
Ġsp onsored
ty le
st art
Ġinc ap
ĠF ill
ĠF ah
ĠF IRM
ater ritorial
ĠT ake
ĠT ext
Ġcons erve
ĠL ID
Ġal igned
Ġv end
Ġv eterinarian
Ġloc ked
Ġall otted
Ġplan es
se ll
Ġ3 31
ĠE l
ip es
ĠRe ader
Ġcomp ared
Ġcomp art
Ġcomp lementary
................................................................ ....
................................................................ .....
Ġ5 12
Ġen gineers
Ġco in
ĠSt able
eas e
Ġ4 17
Ġ4 26
Ġint ake
par ty
Ġ6 14
Ġaccess es
our ing
ĠW arr
ĠW arehouses
Ġ10 16
âĢĻ ,
Ġdet ract
Ġdis crete
Ġdis till
ĠV al
ĠV iburnum
Ġse ed
11 9
Ġgr ad
Ġsquare s
Ġinter action
Ġ9 12
Ġ9 14
tiv eness
Ġar ising
Ġar borist
ÂłĠÂłĠ ÂłĠ
Ġout lets
con tr
Ġdo ing
ren heit
Ġopen ed
te es
Ġappro priateness
ĠPro hibitions
Any thing
Ġutil izes
14 3
14 4
14 8
Th oroughfare
out side
13 7
ond ay
IS R
IC AL
divid er
ND ON
rec tion
Ġ15 3
Ġ15 4
Ġ15 10
18 8
pre vent
pre liminary
loc king
loc ating
ator iums
LA ND
Ġj oints
ĠLand mark
Ġqu ick
Ġfoot ings
ĠCon ical
ĠCon forming
ĠAn imals
Ġregul a
ĠĠĠĠĠĠĠĠĠĠĠĠĠĠĠĠĠĠĠĠĠĠĠĠĠĠĠĠĠĠĠĠ ĠĠ
Ġshould ers
Ġorder ing
Ex posed
ĠCh ar
App endix
Ġcar pet
ĠJ acks
Ġcol d
ĠRE QU
ĠRE PAIR
ĠSh ade
app ly
Ġ40 7
40 7
23 1
23 9
ĠPr un
19 75
iti gation
Ġ18 2
Ġmar quees
ĠDesign ation
Ġveget ated
ĠHeight s
Ġillumin ance
Ġaccommod ating
Ġstream side
Ġfil tration
100 7
Con crete
Ġgener ating
Ġ17 01
ĠAr borist
hel d
Ġcur ric
ĠRec ords
Ġflow ering
Ġ150 2
Ġ................................................................................................ .............
ĠHigh ways
eeee eees
ĠAss istance
Ġiniti ally
Ġfill s
sub mitted
Ġdri vers
Ġincorpor ating
ĠDE PTH
Ġgreen house
Ġinf lu
Ġinf estation
Ġbr ake
Sh op
Ġ................................................................................................................ .........
Ġrental s
ĠDis continu
Ġcalcul ate
................................................................................................ ............
Ġ................................................ ........
Ġ................................................ ..............
Ġvol tage
coh ol
but ary
................................................................................................................ ..
................................................................................................................ ...
Un classified
Ġinstit uted
Ġvac ancy
BA NDON
sh al
ĠAD U
Ġ................................................................................................................................ ...
rin k
Ġdef ic
oper ated
oper ations
Ġpath way
ĠTO C
AD A
Ġlease able
Ġ................................ ...
Ġï ĥ
150 3
alu ation
Ġ112 7
Ġtransmit ter
ĠRS C
ĠĠĉĠĉĠ ĉĠĠ
Ġbulk head
Ġresol utions
ĠAL TER
Ġexerc ised
ĠRM D
ĠRem ove
Ġsl ides
Ar t
Ġprec ision
ĠHE AVY
ĠFin dings
Ġmass age
110 1
ĠUnder ground
Ġconfig urations
ĠSTAND ARD
Ġ198 9
ĠStream side
Ġmis represent
ĠAT P
ĠPR IVATE
Ġadminister ing
ollut ant
ĠRev isions
sec ondary
ĠON E
ĠLet ters
Ġarrow s
ĠParagraph s
ĠSTOR E
ierc ed
Ġdischarg er
EX CEPTION
Ġencomp asses
Ġexplos ives
Ġworks h
wh o
ĠMe ans
ĠElev ations
Amend ment
Ġrenov ations
ĠPass ive
Ġannoun cing
Prot ective
Ġcamp us
ĠOCCUP ANCY
ĠDi ameter
Ġaffirm ative
Ġshore lines
Ġmort gage
Ġspr ings
ĠSC REENING
Exp ansion
ĠMO BILE
ĠGuarant ees
Ġdimin ish
ĠPLA T
Ġcaf eter
ĠSand wich
Ġrecover y
tract ors
ĠOper ation
Ġpropriet ary
Ġmed ic
Ġsynagog ue
Met al
ĠRecomm ended
IND USTRIAL
ĠCOR NER
ĠLay out
ĠVeget ation
PAR TMENT
ĠRO OF
Ġdiscern able
Certific ation
yr tle
ĠGre enspace
hor ns
Ġsustain able
andf athered
Ġ*** **
Ġpurchas ers
Ġslaugh tering
Ġaudi ble
Ġmit ted
TAIN MENT
Ġpromo tions
TIFIC ATE
ĠShield ed
Ġembellish ments
Ġey es
Ġrace way
SUP PLEMENTAL
Ġunderp inned
Ġcosme tic
Ġunb roken
REQUIRE D
ĠCONTR OL
Down town
Ġvist as
Ġportr ayed
requis ite
ĠAUTHOR ITY
iflor a
Ġcentr ally
ĠFah renheit
ĠWarr anty
ĠJacks on
2 12
2 11
2 000
2 99
3 17
7 50
8 01
A TED
B locks
B illboard
C ultural
C ertified
D OM
D umpsters
D imensions
E Y
F ER
F ull
F uel
F PA
G overn
H ard
H oliday
L isa
M D
P ost
P ole
R P
R un
S creen
S olid
T op
V is
V AL
W ATER
a i
a que
b at
b oards
b oundaries
c s
c orpor
d s
d istribution
g en
h aving
h azardous
i as
m ail
p an
p res
p oints
r al
s m
s trip
v alescent
x i
z ero
Â ¬
Ġ ity
Ġt ight
Ġt ons
Ġt ures
re gul
er ally
ti ered
Ġp illars
Ġb rief
Ġf ender
it u
it tle
ic ian
ro ch
Ġc c
Ġc at
ar chitectural
Ġd ual
Ġd ump
Ġw at
Ġw ish
Ġl y
Ġl ists
Ġre habil
all ic
Ġbe ll
Ġsh ingle
Ġsh apes
Ġsh ipping
et in
Ġshall ow
id den
Ġn ationally
ĠS CHED
ot s
ĠC ong
ĠC ah
ĠC edar
ĠC apacity
Ġpro bate
as is
ĠP D
ĠP ist
ĠP erson
ur rence
Ġcon fin
Ġcon ical
ĠD oor
ĠD TR
ĠD ish
ĠD ental
ĠD istances
Ġ1 Â½
Ġ2 15
Ġst akes
Ġh inder
Ġh iking
ul ch
ab a
her ry
Ġde licatess
Ġnot ing
cc cc
ial s
Ġcom ing
ĠM y
ĠM IN
ĠM ort
ĠM usic
ĠM assage
ĠM onday
ĠB locks
Ġprov al
ver ted
ver green
ĠN uisance
st ro
st ation
st ored
low ing
ĠF all
ĠF IS
ĠF OL
ĠF lea
ĠT erraces
are s
Ġcons olidated
ad ministr
ad vertising
ĠL ong
ap onic
Ġv ess
Ġv irgin
Ġun attached
Ġun like
Ġun reasonably
Ġloc ks
ĠOr gan
Ġ3 12
Ġr ust
ĠDe ad
ĠDe part
ĠE nergy
res idence
................................................................ ...............
Ġen velop
Ġco lored
ĠSt abilization
Ġ4 13
ON D
ON AL
ch air
Ġint ro
Ġro pe
Ġim position
ĠW ATER
ĠW ashes
Ġtw in
de red
ĠIn flatable
Ġdis aster
12 01
12 06
ens itive
ĠV ol
ĠV ending
ĠV endor
Ġ7 08
Ġam bulance
Ġsa w
Ġup date
Ġ8 16
Ġ8 25
Ġnon commercial
20 7
11 10
ceed ings
Ġimp ly
Ġinter change
fin ite
ear th
Ġar ise
con crete
con tiguous
Ġwall paper
te rest
EN DING
Ġle v
LE S
16 2
ĠPar lor
ĠPar ticular
50 6
act ment
ind oor
man agement
14 0
Ġcl a
13 6
Ġvi ii
Ġ11 10
Ġrel iance
ange red
bor o
15 9
Ġperson ally
St orm
Ġcan nabidiol
Ġroof tops
Ġtrans l
Ġsc ored
ced ural
loc al
loc ations
Ġj aponic
ast ewater
tern ational
ys ical
ĠAn imated
RE AR
RE VIEW
Ġ14 5
Ġgu es
Ġdi vert
Ġill ness
RD D
24 0
24 4
Ġcol lo
17 1
app eal
23 3
23 4
bin ed
Ġfood s
19 3
Ġsol utions
ees e
De pending
RO UP
Ġfire wood
Ġclos ing
Ġclos ure
Ġ* ***
Ġpursu e
Comm unication
ĠCor ridors
Ġobtain s
Ġobs ervation
Ġpe ace
Ġchild care
ĠWater s
Ġmat rix
Ġmov es
OT OR
Ġdisc ont
Ġ................................................................................................ ..........
Ġequal ed
................................................................................ ...........
ĠIN TENT
Ġrefer ring
ins trument
Ġem bank
ĠUS GS
Ġ................................................................................................................ .......
ĠDis hes
ext ended
Ġtan ning
Ġpip ing
................................................................................................ ......
................................................................................................ ...............
................................................................................................ .......
ÂłÂł Âł
cons idered
Ġ................................................ ...............
ĠPRO CEDURE
ĠMar ker
ĠLim estone
Ġnear ly
Ġcircum stance
Side walk
Ġpay day
................................................................................................................ ...............
................................................................................................................ .........
ĠGr aphic
Ġmarket ing
Ġshel tered
Ġexcav ated
Ġ................................................................................................................................ ......
INI UM
Ġdef l
Ġdef ense
TE MENT
ĠBo x
ĠBo ards
Buffer yards
Ġillustr ates
Ġsk irted
ĠHouse hold
Ġsuper ior
Ġsuper market
Ġsuper vised
Ġsuper numerary
UL T
UL AR
................................................................................................................................ .......
Ġ111 3
Ġhold s
Ġess entially
Ġlater al
Ġbl ending
orne ys
OU T
ĠSe ven
ĠSe paration
ĠFl ashing
Ġearth work
PUD s
Ġ................ .
Prov ides
Ġappur tenance
Ġcontrib utes
Ġefficient ly
Ġjunk ed
Ġarc s
Ġphot o
mar kets
ĠĠĠĠĠĠĠĠĠĠĠĠĠĠĠĠĠĠĠĠĠĠĠĠĠĠĠĠĠĠĠĠĠĠĠĠĠĠĠĠĠĠĠĠĠĠĠĠ ĠĠĠ
Ġrenew able
Insp ections
ĠComp any
Ġreceptac le
Ġcab ling
ĠSuper intendent
cont ain
ĠAPPROV ED
Ġneg l
Ġundert ake
ĠExp ansion
Ġafore said
Ġsetting s
bo ok
ĠDo es
Ġcompar ison
Ġfund ing
Ġprohibit ing
ĠMX UD
Ġple ase
ĠON LY
Ġsil v
Ġsil os
Ġobsc uring
Ġdepict s
ĠAMEND MENT
ĠJunk yards
Col lege
ĠCONDI TIONAL
ĠTri angle
Ġcomput ation
ĠOCCUP ATION
Ġclaim ed
ĠBrew ery
ĠBrew pub
Ġphotogr aphy
Ġshore line
motor ized
Lim ited
Ġbat tery
Ġrub ber
Ph ot
ĠCombin ation
Ġpenetr ation
Cal c
Ġflor ist
veget ation
qual ity
Ġber th
ĠTele vision
Ġpharm acies
Ġmed ia
Ten nis
ĠLay er
Regul ation
Ġdiscern ible
fif ty
Ġbackfill ed
MO BILE
Ġlumina ire
Ġunders ide
Ġthorough ly
ĠCL UB
ĠVIO LATION
Ġpent houses
Ġrefin ing
employ ee
ĠCCC L
ĠTER MS
Ġdiver sity
Ġpractition er
House hold
ĠFIN AL
ĠContain ers
ĠHandic ap
Ġmut ual
Â® ,
Ġarti st
Ġemble m
CM U
Doc umentation
Ġartis tic
ĠEng lish
ĠExtr action
Ġdegr adation
ĠIMP ROVE
Ġnovel ty
Ġcommunic ate
prot ected
ĠImplement ation
Ġped est
ĠInstall ations
Ġexped ited
Ġsug ges
Ġpes ticides
ĠOUT DOOR
Ġlos ses
ĠCoven ants
Ġpreval ence
Ġincap able
roch ial
ĠCah aba
ĠFOL LOW
Ġvirgin iana
Ġenvelop es
% ,
. âĢĸ
6 07
7 00
7 12
9 02
A Z
A MP
B on
B owling
C S
C an
C ENT
C odes
E state
E lementary
F if
F ive
F CC
F orestry
F ixtures
F ESSION
G C
G lare
H N
L ounge
O IN
P lay
S anitary
S andwich
T ri
T AL
T wenty
U TION
V AC
a ure
b and
c oun
c utting
d ens
d uplex
d oes
d imensions
e op
e ffective
f uture
g g
g er
g oods
h ardship
k ennel
l igation
m echanical
m essage
o x
s creen
s tructural
t ail
t lement
v o
v est
y brid
â ģ
Ġ ;
Ġ ...............
Ġa viation
Ġa ware
in ous
in tensity
re qu
he el
he ological
Ġs oci
Ġs ediments
en ees
Ġp ouring
Ġb akeries
Ġb lue
Ġf alls
it ting
an nex
ic ides
Ġc ard
Ġc atch
ar f
Ġw et
Ġw esterly
Ġm er
Ġm useum
Ġm agaz
Ġor dered
Ġl ending
Ġre ached
Ġre application
Ġre porting
il an
ce ee
us hing
ment ed
ac res
Ġn ing
ĠS eal
ĠS aw
ot ation
ot hes
ĠC opies
ĠC rafts
ĠC ANOPY
ĠA UTOMO
as tics
ĠP olitical
ĠP DR
ĠP inus
ĠP riv
ĠD es
ĠD uration
ĠD irec
Ġh idden
ul um
ul ating
Ġapp aren
ĠR ule
Ġex otic
ab l
ĠO SC
ut a
lan e
os ing
ol ated
ol ved
ĠM S
ĠM id
ĠM ill
ĠB ene
ĠB roadcast
ĠB UFFER
Ġpar ameters
Ġpar apets
ight ing
ĠN et
st op
Ġad he
ir s
ect ors
ĠU sing
ĠF ixed
ĠF iling
ĠF aÃ§ades
ĠF oundation
ater s
up s
Ġhe ater
tic ian
Ġsub tenant
ad d
ĠL IV
ĠL ET
ĠL ittle
ap her
ap art
ap oosa
Ġacc ents
Ġal ign
est oons
we red
Ġv inous
Ġun n
Ġun an
Ġun licensed
Ġun incorporated
Ġapplic a
Ġ3 30
ĠH IGH
ĠDe ed
ip t
Ġcomp e
Ġno vo
Ġapprov es
Ġtr ap
................................................................ ......
................................................................ ..........
el a
ollow s
ĠSt ucco
eas on
Ġ4 15
Ġcomm em
ON E
Ġch att
Ġch ips
Ġy ou
par allel
op oles
Ġpre judice
ĠComm unities
ĠW rights
de p
de quacy
Ġund erc
10 16
cept ance
Ġ7 13
ove l
Ġam ple
Ġ8 21
Ġ8 27
Ġunder stand
Ġgr ave
Ġgr azing
Ġlim estone
duc t
Ġ9 10
ĠSp eech
ob ility
Ġar riving
Ġout put
ren tal
21 6
ss s
Ġle ak
ustr um
ĠAl cohol
ov ation
man thus
ES C
Ġcl othes
av ed
Ġtra vers
Ġob st
Ġob ligation
25 1
for th
ĠAm bulance
Ġtrans actions
Ġmin erals
Ġj ust
Ġj og
Ġexp ect
Re ference
Ġfoot ing
Ġfe eding
ex empt
Ġ25 6
ĠIns truments
IT AL
ĠStructure d
Ġgu ys
Ġmon asteries
Ġmod els
lay out
24 2
ĠCom par
ĠRE TAIL
Ġdirect ory
Ġfl otation
ĠCl uster
ric ks
23 7
ED I
Ġcirc us
Sec ondary
19 1
pro per
pro hibited
De fined
Ġveget able
Ġfire s
100 2
ĠPl ain
Con n
ĠFlo oding
Ġ17 8
Ġ17 02
Ġreduc es
Ġpartic les
ke ys
Ġconf ine
Ġtract ors
Ġboard ers
Ġdistrib ut
Ġwood ed
200 1
Ġradi ation
omin ately
ĠWater ing
Ġflow er
pr imarily
Ġdiff ers
Land fill
................................................................................ ...
................................................................................ ...............
ĠMain tain
Ġplay ing
Ġphys icians
Ġguest rooms
TER IAL
Sh ow
Sh utters
Ġ................................................................................................................ ......
Ġmove able
................................................................................................ .............
................................................................................................ .........
Ġâ Ħ¢
Ġ................................................ ..
Ġ................................................ ...........
Man agement
Ġ80 8
comm unity
ĠTrans fer
Ġmunicipal ities
Ġpay ments
Ġelectric ally
ĠAccess ibility
Ġdemonstr ation
Ġ................................................................................................................................ ........
ĠRES IDEN
Ġfirm ly
Ġadv ice
UC H
Ġang led
Ġdrain ing
Ġrail ings
MA XIMUM
AD OPTED
Ġstat ues
ĠĠĠĠĠĠĠĠĠĠĠĠĠĠĠĠĠĠĠĠĠĠĠĠĠĠĠĠĠĠĠĠĠĠĠĠĠĠĠĠĠĠĠĠĠĠĠĠĠĠĠĠĠĠĠĠĠĠĠĠĠĠĠĠ ĠĠĠĠĠĠĠĠĠĠĠĠĠĠĠĠĠĠĠĠĠĠĠĠĠĠĠĠĠĠĠĠĠĠĠĠĠĠĠĠĠĠĠĠĠĠĠĠĠĠĠĠĠĠĠĠĠĠĠĠĠĠĠĠĠĠĠĠĠĠĠĠĠĠĠĠĠĠĠĠĠĠĠĠĠĠĠĠĠĠĠĠĠĠĠĠ
ĠĉĠĉĠ ĉĠĉĠ
Ġbal anced
Ġpa rochial
no xious
ĠInc ludes
ĠInc entives
Ġstee ple
Ġ199 2
plan ted
Ġrecogn ition
ĠDec l
ĠDec orative
Tr ash
ĠMA JOR
Ġir resp
Ġtax es
ĠHazard ous
Ġelimin ating
yl on
Ġdin ner
ĠPh arm
ĠAM ENDING
SP ITAL
Ġ................ ..
Ġcontrib ution
Ġbur dens
Ġarc heological
Flood way
Ġanch oring
supp ly
supp ort
ĠComp ly
ey eb
ru it
Ġsket ches
ĠEN AC
ĠAN N
Ġcell ars
Ġeven ly
Ġestim ate
lev ation
ĠWindow s
Ġcand les
Pl ace
Ban k
LO C
................................................................................................................................................ .
dentif y
Fac ades
Trans portation
Occup ations
Ġforest s
ĠPrac tice
ĠRegul ated
Coun ty
Ġmid way
Ġlumin ance
Ġconspicuous ly
Ġmembership s
Ġexamin er
subsection s
PRE MIS
Ġventil ators
Ġfoc used
Ġimpr actical
Ġgrand iflora
Ġsafegu ard
ĠPay ment
ĠPay day
ĠParcel s
Window s
ĠCell ular
ĠSUP PLEMENT
Ġlawn s
cl ub
Red evelopment
recre ation
Ġresub mitted
Sc hedule
ĠBl ack
ĠTall apoosa
Ġmort uaries
ĠDoc uments
Road way
Out side
Ġjustif ying
Fin dings
APP LIC
Ġdiagr ams
ĠWITH IN
Ġreplan ting
Ġpenins ula
Mon opole
Ġsam ple
ĠPM D
version s
ĠFRON TAGE
Ġsun set
ĠPV As
ĠOper ations
Ġimpound ment
Ġannounce ments
Met hod
ĠPet roleum
:::: ::::
Certific ates
Oper ators
Ġcandle power
HIBIT ED
cand le
ĠCorn ices
Ġdemarc ated
ĠVIO LATIONS
Ġabsor ption
Ġdenti sts
ĠProm ote
Ġhun g
Ġcott ages
Ġvap or
Ġtheat re
field s
Ġhum ans
Ġadvis able
Ġbull horns
Ġfed erally
Ġdele gated
ĠInf rastructure
GAR AGE
zz an
insp ection
Ġpave ments
Ġbreez eway
ĠMic ro
Ġphotograph s
Do uble
fig uration
ĠINSTITU TIONAL
install ed
Ġplac ard
Ġfluct u
Ġesc apes
Measure ment
ere levation
Ġdraf ting
rig er
Ġreim burse
Ġvul ner
ĠAppro priateness
Ġtelegr aph
Ġribb ons
ĠOs manthus
chae ological
Ġeffec tiveness
Ġcylind rical
Ġshor ter
ĠMex ico
Shop front
Ġmisrepresent ation
DOM INIUM
bat ten
ĠPist ac
Ġcla uses
ĠFOLLOW S
Can opies
CENT AGE
FESSION AL
ĠLET TER
ĠWrights boro
Ġirresp ective
eyeb row
) )
2 21
2 30
3 02
3 34
5 16
6 05
8 03
8 36
A CCESS
A vailability
B roadcast
C enter
C ell
C opy
D A
F aced
F ield
F igures
F lor
G lass
G VD
L IV
L UM
L iquor
M aterial
M AN
M embership
P U
P ERT
R CP
S ES
S IDE
T ower
V ATION
V icinity
W al
W ord
] ;
a verage
a ired
c he
c ut
c riteria
e qu
e fficient
e bo
f encing
f iled
g enerally
h t
h is
h ance
h ou
i at
m m
m eral
m osp
m oving
p o
r ants
r onic
s erve
s erved
s tim
s mall
t ory
t reatment
w ritten
Ġ )
Ġ {
Ġ ....
Ġ il
Ġ ix
in dependent
Ġt ed
Ġt ial
Ġt ack
ĠĠ ÂłĠÂł
Ġo c
re ated
re port
re tention
Ġs enior
on ze
ti al
ti se
ti que
al ment
Ġthe rapy
Ġp in
Ġp oll
Ġf airs
or dinance
or se
an ite
Ġc rop
Ġd B
Ġd ur
Ġin put
Ġw att
Ġw aves
Ġm en
Ġm es
Ġm ir
Ġm ale
Ġm enu
Ġm usical
ĠĠĠĠ ÂłĠĠ
Ġor al
Ġor ch
Ġor ph
Ġl f
Ġl ose
Ġl ifts
Ġre ve
Ġre jection
Ġbe au
ce ived
Ġsh ar
Ġsh ipment
us cal
................ ....
ig ustrum
ĠS leeping
ĠS heet
ĠS UCH
ĠC red
ĠA P
ĠA utom
ĠA esthe
ĠA isle
im ple
qu itt
ĠP oint
ĠP DF
ĠP OWERS
ĠP ollutant
ur su
Ġcon gregate
Ġcon ferred
ĠD ri
ĠD isturbing
ĠD omiciliary
ĠD etermine
Ġwith stand
Ġ2 Â½
Ġst aging
Ġst acked
Ġh ose
Ġh itch
Ġh oses
and al
and ed
ĠR T
ab andoned
ab utting
ĠO S
truc ks
os ph
ture d
velo pe
am ing
Ġcom es
ĠM or
ĠM oving
ĠB er
ĠB erm
ĠB TA
oc ks
ĠN IA
if era
ĠI BC
Ġres ides
pos ts
Ġat tic
ĠF urther
ĠF igures
ĠT U
ĠT DD
ĠT eam
ĠT uscal
th rop
ad ows
ĠL igustrum
Ġacc umul
Ġun w
Ġloc atio
of ts
se wered
Ġapplic ability
ĠH OD
ĠH istorical
Ġr atios
ĠDe veloped
ĠE DF
ĠE lm
Ġcomp ress
Ġac quisition
................................................................ ...
................................................................ ............
hed uled
form ity
el ine
red uced
ĠSt all
ĠSt ables
eas ible
Ġ4 12
Ġ4 50
Ġ4 Â½
ĠG A
ĠG all
Ġint roduction
cre ase
Ġserv iced
Ġown s
Ġpre limin
Ġpre requisite
Ġpr int
ĠW ind
de gree
ax ing
ag ric
12 03
ĠV ari
Ġ7 14
In t
Ġup right
Ġ8 12
inc hes
inc luded
Ġse ated
Ġse eding
Ġnon compliance
20 14
11 13
11 30
Ġthere for
Ġlim bs
the y
ĠAd ditions
âĢĿ :
part nership
tif ied
Ġ9 11
ass emb
Ġout c
Ġout patient
Ġcontain ment
gr ading
gr ades
gr aving
Ġins ign
21 4
21 5
ĠApp ellant
Ġind emn
Ġle ather
ĠPar apet
50 3
Ġass urance
to gether
14 6
14 9
ES TO
av ily
EC TOR
cent ers
omes tic
AR DING
Ġreview s
Ġgre at
Ġgre ens
Ġob noxious
Ġfin anced
ĠEn vision
Ġpercent ages
ĠEx posed
Ġnat urally
15 5
Ġpres iding
rec ision
Ġatt orneys
fe atures
St ories
Ġ15 5
Ġ15 00
Ġ13 06
ĠX IX
Ġeff lu
18 3
pre pared
Ġvis ibly
Ġj unction
Ġmet als
Ġqu orum
ĠCon dition
................................................ .............
................................................ .......
RE TAIL
Ġph osph
ĠĠĠĠĠĠĠĠĠĠĠĠĠĠĠĠĠĠĠĠĠĠĠĠĠĠĠĠĠĠĠĠ ĠĠĠĠĠĠĠĠĠĠĠĠ
An imated
AN GE
Ġelev ators
Ġill usion
ĠSec our
Ġsec luded
Ġstr ings
Ġcar nivals
Ġmod ules
imin al
air y
eng ers
ĠRE MEDIES
17 2
17 3
17 9
ĠSh oe
UD IO
Ġback s
Ġcal ming
fess ions
19 9
Ġsubst an
Ġwork place
De ad
Ġmar k
Pro per
Res earch
Ġhor ns
ĠProv ided
ĠProv iding
Ġfil m
Ġfil ter
Ġ17 5
ĠAr rangement
Ġref uses
Ġli k
Ġpursu ing
Ġpursu ance
Ġconf isc
34 7
sp ot
Ġend angered
Ġend orse
erg lass
200 3
Ġradi os
Ġgas ses
medi ately
ÂłĠĠ ÂłĠÂłĠÂł
ĠCenter line
pr ac
pr one
ĠCare taker
Ġcommission s
Ġban king
Ġintegr ation
ĠProt ected
Ġdiff ering
Ġsw ing
Ġsw amps
................................................................................ .
................................................................................ ........
Al though
ĠAt las
Ġsched ules
DD U
Ġbed ding
ĠSupp orting
ĠDE FIN
26 1
Ġcam era
There after
Ġ120 7
Ind oor
Ġop tical
Ġcond emn
Ġpub ic
Ġdocument ing
pati ents
Ġpay ing
Ġ110 5
................................................................................................................ .
................................................................................................................ ..........
Ġflag poles
En courage
ARK ET
Ġmarket ed
sh own
sh owing
Ġretain s
ĠGulf side
Ġ................................................................................................................................ ....
Ġ................................................................................................................................ ..........
ĠRES TRICTIONS
Ġenh ancing
Ġresul ted
Ġbond s
TE MPORARY
Ġsubdivid ing
ĠColl ection
Ġgrass ing
Ġresid ency
Ġeconom ical
ĠĠĠĠĠĠĠĠĠĠĠĠĠĠĠĠĠĠĠĠĠĠĠĠĠĠĠĠĠĠĠĠĠĠĠĠĠĠĠĠĠĠĠĠĠĠĠĠĠĠĠĠĠĠĠĠĠĠĠĠĠĠĠĠ ĠĠĠĠĠĠĠĠĠĠĠĠĠĠĠĠĠĠĠĠĠĠĠĠĠĠĠĠĠĠĠĠĠĠĠĠĠĠĠĠĠĠĠĠĠĠĠĠĠĠĠĠĠĠĠĠĠĠĠĠĠĠĠĠ
Rec ycling
Ġ................................ .............
Ġsk in
ring e
Ġclub houses
................................................................................................................................ ....
................................................................................................................................ ...
Ġ112 6
ĠCol location
Ġche c
ĠSTA TION
Ġhalf way
ĠSe a
ĠHe ating
ĠĠĉĠĉĠ ĉĠĉĠĉĠ
ĠRel ationship
SP ECIFIC
Ġrestr ain
Ġcorn uta
Ġage ment
Ġbur ning
vehic ular
Ġjud icial
Ġfav oring
supp lies
Ġadvertise ments
Be auty
ĠĠĠĠĠĠĠĠĠĠĠĠĠĠĠĠĠĠĠĠĠĠĠĠĠĠĠĠĠĠĠĠĠĠĠĠĠĠĠĠĠĠĠĠĠĠĠĠ ĠĠĠĠĠĠĠĠĠĠĠĠĠĠ
Ġimpair ment
ĠTR A
Mar ina
Ġstabil ize
resp ons
Inc luding
Inc lude
Ġmiti gating
ĠGreen house
ĠEX CEPTIONS
Water front
Ġmix ing
Ġconv icted
VER ABILITY
Ġshare s
ĠAb andonment
Ġrecyc led
Ġundert aking
ĠPR ES
bo x
bo arding
Cor ridor
Ġcho osing
sur faced
Ġeas y
open ed
IB C
uf ord
ĠÂ «
Ġsil hou
Ġfer mented
Ġproble m
Ġtem ples
permanent ly
Bo at
RES TAURANT
paren cy
Ġlumin ous
ĠLaund ering
Ġholid ays
Ab ove
ĠDon ation
Ġpreced ence
ĠWith out
Ġgrand f
Ġassemb le
Specific ally
Ġaqu ifer
present ative
ĠBuild able
Ġtub es
obb ies
Ġcourty ards
ĠRequ ests
Ġreach ing
ĠPos ting
Exp iration
Ġmo isture
Ġlat ter
ipher al
Ġjustif y
Ġjustif ied
scri bed
ĠALL OW
Ġimprison ed
bre wery
Ġtang ents
ĠVac ant
Ġreproduc tion
ĠLANDSCAP E
Ġrein forced
ĠDirect ly
Ġpharm acy
ĠComput er
ĠTermin ation
irec ted
ĠRece ived
Ġdisrup t
Ġsal ons
Ġlum en
Ġpref abricated
Bre w
ww w
Ġdair ying
Ġvent ure
Ġ15Â ¹
quar ter
ha ul
ĠCam oufl
ĠUs age
Ġhun ting
Ġpractition ers
Veget ation
Ġtab ular
ĠSL C
Ġvap ors
Ġinfl atable
offic ial
roxim ate
ĠFr atern
ĠLibr aries
Ġcustod ial
Detail ed
Ġincident ally
Ġcance l
Ġrabb its
Ġdiction ary
aterer s
Cre ation
Ġdye ing
Ġtouch ing
ĠDeal ers
ĠSk ating
charg es
Ġimprov ing
Vac ancies
Ġbrack ets
onym ous
Ġherb icides
posit ory
anten na
ĠWilli ams
Studi os
Ġcurv ature
ĠUnderw riter
Ġtranscri pt
Orient ed
ĠDog wood
Ġcurric ulum
ĠDiscontinu ance
rink ler
ĠSCHED ULE
Ġgues thouse
Ġdiscont inue
ilan throp
ĠENAC TMENT
ĠSUPPLEMENT ARY
ĠTuscal oosa
Ġprelimin arily
ESTO CK
Ġcondemn ation
ilanthrop ic
. âĢĶ
2 32
3 14
3 01
3 35
4 05
7 03
8 37
9 14
9 15
A F
A FE
B ased
B UFFER
B oundary
C entral
D am
D etention
D ENSITY
D oes
D enial
E asement
F rom
F ace
F ree
F owl
F enestration
H ardship
J ustification
L ength
L odging
L IGHT
M echanical
M otels
M easures
N E
O b
P os
P LA
P RD
P awn
P ollution
P URPO
P ools
R ecomm
S ew
S emi
S CCD
S easonal
S nipe
S heet
T ext
a rol
a ults
b al
b ud
b order
c ome
c oll
c ases
d n
d anger
f riendly
h y
h ard
h otel
i ries
k ept
l iness
l atching
m ings
m anship
o il
p otential
r ift
s erv
u able
v ise
w aste
w ashes
w arf
x ii
Ġ __
Ġ 01
Ġ ..........
Ġa eration
Ġt ive
Ġt ong
Ġs ided
al tic
al teration
en ee
Ġp m
Ġp asses
es c
es e
Ġb lu
Ġb red
Ġb ik
it he
an imals
ic apped
Ġc od
Ġc ept
Ġc edar
ar ial
Ġin active
Ġw ear
Ġl ux
Ġbe ars
Ġbe aches
Ġsh ining
et rom
us band
ĠS CHOOL
Ġe red
ĠC and
ĠC ritical
ĠC ypress
ĠC herry
ĠA IRPORT
ĠA dequacy
le as
im ber
ĠP aper
ĠP aved
Ġcon di
Ġcon cess
ĠD OD
Ġon line
Ġst en
Ġst aking
Ġst ained
Ġh usband
Ġper ceived
ul ip
and es
un ting
uil der
lic ation
00 000
Ġg et
Ġg ames
Ġg ifts
Ġg ymnas
ĠO IT
os en
os ts
per form
istr y
hic h
ol der
Ġcom ment
ĠM AR
ĠM SP
ĠM useums
ĠM easures
ĠM PH
ĠM yrtle
ĠB OD
Ġprov i
Ġpar son
Ġsp rinkler
ĠN FPA
st ood
st one
st ead
Ġinc iner
Ġres titution
Ġres ervation
ir ms
ĠF illing
ĠT ide
ĠT PP
Ġcons ulting
Ġhe avily
ĠL iability
ĠL AW
Ġal k
Ġv andal
Ġun acceptable
Ġun restricted
of ten
se w
se wer
Ġ3 25
Ġ3 29
ĠZ oned
ĠH OUS
ĠH omestay
ĠH edges
ĠH AZ
ĠH VAC
Ġr are
ĠDe l
ĠE v
ĠE lementary
ip arian
ĠRe vision
ew s
Ġno ises
Ġac cel
ill ed
ill ustr
ten tional
el ding
Ġ5 10
Ġ5 11
Ġen graving
eas ibility
eas ement
Ġ6 12
Ġro ugh
Ġserv ants
op aque
Ġline al
ĠW ine
ĠW ould
ĠW ALL
ĠIn ns
Ġab ated
Ġ10 23
10 23
Ġdis ag
ber t
ĠV icinity
Ġ7 20
Ġ7 09
IN ES
In stall
In complete
Ġunder stood
Ġse at
Ġse qu
Ġse aw
ans ard
11 16
Ġgr adi
Ġimp aired
duc ted
Ġrec apping
Ġ9 16
Ġwater line
ĠPer taining
Ġday light
Ġdo ub
Ġsupp lements
Ġcompl aints
Ġins ol
21 9
Ġtime frame
ĠPro hibition
No tification
LE Y
ĠPar allel
ĠAl ong
Ġass uring
Ġequ itable
ind ic
14 7
14 02
use ments
oor din
13 07
aw l
port able
port ant
Ġfin ance
Ġfin ancing
25 6
ecess arily
15 3
Ġme zzan
Ġcan al
Ġ15 7
Ġ15 9
ĠSub zone
ĠX VII
Ġsc rolling
Ġpark ways
loc ates
OR E
over y
Ġexp an
ĠCon version
ĠCon valescent
be am
Ġinform ed
ĠTh an
Ġnotice able
TIC E
................................................ ..
................................................ ..............
ĠĠĠĠĠĠĠĠĠĠĠĠĠĠĠĠĠĠĠĠĠĠĠĠĠĠĠĠĠĠĠĠ ĠĠĠĠĠĠ
Ġ14 6
Ġcomplet eness
Ġsew ing
28 0
Ġshow ers
Ġdi e
arg ing
Ġconn n
30 7
Ġdev oid
arm ony
Ġconduc ive
Ġcol located
Ġrece ivers
ĠInd irect
17 0
ĠSh rub
Ġcoun ting
Ġinv as
Ġval uable
bin ation
Ad d
Ad ditions
TA TE
Ġver ification
Ġver ifying
Pro duce
ph altic
âĢ¦âĢ¦ âĢ¦
ĠProv ides
100 5
Ġcurb ed
Con tractor
ĠAr bor
ĠAr chitecture
Ġconven iences
Ġref und
gre gated
ele v
Ġcontr acts
UR CH
anit orial
ĠCont ent
Sp ace
sp e
ĠSu itable
Ġfr anch
Ġtown home
Ġexemp tions
OP EN
Ġdisc overed
Ġpass ages
Ġ150 6
Ġ................................................................................................ .......
................................................................................ ..
................................................................................ ......
................................................................................ ..........
Ġplay houses
Ġcorpor ations
eeee e
Non conformities
ĠSupp lies
agr am
Ġwe ap
Ġem erg
ĠORDIN ANCES
Ġbr onze
Ġtake off
Ġconc ludes
ĠDis c
ĠDis charges
ext ual
Ġsurvey ing
Ġpip elines
Ġfarm ers
Man ual
33 1
ĠSpec ies
ĠNot ary
town house
Ġvalid ly
Ġ110 8
Am usement
29 1
ĠAccess ible
Ġconvey ances
sh rubs
olog ic
ĠPER CENTAGE
Ġtri plexes
Ġtri angles
Ġ................................................................................................................................ ............
Ġ................................................................................................................................ .............
Ġ................................................................................................................................ .....
AS T
Ġdef ects
ret arial
ĠXX IV
Ġresid en
cour ts
ĠĠĠĠĠĠĠĠĠĠĠĠĠĠĠĠĠĠĠĠĠĠĠĠĠĠĠĠĠĠĠĠĠĠĠĠĠĠĠĠĠĠĠĠĠĠĠĠĠĠĠĠĠĠĠĠĠĠĠĠĠĠĠĠ ĠĠĠĠĠĠĠĠĠĠĠĠĠĠĠĠĠĠĠĠĠ
Ġfabric ating
Ġ................................ ..........
ĠBre ast
ĠBre akfasts
Ġsuper intendent
CON STRUCTION
Ġever greens
Ġlit er
tim es
Ġcarri es
Ġstee per
ĠOp tions
Ġ112 1
plan ning
ĠPres erve
ĠCol umn
Ġax le
com pl
ĠMA TERIAL
ĠĠĉĠ ĉĠĠ
Ġtransmit s
Ġquar ries
Ġevalu ations
ĠPLAN S
ĠAG REE
Ġhard wood
ĠPh asing
Ġunc ont
Ġorna mentation
ĠCar nival
Ġbur ied
Ġseas ons
IM AL
Ġanch or
Ġbott les
Ġbott ling
Com patibility
ĠFin ish
amp ground
ĠIND USTR
non commercial
ĠDR AIN
110 2
Ġsyn onymous
af ood
ĠEN TER
ĠGreen belt
Ġreflect ors
Ġpred ominately
112 0
112 5
112 9
Ġcr ime
Ġspir its
Ġreserv ations
Ġtrust ee
Ġder iv
ĠBal conies
LIC TING
Ġexec ution
................................................................................................................................................ ...
Ġprofession ally
GENERAL LY
Ġrestrict ing
Ġdistingu ish
Ġoblig ate
Ġbi ological
Ġtrim med
Bed room
ĠLab el
Ass embly
ĠAcc ent
Ġtem ple
ĠRegul atory
ĠCan al
Ġsupers eded
PRO CEDURE
wh olesale
organ ic
Ġimport ance
ĠJunk yard
ĠPe rennial
inter rup
Ġte lling
Rel ationship
Ġresub mit
Ġsuff ice
Ġlin en
Ġencompass ed
Ġplain s
Cont ain
More over
ĠDWELLING S
ĠRequ est
Ġmechan ism
ĠPos ition
ĠHand book
Ġpil ots
Ġdelay ed
Ġrid ges
---- ----
yn amic
Ġdiscour aged
Ġcamps ite
high ways
ĠSETBACK S
Ġcoinc ides
ĠIniti al
Ġlegisl ation
Ġbrew pub
Ġdil apidated
== ==
Ġsam ples
Ġber ths
ĠForm s
ĠEncroach ment
setback s
Ġlubric ants
ĠLOC ATIONS
ĠPor ches
ĠBon uses
ux iliary
Ġtransform er
ĠAGRICUL TURE
Ġpref ix
ĠCamp us
Ġvent ed
Ġrapid ly
MO VAL
Ġvirt ually
Ġcorr al
Ġcorr ugated
Ġexperi enced
quar ters
Ġdemarc ation
ĠSUB JECT
Di fferent
HE IGHT
rem oval
herein after
Ġadvantage ous
Build able
Ġprove ments
Ġhards c
typ ical
andf ather
Ġpurchas er
Ġslaugh ter
Ġprosec uted
Ġunp ierced
Ġstrateg ies
Ġswitch ing
Vari ations
Ġprob ability
ÂłĠĠÂłĠĠ ÂłĠĠÂłĠĠ
Ġnumer ous
Ġcomprom ised
Ġprun ing
Enc losed
Enc roach
FRON TAGE
Ġstri pping
ĠCER TIFICATE
ĠFLO OD
Ġdestin ations
Ġapr on
Ġtin ted
Ġpon ding
Ġexch anges
Ġfloodwater s
Ġmultip lying
ĠUTIL ITY
ĠRoom s
ĠLumina ires
ĠRent als
River front
Ġply wood
Ġboll ards
ĠCond otel
AMEND MENTS
electr ical
phe meral
Ġrad ial
clim bing
ĠPond s
Ġcomb ine
BANDON ED
Ġcafeter ia
sm ooth
regul ated
Ġintro duce
Ġsugges ted
Fif ty
Ġmagaz ines
Ġapparen t
Ġunn ecessarily
Ġchatt els
Ġjog ging
ĠCompar ison
ĠDecl aration
PERT Y
Ġdur ability
ĠCred its
ursu ant
Ġsubstan tive
etrom eter
ĠBOD Y
Ġseaw ard
ĠDRAIN AGE
" ).
, ...
2 60
3 13
4 12
4 22
5 11
6 11
8 12
8 07
A ct
A UTOMO
B asic
C OD
C overed
C irculation
D edication
D umpster
D WTN
F T
F e
F our
F ederal
F ARE
F oundation
F actors
G R
H ave
H LP
I r
K S
L ess
L iving
M embers
M unicipal
M ovie
N S
N GVD
O VER
P et
P ub
R eason
S av
S TOR
S INGLE
T U
T ND
U EY
V er
V ARI
W a
W e
W ill
X I
a upon
b uffers
c art
d ue
f ile
f ixed
f its
f ortable
f irm
g ates
m ith
m op
m oved
n es
n ine
n ames
o h
p entry
r anged
r ails
s ight
s hes
t ow
t ake
u ce
u ven
v oid
Ġ Ã
Ġ ........
Ġ imum
Ġ idential
Ġ ject
Ĥ ¬
Ġt it
Ġt un
Ġt orn
he avy
he els
Ġs i
Ġs ac
Ġs light
on ents
ti mber
Ġp ow
Ġp aging
Ġp ier
Ġb ir
Ġb are
Ġb ind
Ġb acter
Ġb ough
Ġb light
Ġf ol
it ude
an imal
ro active
Ġc ord
Ġc ren
Ġc ages
Ġc lude
Ġc ordance
ent h
Ġd ro
Ġd rought
Ġin k
Ġin action
Ġin vert
Ġw ate
Ġm a
Ġm il
Ġl ens
Ġre he
Âł ÂłĠÂłĠÂł
Ġsh ake
Ġsh akes
ec s
et he
et eness
................ ...
id al
ĠS al
ĠS up
ĠS URE
ĠS ports
ĠS porting
ĠS plit
ĠC ultural
ĠC ease
ĠA CCESS
ĠA thletic
ĠA LEX
Ġpro cedural
le et
lo an
as phalt
pp ings
ĠP ico
ur ate
ĠD en
ĠD ue
ĠD oll
ĠD riving
Ġwith draw
Ġ2 20
ire a
ll a
Ġh ide
Ġh ogs
and em
Ġas cribed
ĠR L
ĠR etention
ĠR DS
lic ate
Ġg eese
Ġex termin
ut tered
ut oring
Ġde fer
ol ute
am per
Ġcom fortable
ĠM ounted
ĠM OTOR
ĠB O
ĠB et
ĠB lue
ĠB asic
Ġpar tition
Ġsp l
Ġsp ouse
Ġsp reading
ty l
ty ard
Ġsign ing
ĠN S
st atic
Ġad di
Ġinc andes
ĠI G
Ġres i
Ġres ur
ir ming
pos als
Ġat mosp
ĠF U
ĠF LA
ĠF RO
ĠF ores
ĠF ENCE
ĠT N
are t
Ġcons iders
ad s
ad option
end ation
end ices
ĠL eas
ap sed
Ġ20 9
est acks
Ġv o
Ġv ide
Ġv ene
identi f
orm al
ĠOr der
se ason
Ġland mark
Ġland marks
Ġ3 11
Ġ3 26
ĠH as
ĠH UD
ĠH ave
ĠH LP
ĠH UEY
ĠE vergreen
ip ation
ĠRe location
ĠRe habilitation
ĠRe tirement
Ġac id
ĠThe rapy
................................................................ .............
el i
Ġ5 000
Ġen acts
Ġen abling
Ġco oper
ĠSt ev
Ġcomm ences
ON S
Ġch ronic
ĠG AR
ĠG ift
ĠG arbage
par ks
oun g
Ġim itating
Ġim posing
Ġset tlement
Ġman ure
Ġman aging
ĠIn gress
ĠIn tegr
ĠIn crease
Ġab ilities
Ġab andon
pl us
pl ine
pl eteness
ens ense
Ġ7 11
Ġ7 22
pen se
In cre
Ġ8 35
Ġunder going
11 38
Ġgr ain
Ġgr asses
ceed ing
Ġleas es
Ġimp lication
Ġ9 13
ĠSp ir
ĠSp irea
Ġout parcels
con d
gr ass
gr anted
gr aded
ĠApp ly
EN N
EN TR
Ġrem edi
Ġappro pri
LE C
16 9
50 7
50 9
Ġass ured
Ġass umes
Ġsim ulation
Ġenc oun
Ġcl ap
av ine
Ġrear ranged
Ġvi able
IS E
AL TER
for ty
for cing
ĠEx ecutive
15 4
15 6
15 7
pri or
Ġover come
Ġme ant
ĠAm enities
Ġk iosk
Ġflood ways
Ġtrans om
18 47
Ġsc oot
Ġ12 00
Ġmet allic
Ġqu asi
22 4
tern ate
Ġremov ing
ex tile
ys ically
eter ious
ĠAn tique
Ġreg ards
Ex tension
AN S
AN SI
Ġfur thest
Ġshow er
Ġexterior s
Ġcre a
Ġindic ations
Ġfeat uring
ĠCom position
ĠOfficial s
17 4
17 6
ĠCl imate
Ġback up
Ġ40 9
23 8
Ġinv iting
ish ment
ĠFront ages
ense ess
ĠApplic ants
SE T
ĠAR C
TA CHED
pro perties
Ġ18 9
Ġrepl aces
De velo
Ġmar shes
RO SS
ĠAc tive
ph ithe
Ġinsp ecting
off ered
ĠPl astic
Ġgener ates
ĠAr tificial
Ġ16 05
ĠOver hang
Ġer odible
gre gation
Ġpursu its
Ġconf use
Ġconf usion
Ġbec oming
Ġboard walks
Ġcap ac
Ġdoc k
Ġresult ant
ĠCont inue
ĠNe on
ĠOrd ers
200 4
Ġinten tions
Ġpe aks
medi um
Ġarr ay
Ġgl azing
OP E
Ġ150 5
Ġsw ap
................................................................................ .....
Ġden oted
ĠPre vent
ĠPre paration
Al coholic
Ġlow ed
Ġx i
DD H
Ġphys ician
pon ents
Ġstandard ized
sub mittal
ĠBe low
ĠBe verages
Ġblock ed
Ġparallel ing
Ġtravel ers
ĠUS DA
Ġstaff ing
Ġsurvey ed
Ġtechn ologically
cons ideration
ĠPRO VI
ĠPRO FESSIONAL
Ġbre aks
Ġproceed s
ĠControl s
Ġop acity
Ġop tim
UN K
Ġ110 6
................................................................................................................ .......
Un it
prov ision
uis her
ĠDr ink
atell ites
Ġconsum ers
sh op
sh ared
Ġexcav ations
ĠAD OPTED
Ġleg s
Ġ................................................................................................................................ ..
ĠRES TAURANT
Ġce ed
AS S
Ġdef ective
Ġcontract ual
Ġattr actions
ĠGu y
ĠK eeping
ĠXX I
Ġ34 7
Ġrail ing
Ġopaque ly
ĠSP EC
Ġresid ual
roll ment
lin ed
Ġperform s
Buffer yard
Ġharm less
Ġ................................ .........
Ġsk illed
let e
Ġreal m
Ġtransmission s
Ġentry way
................................................................................................................................ ......
................................................................................................................................ ...............
................................................................................................................................ .....
aves ites
Ġ112 3
Ġ112 5
Ġ112 8
END ED
Ġremed ied
com ing
Ġtax ation
eric an
Ġdoor ways
Ġbl ade
Ġtransmit ters
REA M
Ġwarr ants
ĠSe ating
ĠSe venty
ĠHe ated
ĠIntern ally
Ġsum mar
ĠRel igious
ĠPh ase
AND ER
Ġshield s
Ġresol ve
Ġ................ ...
Ġjunk yard
cell ular
Ġenj oin
Ġextr aterritorial
Ġdel eterious
110 4
Ne on
Ne ither
Town homes
Ġcell ar
Ġhydro static
Ġsuccess fully
cont rol
cont rolled
ĠTax i
Ġ198 6
Ġcompact ors
Ġpack aged
ĠStream s
Ġhar vest
Ġrect or
ae a
dwelling s
Ġexper ts
................................................................................................................................................ ..
ĠPURPO SES
ever green
Ġfund a
Fac ility
EW AY
sec urity
Ġhabit ats
Ġposs ibility
ĠContinu ing
Ġposition ed
Conven ient
ĠCut off
imp act
Coun try
Ġnum eric
ĠES TABLISH
Under story
Ġmid point
etr ations
ĠMe at
Ġnarrow er
col or
Ab andonment
Ġlog ical
Ġ________________ ________________________________
Ġwid est
Ġgain ful
Ġfar thest
Ġcamp ground
Ġcomput ations
ĠOCCUP ATIONS
Ġclaim s
NON CONFORMING
Ġresub division
Duplex es
Ġinvestig ate
Road side
Ġthreat ened
ĠPos tal
produc ing
Ġdeterior ation
ĠSm oke
ĠJun ior
High way
omest ays
Ġfertiliz er
CA MP
acc ommod
ios ks
ĠTop ographic
Ġslo ped
Ġsam pling
ĠCateg ories
Ġyield s
Ġavo iding
Ġtren ches
GS MM
LI ANCE
Ġsalv aging
ĠĉĠĉĠĉĠĉĠĉĠĉĠ ĉĠĉĠĉĠĠ
continu ed
Ġprepar atory
Ġclar ity
ĠPor ch
ĠTur ning
Ġrecon ditioning
Reg ardless
Ġdepreci ation
Continu ance
Ġcandid ate
ĠGre ater
Ġtrip licate
PERMIT S
require ment
ĠMail ing
Ġunders igned
ĠCorn us
ĠTHERE OF
ĠUnd eveloped
Ġrefin ishing
ĠEduc ational
planting s
Ġabsor b
ĠLIMIT S
ĠLIMIT ATIONS
Ġdenti st
Ġformer ly
Exc lusions
Ġtrench ing
ĠSL D
Ġpromo tional
REC RE
ĠHandic apped
cor ner
Ġnumer ical
Ġadvis ory
ĠFre quency
ĠLibr ary
Ġsculp tures
BMP s
Ġdies el
Ġrod ents
conven ience
ĠPrevious ly
Ġdestin ation
Ġfestiv al
Ġfestiv als
Ġprefer ably
Ġpict orial
Ġexting uisher
Ġsubdiv ide
Ġloud spe
Ġsmok estacks
SERV ATION
grow th
Ġduc ks
ĠTechn iques
Ġbelong ing
Ġspray ing
Ġpsych iat
FLO OR
Ġ__________ ]
engineer ing
ĠPop lar
Ġadjud ged
ĠIndic ates
ĠArc ades
Ġsure ties
Ġmos ques
ĠPOP D
Ġquadr angle
Ġnamepl ate
Ġenlarge ments
Ġomission s
Ġcess ation
ĠBir ch
aceu tical
third s
Ġmere ly
Ġevid enced
dri ven
Ġbulkhead s
Ġmedic ine
ĠMIN OR
administr ative
Ġlev ied
OUT DOOR
Ġpedest al
Tri plex
requ est
LUM AT
agric ultural
Int roduction
serv icing
ĠHOUS ING
Ġrefund ed
Ġweap ons
ĠAGREE MENT
ĠENTER TAINMENT
interrup ted
Ver tical
Ġtun nel
Ġbough t
Ġcren ata
ĠSURE TY
ĠALEX ANDER
ĠFRO M
ĠHUEY TOWN
ĠStev ens
ĠPROVI DING
, .
. ;
2 10
2 25
3 21
3 15
3 32
4 02
4 45
7 20
7 01
9 08
A cre
A utom
B l
C riteria
D istance
D AY
E ase
E PD
E vents
F r
F ish
H and
H UD
H IGH
I ts
I llegal
L aw
L ICT
L ibr
L INE
M ail
M ING
M CA
M ULTI
N RD
N EIGHBORHOOD
O C
P aving
P ackage
R et
R ot
S ac
S lo
S ewer
S afety
S porting
S outhern
S plit
T B
T D
T ermin
T MENTS
T ables
T elecommunication
U s
a ft
a verns
b it
b lock
c ross
c apacity
c irculation
d oc
d uring
d etail
d urable
d etermined
f ers
f owl
f ixtures
h owever
h ours
h older
l ive
l ie
m ake
n or
p ocket
p ainted
r um
s truct
s ides
t an
u ated
v eterinary
ï ĥ
Ġ id
Ġ ur
Ġ QU
Ġ .....
Ġ .........
Ġa uxiliary
in n
in operative
in forced
Ġt idal
re ference
Ġs on
Ġs is
Ġs und
Ġs ill
Ġs ills
Ġs atellites
al se
al tered
en n
en eees
en vironment
Ġp lu
Ġp iles
Ġb um
Ġb ricks
Ġb unting
Ġf an
or and
it ated
it age
an o
an ical
ro ppings
Ġc ial
Ġc ords
ar ks
Ġd BA
Ġin ner
Ġin land
Ġin ert
Ġin organic
Ġw ing
Ġm ules
Ġm olding
Ġm obility
Ġor di
Ġl asting
Ġre established
Âł ĠĠĠĠ
Ġsh oot
Ġsh af
us pended
tr unk
ig her
ig ated
ac on
Ġn ation
Ġn ess
ĠS W
ĠS l
ĠS s
ĠS iting
ĠS DF
ot anical
ĠC ATE
ĠC umulative
ĠC AB
ĠA H
ĠA verage
ĠA CC
ĠA uditor
Ġpro ff
uc ent
im posed
im bing
ĠP ic
ĠP CD
ĠP each
ĠP aint
ĠD ormitories
ĠD umpster
ĠD warf
Ġ2 19
ire ns
Ġst ems
Ġas phaltic
Ġis olated
ĠR ow
ĠR ange
ĠR iding
ĠR oss
Ġex h
Ġde ce
Ġde ath
eet s
ol a
ol ition
ter ned
ĠM ary
ĠM otion
ĠM ARKET
ĠM ansard
ĠB L
ĠB us
ĠB odies
ĠB ottling
ĠB uford
Ġpar v
Ġsign able
st ub
ir ability
pos t
pos ted
pos ting
Ġat e
ĠF C
ĠF I
ĠF enestration
ĠF ixtures
ater al
ore tention
tic ulture
ĠL i
ĠL umber
ĠL akes
Ġacc ounting
Ġv alley
Ġv aults
em ia
Ġun in
Ġun iversity
Ġun opened
Ġun interrupted
se par
Ġ3 28
Ġ3 23
Ġ3 45
ĠZ el
ĠH an
ĠH undred
ĠH aving
Ġr ack
Ġr ays
Ġr ink
ĠE astern
ous ine
ew ise
Ġno isy
ill iance
ill umination
Ġtr ial
................................................................ .......
Ġ5 14
Ġpl ete
Ġco ating
Ġco oked
Ġco herent
ĠSt adi
ĠSt eel
Ġcomm encing
Ġch airs
ĠG o
ĠG ROUND
ch anged
ch urch
Ġspec if
min i
Ġ6 13
Ġ6 60
Ġoff ending
Ġoff enses
Ġro le
Ġim per
Ġserv ant
ons truction
ĠW hich
de pository
ĠIn tentional
Ġab ode
Ġ10 12
Ġ10 22
Ġ10 24
10 11
Ġdis similar
12 05
ĠV AL
IN IC
In n
In gress
Ġest ab
erc ise
Ġnon ethe
Ġallow ances
ob e
Ġar ms
con cer
pa ve
ĠY ear
ĠY aupon
gr avel
Ġins uring
Ġins tructions
21 7
te enth
ĠApp ropriate
ĠAl ignment
Ġhere with
ov a
Ġequ ip
____ __
Ġservice able
EC TURAL
ne ighborhood
13 05
AR R
AR GE
Ġrel ay
Ġfin ishing
25 2
ĠEn largement
ĠEn actment
ĠUn lawful
Ġel ects
Ġel apsed
ĠMan aged
rec ords
Ġten ses
fe re
St and
St acking
Ġ15 8
ĠAm enity
Ġk bl
Ġchar tered
Ġflood proofed
ĠSub stantial
Ġvar ies
Ġtrans itions
Ġtrans fers
18 4
18 6
Ġsc aping
Ġinstall ing
Ġroad side
Ġpark way
Ġlo u
Ġj ail
ĠLand s
ell ers
Ġexp ended
Ġ30 7
Ġmet ering
Re quire
Ġform ation
22 7
be yond
ĠAdj oining
water works
Ġ19 1
Ġ19 72
Ġ19 63
Ġregul ator
Ġregul ates
ïĤ °
Ġadd s
IT ECTURAL
ĠĠĠĠĠĠĠĠĠĠĠĠĠĠĠĠĠĠĠĠĠĠĠĠĠĠĠĠĠĠĠĠ ĠĠĠĠĠ
Ġ14 9
Ġret arded
ĠCh air
Ġadjoin ed
Ġdi versions
Ġcar nival
Ġmod ifying
Ġindic a
Ġsurround s
ĠJ ewelry
Ġdrainage ways
ĠCom plies
17 7
17 8
Ġcoll apse
Ġfl ight
Ġsit ting
Ġthir teen
Ġemploy ing
23 5
Ġdep ot
Ġdep iction
SE VERABILITY
19 4
19 8
pro fessional
pro posal
ees ees
Ġalle viate
Ġmar ker
Ġmar inas
Ġgar ment
ph ols
Ġstream bank
Par apet
Street scape
100 9
ĠFlo ors
Ġgener ators
Ġ17 6
Ġnor ther
ket ch
ĠAr ti
Ġconven tions
Ġpartic ulate
Ġref riger
Ġpresent ing
co ated
Ġgovern ments
Ġprevent ed
OM R
rest aurant
Ġbar n
Ġbar ter
IV ER
ÂłĠĠ ÂłĠÂł
Ġ................................................................................................ .........
Ġsw ale
Ġsw orn
FA CE
................................................................................ .............
................................................................................ .........
ĠIN C
ĠIN SP
sign ature
Ġx x
Ġintern ational
Plan ts
ARD EN
OW L
Ġstation ery
ĠWhere ver
ĠFA C
ock tail
Ch ain
Ġpot ting
ĠDE VELOP
ĠDE PARTMENT
Sh ade
Ġ................................................................................................................ ........
Ġsolid s
cons ist
uel ing
Ind ivid
33 3
Ġdifferent ly
Ġrev ital
Ġrev olving
Ġhistoric ally
QU IP
ĠNot es
Ġ28 0
ibr ation
................................................................................................................ .....
Am enities
Un covered
az ards
sh ops
ĠRed uced
ĠAD OP
Ġleg ibly
Sub mittal
Ġdecl are
Ġes crow
AS TIC
UC TION
ystem s
arr ange
ĠSc enic
Ġdrain able
Ġsatisf ying
ĠColl ectors
Ġaccep ts
ĠPARK S
Ġperform ances
Ġdown ward
Ġgovernment ally
Ġ................................ .
Ġ................................ ..
Ġ................................ ............
150 1
Ġsubmission s
Ġlit es
Ġinters ected
Ġincom patibility
ĠPen alty
Ġtransfer ring
Ġ199 4
................................................................................................................................ .
................................................................................................................................ ..
................................................................................................................................ ............
Ġ112 2
plan s
Ġimplement ing
Tr ailer
com patible
ĠIssu e
Ġquar rying
CH ITECTURAL
OU BLE
Ġceas ing
ĠPLAN T
Ġturn s
Ġcorrec tional
Ġabs olute
44 4
Prov ision
Prov iding
Rest oration
Ġnight clubs
Ġtur ned
ĠRem ote
Ġplot s
Com bined
Ġperpendicular ly
ĠArterial s
ĠComp action
Ġextr acted
MINISTR ATIVE
Ġdel iver
Ġdel iber
Ġge otechnical
Inc entives
SU ANCE
SU BDIVISION
Ġsuccess ive
Water shed
Ġsubmittal s
Pl acement
Ġbel ts
Ġ38 3
lig ible
ĠRV s
Ġdevelop able
SC IA
Ġdepos iting
LO ADING
dis posal
ĠFAR M
Ġcompet ing
ĠQu ad
ĠBar b
ĠBar riers
Ġsignal ized
au x
Ġexec ut
Ġfit ting
Ġprofession als
ĠWh ite
ĠLic ensing
Trans ition
sur rounding
Ġmor ning
Ġspirit uous
Business es
Ġbook store
Ġsil tation
Loc ated
car rier
ĠSTOR M
ĠES TATE
Ġterr ain
Author ized
paren t
Ġlod ged
EM BER
ĠLaund romat
Ab breviations
Ġrecent ly
Ġlog ically
issu ance
Ġhead walls
AG RICUL
Ġproportion ate
Ġcubic les
range a
Ġaqu if
bul atory
ĠCul verts
Ġhim self
ĠConn ections
ĠConn ectivity
Ġlumber yards
Sc ale
Ġlin ed
Ġlin ks
ĠHyd rangea
Ġrot ate
ĠAPPLIC ABILITY
ĠSus pended
Ġmechan ically
Ġgeographic al
Ph ase
Ġresemb les
yn n
high way
Ġacadem ies
Ġtail or
Ġtail oring
ĠTop ography
CL UB
STA TEMENT
cul ating
ïĢ Ń
Ġstair way
Ġanal og
UFF ERS
Ġclar ify
Ġpleas ant
ĠAllow able
Ġturb ine
Ġforfe iture
Ġdisrup tions
Ġrecon figuration
Ġunsight liness
ÂłÂłÂłÂłÂłÂłÂłÂł ÂłÂłÂłÂłÂłÂłÂłÂł
Ġimproper ly
mod al
Ġpol y
Regul atory
ĠDrug s
lm us
Ġgaz ebo
ifer ous
Ġsurv ive
ORD IN
Ġguard i
Conflic ting
hor izontal
Ġhood ed
ĠOrient ed
Improve ment
ASE MENT
Se paration
ĠRadi us
Ġexpend iture
Ġpent house
Ġcent ered
typ es
Ġdiss olved
ĠExtension s
util ities
ann ual
Ġrepe titive
Ġprosec ution
ĠObs truction
Planting s
Laund ry
Ġtattoo ing
ĠMAY OR
Ġmut ually
ĠĠĉĠĉĠĉĠĉĠĉĠĉĠ ĉĠĠ
ïĢ¸ïĢ¸ ïĢ¸ïĢ¸
Ġbull etin
roxim ately
load s
ĠFre ight
Ġcomprom ise
phy lla
Ġjudge ment
Ġcustod ian
FRON T
ĠFLO OR
ĠWeek end
Ġapr ons
Ġdifferenti ated
Ġpict ographic
Ġcelebr ations
Ġexting u
Im mediately
POR ATE
Ġcyc lists
sn ap
Ġpure ly
ĠSund ay
ĠLod ge
atis fac
radi o
Ġslab s
ĠANTEN NA
Clinic s
viol ation
Initi ation
ĠProf iles
Ġmultipl ier
ĠCharacter istics
Ġfib erglass
Ġtoler ant
Ġalphabe tic
ĠSil ver
ĠVal ue
ĠPrun us
Ġdefic ient
Run off
stro emia
Ġsaw mills
Ġtransl ucent
Ġjaponic a
apart ment
Ġcommem orations
Ġobst ac
Ġdistribut ors
ĠRESIDEN CE
ĠANN EX
Ġvulner ability
Ġmes h
Ġorch ards
Ġorph an
Ġcompress ors
assemb led
Ġoutc roppings
Ġinsign ia
ĠDEFIN ED
Ġsilhou ette
PURPO SE
Ġcod ified
indic ating
Ġmezzan ine
Ġfranch ise
Ġuncont rolled
Ġpow der
Ġwate red
Ġpartition ed
Ġincandes cent
ĠFores ter
ĠSpir aea
ENTR AL
Ġencoun tered
Ġcrea tivity
REAM BLE
Ease ments
orand um
Ġshaf ts
ĠCATE G
Ġnonethe less
QUIP MENT
' ),
) ).
. *
3 30
4 32
5 14
5 13
6 14
7 13
A A
A thletic
B M
B us
B ack
B ED
B akery
C ur
C ER
C OM
C ITY
C oastal
D uties
D igital
E duc
E TER
E rect
E MP
E mployment
F ore
F ill
F illing
G ardens
G ateway
H uman
J apanese
K ERY
L ive
L ong
L umber
L akes
L ivable
L LRD
M e
M ic
M iscellaneous
M assage
N AS
O CK
P resent
P ercent
P lease
R A
R out
R UB
S et
S el
S alvage
S creens
S TORY
S lope
S AFE
T imber
U nd
U sed
V A
V inyl
W ind
W orship
W ARE
W arning
b ound
b icycle
b illboard
c r
c one
c irc
c ertified
d den
d etermine
e mitting
g ar
g ood
g iven
g overn
h um
k ova
l ers
l ength
l aund
m eeting
p ly
p rom
p ubs
p aths
p ools
s or
s um
s old
t able
t aken
t welve
v ac
v ice
v ariance
w as
w ash
y mb
Ġ ut
Ġ ers
Ġ .......
Ġa f
Ġa ut
Ġa venue
in et
in vol
Ġt ection
Ġt iv
Ġt utoring
Ġo s
Ġo mitted
re ats
Ġs om
Ġs qu
Ġs low
Ġs tic
Ġs anitariums
Ġs often
ti z
ti ty
al og
al coholic
Ġp all
Ġp owered
Ġp ocket
es es
Ġf leet
it ability
is her
ic ultural
ro red
ro gate
Ġc il
Ġc ant
Ġc ally
Ġc ass
Ġc luding
Ġc alls
ar ious
ar row
Ġd ential
Ġd well
Ġw ise
Ġw orth
Ġw rought
Ġw rested
Ġm alf
Ġm alls
Ġl ing
Ġl ate
Ġl ofts
Ġre a
Ġre app
Ġre jected
Ġre activ
Ġre transfer
il ions
ce m
Ġsh ip
Ġsh aded
Ġsh aping
Ġsh ovel
ec k
et h
................ .
ig ra
ac quet
Ġn adi
Ġn igra
ĠS Y
ĠS yn
ĠS tyle
ĠS EDI
Ġe mitted
Ġe eeeeeeee
ĠC D
ĠC P
ĠC ash
ĠC UL
ĠC af
ĠC ivil
ĠC AMP
ĠC aterers
ĠA E
ĠA p
ĠA rtic
ĠA sh
le ad
uc ing
ĠP E
ĠP I
ĠP ID
ĠP oints
ĠP OL
ĠP ike
ĠP leas
ur is
Ġan no
ĠD av
ĠD anger
ĠD etermining
Ġ2 21
Ġ2 90
Ġ2 201
Ġst opping
Ġst acks
Ġst airs
Ġh ttp
Ġare na
Ġper ceptible
un es
ĠR G
ĠR a
ĠR en
ĠR ated
ĠR out
................................ ..........
................................ .........
Ġg ated
Ġex pose
ĠO x
ĠO il
her ly
um stances
ut able
ut ory
ate ment
Ġde lin
cc s
istr ant
ĠM E
ĠM F
ĠM ember
ĠM ilitary
ĠM ulch
ĠB roadcasting
ĠB akery
ĠB FE
ict s
Ġsp aring
ĠN ative
ĠN ano
st eel
Ġad mitted
Ġad mission
ri ed
ri ope
low est
enti als
Ġres umed
ĠU lmus
ĠF ax
ĠF ishing
ĠF ringe
ĠT erm
ĠT respass
ĠT ilt
th orn
end ering
ĠL RO
ĠL ynn
we e
Ġv ans
Ġv ices
Ġv ape
ers h
Ġloc k
se arch
Ġ3 39
Ġstreet light
Ġr akes
Ġr avine
ĠDe livery
ĠE nd
ĠE qu
ĠE RO
ĠE PA
res trictive
ĠRe ason
ĠRe lease
Ġac qu
Ġtr ying
Ġtr adem
ten ances
cep ting
ib uting
Ġco hes
ĠSt ep
Ġfacil i
Ġ4 16
Ġ4 19
Ġ4 45
TI SING
Ġdesign ating
Ġha uled
ch anges
par ties
Ġoff al
Ġim itate
ĠW ide
ĠW ax
ĠW astewater
de ad
Ġab ide
Ġ10 21
sc aled
ag ers
Ġsu ites
Ġsu dden
Ġdis posing
ĠV ision
ĠV ideo
Ġmain te
Ġ7 15
Ġam usements
Ġam phithe
ise ums
Ġup grade
Ġup rights
Ġ8 20
Ġ8 30
Ġ8 17
Ġ8 33
Ġunder go
11 15
Ġwill ing
the m
Ġimp acted
Ġinter cept
Ġinter related
Ġrec om
Ġrec urrence
fin al
ĠSp ring
ass ess
ass ociated
Ġar g
Ġar teries
con omic
con ducted
ative ly
ĠPer mission
Ġso ff
pa pers
gr aphic
Ġins ec
Ġins ects
21 8
ĠPro jections
ĠPro ceedings
Ġind ig
Ġdr ying
ĠRes triction
LE SS
LE GAL
16 5
ĠPar lors
los ures
tit le
tit led
man ufacturing
ES IRABLE
ING S
av or
Ġpor tic
IC C
Ġdefin es
Ġspecific ation
ĠUn attended
ose ph
here after
Ġpres umed
Ġatt est
Ġatt emp
Ġatt empt
St ores
St eep
Ġele vate
Ġ15 6
Ġ13 08
Ġprot est
Ġflood ed
Ġflood lights
ĠSub standard
ĠSub divider
18 5
18 7
TR UCK
Ġmin eral
ĠAny thing
Ġlo ose
OR TH
edi tious
ator ium
Ġj u
Ġj uris
Ġprim e
Ġprim ed
ell ie
Ġexp editious
tenn is
Ġ30 9
Re verse
Ġplat form
Ġqu est
Ġqu eu
tern et
Ġremov es
ĠTh omas
Ġ19 7
Ġ19 90
ĠPermit tee
Ġcare g
ĠIns ide
................................................ ........
................................................ ............
................................................ ...........
................................................ .........
RE W
Ġviol a
IT ARY
Ġshould er
Ex tended
AN TED
AN CIAL
Ġgu iding
Ġshow room
Ġhigh lighted
Ġsec retarial
Ġpos ter
Ġpos ters
Ġconn ects
24 5
ĠJ oh
Ġidentif iable
Ġcoun sel
vious ly
Ġfl ashes
ener y
ie ves
ud ity
23 6
Ġrep ainting
Ġinv o
Ġfull est
vey or
Or gan
Ġwork manship
Ġmar ks
Ġmar ina
Pro cess
ph onic
Res erve
Res pons
yc led
Ġvari able
istrib uted
Ġdam s
Ġdam aging
Ġanim ation
Ġ17 9
Ġ17 04
ĠRo bert
lus h
Ġ16 2
Ġ16 5
Ġ16 02
Ġ16 01
Ġ16 06
ĠOver story
ĠOver flow
Ġpat terned
UR AL
ogr aph
34 5
Ġ24 9
ĠCont rolled
200 2
ĠBuffer ing
Ġbar k
Ġlet tered
OT AL
35 9
Ġdisc rimin
Ġ150 8
wel fare
Ġprotect s
99 0
Ġsel ecting
Ġden ies
Ġden oting
me ans
ĠMain tained
ĠIN TEN
ĠLo g
Non commercial
Ġguest room
Ġdisturb ances
sub mit
ĠREGULA TE
At t
ĠBe er
ĠSur rounding
Ch aracter
Ġpen al
** **
Ġinf easible
Ġbr acing
Ġbr ush
ĠïĤ ¾
Ġ................................................................................................................ ...............
Ġstaff ed
Ġconc lusions
ĠDis abled
Ġeng aging
cons titute
pers ed
Ġ................................................ .........
Man ufacture
Ġorient ations
ĠPRO HIBITED
ĠPRO PERTY
ĠMar shal
Ind ustry
Ġrev ise
Ġfact ual
comm unication
UN ITY
Ġexpress way
IR ING
Ġdecor ating
law fully
Am bulance
Un til
Un lawful
az a
Ġrecons truct
Ġvac ate
Ġconvey or
09 26
09 29
ĠGr avesites
ĠMax imize
Ġtri ple
Ġ................................................................................................................................ ..............
Ġca rol
Ġmax im
ĠCON SERVATION
Ġadv ising
Ġadv anced
Ġrefl ection
IF IED
Ġbond ed
Ġattr ib
Ġ36 5
Ġdiscre p
AD IO
Ġwor n
ĠBo xes
Ġ................................ ........
Ġ................................ ......
Ġbal ancing
ĠLe ather
Ġconcer t
Ġassign ing
Ġquestion ed
ĠNew spaper
Ġshop front
Ġlaund ering
ĠInc entive
Ġ199 8
occup ant
access ible
Ġentry ways
................................................................................................................................ ..........
Ġdeline ate
Ġoppos ed
Ġriver front
plan ts
ĠMod el
Ġconvenient ly
Ġlower ing
Ġassess ments
ĠIssu ed
Light s
MIN ARY
ĠCOMM UNIC
Ġhousehold s
Ġinj ure
Ġ................ ...............
Ġ................ .....
ĠCommon ly
Ġjunk yards
ĠFarm er
Ġsl ats
Ġda iries
Ġphot oc
Ġguarant eed
Com plete
Ġproof rolling
ĠĠĠĠĠĠĠĠĠĠĠĠĠĠĠĠĠĠĠĠĠĠĠĠĠĠĠĠĠĠĠĠĠĠĠĠĠĠĠĠĠĠĠĠĠĠĠĠ ĠĠĠĠĠĠĠĠĠĠĠĠĠ
âĢ¦âĢ¦âĢ¦âĢ¦âĢ¦âĢ¦âĢ¦âĢ¦ âĢ¦âĢ¦âĢ¦âĢ¦
Ġgraphic ally
ĠComp ound
ĠComp act
Ġdisp ute
110 7
Town home
ush cart
ĠAN SI
ĠGreen houses
ĠTen ant
Ġuniform ity
Ġcorrect ly
VER TISING
mant ling
ĠAb atement
Ġ................................................................................................................................................ .
Ġ................................................................................................................................................ ........
Pl umbing
Ġ38 5
AY NE
ĠRecord ation
Ġpack ed
ĠCO UR
Gr ant
Gr andfathered
design ated
LO S
dis till
ĠFult on
ĠEnc losures
Ġexper t
Ġsignal ization
Ġcoordin ation
Ġexec ute
................................................................................................................................................ ....
cal iper
meas ure
conn ected
ĠStrip ing
Ġnar rown
ĠHEIGHT S
Pen nant
Pen etrations
Ġbi king
ĠÂ ¼
Ġinfil tr
Ġcheck list
ĠAcc ommod
Ġirr igated
Farm s
Ġcumulative ly
ĠREC OR
ĠREC OMM
Ġelig ibility
ĠïĢ ¸
ĠAssess ors
imp rove
Ġball ot
HO SPITAL
Ġdistinct ly
ĠLevel s
Ġconsult ant
Ġsupers edes
Ġord ain
Ġord ained
etr ical
Ġspe ak
Ġartic ulations
ĠHortic ulture
Ġ39 1
trans ient
trans portation
Ġ________________ ____________
Ġpreced ent
Ġinser tions
AG ES
Col quitt
Ġrenov ated
Ġwatershed s
Le g
Le vel
ĠCurb ing
ĠPass enger
main tain
Ġconstr ained
TIONAL LY
Ġte am
ĠTri butary
Ġgather ings
ĠOCCUP IED
ĠRD F
cl aim
Ġflu id
ĠLE FT
Ġsuff ering
UNIC IPAL
Alternative ly
Cont rol
DR I
FAR M
Ġmort ar
Road s
ĠMO UN
Fin ished
Ġparen tal
ĠVEHICLE S
CO UN
Ġtang ency
Ġinterconn ection
Ġflor ida
augh ter
Ġasp ect
Ġintrus ions
Ġrein force
Ġstar ting
Ġyield ed
Ġwheel chair
LI MINARY
ĠĉĠĉĠĉĠĉĠĉĠĉĠ ĉĠĠ
Pe rennial
Ġclar ification
Ġjun iper
ĠBon us
ĠVeget ative
Reg istered
ĠConsider ation
mod ular
ĠRO AD
ĠMach ines
adr uplex
Ġdedic ate
Bre akfast
ĠChe mical
met ric
Ġperipher al
resident s
Ġexperi mental
ĠIm portant
Ġdifferen ces
ĠSUB MIT
Di ameter
Ġstorefront s
Ġinhabit ant
ĠTELECOMMUNIC ATION
ĠST UDIO
Ġcommit ment
ĠUs able
bar rier
ĠDistill eries
Ġaudi o
Ġcas ual
Ġtour ism
ĠObs olete
anitar ium
ĠCalc ulation
Ġtheat res
ĠAF TER
ĠMULTI PLE
Ġsout heast
Ġsout herly
ĠCrem atoriums
Ġcer amic
ĠOb jectives
ĠWeek day
ĠSel ection
Ġexch anged
Ġven ue
Ġven ues
ĠELE VATION
Ġprefer able
ĠWe ather
ĠFlor ist
Direct ory
ĠUTIL ITIES
Ġsubdiv i
Ġprem ature
ENC ES
ĠCONF LICTING
ĠLumina ire
SERV ICE
VEN I
fr ames
tele phone
Elev ations
ĠSund ays
ĠAff airs
ĠBack fill
ĠLod ges
Ġaccident s
Ġimagin ative
Ġcampaign s
ĠANTEN NAS
nurs ery
Ġdistr actions
ĠTan k
child ren
ĠVARI ANCE
Ġbutt ocks
ĠIllumin ance
ĠIllumin ating
Ġumbrell a
onn ade
ĠPAR T
Ġchi ppers
INTER PRETATION
CONTINU ED
ĠCOMP LIANCE
Ġschem atic
Ġnegoti ated
Lic ense
Pay ment
ĠSam pling
Ġgun s
Ġvend ors
ĠALTER ATION
Ġworksh op
MD RD
Top ography
Ġconfin es
ĠDoor s
Ġvess els
ĠVol ume
Ġnegl ect
Ġsilv iculture
ĠIMPROVE MENTS
coun ty
eop ard
ĠDes ist
Ġtravers ing
PREMIS E
APPLIC ATION
Cell ular
Wal king
ĠAesthe tics
Ġchec ked
Sew age
Ġbik eways
Ġhusband ry
perform ed
Ġinciner ator
ĠLAW S
Ġvandal ism
ĠDel iveries
ĠArbor iculture
ĠINDUSTR Y
Ġderiv ative
Ġspl its
season al
Ġcooper ate
cond ominium
ENN EL
Ġscoot ers
ĠOverhang s
Ġloudspe akers
Rot und
Ġshoot ing
separ ated
ĠZel kova
arrange ment
ĠBarb our
Ġaquif ers
Ġorphan ages
ĠCATEG ORY
isher ies
Ġshovel s
Ġnadi r
ĠSEDI MENT
ĠPleas ant
ĠRout e
Ġsparing ly
ĠERO SION
ĠINTEN TIONALLY
Ġnarrown ess
! )
" ;
% -
) ...
* .
3 16
3 39
4 20
4 17
4 29
6 12
6 21
7 11
7 05
9 12
9 13
A rtic
B est
B ottling
C he
C op
C ES
C lus
C urrent
D uluth
D istribution
E AR
E ither
G A
G l
G re
G REEN
H F
H ousing
H yd
H ENS
H OTEL
L od
L iability
M BER
N ight
N ative
P S
P ocket
P ersons
R L
R iparian
S W
S am
S te
S to
S AL
S ex
S ites
S TITU
S oil
S uspended
U sing
U LATION
V iew
W ALL
W IDTH
a a
a utom
a vern
b h
b i
b locks
b ush
b asement
b uilder
c sc
c ool
c ustom
c redit
d a
d rop
f il
f uneral
f ollows
f irms
g ers
g ery
g anged
h ospit
h ttp
h ighest
i tivity
i eces
j a
l arged
l amation
m ill
m ember
n ature
n ternational
o tional
p ens
p ets
p ane
p ainting
p ipes
r d
r ised
s k
s w
s atellite
s erving
u ge
v an
v ess
v ari
v icinity
v inyl
w heels
y land
Ġ ign
Ġ 000
Ġ Â°
Ġa ted
in ternet
Ġt ended
Ġt asting
Ġt each
Ġt ips
Ġo x
Ġo us
Ġo un
Ġo th
he c
Ġs s
Ġs ive
Ġs ional
Ġs tructed
Ġs nipe
on au
er as
ti ally
al b
al ized
en ous
Ġp ix
Ġp ort
Ġp ages
Ġp ests
ing ed
es y
Ġb es
Ġb ab
Ġb ill
Ġb ag
Ġb otanical
Ġf ines
Ġf lying
Ġf alse
or ig
or tiz
it z
ic ations
Ġc ig
Ġc ep
Ġc ocktail
at res
at tice
at tern
Ġd ict
Ġd ia
Ġd omin
Ġin accessible
Ġw i
Ġw it
Ġm ond
Ġm agn
Ġm asts
Ġm apping
Ġor ange
Ġl if
Ġl ia
Ġl ives
Ġre ward
Ġre version
Ġto ll
Ġto ys
Ġbe e
il i
ce ce
ce ment
ce cce
et to
ve e
ment ary
Ġshall own
tr ict
id o
id erm
ac ons
ĠS he
ĠS et
ĠS UR
ĠS nipe
Ġth reats
Ġe es
Ġe man
Ġe phemeral
ĠC ab
ĠC hic
ĠC enti
ĠC ertif
ĠC OPY
Ġpro xim
Ġpro hibitions
Ġpro fessions
le g
lo un
om en
om ed
om itor
im ous
ĠP ol
ĠP ick
ĠP oultry
ĠP ackage
ĠP GH
ĠP ipes
Ġ( "
Ġ( Â§
ur y
ur ities
ur ric
Ġcon iferous
ĠD a
ĠD ust
ĠD IR
ĠD ISH
ĠD isturbed
ĠD ams
ĠD irection
ĠD airy
Ġ2 16
Ġ2 22
Ġ2 33
ll ia
Ġst ro
Ġst aged
Ġst resses
Ġst aked
Ġh om
Ġh ired
Ġh olly
Ġare ola
ess ion
Ġper for
Ġper ception
ul ates
un c
un til
un necessary
un ctions
ĠR Z
ĠR os
ĠR ain
ĠR ise
ĠR IVER
................................ ......
Ġg ear
Ġg ull
Ġg ulf
Ġg aining
Ġg ateway
ĠO W
um ard
um bered
ut s
ut her
ection ery
Ġde bit
od ium
ol ium
ial ism
ĠM ass
ĠM AN
ĠM UD
ĠM ausole
ĠM ovie
ĠB AN
ĠB uck
ĠB ecause
Ġsp in
Ġsp as
Ġsp ons
Ġsp ark
ĠN onstructural
st ay
low er
enti re
ĠI D
ĠI TE
ĠI dentify
pos ure
ĠF act
ĠF EET
ĠF unctional
ĠF ULT
ĠF ENCES
ĠT ang
ĠT ENT
ĠT aken
ĠT CMU
ĠT OTAL
th m
Ġcons id
Ġcons titution
Ġhe irs
Ġsub po
ad ow
ad ditional
ad opted
ĠL isted
ĠL amp
ĠL dn
ĠL uther
Ġal arms
est ablishments
Ġv ation
Ġv isions
Ġv otes
Ġv omitor
Ġloc a
ĠPlan ter
Ġ3 16
Ġ3 14
Ġ3 27
ĠH ow
ĠH ug
ĠH aw
ĠH OTEL
ĠH TD
Ġr ation
Ġr ational
Ġr after
Ġr azed
ĠE stim
ĠE conomic
ip ed
ip ort
ĠRe verse
ĠRe gular
ĠRe ferences
Ġdes irability
Ġcomp are
Ġac ous
Ġac ute
................................................................ ..............
................................................................ ...........
................................................................ .........
Ġ5 16
Ġen rolled
Ġen rollment
Ġit ed
eas t
Ġ4 10
Ġ4 32
Ġ4 44
Ġwhe eled
Ġcomm ut
Ġch osen
TI V
ĠG ROUP
Ġha ir
ch i
Ġint end
ord able
Ġ6 23
Ġaccess ing
Ġim pl
Ġim itation
Ġim possible
our n
ase ous
ĠComm is
ĠW id
ĠW elding
Ġman ufac
de vices
ĠIn terest
Ġab use
Ġab rogate
Ġ10 15
sc hedule
Ġpur ported
pl acing
10 24
Ġdet ach
Ġdis pos
Ġdis asters
12 04
ens ens
ĠV ocational
Ġ7 10
Ġ7 21
Ġ7 25
Ġ7 19
In formation
In tegr
In stead
Ġup land
Ġnon er
Ġnon conformance
ame llia
20 6
20 10
Ġgr ains
Ġgr anite
ĠAd dition
ĠAd visory
ĠAd obe
Ġinter cepting
Ġrec ip
Ġar b
Ġout lying
con ference
ren ew
ĠY MCA
Ġsupp li
Ġins ect
Ġins ofar
Ġins ulators
ĠApp endices
ĠPro of
ĠPro duce
Ġind ec
Ġdr aft
ĠRes tricted
16 3
16 7
16 8
ĠAl tered
ĠAl tering
ov es
Ġsim ulators
Ġtre ating
ind ed
EC T
13 03
Ġdec ided
Ġdec iding
Ġdec ayed
ress ure
Ġvi ticulture
Ġgro omed
Ġgre asing
Ġ11 00
IC H
Ġrel ayed
), (
25 5
ĠEn tity
ecess ed
Ġag es
Ġspecific s
ĠUn safe
ĠMan ually
15 8
Ġcan oes
Ġdetermin able
mp h
ĠSub stations
Ġtrans ce
Ġtrans ect
Ġtrans plan
entr ance
Ġmin ed
Ġvis iting
Ġvis itor
Ġlo ok
ati al
edi an
Ġj acks
Ġprim a
Ġexp anding
tri an
Ġ30 8
Re v
Re ce
ĠOffic ers
Ġgeneral ized
22 9
Ġbas es
Ġinform ally
Ġ19 29
Ġregul ators
................................................ ...
ĠĠĠĠĠĠĠĠĠĠĠĠĠĠĠĠĠĠĠĠĠĠĠĠĠĠĠĠĠĠĠĠ ĠĠĠĠ
ĠĠĠĠĠĠĠĠĠĠĠĠĠĠĠĠĠĠĠĠĠĠĠĠĠĠĠĠĠĠĠĠ ĠĠĠĠĠĠĠ
Ġret reading
28 1
28 2
App roximate
Ġdi vers
Ġhigh light
ĠSec ond
Ġsec urities
Ġpos ed
tis an
24 3
ĠJ O
ĠJ as
ĠJ ones
Ġcol iseums
land scape
eng age
ĠInd icated
ĠInd ivid
ĠSh ipping
ĠCons idered
ĠCons truct
Ġfl iers
Ġfl ushing
Ġinv ited
27 1
27 3
Ġval ve
Ġbo gs
Ġcop ying
Ġhealth ful
house hold
Ġcirc les
Ġwindow ed
Per ipheral
Ġacre ages
SE MENT
oles al
19 5
19 7
Ġ18 3
Ġ18 7
Ġfre eways
aster ly
ĠDesign ations
RO AD
ĠAc knowled
ĠAc ceptance
Res idences
Res trictive
Ġaccommod ates
Par t
Ġfil ms
Ġview shed
Ġclos ets
Con cept
Ġ17 4
Ġ17 03
Ġ17 07
Ġ16 3
Ġ16 03
Ġ16 04
Ġocc u
gre ater
Ġed ible
Ġli riope
co lored
Ġpursu ed
Ġcontr asting
UR BAN
34 2
34 4
ĠRec ogn
ĠRec overy
ĠRec onstruction
Ġcap ture
Ġdoc tors
ĠCont extual
Sp acing
Sp anish
sp ring
sp onsored
ĠTr aining
Ġpav ilions
ns on
Ġobs erv
Ġgroup ings
Ġend uring
200 7
Ġfr ag
Ġfr actions
IV EWAY
Ġflow n
Ġmat ches
Ġtele phonic
OT H
ĠLine ar
Ġdisc overs
Ġpass engers
Ġequal ize
................................................................................ ....
................................................................................ .......
Ġden ote
OD G
ĠTo o
Ġx ii
pon ent
ĠAss emb
EL FARE
ID U
Ġaltern ating
ĠFA SCIA
Ch anging
Ġpen nant
Ġpen etrometer
Ġpot tery
Ġem ail
ĠInter val
ĠDE V
36 1
36 5
br ush
Ġbr illiance
ĠUS ED
26 7
cons umption
front ing
ĠPRO JECT
Ġcourt esy
ĠMar king
Ġbre akfasts
Ġvol ts
Ġstud ent
33 7
Ġhand rails
ĠTrans parency
Ġ110 9
but tal
Ġtermin us
Am ateur
Un attached
prov ides
BA KERY
Ġec os
ĠFe ather
En try
ĠTown homes
ĠAPP LY
Ġpic king
Ġpic ked
Ġpic kets
ĠRed bud
âĢĶ âĢĶ
ĠAD VERTISING
Ġchannel ed
BL OCK
ĠPER S
Ġ................................................................................................................................ ...............
Ġprescri ption
Ġprescri bing
Ġdecl ar
ĠRES P
Ġkind s
IRE LESS
Ġinde finite
Ġmail box
Ġcarry out
Ġattr activ
ĠK ing
Ġ34 6
Ġ34 8
esthe tic
lin k
ĠReg arding
Ġstat utory
Rec ord
Ġ................................ ....
Ġbal ed
Ġconver ting
Ġdry er
Ġfore most
Ġsk ills
let ing
Ġsuper markets
150 5
CON F
CON DI
CON DOMINIUM
ĠInc luding
Ġoverlay s
Ġcompr ises
Cons ideration
ĠConcept ual
Ġ111 4
sel ected
ĠCol leges
ĠDec ks
ĠDec orations
ĠMod ule
term s
Ġsymb olic
Ġlater als
MIN OR
Ġnews papers
ĠIntern et
ĠCOMM ON
yl ene
ĠPh one
Inter section
Ġ................ ....
Ġ................ ...........
Ġ................ .......
een eeeeeeee
Ġweek end
ĠRoof ing
Ar chitecture
Ġbott le
Ġprec ast
Com position
ĠAmeric a
Ġsens itivity
Ġunus able
roadc asts
Ġsound s
ĠComp ensation
ĠIND EX
ĠINS T
ĠDR ASTIC
ĠTen ants
Spec ifications
Ġhydro phy
Supp lementary
Ġconfig ured
ELL ITE
Ġpred etermined
Ġperpet ually
Ġ................................................................................................................................................ ..
112 1
Pl at
Ġcr iminal
Adj oining
Ġsingular ly
Ac ceptable
Ġmis lead
FAC ADE
Cle an
Cle aring
istingu ishable
Ġinst ant
ĠWH ICH
Group s
dis c
ĠCH URCH
ĠQu ar
Ġberm ing
Ġinjur ies
Ġguarantee ing
Ġbro wn
Ġbro ker
Ġfit ted
AT ELLITE
Ġcho ices
Ġhall way
ĠNO TICE
ĠNO ISE
Ġguide line
Ġnin ete
Occup ation
Ġoblig ee
Ġtrim mings
open ings
Car port
Car ports
Fl ashing
ĠREC ORD
Ġconcent ric
Under ground
author ity
ĠMe adows
Ġspe aking
67 12
ĠBy laws
stanti ally
Ġintermittent ly
organ ization
comp any
Ġguy ed
Ġta per
Ġta vern
issu e
ĠSH RUB
ĠClear ly
Prot ect
Ġcamoufl age
Ġpossess ing
utr ient
Ġflu x
Ġflu es
ĠVis ual
ĠLE GIS
Ġtub e
ĠRC P
STRUC TURE
Imp act
Ġfasten ing
vis ible
With drawal
angu inity
produc t
PLAN NED
val ue
Ġ54 01
scri ption
ĠFH BM
Ġcoinc ident
Ġprivile ges
Ġcupol a
Dis charge
NR CS
ĠDES IRABLE
Ġinhab ited
Ġremod eled
Ġsoft ware
Ġengine ered
ĠLOC AL
PC S
Ten ant
ĠBon ner
Ġred irected
ĠSew ers
ĠCOR PORATE
ulp wood
Reg ional
Ġps i
Requ est
Ġcompliment ing
Continu ation
MANUFAC TURING
rolog y
ĠAcre age
Ġuphols tering
Ġtrespass ing
Ġcorr als
Ġexperi encing
ĠTYP ES
ĠPetition ers
ĠUnd edicated
ĠSUBDIVISION S
Ġaer ial
Ġdiss ipation
landscap ed
employ ees
Ġrefresh ment
Ġbench marks
ĠSod ium
Class ification
down s
Ġulti mate
Ġspot lights
ĠFIN ANCIAL
Ġstrateg y
Ġdepression s
TIFIC ATION
Ġcementi ous
Ġembellish ment
ĠFlow ering
Conce alment
ĠPub lished
ĠMeasure ments
ĠGR ANTED
Ġprun ed
Ġsculp ture
ĠCrem ation
ĠCheck list
Ġarti sts
conven tional
ĠChannel s
Ġemble ms
Ġpon ies
Ġrabb it
Ġgroundcover s
ĠExc avation
Ġmultip ly
ĠFO OD
Ġsmok eless
Parcel s
Ġadapt able
rece ipt
tele vision
Ġdepend ency
Ġweb site
FLO OD
Qu ar
Ġsup erelevation
Ġmem orandum
Ġthreshold s
ĠCur ves
ĠOl iver
ĠIr on
Ġaccident ally
Ġimagin ary
ĠIndic ate
tenth s
ĠArc ade
ĠCHD s
Ġreclaim ed
nurs ing
Ġpig s
ĠUND ESIRABLE
ĠHar vesting
Initi al
STAND ING
STAND ARD
Ġumbrell as
refl ective
Ġfo am
amend ment
amend ments
Ġchi ro
Ġchair person
ANG ES
Ġintens ities
Ġschem es
ĠLegisl ative
Ġdistill ed
contr ibuting
ĠREQU IRING
Ġinflu ence
Ġmortgage e
Govern mental
ĠPerson nel
Ġdelicatess en
OND ALE
Ġwallpaper ing
Ġcollo qu
Ġembank ments
aure l
annex ed
Ġcard board
Ġmer it
ĠAUTOMO BILE
Ġunan imous
ĠHIGH WAY
Ġconfine ment
Ġburdens ome
Ġfluctu ating
MAN ENT
Ġpoll uted
Ġwatt age
Ġmir rored
Ġreve als
Ġefflu ent
Ġlik eli
Ġswing ing
respons ible
Ġgrandf athered
arol ina
hy thm
Ġtong ue
Ġblu ep
Ġgymnas iums
ĠHAZ ARD
ĠEv aluation
illustr ation
Ġgradi ent
Ġinsol uble
Ġconnn unications
Ġinvas ive
elev ation
Ġemerg encies
ĠDisc ount
ĠMATERIAL S
Ġhardsc aped
Reason able
mop ed
Ġslight ly
Ġbir th
Incre ases
Ġclap board
Develo pers
Ġfunda mental
ĠESTABLISH ING
Ġpsychiat ric
Ret aining
lie u
trunk ed
ĠAuditor iums
Ġdece ased
ĠHan sell
Ġspecif i
ĠDEVELOP MENTS
Ġrevital ization
atisfac tory
Rout ine
laund ry
Ġsqu ad
acquet ball
ĠCP ESC
Ġindig enous
Ġportic os
Ġqueu ing
Organ ization
Grant ing
ĠRECOMM ENDED
VENI ENCE
Artic ulation
Ġoun ces
Ġdia per
Ġmond o
Ġshallown ess
ĠCenti grade
ĠFULT ONDALE
Ġsubpo ena
Ġvomitor ia
ĠHug hes
Ġimpl ied
ĠIndivid ually
Ġviewshed s
Ġattractiv eness
Ġhydrophy tic
ĠCHURCH ES
Ġlikeli hood
) ]
3 25
3 75
3 60
3 80
4 15
4 40
5 10
7 23
7 139
9 04
A butting
A BANDONED
B G
B erms
B USINESS
B odies
C U
C ash
C ENTER
C ampground
E le
E ight
E fficient
E astern
F ed
F IGURE
F ILL
G all
G ates
G ift
G ROUP
G ARDEN
H C
H is
H el
H ow
H earing
H anging
H edge
H azardous
H ighest
J un
J ECTION
J ewelry
J UNK
K FA
K ENNEL
L apse
M EN
M OTEL
M enu
M itigation
N or
N UR
O I
O S
O p
O pp
O paque
P I
P L
P an
P rom
P lot
P oultry
P ERS
P ENALTIES
P riv
R M
R ail
R BAN
S F
S L
S O
S um
S hel
S TE
S edimentation
S lopes
S ALES
S ERY
S CHOOL
T ele
T ANCE
T echnical
V alidity
W ine
W hip
W HO
Z C
_ --
a way
a udi
b ay
b ra
b iting
c a
c ast
c lay
c ott
c lass
d am
d irec
d omestic
e ffect
e qual
f ound
f ixture
f alls
f uel
g us
g utter
g arbage
g overning
h am
h yd
k ind
k ins
k wy
l ong
l ings
l ake
m ixed
m embers
m aker
n ut
n ct
n ative
n uisance
o o
p tive
r on
r ain
r ailroad
r igid
s us
s ess
s ource
s try
s ports
s wimming
s ites
t reated
v ising
v oy
w rec
w ired
w ashing
w arehousing
w arning
y gen
Ġ ual
Ġ ________
Ġ ......
Ġa e
Ġa u
Ġa ce
in iti
in flic
in ensis
in terest
Ġt ation
Ġt ide
Ġt ers
Ġt ice
Ġt ured
Ġt iles
Ġt andem
Ġt ellers
Ġo m
re di
re fer
re gate
Ġs es
Ġs an
Ġs irens
Ġs anitarium
on ia
er os
er ated
er ie
ti e
ti ed
al ia
en force
en eeee
en vironmental
en eeeeee
Ġp est
Ġp eal
Ġp ines
ing ress
Ġb il
Ġb ac
Ġb urn
Ġb ones
Ġb akery
Ġb roadcasts
Ġf ig
Ġf ly
Ġf ied
Ġf enes
is ite
is les
tion ed
ic a
ic c
ro gen
Ġc ine
Ġc ards
Ġc ulture
Ġc ludes
ar ia
at ters
at tention
Ġd om
Ġd ip
Ġd ynamic
Ġin for
Ġin ward
Ġin hibit
Ġw ings
Ġw inery
Ġw ares
Ġm al
Ġm im
Ġm ast
Ġl ution
Ġl ished
Ġl obbies
Ġre de
Ġre ceptions
Ġre vers
Ġre ported
Âł ÂłĠ
all e
all oon
il low
Ġsh red
et ary
et ric
et hered
us er
ve lling
................ ..
................ ..............
................ .............
tr ings
tr ud
tr active
Ġn ic
Ġn ated
Ġn utrient
ĠS tr
ĠS ect
ĠS ex
ĠS RD
ĠS atur
Ġth inning
Ġe a
ot hec
ĠC c
ĠC ase
ĠC ost
ĠC raft
ĠC OL
ĠA CW
Ġpro c
le ar
lo ses
om patible
om fort
uc cess
uc ido
as cia
im pervious
pp ermost
ĠP al
ĠP ort
ĠP ages
ĠP itched
ĠP REAMBLE
ur ient
ur tenances
Ġan us
ĠD aph
ĠD etermin
Ġ2 17
Ġ2 23
Ġ2 37
ll ation
Ġst er
Ġst em
Ġst amp
Ġh ist
Ġh amper
Ġh urric
ub stantial
Ġus ability
ul ted
ul ata
and om
and atory
un ts
un ber
Ġas ked
ĠR oll
ĠR ows
................................ .
................................ ..
................................ ...........
lic ense
00 4
Ġg low
Ġg aming
Ġex pl
ab or
ĠO B
her ic
um en
Ġde leting
per formance
ol ve
ĠM I
ĠM em
ĠM ove
ĠM asonry
ĠM usical
ĠM UNICIPAL
ĠB ro
ĠB as
ĠB oth
ĠB road
ĠB ars
ĠB inder
ĠB ituminous
ĠB illiard
ĠB UFFERS
ict able
Ġsp ire
Ġsp ills
ver tical
ĠN umbers
st ones
Ġad mit
ri a
ri otic
Ġinc on
Ġinc lement
Ġres ist
ĠU RBAN
ĠF ore
ĠF ole
ĠF urn
ĠF abric
ĠF iber
ĠF REE
ĠF estoons
ĠF ruit
ĠT e
ĠT ow
ĠT win
ĠT PU
ĠT extile
ist les
ad ult
ĠL ager
ĠL oss
ine ar
ine gar
lu orescent
Ġal arm
Ġal locates
ĠĠĠ ĉĠ
we ighted
Ġun im
Ġun used
Ġun iqu
Ġun subdivided
Ġun regulated
Ġun lawfully
Ġall y
ĠOr din
Ġland ward
Ġ3 10
Ġ3 75
ite x
ĠH ear
ĠH MP
ĠH anging
ĠH omestays
Ġr ating
Ġr anging
Ġr hythm
Ġr andom
ĠDe ferred
ĠE sc
ĠE ST
ĠE rection
ĠE QUIPMENT
res ult
ip ublic
ĠRe presentative
ĠRe inforced
ee a
Ġac ti
Ġtr ig
Ġtr ance
Ġtr acing
Ġtr ained
form ities
ten ding
ach inery
Ġ5 50
Ġ5 18
Ġen ables
Ġen acting
Ġen velope
Ġpl iance
Ġco v
Ġco ax
Ġfacil itating
Ġ4 11
Ġ4 25
Ġ4 18
Ġcomm ens
Ġch inensis
ĠG E
ĠG row
ĠG ink
Ġdesign ees
ch ar
ch annel
Ġy ellow
Ġy oung
Ġy east
min ute
oun ced
Ġaccess way
Ġim m
op ing
ĠW ire
ĠW heel
ĠW ELFARE
Ġman if
Ġman agers
de finition
de celeration
ĠIn ches
Ġ10 10
Ġ10 14
sc enity
sc heduled
ag ation
ag ious
pl and
pl ates
Ġsu fficiency
Ġdis per
Ġdis reg
Ġdis assembled
ens ate
ens ils
ĠV inyl
ĠV itex
Ġmain ly
Ġ7 16
IN STITU
In flatable
In ternational
Ġam bulatory
Ġsa ving
uff s
Ġ8 31
inc i
inc ompatible
Ġse pa
Ġse gregated
Ġse afood
Ġnon point
Ġsur ge
Ġoccup ational
20 11
Ġgr ay
the less
enc our
ound ations
âĢĿ ;
âĢĿ ),
Ġinter course
Ġrec urring
Ġcont agious
ob a
Ġar ri
Ġar ches
Ġar ds
con tractor
Ġso lic
Ġso uven
ĠY W
). âĢĿ
Ġcompl aint
Ġins ubstantial
ĠApp arel
Ġlandscap es
ss ss
ĠPro ximity
Ġu ppermost
Ġle ach
Ġdr inks
ustr ades
ĠRes ervation
16 4
16 6
unic a
enter tainment
los ives
Ġass ets
Ġass ump
Ġlocation al
____ ___
Ġcl air
Ġcl uttered
out heast
Ġtra verse
Ġtra velling
Ġdec line
aw ford
Ġvi ability
ond ling
AR C
Ġrel atives
ĠDepartment al
Ġcor ro
ĠEn gine
ĠEx ercise
ĠEx posure
Ġel se
Ġrequ isite
Ġover haul
St ay
St abilization
ĠAm ount
Ġk e
Ġ13 11
Ġ13 44
door s
Ġspecial ist
ĠSub mit
ĠSub sequent
Ġvar ie
Ġroof lines
Ġprior ity
stem med
Ġsc roll
Ġlo gs
OR G
Ġj o
Ġj oining
ĠLand ing
ell s
Ġmet ered
Re tirement
Ġform ance
Ġform ally
Ġfoot candles
ĠCon f
ĠCon tr
Ġterm ed
Ġbas ically
be hind
ex tent
ex tending
Ġ19 68
Ġreg istrant
Ġfour th
ÂłĠÂł ĠĠ
ÂłĠÂł ĠĠĠ
Ġaff ording
................................................ .....
Ġwas her
Ġadd enda
ĠĠĠĠĠĠĠĠĠĠĠĠĠĠĠĠĠĠĠĠĠĠĠĠĠĠĠĠĠĠĠĠ Ġ
ĠĠĠĠĠĠĠĠĠĠĠĠĠĠĠĠĠĠĠĠĠĠĠĠĠĠĠĠĠĠĠĠ ĠĠĠĠĠĠĠĠĠĠĠĠĠĠĠĠĠĠ
An imals
Ġ14 61
Ġret ard
ĠOff ensive
For ty
ream ble
ĠCh art
AN TEN
AN ITARY
28 5
28 6
Ġshow rooms
side walk
Ġreason abl
Ġdi ag
Ġdi ode
Ġstr aw
Ġcar bon
Ġmon ot
Ġmon opoles
Ġmod est
Ġmod ern
CE L
CE ME
24 7
24 8
ĠJ oseph
ĠJ nternational
Ġfeat her
ĠCom plex
32 6
ters ecting
ĠRE FER
Ġcoun ties
Ġcoun ts
ĠCons umer
ĠGeneral ized
Ġcoll ateral
40 8
ric a
Ġrep ro
alth ough
Ġval uation
adi an
emp ted
vey ance
SE M
ĠAR CHITECTURAL
pro fession
pro jections
Ġ18 4
Ġ18 5
Ġ18 01
IL ER
Ġrest ing
Ġrest room
Ġrepl en
De celeration
Ġmar sh
Ġmar shal
ĠOccup ational
RO A
RO OF
Pro ximity
ph ase
ph ysically
Ġentrance ways
100 1
yc hic
Ġappear ances
Ġclos et
Ġ17 7
Ġ17 06
Ġtop soil
Ġ16 1
Ġ16 8
Ġer otic
Ġref ueling
Ġpat riotic
Ġcontr ad
Ġmotor ing
ogr apher
34 6
Ġcap tures
sp outs
ĠTr ust
ĠNe ither
Ġobs er
Ġprom oted
Ġpe titions
Ġbar be
Ġmov al
Ġenter tain
ĠOpen ings
aff ected
aff ixed
Ġwide ly
35 2
35 5
ĠTH AN
old en
ves ted
ĠProt ective
Ġdisc los
Ġdisc losed
Ġdisc omfort
Ġ150 4
Ġing redi
Ġsw itches
FA CIL
ĠPre ferred
US T
Public ly
Ġwel ding
Ġev ident
me an
Ġlow ing
ĠTo y
Ġx iii
Ġopp onents
umb ia
Ġintern et
Plan k
ID ITY
Ġfree board
sub mission
TER Y
Ch annel
log ical
ĠInter pret
Ġcertain ty
Ġgreen bel
ĠUS C
Ġdefinition al
Ġconc ise
ĠDis claim
Ġeng ages
cons ume
Ġâ Ĥ¬
Ġbre aking
Ġ80 9
Ġhand s
ĠSpec ification
Ġop tician
QU EE
UM IN
UN E
UN ERAL
Ins trument
Ins ofar
Ġdecor ation
Ġdecor ator
Am erican
29 5
Ġvac ancies
BA SEMENT
ĠFe ed
ĠDr ain
En largement
ĠGr andfather
sh ow
sh ort
sh ape
ĠRed ucing
ĠAD MINISTRATIVE
Ġencroach ing
Ġtri butary
202 21
Ġmax i
Ġprescri ptions
ĠRES OL
rin t
Ġrefl ects
Ġmail boxes
ĠOwn ed
ĠSE W
arr anged
Ġattr acts
Ġattr acting
ĠGu est
ĠK iosk
ĠSc ientific
ĠIs lands
MA JOR
ĠPrivate ly
ĠReg ardless
Ġstat ue
Ġlease hold
Â° ).
Ġ................................ .....
Ġ................................ .......
ĠClass room
Ġbal ustrades
four ths
Ġshe ll
Ġassign ee
Ġsuper visory
ĠNew ly
Ġthem es
iqu id
ĠCover s
Ġcarri ers
ĠPen ding
ĠInc lude
occup ants
................................................................................................................................ ........
................................................................................................................................ ..............
................................................................................................................................ ...........
................................................................................................................................ .........
Ġdeline ates
END ICES
exc ludes
ĠPres ident
Ġ111 7
Ġter ra
ĠSTA TIONS
AGE MENT
DE LE
Ġtransmit tal
Ġquar ry
REA KFA
CH ANGE
MIN AL
Ġnorth west
ĠSe qu
Ġshelter ing
Ġsum mer
Su per
Ġdin ance
38 2
Design ed
ĠPh ased
Inter state
Ġvibr ant
escri be
Ġmul ched
Ġ................ .........
Ġorna ments
ERV ATION
ĠDown stream
Ġnecess itates
IM MING
Ġstay ing
supp orts
Ar ts
gu y
gu ests
Ġher bs
Ġsuc ceeding
Ġuns uccess
Mar quees
Ġodor ous
Ġdisp ens
Day care
New spaper
Inc entive
Ġmiti gated
under ground
Spec ified
Ġsuccess ful
Water course
IX ED
ĠTax odium
Ġpred evelopment
Ġ................................................................................................................................................ ....
Ġ................................................................................................................................................ ......
Ġcand y
ĠPR IM
Cle aning
Ġinstruction al
Ġrect angles
ded icated
Ġhel ip
ĠPlanting s
Ġap iary
Ġoverhang ing
Dr ug
ĠIllustr ated
bo ats
lim its
Ġincons istency
Ġcoordin ator
Ġlink ages
Ġbro ther
Ġbro kers
54 01
Fac ade
mon op
Trans mission
Ill icit
FF IC
Ġprop elled
Ġprop agation
sur vey
Ġmor al
Ġnegative ly
Own ed
ĠNA ME
Ġposs ibly
Ġsil ver
Ġfer mentation
ĠContinu ation
Ass ess
Ass ignment
Ass ociated
Ġstock yards
ĠMon opole
Air ports
ĠSTOR ES
ĠSTOR IES
ĠRegul ate
Ġlap ses
Bo x
RES TOR
EX ISTING
HO USES
ĠXXX I
ĠXXX III
Nurs eries
ĠStudi es
Ġconversion s
Green houses
wh olly
Ġspe akers
Ġorigin ate
Ġwarrant ing
ĠHortic ultural
Ġconcentr ations
PRE HENS
comp act
Ġhead quarters
Ġinser ting
Col umns
ece ece
ĠSH ALL
Ġproportion ed
inter fere
Ġdon ated
exp ressed
Ġparticip ant
Ġte a
Ġexact ly
ĠRD P
Ġfulfill ment
Ġflu orescent
ĠCul vert
ĠFif teenth
Ġphotogr apher
ĠDELE TE
ĠConflic ts
[...]
