{
  "version": "1.0",
  "truncation": null,
  "padding": null,
  "added_tokens": [
    {
      "id": 0,
      "content": "<s>",
      "single_word": false,
      "lstrip": false,
      "rstrip": false,
      "normalized": false,
      "special": true
    },
    {
      "id": 1,
      "content": "<pad>",
      "single_word": false,
      "lstrip": false,
      "rstrip": false,
      "normalized": false,
      "special": true
    },
    {
      "id": 2,
      "content": "</s>",
      "single_word": false,
      "lstrip": false,
      "rstrip": false,
      "normalized": false,
      "special": true
    },
    {
      "id": 3,
      "content": "<unk>",
      "single_word": false,
      "lstrip": false,
      "rstrip": false,
      "normalized": false,
      "special": true
    },
    {
      "id": 4,
      "content": "<mask>",
      "single_word": false,
      "lstrip": true,
      "rstrip": false,
      "normalized": false,
      "special": true
    }
  ],
  "normalizer": null,
  "pre_tokenizer": {
    "type": "ByteLevel",
    "add_prefix_space": false,
    "trim_offsets": true,
    "use_regex": true
  },
  "post_processor": {
    "type": "RobertaProcessing",
    "sep": [
      "</s>",
      2
    ],
    "cls": [
      "<s>",
      0
    ],
    "trim_offsets": true,
    "add_prefix_space": false
  },
  "decoder": {
    "type": "ByteLevel",
    "add_prefix_space": true,
    "trim_offsets": true,
    "use_regex": true
  },
  "model": {
    "type": "BPE",
    "dropout": null,
    "unk_token": null,
    "continuing_subword_prefix": "",
    "end_of_word_suffix": "",
    "fuse_unk": false,
    "vocab": {
      "<s>": 0,
      "<pad>": 1,
      "</s>": 2,
      "<unk>": 3,
      "<mask>": 4,
      "!": 5,
      "\"": 6,
      "#": 7,
      "$": 8,
      "%": 9,
      "&": 10,
      "'": 11,
      "(": 12,
      ")": 13,
      "*": 14,
      "+": 15,
      ",": 16,
      "-": 17,
      ".": 18,
      "/": 19,
      "0": 20,
      "1": 21,
      "2": 22,
      "3": 23,
      "4": 24,
      "5": 25,
      "6": 26,
      "7": 27,
      "8": 28,
      "9": 29,
      ":": 30,
      ";": 31,
      "<": 32,
      "=": 33,
      ">": 34,
      "?": 35,
      "@": 36,
      "A": 37,
      "B": 38,
      "C": 39,
      "D": 40,
      "E": 41,
      "F": 42,
      "G": 43,
      "H": 44,
      "I": 45,
      "J": 46,
      "K": 47,
      "L": 48,
      "M": 49,
      "N": 50,
      "O": 51,
      "P": 52,
      "Q": 53,
      "R": 54,
      "S": 55,
      "T": 56,
      "U": 57,
      "V": 58,
      "W": 59,
      "X": 60,
      "Y": 61,
      "Z": 62,
      "[": 63,
      "\\": 64,
      "]": 65,
      "^": 66,
      "_": 67,
      "`": 68,
      "a": 69,
      "b": 70,
      "c": 71,
      "d": 72,
      "e": 73,
      "f": 74,
      "g": 75,
      "h": 76,
      "i": 77,
      "j": 78,
      "k": 79,
      "l": 80,
      "m": 81,
      "n": 82,
      "o": 83,
      "p": 84,
      "q": 85,
      "r": 86,
      "s": 87,
      "t": 88,
      "u": 89,
      "v": 90,
      "w": 91,
      "x": 92,
      "y": 93,
      "z": 94,
      "{": 95,
      "|": 96,
      "}": 97,
      "~": 98,
      "¡": 99,
      "¢": 100,
      "£": 101,
      "¤": 102,
      "¥": 103,
      "¦": 104,
      "§": 105,
      "¨": 106,
      "©": 107,
      "ª": 108,
      "«": 109,
      "¬": 110,
      "®": 111,
      "¯": 112,
      "°": 113,
      "±": 114,
      "²": 115,
      "³": 116,
      "´": 117,
      "µ": 118,
      "¶": 119,
      "·": 120,
      "¸": 121,
      "¹": 122,
      "º": 123,
      "»": 124,
      "¼": 125,
      "½": 126,
      "¾": 127,
      "¿": 128,
      "À": 129,
      "Á": 130,
      "Â": 131,
      "Ã": 132,
      "Ä": 133,
      "Å": 134,
      "Æ": 135,
      "Ç": 136,
      "È": 137,
      "É": 138,
      "Ê": 139,
      "Ë": 140,
      "Ì": 141,
      "Í": 142,
      "Î": 143,
      "Ï": 144,
      "Ð": 145,
      "Ñ": 146,
      "Ò": 147,
      "Ó": 148,
      "Ô": 149,
      "Õ": 150,
      "Ö": 151,
      "×": 152,
      "Ø": 153,
      "Ù": 154,
      "Ú": 155,
      "Û": 156,
      "Ü": 157,
      "Ý": 158,
      "Þ": 159,
      "ß": 160,
      "à": 161,
      "á": 162,
      "â": 163,
      "ã": 164,
      "ä": 165,
      "å": 166,
      "æ": 167,
      "ç": 168,
      "è": 169,
      "é": 170,
      "ê": 171,
      "ë": 172,
      "ì": 173,
      "í": 174,
      "î": 175,
      "ï": 176,
      "ð": 177,
      "ñ": 178,
      "ò": 179,
      "ó": 180,
      "ô": 181,
      "õ": 182,
      "ö": 183,
      "÷": 184,
      "ø": 185,
      "ù": 186,
      "ú": 187,
      "û": 188,
      "ü": 189,
      "ý": 190,
      "þ": 191,
      "ÿ": 192,
      "Ā": 193,
      "ā": 194,
      "Ă": 195,
      "ă": 196,
      "Ą": 197,
      "ą": 198,
      "Ć": 199,
      "ć": 200,
      "Ĉ": 201,
      "ĉ": 202,
      "Ċ": 203,
      "ċ": 204,
      "Č": 205,
      "č": 206,
      "Ď": 207,
      "ď": 208,
      "Đ": 209,
      "đ": 210,
      "Ē": 211,
      "ē": 212,
      "Ĕ": 213,
      "ĕ": 214,
      "Ė": 215,
      "ė": 216,
      "Ę": 217,
      "ę": 218,
      "Ě": 219,
      "ě": 220,
      "Ĝ": 221,
      "ĝ": 222,
      "Ğ": 223,
      "ğ": 224,
      "Ġ": 225,
      "ġ": 226,
      "Ģ": 227,
      "ģ": 228,
      "Ĥ": 229,
      "ĥ": 230,
      "Ħ": 231,
      "ħ": 232,
      "Ĩ": 233,
      "ĩ": 234,
      "Ī": 235,
      "ī": 236,
      "Ĭ": 237,
      "ĭ": 238,
      "Į": 239,
      "į": 240,
      "İ": 241,
      "ı": 242,
      "Ĳ": 243,
      "ĳ": 244,
      "Ĵ": 245,
      "ĵ": 246,
      "Ķ": 247,
      "ķ": 248,
      "ĸ": 249,
      "Ĺ": 250,
      "ĺ": 251,
      "Ļ": 252,
      "ļ": 253,
      "Ľ": 254,
      "ľ": 255,
      "Ŀ": 256,
      "ŀ": 257,
      "Ł": 258,
      "ł": 259,
      "Ń": 260,
      "..": 261,
      "Ġa": 262,
      "in": 263,
      "Ġt": 264,
      "ĠĠ": 265,
      "Ġo": 266,
      "re": 267,
      "he": 268,
      "....": 269,
      "Ġs": 270,
      "on": 271,
      "er": 272,
      "ti": 273,
      "al": 274,
      "Ġthe": 275,
      "en": 276,
      "Ġp": 277,
      "ed": 278,
      "ing": 279,
      "es": 280,
      "Ġb": 281,
      "nd": 282,
      "Ġf": 283,
      "or": 284,
      "Ġof": 285,
      "it": 286,
      "is": 287,
      "........": 288,
      "tion": 289,
      "an": 290,
      "ic": 291,
      "ro": 292,
      "Ġc": 293,
      "ar": 294,
      "Ġand": 295,
      "at": 296,
      "ent": 297,
      "Ġd": 298,
      "Ġin": 299,
      "Ġw": 300,
      "Ġm": 301,
      "ĠĠĠĠ": 302,
      "Ġor": 303,
      "Ġl": 304,
      "Ġre": 305,
      "Âł": 306,
      "all": 307,
      "Ġto": 308,
      "Ġbe": 309,
      "il": 310,
      "ce": 311,
      "Ġsh": 312,
      "ec": 313,
      "et": 314,
      "us": 315,
      "ation": 316,
      "ve": 317,
      "ment": 318,
      "................": 319,
      "Ġshall": 320,
      "tr": 321,
      "id": 322,
      "ig": 323,
      "ac": 324,
      "Ġn": 325,
      "ĠS": 326,
      "Ġth": 327,
      "Ġe": 328,
      "ot": 329,
      "ĠC": 330,
      "ĠA": 331,
      "Ġpro": 332,
      "le": 333,
      "lo": 334,
      "om": 335,
      "uc": 336,
      "as": 337,
      "Ġfor": 338,
      "im": 339,
      "pp": 340,
      "qu": 341,
      "ĠP": 342,
      "Ġ(": 343,
      "ur": 344,
      "ding": 345,
      "ay": 346,
      "Ġcon": 347,
      "ith": 348,
      "Ġan": 349,
      "ity": 350,
      "ĠD": 351,
      "Ġwith": 352,
      "Ġ1": 353,
      "Ġ2": 354,
      "Ġon": 355,
      "ire": 356,
      "ll": 357,
      "Ġst": 358,
      "ign": 359,
      "Ġh": 360,
      "ance": 361,
      "ure": 362,
      "Ġare": 363,
      "ub": 364,
      "Ġus": 365,
      "ess": 366,
      "Ġper": 367,
      "ul": 368,
      "and": 369,
      "un": 370,
      "ted": 371,
      "Ġapp": 372,
      "Ġas": 373,
      "Ġis": 374,
      "ĠR": 375,
      "Ġby": 376,
      "uil": 377,
      "ion": 378,
      "................................": 379,
      "lic": 380,
      "00": 381,
      "The": 382,
      "Ġg": 383,
      "uilding": 384,
      "Ġex": 385,
      "ab": 386,
      "ard": 387,
      "ĠO": 388,
      "quire": 389,
      "her": 390,
      "um": 391,
      "ut": 392,
      "truc": 393,
      "lan": 394,
      "ĠĠĠĠĠĠĠĠ": 395,
      "ge": 396,
      "ection": 397,
      "ate": 398,
      "Ġ.": 399,
      "igh": 400,
      "Ġde": 401,
      "Ġnot": 402,
      "os": 403,
      "per": 404,
      "cc": 405,
      "eet": 406,
      "istr": 407,
      "hic": 408,
      "od": 409,
      "ol": 410,
      "ain": 411,
      "ter": 412,
      "ial": 413,
      "Ġrequire": 414,
      "mit": 415,
      "ated": 416,
      "âĢ": 417,
      "Ġany": 418,
      "ture": 419,
      "ly": 420,
      "velo": 421,
      "ther": 422,
      "am": 423,
      "Ġcom": 424,
      "ff": 425,
      "ĠM": 426,
      "ĠB": 427,
      "pment": 428,
      "Ġprov": 429,
      "Ġpar": 430,
      "di": 431,
      "Ġbuilding": 432,
      "ict": 433,
      "ight": 434,
      "Ġsp": 435,
      "Ġthat": 436,
      "age": 437,
      "und": 438,
      "ations": 439,
      "istrict": 440,
      "ty": 441,
      "oc": 442,
      "uch": 443,
      "Ġsign": 444,
      "ments": 445,
      "Ġfeet": 446,
      "ver": 447,
      "ĠN": 448,
      "velopment": 449,
      "Ġthis": 450,
      "ide": 451,
      "st": 452,
      "if": 453,
      "Ġother": 454,
      "Ġad": 455,
      "din": 456,
      "ri": 457,
      "reet": 458,
      "Ġinc": 459,
      "Ġmay": 460,
      "oning": 461,
      "low": 462,
      "rom": 463,
      "enti": 464,
      "Ġuse": 465,
      "tructure": 466,
      "Ġwhic": 467,
      "ĠI": 468,
      "Ġres": 469,
      "ir": 470,
      "ect": 471,
      "dinance": 472,
      "ace": 473,
      "Ġfrom": 474,
      "Ġsuch": 475,
      "Ġwhich": 476,
      "pos": 477,
      "Ġat": 478,
      "ĠU": 479,
      "ĠF": 480,
      "Ġlot": 481,
      "ater": 482,
      "ĠT": 483,
      "ist": 484,
      "able": 485,
      "are": 486,
      "imum": 487,
      "th": 488,
      "ties": 489,
      "ore": 490,
      "up": 491,
      "Ġcons": 492,
      "Ġhe": 493,
      "tic": 494,
      "ision": 495,
      "ĠCity": 496,
      "Ġsub": 497,
      "ad": 498,
      "end": 499,
      "wn": 500,
      "ĠL": 501,
      "Ġstructure": 502,
      "ap": 503,
      "Ġpermit": 504,
      "rov": 505,
      "king": 506,
      "Ġproper": 507,
      "Ġacc": 508,
      "Ġ20": 509,
      "ine": 510,
      "lu": 511,
      "Ġal": 512,
      "est": 513,
      "ary": 514,
      "Ġarea": 515,
      "ĠĠĠ": 516,
      "we": 517,
      "Ġv": 518,
      "em": 519,
      "ers": 520,
      "Ġun": 521,
      "identi": 522,
      "orm": 523,
      "Ġthan": 524,
      "Ġloc": 525,
      "ublic": 526,
      "Ġall": 527,
      "Ġplan": 528,
      "of": 529,
      "ĠOr": 530,
      "se": 531,
      "Ġland": 532,
      "ĠSection": 533,
      "ĠPlan": 534,
      "erv": 535,
      "Ġapplic": 536,
      "Ġ3": 537,
      "Ġprovid": 538,
      "ities": 539,
      "ĠZ": 540,
      "Ġwithin": 541,
      "idential": 542,
      "ĠOrdinance": 543,
      "Ġinclu": 544,
      "Ġstreet": 545,
      "ite": 546,
      "omm": 547,
      "ant": 548,
      "sion": 549,
      "ĠH": 550,
      "Ġ200": 551,
      "Ġr": 552,
      "Ġproperty": 553,
      "Ġ-": 554,
      "dition": 555,
      "Ġdevelopment": 556,
      "ĠDe": 557,
      "Ġrequired": 558,
      "ĠE": 559,
      "res": 560,
      "ous": 561,
      "ip": 562,
      "ust": 563,
      "ĠRe": 564,
      "ont": 565,
      "Ġfac": 566,
      "ew": 567,
      "Ġpublic": 568,
      "Ġdes": 569,
      "ee": 570,
      "iz": 571,
      "Ġcomp": 572,
      "Ġno": 573,
      "inimum": 574,
      "Ġac": 575,
      "Ġuses": 576,
      "Ġapprov": 577,
      "tain": 578,
      "way": 579,
      "ill": 580,
      "ards": 581,
      "gul": 582,
      "ĠThe": 583,
      "Ġtr": 584,
      "................................................................": 585,
      "hed": 586,
      "Ġdistrict": 587,
      "form": 588,
      "ten": 589,
      "Ġprovided": 590,
      "ĠĠĠĠĠ": 591,
      "el": 592,
      "ach": 593,
      "cep": 594,
      "Ġ5": 595,
      "Ġen": 596,
      "ĠDistrict": 597,
      "Ġone": 598,
      "ning": 599,
      "Ġ201": 600,
      "Ġpl": 601,
      "ib": 602,
      "Ġco": 603,
      "Ġz": 604,
      "ĠZoning": 605,
      "ome": 606,
      "Ġit": 607,
      "red": 608,
      "ollow": 609,
      "ĠSt": 610,
      "eas": 611,
      "Ġfacil": 612,
      "Ġparking": 613,
      "Ġ4": 614,
      "ily": 615,
      "Ġwhe": 616,
      "Ġcomm": 617,
      "ON": 618,
      "Ġfollow": 619,
      "Ġch": 620,
      "TI": 621,
      "ĠG": 622,
      "Ġdesign": 623,
      "Ġha": 624,
      "ory": 625,
      "ront": 626,
      "Ġrequirements": 627,
      "ies": 628,
      "tive": 629,
      "ch": 630,
      "Ġint": 631,
      "ject": 632,
      "Ġmore": 633,
      "por": 634,
      "ied": 635,
      "rtic": 636,
      "Ġlocated": 637,
      "ice": 638,
      "Ġy": 639,
      "ack": 640,
      "ally": 641,
      "lling": 642,
      "par": 643,
      "Ġpermitted": 644,
      "Ġsite": 645,
      "Ġspec": 646,
      "gulations": 647,
      "ree": 648,
      "ail": 649,
      "rticle": 650,
      "min": 651,
      "ord": 652,
      "ÂłĠ": 653,
      "welling": 654,
      "posed": 655,
      "ive": 656,
      "oun": 657,
      "ow": 658,
      "Ġ6": 659,
      "Ġoff": 660,
      "Ġfollowing": 661,
      "iv": 662,
      "Ġro": 663,
      "div": 664,
      "Ġaccess": 665,
      "cre": 666,
      "Ġim": 667,
      "ĠâĢ": 668,
      "__": 669,
      "ĠĠĠĠĠĠĠĠĠĠĠĠĠĠĠĠ": 670,
      "Ġspace": 671,
      "ĠPlanning": 672,
      "Ġareas": 673,
      "ts": 674,
      "Ġserv": 675,
      "Ġown": 676,
      "our": 677,
      "ase": 678,
      "Ġset": 679,
      "ission": 680,
      "op": 681,
      "Ġminimum": 682,
      "ses": 683,
      "Ġpre": 684,
      "Ġpr": 685,
      "ĠComm": 686,
      "ons": 687,
      "Ġline": 688,
      "ĠW": 689,
      "ting": 690,
      "ccup": 691,
      "amily": 692,
      "round": 693,
      "lis": 694,
      "Ġtw": 695,
      "Ġresidential": 696,
      "anc": 697,
      "Ġconstruc": 698,
      "Ġman": 699,
      "ood": 700,
      "de": 701,
      "ffic": 702,
      "isions": 703,
      "ĠDevelopment": 704,
      "fac": 705,
      "andards": 706,
      "ended": 707,
      "ĠIn": 708,
      "vi": 709,
      "Ġve": 710,
      "Ġab": 711,
      "ax": 712,
      "Ġ10": 713,
      "Ġmust": 714,
      "Ġflo": 715,
      "sc": 716,
      "ug": 717,
      "Ġfront": 718,
      "Ġpur": 719,
      "ade": 720,
      "Ġproposed": 721,
      "ural": 722,
      "ag": 723,
      "Ġsigns": 724,
      "Ġund": 725,
      "Ġused": 726,
      "pl": 727,
      "Ġsu": 728,
      "ĠArticle": 729,
      "Ġhave": 730,
      "isting": 731,
      "10": 732,
      "âĢĻ": 733,
      "Ġunit": 734,
      "Ġdet": 735,
      "cept": 736,
      "Ġeach": 737,
      "ĠBuilding": 738,
      "ablis": 739,
      "Ġzoning": 740,
      "ited": 741,
      "Ġside": 742,
      "Ġdis": 743,
      "Ġdwelling": 744,
      "Ġfacilities": 745,
      "12": 746,
      "ens": 747,
      "ber": 748,
      "aterial": 749,
      "ĠV": 750,
      "eral": 751,
      "Ġheight": 752,
      "scap": 753,
      "back": 754,
      "ct": 755,
      "ny": 756,
      "ific": 757,
      "Ġmain": 758,
      "one": 759,
      "tions": 760,
      "Ġ7": 761,
      "IN": 762,
      "iness": 763,
      "pen": 764,
      "usiness": 765,
      "uth": 766,
      "Ġstructures": 767,
      "In": 768,
      "Ġest": 769,
      "ove": 770,
      "Ġam": 771,
      "ise": 772,
      "Ġincluding": 773,
      "Ġsa": 774,
      "Ġup": 775,
      "TION": 776,
      "uff": 777,
      "Â§": 778,
      "quare": 779,
      "Ġ8": 780,
      "Ġhome": 781,
      "oard": 782,
      "ode": 783,
      "inc": 784,
      "su": 785,
      "erc": 786,
      "Ġapproval": 787,
      "Ġbuildings": 788,
      "til": 789,
      "Ġunder": 790,
      "ix": 791,
      "Ġse": 792,
      "aces": 793,
      "ans": 794,
      "Ġnon": 795,
      "ame": 796,
      "Ġestablis": 797,
      "Ġright": 798,
      "Ġvehic": 799,
      "ingle": 800,
      "Ġsur": 801,
      "Ġoccup": 802,
      "20": 803,
      "Ġadj": 804,
      "Ġmaterial": 805,
      "11": 806,
      "ufac": 807,
      "Ġgr": 808,
      "Ġne": 809,
      "Ġcondition": 810,
      "Ġthere": 811,
      "ipal": 812,
      "ks": 813,
      "Ġwill": 814,
      "Ġft": 815,
      "Ġpurpos": 816,
      "Ġapproved": 817,
      "Ġlim": 818,
      "the": 819,
      "Ġpri": 820,
      "Ġsquare": 821,
      "ceed": 822,
      "Ġapplication": 823,
      "Ġleas": 824,
      "Ġwhere": 825,
      "Ġless": 826,
      "...": 827,
      "enc": 828,
      "ĠCommission": 829,
      "ĠAd": 830,
      "ual": 831,
      "Ġyard": 832,
      "Ġimp": 833,
      "ound": 834,
      "ercial": 835,
      "duc": 836,
      "âĢĿ": 837,
      "ence": 838,
      "Ġexisting": 839,
      "part": 840,
      "own": 841,
      "Ġsubject": 842,
      "aximum": 843,
      "ugh": 844,
      "Ġinter": 845,
      "ĠCoun": 846,
      "Ġregulations": 847,
      "ĠUses": 848,
      "Ġallow": 849,
      "ize": 850,
      "ĠSign": 851,
      "ices": 852,
      "oin": 853,
      "tif": 854,
      "Ġrec": 855,
      "ile": 856,
      "Ġ9": 857,
      "fin": 858,
      "ĠSp": 859,
      "Ġtim": 860,
      "Ġtwo": 861,
      "mitted": 862,
      "tiv": 863,
      "less": 864,
      "Ġbut": 865,
      "Ġstandards": 866,
      "Ġinclude": 867,
      "ass": 868,
      "idth": 869,
      "Ġif": 870,
      "All": 871,
      "Ġprovisions": 872,
      "Ġtow": 873,
      "eal": 874,
      "ong": 875,
      "Ġexceed": 876,
      "irect": 877,
      "uffer": 878,
      "Ġcont": 879,
      "ear": 880,
      "ob": 881,
      "Ġar": 882,
      "ached": 883,
      "Ġbusiness": 884,
      "view": 885,
      "ical": 886,
      "Ġleast": 887,
      "ak": 888,
      "ĠÂ§": 889,
      "ÂłĠÂłĠ": 890,
      "Ġout": 891,
      "Ġwater": 892,
      "con": 893,
      "oul": 894,
      "ative": 895,
      "eneral": 896,
      "ĠPer": 897,
      "ines": 898,
      "Ġday": 899,
      "Ġcontain": 900,
      "les": 901,
      "orage": 902,
      "Ġdo": 903,
      "ĠCode": 904,
      "000": 905,
      "incipal": 906,
      "Ġconstruction": 907,
      "Ġpers": 908,
      "Ġso": 909,
      "ren": 910,
      "II": 911,
      "pa": 912,
      "ĠY": 913,
      "Ġwall": 914,
      "iance": 915,
      "Ġopen": 916,
      "Ġsupp": 917,
      "Ġspaces": 918,
      "Ġupon": 919,
      ").": 920,
      "ufacture": 921,
      "gr": 922,
      "Ġcompl": 923,
      "Ġins": 924,
      "partment": 925,
      "21": 926,
      "te": 927,
      "ĠApp": 928,
      "Ġlandscap": 929,
      "ility": 930,
      "Ġprovide": 931,
      "Section": 932,
      "EN": 933,
      "Ġrem": 934,
      "erm": 935,
      "Ġmeet": 936,
      "ified": 937,
      "Ġordinance": 938,
      "ĠBoard": 939,
      "ĠRequire": 940,
      "Ġlots": 941,
      "Ġappro": 942,
      "Ġtime": 943,
      "ss": 944,
      "Ġowner": 945,
      "division": 946,
      "ould": 947,
      "Ġaddition": 948,
      "ĠPro": 949,
      "Ġits": 950,
      "Ġind": 951,
      "Ġhas": 952,
      "Ġonly": 953,
      "No": 954,
      "Ġu": 955,
      "Ġle": 956,
      "ang": 957,
      "Ġaccord": 958,
      "ER": 959,
      "yp": 960,
      "Ġoper": 961,
      "Ġdr": 962,
      "ustr": 963,
      "ĠĠĠĠĠĠĠ": 964,
      "ĠRes": 965,
      "LE": 966,
      "ale": 967,
      "16": 968,
      "ĠPar": 969,
      "ures": 970,
      "unic": 971,
      "enter": 972,
      "Ġlight": 973,
      "50": 974,
      "ĠâĢľ": 975,
      "ĠAl": 976,
      "Ġissu": 977,
      "ufactured": 978,
      "acent": 979,
      "los": 980,
      "Ġass": 981,
      "Ġhere": 982,
      "Ġfloor": 983,
      "ances": 984,
      "Ġsingle": 985,
      "Ġapplicable": 986,
      "ov": 987,
      "tit": 988,
      "Ġsetback": 989,
      "Ġlocation": 990,
      "ĠĠĠĠĠĠ": 991,
      "ading": 992,
      "cil": 993,
      "Ġ................................................................": 994,
      "Ġexcept": 995,
      "ort": 996,
      "act": 997,
      "ia": 998,
      "Ġsim": 999,
      "ible": 1000,
      "uthor": 1001,
      "ating": 1002,
      "Ġaccordance": 1003,
      "Ġenc": 1004,
      "ior": 1005,
      "ween": 1006,
      "Ġabove": 1007,
      "Ġwidth": 1008,
      "to": 1009,
      "Ġmaterials": 1010,
      "Ġstreets": 1011,
      "Ġequ": 1012,
      "Ġpart": 1013,
      "Any": 1014,
      "Ġbet": 1015,
      "03": 1016,
      "Ġtre": 1017,
      "ner": 1018,
      "____": 1019,
      "Ġactiv": 1020,
      "Ġutil": 1021,
      "ind": 1022,
      "man": 1023,
      "ĠNo": 1024,
      "vent": 1025,
      "14": 1026,
      "02": 1027,
      "ermin": 1028,
      "ult": 1029,
      "ution": 1030,
      "obile": 1031,
      "ES": 1032,
      "fter": 1033,
      "ilar": 1034,
      "Ġbetween": 1035,
      "Ġservice": 1036,
      "rit": 1037,
      "Ġcl": 1038,
      "creen": 1039,
      "Th": 1040,
      "ministr": 1041,
      "out": 1042,
      "ational": 1043,
      "ING": 1044,
      "ĠLot": 1045,
      "av": 1046,
      "ized": 1047,
      "use": 1048,
      "Ġsame": 1049,
      "Ġrear": 1050,
      "forming": 1051,
      "hes": 1052,
      "EC": 1053,
      "Ġadjacent": 1054,
      "Ġaccessory": 1055,
      "Ġtra": 1056,
      "oor": 1057,
      "tal": 1058,
      "Ġdesigned": 1059,
      "ne": 1060,
      "Ġstorage": 1061,
      "13": 1062,
      "Ġallowed": 1063,
      "Ġdec": 1064,
      "Ġapplicant": 1065,
      "ĠCouncil": 1066,
      "imen": 1067,
      "04": 1068,
      "umber": 1069,
      "aw": 1070,
      "Ġwh": 1071,
      "rive": 1072,
      "cent": 1073,
      "Ġprincipal": 1074,
      "ress": 1075,
      "Ġvi": 1076,
      "ond": 1077,
      "Ġbeen": 1078,
      "urb": 1079,
      "Ġ100": 1080,
      "IS": 1081,
      "Ġsimilar": 1082,
      "ven": 1083,
      "ertif": 1084,
      "mis": 1085,
      "Ġlimited": 1086,
      "ĠRegulations": 1087,
      "Ġ2005": 1088,
      "Ġgro": 1089,
      "omes": 1090,
      "Ġmaximum": 1091,
      "empor": 1092,
      "Ġtyp": 1093,
      "AR": 1094,
      "vate": 1095,
      "Ġreview": 1096,
      "cess": 1097,
      "Ġpor": 1098,
      "Ġgre": 1099,
      "Ġbuffer": 1100,
      "ĠAre": 1101,
      "ĠUse": 1102,
      "Ġground": 1103,
      "AL": 1104,
      "street": 1105,
      "rough": 1106,
      "Ġ11": 1107,
      "IC": 1108,
      "port": 1109,
      "Ġdefin": 1110,
      "vel": 1111,
      "Ġrel": 1112,
      "Ġob": 1113,
      "ĠDepartment": 1114,
      "Ġcor": 1115,
      "family": 1116,
      "imension": 1117,
      "oot": 1118,
      "ange": 1119,
      "Ġfin": 1120,
      "),": 1121,
      "ouse": 1122,
      "Ġmaintain": 1123,
      "ors": 1124,
      "25": 1125,
      "emporary": 1126,
      "ĠEn": 1127,
      "Ġfacility": 1128,
      "hip": 1129,
      "ecess": 1130,
      "Ġag": 1131,
      "ulti": 1132,
      "rove": 1133,
      "ular": 1134,
      "face": 1135,
      "Ġconditions": 1136,
      "Ġauthor": 1137,
      "ings": 1138,
      "Ġcommercial": 1139,
      "for": 1140,
      "Ġspecific": 1141,
      "Ġlines": 1142,
      "Ġmeas": 1143,
      "Ġpercent": 1144,
      "ensity": 1145,
      "ĠUn": 1146,
      "ĠEx": 1147,
      "wise": 1148,
      "Ġnat": 1149,
      "mises": 1150,
      "Ġunits": 1151,
      "tric": 1152,
      "Ġel": 1153,
      "ĠâĢĵ": 1154,
      "divid": 1155,
      "ose": 1156,
      "bor": 1157,
      "ĠMan": 1158,
      "15": 1159,
      "Ġdist": 1160,
      "pri": 1161,
      "here": 1162,
      "Ġsize": 1163,
      "Ġestablish": 1164,
      "Ġrequ": 1165,
      "stall": 1166,
      "Ġover": 1167,
      "ecial": 1168,
      "Ġsection": 1169,
      "Ġpres": 1170,
      "ND": 1171,
      "rec": 1172,
      "Ġatt": 1173,
      "Ġotherwise": 1174,
      "01": 1175,
      "Ġpurpose": 1176,
      "so": 1177,
      "tice": 1178,
      "Ġperson": 1179,
      "Ġten": 1180,
      "ccess": 1181,
      "Ġdays": 1182,
      "Ġdevelo": 1183,
      "ĠResidential": 1184,
      "05": 1185,
      "fe": 1186,
      "manent": 1187,
      "ident": 1188,
      "St": 1189,
      "Ġme": 1190,
      "Ġcan": 1191,
      "ighbor": 1192,
      "ue": 1193,
      "ĉĠ": 1194,
      "ĠRequirements": 1195,
      "ĠAll": 1196,
      "ient": 1197,
      "conforming": 1198,
      "Ġsubdivision": 1199,
      "Ġalong": 1200,
      "Ġnumber": 1201,
      "ecessary": 1202,
      "Ġele": 1203,
      "Ġinto": 1204,
      "Ġ15": 1205,
      "tenance": 1206,
      "Ġsy": 1207,
      "Ġdetermin": 1208,
      "Ġwhen": 1209,
      "Ġext": 1210,
      "uring": 1211,
      "aring": 1212,
      "ĠAm": 1213,
      "Ġk": 1214,
      "Ġtrees": 1215,
      "Ġ13": 1216,
      "Ġchar": 1217,
      "Ġprot": 1218,
      "irector": 1219,
      "mp": 1220,
      "aced": 1221,
      "ool": 1222,
      "Ġapply": 1223,
      "Ġflood": 1224,
      "door": 1225,
      "Ġrecre": 1226,
      "ustrial": 1227,
      "Ġspecial": 1228,
      "Ġscreen": 1229,
      "ECTION": 1230,
      "ĠSub": 1231,
      "Ġvar": 1232,
      "This": 1233,
      "ĠX": 1234,
      "Ġroof": 1235,
      "priate": 1236,
      "Ġnew": 1237,
      "Ġprior": 1238,
      "Such": 1239,
      "stem": 1240,
      "Ġtrans": 1241,
      "ways": 1242,
      "section": 1243,
      "Ġestablished": 1244,
      "Ġeff": 1245,
      "ected": 1246,
      "Ġ50": 1247,
      "ned": 1248,
      "18": 1249,
      "Ġsc": 1250,
      "pre": 1251,
      "hib": 1252,
      "ales": 1253,
      "Ġunless": 1254,
      "gine": 1255,
      "entr": 1256,
      "Ġsaid": 1257,
      "Ġinstall": 1258,
      "Ġconstructed": 1259,
      "ĠArea": 1260,
      "ĠDirector": 1261,
      "TR": 1262,
      "Ġdistricts": 1263,
      "Ġintended": 1264,
      "cel": 1265,
      "Ġpurposes": 1266,
      "Ġtraffic": 1267,
      "der": 1268,
      "Ġ12": 1269,
      "hen": 1270,
      "Ġmin": 1271,
      "ception": 1272,
      "If": 1273,
      "Ġroad": 1274,
      "ured": 1275,
      "ama": 1276,
      "als": 1277,
      "Ġpark": 1278,
      "Ġthrough": 1279,
      "pair": 1280,
      "Ġproject": 1281,
      "abama": 1282,
      "Ġconform": 1283,
      "Ġdate": 1284,
      "ced": 1285,
      "ĠAny": 1286,
      "Ġvis": 1287,
      "wal": 1288,
      "enty": 1289,
      "Ġlo": 1290,
      "Ġappropriate": 1291,
      "ipment": 1292,
      "loc": 1293,
      "ason": 1294,
      "ĠMinimum": 1295,
      "Ġdrive": 1296,
      "ety": 1297,
      "Ġbound": 1298,
      "Ġpermanent": 1299,
      "See": 1300,
      "OR": 1301,
      "Ġpremises": 1302,
      "Ġprivate": 1303,
      "ati": 1304,
      "Ġsurface": 1305,
      "over": 1306,
      "ancy": 1307,
      "edi": 1308,
      "06": 1309,
      "Ġcle": 1310,
      "Ġservices": 1311,
      "Ġindivid": 1312,
      "Ġnecessary": 1313,
      "oci": 1314,
      "cri": 1315,
      "ĠAlabama": 1316,
      "ertific": 1317,
      "ator": 1318,
      "LA": 1319,
      "unity": 1320,
      "Ġj": 1321,
      "ĠLand": 1322,
      "ĠHome": 1323,
      "Ġprim": 1324,
      "ell": 1325,
      "Ġstore": 1326,
      "Ġalso": 1327,
      "Ġimprove": 1328,
      "Ġexp": 1329,
      "tenn": 1330,
      "Ġ2017": 1331,
      "tri": 1332,
      "Ġthree": 1333,
      "Ġsix": 1334,
      "Ġtower": 1335,
      "Ġvehicle": 1336,
      "hood": 1337,
      "............": 1338,
      "by": 1339,
      "terior": 1340,
      "Ġ30": 1341,
      "Ġ2004": 1342,
      "Ġmet": 1343,
      "Ġmanufactured": 1344,
      "ighborhood": 1345,
      "Re": 1346,
      "ective": 1347,
      "idered": 1348,
      "Ġmade": 1349,
      "ĠSigns": 1350,
      "Ġtree": 1351,
      "Ġfive": 1352,
      "ĠOffic": 1353,
      "mental": 1354,
      "Ġstate": 1355,
      "Ġfamily": 1356,
      "gineer": 1357,
      "ĠParking": 1358,
      "Ġgeneral": 1359,
      "Ġattached": 1360,
      "ants": 1361,
      "Ġafter": 1362,
      "Ġtwenty": 1363,
      "Ġowners": 1364,
      "Ġform": 1365,
      "Ġconsidered": 1366,
      "Ġplat": 1367,
      "Ġindividual": 1368,
      "Ġvehicles": 1369,
      "Ġqu": 1370,
      "Ġfoot": 1371,
      "ĠCon": 1372,
      "22": 1373,
      "Ġfe": 1374,
      "Ġamend": 1375,
      "Ġdefined": 1376,
      "ĠSpecial": 1377,
      "hall": 1378,
      "Ġsystem": 1379,
      "Ġsepar": 1380,
      "Ġterm": 1381,
      "Ġthese": 1382,
      "Ġbas": 1383,
      "ast": 1384,
      "tern": 1385,
      "Ġplace": 1386,
      "Ġcase": 1387,
      "Ġremov": 1388,
      "Ġtotal": 1389,
      "be": 1390,
      "Ġadop": 1391,
      "Ġportion": 1392,
      "ĠAdj": 1393,
      "ex": 1394,
      "Ġinform": 1395,
      "etback": 1396,
      "ĠTh": 1397,
      "edes": 1398,
      "ving": 1399,
      "Ġequipment": 1400,
      "play": 1401,
      "acter": 1402,
      "Ġinclud": 1403,
      "get": 1404,
      "Ġ25": 1405,
      "ys": 1406,
      "Ġcommon": 1407,
      "water": 1408,
      "Ġcomply": 1409,
      "Ġactivities": 1410,
      "umin": 1411,
      "Ġ19": 1412,
      "chit": 1413,
      "eter": 1414,
      "ENT": 1415,
      "ft": 1416,
      "iod": 1417,
      "Ġproperties": 1418,
      "ost": 1419,
      "edestri": 1420,
      "Ġtheir": 1421,
      "ĠPermit": 1422,
      "titution": 1423,
      "ccessory": 1424,
      "ainage": 1425,
      "Ġexc": 1426,
      "ĠTable": 1427,
      "agement": 1428,
      "Ġissued": 1429,
      "Ġentr": 1430,
      "Ġcare": 1431,
      "Ġnatural": 1432,
      "Ġnotice": 1433,
      "Ġerec": 1434,
      "ditional": 1435,
      "TIC": 1436,
      "hibited": 1437,
      "ĠAn": 1438,
      "ple": 1439,
      "Ġreg": 1440,
      "anding": 1441,
      "Ġsubmitted": 1442,
      "Ġthose": 1443,
      "Ġhomes": 1444,
      "Ġappeal": 1445,
      "ep": 1446,
      "Ġparcel": 1447,
      "Ġ0": 1448,
      "ull": 1449,
      "Ġdoes": 1450,
      "Ġlimit": 1451,
      "ĠIns": 1452,
      "Ġgreater": 1453,
      "Ġcenter": 1454,
      "ition": 1455,
      "ates": 1456,
      "Ġmaintained": 1457,
      "Ġresp": 1458,
      "Ġrecord": 1459,
      "Ġcharacter": 1460,
      "Ġperiod": 1461,
      "fer": 1462,
      "Ġherein": 1463,
      "Ġregul": 1464,
      "Ġfour": 1465,
      "ïĤ": 1466,
      "Ġwrit": 1467,
      "Ġmaintenance": 1468,
      "aj": 1469,
      "Ġantenn": 1470,
      "residential": 1471,
      "ake": 1472,
      "ajor": 1473,
      "rol": 1474,
      "Ġcity": 1475,
      "Ġrepair": 1476,
      "Ġmeasured": 1477,
      "Ġadditional": 1478,
      "Ġstorm": 1479,
      "ÂłĠÂł": 1480,
      "emb": 1481,
      "Ġfrontage": 1482,
      "ĠStreet": 1483,
      "TICLE": 1484,
      "Ġaff": 1485,
      "uluth": 1486,
      "................................................": 1487,
      "RE": 1488,
      "Ġviol": 1489,
      "ĠStandards": 1490,
      "ĠDuluth": 1491,
      "ĠAdministr": 1492,
      "truction": 1493,
      "Ġwas": 1494,
      "Ġdisplay": 1495,
      "losed": 1496,
      "Ġspecified": 1497,
      "Ġrequest": 1498,
      "Ġenti": 1499,
      "Ġadd": 1500,
      "iving": 1501,
      "IT": 1502,
      "ction": 1503,
      "fety": 1504,
      "oint": 1505,
      "chitect": 1506,
      "Sign": 1507,
      "Ġcompliance": 1508,
      "Ġph": 1509,
      "ustment": 1510,
      "Ġdimension": 1511,
      "oth": 1512,
      "Ġplaced": 1513,
      "ĠĠĠĠĠĠĠĠĠĠĠĠĠĠĠĠĠĠĠĠĠĠĠĠĠĠĠĠĠĠĠĠ": 1514,
      "Ġassoci": 1515,
      "Ġshould": 1516,
      "Ġsidewal": 1517,
      "Ġinformation": 1518,
      "icial": 1519,
      "Ġthereof": 1520,
      "Ġwithout": 1521,
      "owe": 1522,
      "ervation": 1523,
      "Ġrestric": 1524,
      "Ġorder": 1525,
      "An": 1526,
      "Ġhearing": 1527,
      "ages": 1528,
      "Ġplans": 1529,
      "irc": 1530,
      "unications": 1531,
      "Ġfif": 1532,
      "ĠDistricts": 1533,
      "aries": 1534,
      "Ġwould": 1535,
      "Ġzon": 1536,
      "ork": 1537,
      "fare": 1538,
      "Ġ14": 1539,
      "Ġret": 1540,
      "Ġbelow": 1541,
      "ĠSetback": 1542,
      "ĠOff": 1543,
      "ector": 1544,
      "For": 1545,
      "ither": 1546,
      "Ġmulti": 1547,
      "Ġforth": 1548,
      "ii": 1549,
      "ĠOF": 1550,
      "Ġcomplet": 1551,
      "Ġtype": 1552,
      "ĠGe": 1553,
      "other": 1554,
      "ared": 1555,
      "inu": 1556,
      "Ġtemporary": 1557,
      "ream": 1558,
      "ency": 1559,
      "org": 1560,
      "Ex": 1561,
      "Ġway": 1562,
      "ixed": 1563,
      "owever": 1564,
      "Ġpedestri": 1565,
      "Ġease": 1566,
      "ĠCh": 1567,
      "Ġyear": 1568,
      "fore": 1569,
      "Ġshown": 1570,
      "Ġchang": 1571,
      "Ġdistance": 1572,
      "ĠYard": 1573,
      "AN": 1574,
      "Ġadjoin": 1575,
      "ĠStructure": 1576,
      "Ġproduc": 1577,
      "Ġintent": 1578,
      "Ġsew": 1579,
      "28": 1580,
      "eight": 1581,
      "Ġgu": 1582,
      "ry": 1583,
      "Ġsales": 1584,
      "undred": 1585,
      "Ġinte": 1586,
      "Ġimprovements": 1587,
      "Ġfur": 1588,
      "City": 1589,
      "oll": 1590,
      "Ġmap": 1591,
      "Ġshow": 1592,
      "App": 1593,
      "lex": 1594,
      "Ġexterior": 1595,
      "side": 1596,
      "esign": 1597,
      "Ġreason": 1598,
      "Ġelev": 1599,
      "shall": 1600,
      "Ġdi": 1601,
      "Ġcour": 1602,
      "Ġabut": 1603,
      "Ġerected": 1604,
      "indow": 1605,
      "MENT": 1606,
      "Ġhigh": 1607,
      "Ġamended": 1608,
      "Ġlaw": 1609,
      "utom": 1610,
      "tical": 1611,
      "arg": 1612,
      "Ġutility": 1613,
      "Ġill": 1614,
      "ĠSec": 1615,
      "Ġdwellings": 1616,
      "Ġsec": 1617,
      "Ġlevel": 1618,
      "Ġpos": 1619,
      "Ġchange": 1620,
      "Ġelec": 1621,
      "Ġsale": 1622,
      "ĠAdjustment": 1623,
      "Ġstr": 1624,
      "ped": 1625,
      "tis": 1626,
      "RD": 1627,
      "Ġidenti": 1628,
      "Ġcar": 1629,
      "chool": 1630,
      "Ġconn": 1631,
      "Ġcre": 1632,
      "arily": 1633,
      "Ġmon": 1634,
      "Ġlandscaping": 1635,
      "ertificate": 1636,
      "ĠServ": 1637,
      "ĠAND": 1638,
      "30": 1639,
      "Ġmod": 1640,
      "Ġemp": 1641,
      "lay": 1642,
      "Ġsafety": 1643,
      "quate": 1644,
      "orgia": 1645,
      "CE": 1646,
      "Ġprocess": 1647,
      "Ġindic": 1648,
      "ra": 1649,
      "Ġeither": 1650,
      "Ġbeing": 1651,
      "Ġdev": 1652,
      "Ġzone": 1653,
      "ech": 1654,
      "erve": 1655,
      "arm": 1656,
      "Ġdescri": 1657,
      "Ġconduc": 1658,
      "Ġdensity": 1659,
      "ional": 1660,
      "24": 1661,
      "Ġinches": 1662,
      "Ġsurround": 1663,
      "Ġrecreational": 1664,
      "Ġhundred": 1665,
      "ĠJ": 1666,
      "ĠGeorgia": 1667,
      "Ġfence": 1668,
      "Ġcol": 1669,
      "rent": 1670,
      "Ġmobile": 1671,
      "ousing": 1672,
      "loy": 1673,
      "Ġfir": 1674,
      "very": 1675,
      "isted": 1676,
      "ption": 1677,
      "Ġrece": 1678,
      "Ġdrainage": 1679,
      "Ġfeat": 1680,
      "Ġlic": 1681,
      "Ġevent": 1682,
      "ĠCom": 1683,
      "Ġloading": 1684,
      "arge": 1685,
      "Ġamendment": 1686,
      "Ġet": 1687,
      "Ġ\"": 1688,
      "ĠPublic": 1689,
      "truct": 1690,
      "Ġconsist": 1691,
      "Ġprimary": 1692,
      "ĠOfficial": 1693,
      "ble": 1694,
      "Ġadver": 1695,
      "line": 1696,
      "32": 1697,
      "land": 1698,
      "Ġarchitect": 1699,
      "imin": 1700,
      "ough": 1701,
      "Ġthey": 1702,
      "Ġlighting": 1703,
      "iron": 1704,
      "Ġdetermined": 1705,
      "ters": 1706,
      "Ġidentif": 1707,
      "Building": 1708,
      "Ġoutdoor": 1709,
      "ĉĠĉĠ": 1710,
      "air": 1711,
      "eng": 1712,
      "Ġdesignated": 1713,
      "ĠRE": 1714,
      "ĠInd": 1715,
      "17": 1716,
      "ĠSh": 1717,
      "Ġav": 1718,
      "Ġ35": 1719,
      "Ġcoun": 1720,
      "ĠCons": 1721,
      "Ġdirect": 1722,
      "vious": 1723,
      "ĠĠĠĠĠĠĠĠĠĠ": 1724,
      "ĠGeneral": 1725,
      "Ġofficial": 1726,
      "Ġcoll": 1727,
      "________": 1728,
      "ider": 1729,
      "ences": 1730,
      "Ġfl": 1731,
      "orth": 1732,
      "Ġade": 1733,
      "Ġplus": 1734,
      "Ġwalls": 1735,
      "ISTR": 1736,
      "Ġgross": 1737,
      "Ġretail": 1738,
      "Ġsm": 1739,
      "ĠCl": 1740,
      "five": 1741,
      "Ġpedestrian": 1742,
      "Ġsit": 1743,
      "ener": 1744,
      "Ġtowers": 1745,
      "UD": 1746,
      "Ġback": 1747,
      "ĠState": 1748,
      "Ġhaving": 1749,
      "app": 1750,
      "Ġcal": 1751,
      "Ġ40": 1752,
      "Ġestablishment": 1753,
      "fess": 1754,
      "Ġthir": 1755,
      "Ġ2015": 1756,
      "Ġoffice": 1757,
      "ĠCounty": 1758,
      "force": 1759,
      "ause": 1760,
      "Ġlandscape": 1761,
      "40": 1762,
      "Ġenclosed": 1763,
      "ie": 1764,
      "Ġ2019": 1765,
      "ric": 1766,
      "ases": 1767,
      "gal": 1768,
      "ground": 1769,
      "ud": 1770,
      "ĠSide": 1771,
      "ulation": 1772,
      "ĠNon": 1773,
      "Ġemploy": 1774,
      "23": 1775,
      "viron": 1776,
      "Ġrep": 1777,
      "Ġ2006": 1778,
      "ĠPermitted": 1779,
      "luding": 1780,
      "ole": 1781,
      "Ġfinal": 1782,
      "titutional": 1783,
      "bed": 1784,
      "Ġinv": 1785,
      "ibility": 1786,
      "Ġpersons": 1787,
      "27": 1788,
      "alth": 1789,
      "ories": 1790,
      "ouses": 1791,
      "ish": 1792,
      "TIONS": 1793,
      "ĠDwelling": 1794,
      "Ġrequirement": 1795,
      "Ġval": 1796,
      "Ġprohibited": 1797,
      "Ġwritten": 1798,
      "Ġcommunity": 1799,
      "aged": 1800,
      "Ġadjoining": 1801,
      "Where": 1802,
      "Ġmeans": 1803,
      "Ġadequate": 1804,
      "emed": 1805,
      "Ġ2008": 1806,
      "Ġoccupancy": 1807,
      "ĠFac": 1808,
      "Ġsf": 1809,
      "Ġgover": 1810,
      "Ġviolation": 1811,
      "idence": 1812,
      "bin": 1813,
      "ĠFront": 1814,
      "Ġbo": 1815,
      "ĠAccessory": 1816,
      "Ġmanner": 1817,
      "anted": 1818,
      "Ġneed": 1819,
      "Ġactivity": 1820,
      "ense": 1821,
      "Ġcop": 1822,
      "ĠApplic": 1823,
      "anti": 1824,
      "Ġ2016": 1825,
      "Ġrelated": 1826,
      "ED": 1827,
      "ument": 1828,
      "Ġhealth": 1829,
      "house": 1830,
      "gric": 1831,
      "cedures": 1832,
      "Ġprovision": 1833,
      "Ġsurrounding": 1834,
      "Ġnonconforming": 1835,
      "otel": 1836,
      "ĠVII": 1837,
      "feren": 1838,
      "Ġrun": 1839,
      "adi": 1840,
      "andard": 1841,
      "Ġclear": 1842,
      "ered": 1843,
      "Ġcirc": 1844,
      "Ġwindow": 1845,
      "ĠSite": 1846,
      "ĠPr": 1847,
      "Ġroom": 1848,
      "Ġvariance": 1849,
      "Minimum": 1850,
      "Ġfull": 1851,
      "emp": 1852,
      "Ġfood": 1853,
      "aur": 1854,
      "Ġbase": 1855,
      "ides": 1856,
      "Ġdep": 1857,
      "ĠMap": 1858,
      "ĠIV": 1859,
      "mission": 1860,
      "Sec": 1861,
      "Per": 1862,
      "Ġacre": 1863,
      "ild": 1864,
      "Ad": 1865,
      "vey": 1866,
      "Ġyards": 1867,
      "Ġauthorized": 1868,
      "pose": 1869,
      "ability": 1870,
      "Ġface": 1871,
      "SE": 1872,
      "ĠAR": 1873,
      "Ġgood": 1874,
      "Or": 1875,
      "oles": 1876,
      "TA": 1877,
      "ents": 1878,
      "Ġaction": 1879,
      "19": 1880,
      "pro": 1881,
      "Ġsol": 1882,
      "Ġsubst": 1883,
      "roval": 1884,
      "Ġneighborhood": 1885,
      "forcement": 1886,
      "Ġinstalled": 1887,
      "ps": 1888,
      "Ġver": 1889,
      "not": 1890,
      "Ġsuppor": 1891,
      "ICT": 1892,
      "IG": 1893,
      "âĢĲ": 1894,
      "Ġetc": 1895,
      "Ġdevelopments": 1896,
      "Ġcontrol": 1897,
      "ultural": 1898,
      "iti": 1899,
      "Ġ18": 1900,
      "Ġgranted": 1901,
      "Ġclass": 1902,
      "Ġfre": 1903,
      "Ġthirty": 1904,
      "Ġdeveloper": 1905,
      "ĠSECTION": 1906,
      "aster": 1907,
      "idental": 1908,
      "ees": 1909,
      "âĢ¦": 1910,
      "Ġplanting": 1911,
      "07": 1912,
      "Ã§": 1913,
      "IL": 1914,
      "aÃ§": 1915,
      "fficient": 1916,
      "Ġwork": 1917,
      "Ġexception": 1918,
      "Ġdecision": 1919,
      "Ġrest": 1920,
      "Ġrepl": 1921,
      "Ġcontinu": 1922,
      "Ġboth": 1923,
      "Ġren": 1924,
      "zoning": 1925,
      "ISTRICT": 1926,
      "De": 1927,
      "ecomm": 1928,
      "Ġfeatures": 1929,
      "Ġresident": 1930,
      "Ġalle": 1931,
      "Ġ&": 1932,
      "Ġmar": 1933,
      "ute": 1934,
      "fessional": 1935,
      "ĠDesign": 1936,
      "ĠOccup": 1937,
      "Ġindustrial": 1938,
      "ĠUnit": 1939,
      "Ġentire": 1940,
      "ished": 1941,
      "ross": 1942,
      "ounted": 1943,
      "verage": 1944,
      "ommod": 1945,
      "Ġacres": 1946,
      "Ġeffective": 1947,
      "Ġair": 1948,
      "Ġcombin": 1949,
      "ength": 1950,
      "Ġveget": 1951,
      "Ġboundaries": 1952,
      "ying": 1953,
      "ification": 1954,
      "Ġ2007": 1955,
      "SECTION": 1956,
      "Ġpoint": 1957,
      "estanding": 1958,
      "ivision": 1959,
      "ĠAdministrator": 1960,
      "ĠARTICLE": 1961,
      "RO": 1962,
      "ĠAc": 1963,
      "Ġmeeting": 1964,
      "Ġseparate": 1965,
      "ïĤ§": 1966,
      "41": 1967,
      "Ġoutside": 1968,
      "Pro": 1969,
      "ication": 1970,
      "ĠMin": 1971,
      "ĠHeight": 1972,
      "urs": 1973,
      "ĠLandscap": 1974,
      "Ġgar": 1975,
      "Ġadministr": 1976,
      "Ġchanges": 1977,
      "ph": 1978,
      "ustom": 1979,
      "Ġmajor": 1980,
      "Ġconsider": 1981,
      "otor": 1982,
      "Ġillumin": 1983,
      "Ġinsp": 1984,
      "with": 1985,
      "Ġincre": 1986,
      "ower": 1987,
      "Ġdeveloped": 1988,
      "Res": 1989,
      "Ġdeemed": 1990,
      "ufact": 1991,
      "Ġfifty": 1992,
      "Ġfire": 1993,
      "Ġaccommod": 1994,
      "Ġstream": 1995,
      "Ġhor": 1996,
      "formance": 1997,
      "Ġentrance": 1998,
      "Ġlisted": 1999,
      "Ġwhether": 2000,
      "ops": 2001,
      "aÃ§ade": 2002,
      "ufacturing": 2003,
      "ĠSingle": 2004,
      "riter": 2005,
      "Ġrespons": 2006,
      "tent": 2007,
      "Ġcompati": 2008,
      "Ġhouse": 2009,
      "Ġproviding": 2010,
      "Ġwire": 2011,
      "âĢ¦âĢ¦": 2012,
      "UP": 2013,
      "ĠProv": 2014,
      "Ġdetached": 2015,
      "omp": 2016,
      "Ġoperation": 2017,
      "Ġpermits": 2018,
      "Par": 2019,
      "pping": 2020,
      "Ġaddress": 2021,
      "off": 2022,
      "Ġlong": 2023,
      "elecomm": 2024,
      "uture": 2025,
      "Ġsupport": 2026,
      "ilities": 2027,
      "ĠBusiness": 2028,
      "itions": 2029,
      "Ġfil": 2030,
      "Ġplanned": 2031,
      "Ġmean": 2032,
      "ave": 2033,
      "Street": 2034,
      "Ġavail": 2035,
      "Ġlength": 2036,
      "ote": 2037,
      "ĠĠĠĠĠĠĠĠĠ": 2038,
      "Ġview": 2039,
      "Ġterms": 2040,
      "Ġantenna": 2041,
      "riteria": 2042,
      "Ġbuil": 2043,
      "Ġmanagement": 2044,
      "100": 2045,
      "yc": 2046,
      "Ġcurb": 2047,
      "Ġelectr": 2048,
      "enters": 2049,
      "uffers": 2050,
      "Ġeight": 2051,
      "Ġvari": 2052,
      "Ġremoved": 2053,
      "Ġfound": 2054,
      "posal": 2055,
      "ĠBuildings": 2056,
      "Ġtrail": 2057,
      "ĠPl": 2058,
      "Ġanother": 2059,
      "Ġcontained": 2060,
      "Ġappear": 2061,
      "Ġfirst": 2062,
      "istrib": 2063,
      "erved": 2064,
      "Ġsewer": 2065,
      "orough": 2066,
      "Ġclos": 2067,
      "aph": 2068,
      "Ġdam": 2069,
      "Ġanim": 2070,
      "ĠRequired": 2071,
      "Ġsq": 2072,
      "Con": 2073,
      "ĠFlo": 2074,
      "zard": 2075,
      "ubs": 2076,
      "Ġgener": 2077,
      "Ġbased": 2078,
      "Ġ17": 2079,
      "Ġhis": 2080,
      "inal": 2081,
      "ĠRo": 2082,
      "ĠAmended": 2083,
      "Ġadopted": 2084,
      "Ġexten": 2085,
      "limin": 2086,
      "Ġnor": 2087,
      "Ġassociated": 2088,
      "ocation": 2089,
      "Ġissuance": 2090,
      "mber": 2091,
      "opy": 2092,
      "Ġoccupied": 2093,
      "lus": 2094,
      "Ġextend": 2095,
      "ederal": 2096,
      "Ġbefore": 2097,
      "ĠDISTRICT": 2098,
      "ĠĠĠĠĠĠĠĠĠĠĠ": 2099,
      "Ġenviron": 2100,
      "embers": 2101,
      "eals": 2102,
      "Ġcustom": 2103,
      "Ġreduc": 2104,
      "ĠReview": 2105,
      "Ġutilities": 2106,
      "Ġprotection": 2107,
      "ket": 2108,
      "ery": 2109,
      "ĠOne": 2110,
      "Ġeffect": 2111,
      "Ġincludes": 2112,
      "du": 2113,
      "ĠAr": 2114,
      "Ġremain": 2115,
      "Ġautom": 2116,
      "Ġsidewalk": 2117,
      "Ġelevation": 2118,
      "Ġtop": 2119,
      "ash": 2120,
      "Ġincidental": 2121,
      "Ġspecifically": 2122,
      "Ġliving": 2123,
      "Ġconven": 2124,
      "Ġ16": 2125,
      "ĠOver": 2126,
      "Ġschool": 2127,
      "izont": 2128,
      "Ġoccupation": 2129,
      "istor": 2130,
      "Ġgrade": 2131,
      "Ġconducted": 2132,
      "iver": 2133,
      "Ġer": 2134,
      "ĠPUD": 2135,
      "Ġpartic": 2136,
      "ĠAmend": 2137,
      "Ġscreening": 2138,
      "Ġstormwater": 2139,
      "oroughfare": 2140,
      "It": 2141,
      "Ġ22": 2142,
      "ĠCommercial": 2143,
      "ium": 2144,
      "site": 2145,
      "ept": 2146,
      "Ġ*": 2147,
      "Ġocc": 2148,
      "Ġcomplete": 2149,
      "Ġsmall": 2150,
      "ĠEngineer": 2151,
      "Ġavailable": 2152,
      "Ġalter": 2153,
      "Ġengineer": 2154,
      "ference": 2155,
      "DC": 2156,
      "Ġref": 2157,
      "Ġuntil": 2158,
      "Ġrecomm": 2159,
      "Ġauthority": 2160,
      "Ġwell": 2161,
      "unicipal": 2162,
      "gre": 2163,
      "iel": 2164,
      "Ġed": 2165,
      "Ġli": 2166,
      "sive": 2167,
      "Ġpresent": 2168,
      "Ġcopy": 2169,
      "Ġduring": 2170,
      "Ġmonth": 2171,
      "Ġ|": 2172,
      "Ġhowever": 2173,
      "liminary": 2174,
      "urn": 2175,
      "ges": 2176,
      "hel": 2177,
      "gricultural": 2178,
      "Ġfurther": 2179,
      "Ġshowing": 2180,
      "Lot": 2181,
      "ONING": 2182,
      "co": 2183,
      "ke": 2184,
      "Ġcur": 2185,
      "ĠZone": 2186,
      "Zoning": 2187,
      "Ġsubmit": 2188,
      "Ġqual": 2189,
      "ĠMaximum": 2190,
      "Ġpursu": 2191,
      "tered": 2192,
      "ele": 2193,
      "Comm": 2194,
      "opping": 2195,
      "Ġdire": 2196,
      "utdoor": 2197,
      "Ġstores": 2198,
      "Ġrights": 2199,
      "Each": 2200,
      "after": 2201,
      "Ġpat": 2202,
      "ĠfaÃ§ade": 2203,
      "Ġconf": 2204,
      "ĠUDC": 2205,
      "Ġ60": 2206,
      "Ġgovern": 2207,
      "75": 2208,
      "ording": 2209,
      "acement": 2210,
      "ĠStructures": 2211,
      "Ġbec": 2212,
      "Ġtract": 2213,
      "Ġprac": 2214,
      "Ġvehicular": 2215,
      "ores": 2216,
      "Ġcontr": 2217,
      "UR": 2218,
      "ĠFor": 2219,
      "ĠDensity": 2220,
      "elecommunications": 2221,
      "Ġfuture": 2222,
      "Ġmotor": 2223,
      "ĠCor": 2224,
      "ually": 2225,
      "Ġprevent": 2226,
      "ĠManufactured": 2227,
      "Ġrecreation": 2228,
      "ogr": 2229,
      "olic": 2230,
      "any": 2231,
      "34": 2232,
      "dinances": 2233,
      "Ġmounted": 2234,
      "ĠRec": 2235,
      ".,": 2236,
      "its": 2237,
      "unction": 2238,
      "Ġrestrictions": 2239,
      "nel": 2240,
      "Ġboard": 2241,
      "Ġcap": 2242,
      "Ġlandscaped": 2243,
      "ĠService": 2244,
      "Ġsubstanti": 2245,
      "duce": 2246,
      "alf": 2247,
      "owers": 2248,
      "ĠSpace": 2249,
      "Ġstrip": 2250,
      "Ġthen": 2251,
      "Ġdistrib": 2252,
      "Ġstruct": 2253,
      "teen": 2254,
      "Ġlegal": 2255,
      "Ġexist": 2256,
      "Ġscreened": 2257,
      "ĠSubdivision": 2258,
      "Ġcontaining": 2259,
      "Ġextent": 2260,
      "pret": 2261,
      "ield": 2262,
      "rid": 2263,
      "Ġvegetation": 2264,
      "OM": 2265,
      "Ġdoc": 2266,
      "Ġmembers": 2267,
      "Ġname": 2268,
      "Ġ24": 2269,
      "Ġresult": 2270,
      "ization": 2271,
      "ount": 2272,
      "Ġvisible": 2273,
      "Ġarchitectural": 2274,
      "itable": 2275,
      "Ġscale": 2276,
      "ĠIf": 2277,
      "anit": 2278,
      "Ġparks": 2279,
      "Ġincluded": 2280,
      "Ġbod": 2281,
      "ĠCont": 2282,
      "ember": 2283,
      "Ġlocal": 2284,
      "Ġabutting": 2285,
      "Ġ2003": 2286,
      "Sp": 2287,
      "sp": 2288,
      "ĠTree": 2289,
      "Ġeasement": 2290,
      "ided": 2291,
      "ours": 2292,
      "'s": 2293,
      "Ġevery": 2294,
      "ĠTr": 2295,
      "Ġcode": 2296,
      "Ġownership": 2297,
      "Ġpav": 2298,
      "Ġobtain": 2299,
      ".)": 2300,
      "aid": 2301,
      "urpose": 2302,
      "plain": 2303,
      "Ġlarg": 2304,
      "crete": 2305,
      "ns": 2306,
      "ĠNe": 2307,
      "ĠRear": 2308,
      "Ġobs": 2309,
      "izontal": 2310,
      "Ġword": 2311,
      "Ġconditional": 2312,
      "Ġboundary": 2313,
      "ful": 2314,
      "Ġcause": 2315,
      "Ġprom": 2316,
      "Ġwho": 2317,
      "Ġproducts": 2318,
      "Ġ=": 2319,
      "arding": 2320,
      "igure": 2321,
      "ĠIndustrial": 2322,
      "rest": 2323,
      "Applic": 2324,
      "ved": 2325,
      "Ġrezoning": 2326,
      "iding": 2327,
      "imensional": 2328,
      "Ġresidents": 2329,
      "ces": 2330,
      "iven": 2331,
      "Article": 2332,
      "Ġhousing": 2333,
      "Ġtypes": 2334,
      "ĠOverlay": 2335,
      "Ġappl": 2336,
      "lusive": 2337,
      "ATION": 2338,
      "Ġencour": 2339,
      "Ġgroup": 2340,
      "Family": 2341,
      "Ġmake": 2342,
      "ĠOrd": 2343,
      "Ġfollows": 2344,
      "ÂłĠÂłĠÂłĠÂłĠ": 2345,
      "Ġzoned": 2346,
      "Ġvertical": 2347,
      "ld": 2348,
      "wo": 2349,
      "iction": 2350,
      "Ġhig": 2351,
      "Parking": 2352,
      "Uses": 2353,
      "ping": 2354,
      "sible": 2355,
      "Ġend": 2356,
      "Ġserve": 2357,
      "Ġlan": 2358,
      "ĠInsp": 2359,
      "Ġparticular": 2360,
      "erg": 2361,
      "Ġwood": 2362,
      "200": 2363,
      "When": 2364,
      "ION": 2365,
      "Ġsides": 2366,
      "ertain": 2367,
      "Ġ2012": 2368,
      "Ġpursuant": 2369,
      "Ġcorner": 2370,
      "ĠSu": 2371,
      "Ġplanted": 2372,
      "Ġprep": 2373,
      "Ġinvol": 2374,
      "istoric": 2375,
      "Ġ/": 2376,
      "pervious": 2377,
      "Ġradi": 2378,
      "omin": 2379,
      "ĠBuffer": 2380,
      "lock": 2381,
      "Ġfr": 2382,
      "Ġinten": 2383,
      "Ġremoval": 2384,
      "ches": 2385,
      "Ġpe": 2386,
      "Ġchild": 2387,
      "Ġ................................................................................": 2388,
      "500": 2389,
      "Ġfee": 2390,
      "Ġinstallation": 2391,
      "Ġcloser": 2392,
      "Ġcriteria": 2393,
      "Ġgas": 2394,
      "Ġ2018": 2395,
      "divisions": 2396,
      "Ġnature": 2397,
      "sity": 2398,
      "These": 2399,
      "finitions": 2400,
      "Ġsites": 2401,
      "Ġcompatible": 2402,
      "ĠException": 2403,
      "ential": 2404,
      "Ġbar": 2405,
      "medi": 2406,
      "ANCE": 2407,
      "ĠProvisions": 2408,
      "ats": 2409,
      "ĠWidth": 2410,
      "Ġzones": 2411,
      "ately": 2412,
      "ĠVI": 2413,
      "Ġinterior": 2414,
      "Ġintersection": 2415,
      "Ġhereby": 2416,
      "ĠWater": 2417,
      "Ġsufficient": 2418,
      "ifications": 2419,
      "ĠApproval": 2420,
      "Ġminim": 2421,
      "Ġfreestanding": 2422,
      "ovember": 2423,
      "ehic": 2424,
      "Ġwa": 2425,
      "Ġlet": 2426,
      "IV": 2427,
      "awn": 2428,
      "Ġarr": 2429,
      "Ġflow": 2430,
      "Ġtown": 2431,
      "Ġstory": 2432,
      "Ġgl": 2433,
      "Ġded": 2434,
      "Ġmat": 2435,
      "ÂłĠĠ": 2436,
      "uous": 2437,
      "ĠCenter": 2438,
      "ĠNovember": 2439,
      "ĠZONING": 2440,
      "Ġsystems": 2441,
      "pr": 2442,
      "que": 2443,
      "Ġgiven": 2444,
      "Ġinterest": 2445,
      "Ġmov": 2446,
      "aurant": 2447,
      "Ġdem": 2448,
      "roved": 2449,
      "unication": 2450,
      "uted": 2451,
      "Ġresidence": 2452,
      "Ġdimensions": 2453,
      "echn": 2454,
      "Ġenter": 2455,
      "ĠOpen": 2456,
      "Ġ2011": 2457,
      "hensive": 2458,
      "houses": 2459,
      "Ġarticle": 2460,
      "ĠCare": 2461,
      "Ġexemp": 2462,
      "Ġdetail": 2463,
      "Permitted": 2464,
      "Ġtele": 2465,
      "Ġprofessional": 2466,
      "terial": 2467,
      "ĠLight": 2468,
      "Ġreasonable": 2469,
      "OT": 2470,
      "Ġaccomp": 2471,
      "aff": 2472,
      "Ġconstit": 2473,
      "ĠĠĠĠĠĠĠĠĠĠĠĠĠ": 2474,
      "apter": 2475,
      "ling": 2476,
      "tru": 2477,
      "ĠMay": 2478,
      "ule": 2479,
      "ems": 2480,
      "Ġrecommend": 2481,
      "Ġ2021": 2482,
      "Ġwireless": 2483,
      "Ġmonths": 2484,
      "On": 2485,
      "lines": 2486,
      "Ġwide": 2487,
      "ixture": 2488,
      "60": 2489,
      "OP": 2490,
      "ention": 2491,
      "ĠCUP": 2492,
      "isd": 2493,
      "Ġdriveways": 2494,
      "gan": 2495,
      "room": 2496,
      "Ġaltered": 2497,
      "Ġnoise": 2498,
      "Ġcommission": 2499,
      "Ġowned": 2500,
      "35": 2501,
      "lement": 2502,
      "Ġsetbacks": 2503,
      "Ġcases": 2504,
      "Ġplanning": 2505,
      "Ġcover": 2506,
      "Ġgoods": 2507,
      "DING": 2508,
      "onic": 2509,
      "ĠDivision": 2510,
      "ĠTH": 2511,
      "ĠManagement": 2512,
      "ĠCertificate": 2513,
      "ĠAug": 2514,
      "old": 2515,
      "ĠPlanned": 2516,
      "ves": 2517,
      "Ġestablishments": 2518,
      "lands": 2519,
      "Ġban": 2520,
      "ections": 2521,
      "perty": 2522,
      "Ġintegr": 2523,
      "ĠMulti": 2524,
      "atio": 2525,
      "Ġantennas": 2526,
      "Ġcalc": 2527,
      "Ġhorizontal": 2528,
      "Ġadoption": 2529,
      "ĠLine": 2530,
      "ĠProt": 2531,
      "Ġdiff": 2532,
      "building": 2533,
      "ceptions": 2534,
      "Ġdisc": 2535,
      "ensed": 2536,
      "ĠAugust": 2537,
      "Ġpass": 2538,
      "odes": 2539,
      "Ġhazard": 2540,
      "ming": 2541,
      "Ġi": 2542,
      "Ġcertif": 2543,
      "etail": 2544,
      "Ġcenters": 2545,
      "Ġ150": 2546,
      "aken": 2547,
      "Ġhours": 2548,
      "âĢĵ": 2549,
      "ermine": 2550,
      "ĠNeighborhood": 2551,
      "Ġsidewalks": 2552,
      "anitary": 2553,
      "To": 2554,
      "yond": 2555,
      "Ġing": 2556,
      "ades": 2557,
      "Ġ................................................................................................": 2558,
      "Ġsw": 2559,
      "orpor": 2560,
      "ison": 2561,
      "acts": 2562,
      "Ġdriveway": 2563,
      "Ġpain": 2564,
      "Ġnorm": 2565,
      "ĠSee": 2566,
      "ĠLots": 2567,
      "tising": 2568,
      "Ġpool": 2569,
      "road": 2570,
      "wel": 2571,
      "Ġeasements": 2572,
      "Ġcombination": 2573,
      "FA": 2574,
      "urisd": 2575,
      "ource": 2576,
      "Ordinance": 2577,
      "Ġoccur": 2578,
      "Ġprotect": 2579,
      "Ġdescribed": 2580,
      "Residential": 2581,
      "Ġbody": 2582,
      "Land": 2583,
      "encing": 2584,
      "Ġimmedi": 2585,
      "pretation": 2586,
      "osp": 2587,
      "Ġorgan": 2588,
      "ased": 2589,
      "Ġ75": 2590,
      "Ġneare": 2591,
      "99": 2592,
      "Ġsel": 2593,
      "edical": 2594,
      "ott": 2595,
      "Ġequal": 2596,
      "Ġvisual": 2597,
      "Ġconsistent": 2598,
      "Ġalley": 2599,
      "Ġadministrative": 2600,
      "Ġcurrent": 2601,
      "imeter": 2602,
      "Ġconcrete": 2603,
      "ĠHigh": 2604,
      "Ġappearance": 2605,
      "GU": 2606,
      "quired": 2607,
      "................................................................................": 2608,
      "IGN": 2609,
      "Ġprepared": 2610,
      "Off": 2611,
      "Ġden": 2612,
      "Ġbeyond": 2613,
      "Ġoperations": 2614,
      "ules": 2615,
      "Ġexclusive": 2616,
      "ĠPrincipal": 2617,
      "ĠPre": 2618,
      "Ġstories": 2619,
      "âĢĻ)": 2620,
      "ĠPark": 2621,
      "US": 2622,
      "ically": 2623,
      "ĠFamily": 2624,
      "uplex": 2625,
      "ĠOffice": 2626,
      "Public": 2627,
      "Ġwel": 2628,
      "Ġshops": 2629,
      "try": 2630,
      "Ġev": 2631,
      "Ġapprove": 2632,
      "Al": 2633,
      "Ġsignage": 2634,
      "hod": 2635,
      "ĠImp": 2636,
      "ĠTemporary": 2637,
      "Ġprovides": 2638,
      "Ġdetermine": 2639,
      "Ġlicense": 2640,
      "OD": 2641,
      "me": 2642,
      "Ġwal": 2643,
      "portation": 2644,
      "itle": 2645,
      "ĠMain": 2646,
      "isturb": 2647,
      "Ġplay": 2648,
      "Ġgrant": 2649,
      "Ġelements": 2650,
      "ĠFlood": 2651,
      "ospit": 2652,
      "oned": 2653,
      "icyc": 2654,
      "ĠIN": 2655,
      "Ġdirectly": 2656,
      "Ġbuilt": 2657,
      "hever": 2658,
      "ather": 2659,
      "ĠConstruction": 2660,
      "xim": 2661,
      "Ġplant": 2662,
      "Ġimpact": 2663,
      "ious": 2664,
      "Ġlow": 2665,
      "ĠAt": 2666,
      "ĠTo": 2667,
      "ĠEach": 2668,
      "Ġsupply": 2669,
      "Ġcorpor": 2670,
      "ĠVIII": 2671,
      "urisdiction": 2672,
      "led": 2673,
      "eeee": 2674,
      "Ġamount": 2675,
      "Ġprimarily": 2676,
      "Ġenvironment": 2677,
      "sign": 2678,
      "uary": 2679,
      "Ġaccording": 2680,
      "Ġserved": 2681,
      "ITY": 2682,
      "Signs": 2683,
      "ĠRoad": 2684,
      "CC": 2685,
      "Ġx": 2686,
      "Ġopp": 2687,
      "ĠLo": 2688,
      "aphic": 2689,
      "Ġaccommodate": 2690,
      "GULA": 2691,
      "Ġsafe": 2692,
      "Ġlocations": 2693,
      "Ġsched": 2694,
      "Ġwelfare": 2695,
      "DD": 2696,
      "ging": 2697,
      "Ġfail": 2698,
      "icated": 2699,
      "umb": 2700,
      "Ġphys": 2701,
      "ĠOccupancy": 2702,
      "Ġregard": 2703,
      "ĠDimensional": 2704,
      "Ġpreliminary": 2705,
      "Ġsatis": 2706,
      "However": 2707,
      "Ġcut": 2708,
      "unk": 2709,
      "Ġsecond": 2710,
      "Ġdepth": 2711,
      "pon": 2712,
      "rubs": 2713,
      "ived": 2714,
      "Ġmanufacturing": 2715,
      "Non": 2716,
      "pd": 2717,
      "sure": 2718,
      "Ġintern": 2719,
      "ĠProtection": 2720,
      "Ġnearest": 2721,
      "Ġstations": 2722,
      "pend": 2723,
      "Ġcost": 2724,
      "ĠAss": 2725,
      "ĠORD": 2726,
      "ĠAppeals": 2727,
      "Plan": 2728,
      "Ġordinances": 2729,
      "Ġpossible": 2730,
      "ominium": 2731,
      "roach": 2732,
      "Ġstandard": 2733,
      "resent": 2734,
      "Ġoffices": 2735,
      "Ġcertificate": 2736,
      "allel": 2737,
      "imming": 2738,
      "ARTICLE": 2739,
      "Ġguest": 2740,
      "Ġstructural": 2741,
      "quent": 2742,
      "Ġdevices": 2743,
      "istered": 2744,
      "Ġassociation": 2745,
      ");": 2746,
      "EL": 2747,
      "Ġdisturb": 2748,
      "Ġlimits": 2749,
      "ID": 2750,
      "ience": 2751,
      "Ġiniti": 2752,
      "ĠOther": 2753,
      "Ġsubsection": 2754,
      "Ġapplications": 2755,
      "Ġsoil": 2756,
      "vision": 2757,
      "Ġfill": 2758,
      "Ġrefer": 2759,
      "ĠFacilities": 2760,
      "Ġclearly": 2761,
      "Ġfree": 2762,
      "Ġact": 2763,
      "sub": 2764,
      "tig": 2765,
      "tional": 2766,
      "Ġdiv": 2767,
      "Ġexcess": 2768,
      "Ġbusinesses": 2769,
      "Ġdri": 2770,
      "Ġprocedures": 2771,
      "creening": 2772,
      "ĠREGULA": 2773,
      "Ġreduced": 2774,
      "At": 2775,
      "worth": 2776,
      "ene": 2777,
      "ARD": 2778,
      "39": 2779,
      "Ġbasis": 2780,
      ".âĢĿ": 2781,
      "OW": 2782,
      "Ġ'": 2783,
      "Ġstation": 2784,
      "Ġwhichever": 2785,
      "Ġtruc": 2786,
      "reement": 2787,
      "Ġsupporting": 2788,
      "ĠAcworth": 2789,
      "ins": 2790,
      "Ġeros": 2791,
      "TER": 2792,
      "ĠNone": 2793,
      "Ġaltern": 2794,
      "Ġfloodplain": 2795,
      "Ġcompleted": 2796,
      "Ġfiled": 2797,
      "ĠBe": 2798,
      "rivate": 2799,
      "ĠWhere": 2800,
      "Ġdiffe": 2801,
      "ĠSur": 2802,
      "Ġsurfac": 2803,
      "ĠInspector": 2804,
      "udi": 2805,
      "Ġtelecommunications": 2806,
      "Ġbed": 2807,
      "ised": 2808,
      "acity": 2809,
      "ĠFA": 2810,
      "ĠSupp": 2811,
      "Ġparts": 2812,
      "ources": 2813,
      "Ġerosion": 2814,
      "ban": 2815,
      "Ġfixture": 2816,
      "ock": 2817,
      "Ġnonresidential": 2818,
      "Ch": 2819,
      "Ġmess": 2820,
      "ardship": 2821,
      "agr": 2822,
      "Ġwaste": 2823,
      "ĠLandscaping": 2824,
      "Ġconsideration": 2825,
      "Ġdamage": 2826,
      "atory": 2827,
      "Ġperimeter": 2828,
      "Ġtreat": 2829,
      "Ġelectrical": 2830,
      "Ġalteration": 2831,
      "Ġincorpor": 2832,
      "Ġheld": 2833,
      "Ġaverage": 2834,
      "Ġpen": 2835,
      "Ġpot": 2836,
      "Ġwe": 2837,
      "Ġthoroughfare": 2838,
      "ĠIntent": 2839,
      "Ġdimensional": 2840,
      "Ġgenerally": 2841,
      "**": 2842,
      "Ġmost": 2843,
      "log": 2844,
      "tics": 2845,
      "Ġoperated": 2846,
      "rick": 2847,
      "Ġreplacement": 2848,
      "ested": 2849,
      "uses": 2850,
      "Ġem": 2851,
      "tices": 2852,
      "ĠInter": 2853,
      "including": 2854,
      "ĠServices": 2855,
      "Ġcirculation": 2856,
      "ĠAugusta": 2857,
      "welve": 2858,
      "Ġnotif": 2859,
      "Ġmethod": 2860,
      "Ġblock": 2861,
      "Ġcertain": 2862,
      "ĠDE": 2863,
      "Ġgreen": 2864,
      "ĠORDIN": 2865,
      "ĠREGULATIONS": 2866,
      "Accessory": 2867,
      "Ġinf": 2868,
      "iring": 2869,
      "ĠRecre": 2870,
      "%)": 2871,
      "ĠOutdoor": 2872,
      "Ġcollection": 2873,
      "ĠApplication": 2874,
      "Maximum": 2875,
      "lop": 2876,
      "ediment": 2877,
      "36": 2878,
      "br": 2879,
      "Ġjurisdiction": 2880,
      "ĠSetbacks": 2881,
      "Ġbr": 2882,
      "Ġlarge": 2883,
      "Ġparallel": 2884,
      "Ġfinished": 2885,
      "ĠThis": 2886,
      "Ġlicensed": 2887,
      "Ġrunoff": 2888,
      "Ġdedicated": 2889,
      "Are": 2890,
      "Ġtaken": 2891,
      "lemental": 2892,
      "âĢ¢": 2893,
      "Ġenforcement": 2894,
      "oints": 2895,
      "Ġroads": 2896,
      "Ġrecorded": 2897,
      "General": 2898,
      "rees": 2899,
      "row": 2900,
      "ĠOn": 2901,
      "Ġpersonal": 2902,
      "..............": 2903,
      "Ġfifteen": 2904,
      "Ġcreate": 2905,
      "Ġadverse": 2906,
      "Ġidentified": 2907,
      "ners": 2908,
      "yd": 2909,
      "nder": 2910,
      "ĠSize": 2911,
      "Ġensure": 2912,
      "ealth": 2913,
      "ateg": 2914,
      "ify": 2915,
      "Ġconstru": 2916,
      "Ġinspection": 2917,
      "ĠAct": 2918,
      "ĠIX": 2919,
      "tainment": 2920,
      "Ġdisposal": 2921,
      "Ġtravel": 2922,
      "Ġincrease": 2923,
      "ata": 2924,
      "vered": 2925,
      "ĠII": 2926,
      "ĠUS": 2927,
      "Ġindicated": 2928,
      "):": 2929,
      "Ġsanitary": 2930,
      "Ġaccept": 2931,
      "echan": 2932,
      "Ġconstitute": 2933,
      "such": 2934,
      "ĠïĤ": 2935,
      "Ġtwelve": 2936,
      "onal": 2937,
      "ille": 2938,
      "Ġclean": 2939,
      "Ġmultiple": 2940,
      "Ġilluminated": 2941,
      "Special": 2942,
      "ĠORDINANCE": 2943,
      "Ġfences": 2944,
      "ĠMad": 2945,
      "ablish": 2946,
      "Ġmetal": 2947,
      "Ġconstrued": 2948,
      "Sh": 2949,
      "Ġsee": 2950,
      "ĠMadison": 2951,
      "26": 2952,
      "half": 2953,
      "og": 2954,
      "erk": 2955,
      "Ġforty": 2956,
      "Ġ................................................................................................................": 2957,
      "Ġdetermination": 2958,
      "Ġfurn": 2959,
      "Ġsolid": 2960,
      "Ġrental": 2961,
      "Ġcam": 2962,
      "ĠHill": 2963,
      "ĠVehic": 2964,
      "One": 2965,
      "Ġtake": 2966,
      "ĠUtil": 2967,
      "Ġimpervious": 2968,
      "Ġvalue": 2969,
      "ĠLoading": 2970,
      "ulf": 2971,
      "illb": 2972,
      "Ġdefinition": 2973,
      "prehensive": 2974,
      "IAL": 2975,
      "lot": 2976,
      "Ġpole": 2977,
      "Ġstaff": 2978,
      "stances": 2979,
      "ormwater": 2980,
      "Ġcovered": 2981,
      "ugar": 2982,
      "Ġcodes": 2983,
      "Ġconc": 2984,
      "ĠLocation": 2985,
      "Ġplacement": 2986,
      "Ġresponsible": 2987,
      "Ġbuffers": 2988,
      "ĠSugar": 2989,
      "arden": 2990,
      "ĠAreas": 2991,
      "Ġlarger": 2992,
      "ĠDis": 2993,
      "Ġanimals": 2994,
      "icycle": 2995,
      "Ġorig": 2996,
      "ĠSpaces": 2997,
      "aking": 2998,
      "Ġspecifications": 2999,
      "ext": 3000,
      "ĠFacility": 3001,
      "Ġconflic": 3002,
      "Ġcalcul": 3003,
      "--": 3004,
      "Site": 3005,
      "Ġyears": 3006,
      "Ġrooms": 3007,
      "gress": 3008,
      "...........": 3009,
      "Ġusing": 3010,
      "ĠProcedures": 3011,
      "Ġemployee": 3012,
      "Ġsubstantial": 3013,
      "Ġtan": 3014,
      "ecting": 3015,
      "Ġsurvey": 3016,
      "Ġexempt": 3017,
      "ET": 3018,
      "PP": 3019,
      "Ġpip": 3020,
      "olf": 3021,
      "sequent": 3022,
      "Ġlands": 3023,
      "Ġeng": 3024,
      "Ġminor": 3025,
      "Ġcontinuous": 3026,
      "Ġgarage": 3027,
      "Ġcapacity": 3028,
      "ergency": 3029,
      "fit": 3030,
      "ward": 3031,
      "Ġtechn": 3032,
      "Ġmove": 3033,
      "................................................................................................": 3034,
      "Ġ45": 3035,
      "Ġtopogr": 3036,
      "ÂłÂł": 3037,
      "tructed": 3038,
      "na": 3039,
      "ithin": 3040,
      "ames": 3041,
      "ĠEnforcement": 3042,
      "cons": 3043,
      "win": 3044,
      "where": 3045,
      "Ġdue": 3046,
      "alls": 3047,
      "ĠIII": 3048,
      "Ġpaved": 3049,
      "front": 3050,
      "Ġâ": 3051,
      "ired": 3052,
      "pers": 3053,
      "Ġkn": 3054,
      "Ġregular": 3055,
      "yard": 3056,
      "Ġ................................................": 3057,
      "Ġnurs": 3058,
      "ĠConditional": 3059,
      "embly": 3060,
      "ĠTHE": 3061,
      "Ġfarm": 3062,
      "There": 3063,
      "ĠĠĠĠĠĠĠĠĠĠĠĠ": 3064,
      "cedure": 3065,
      "gether": 3066,
      "Ġprocessing": 3067,
      "ĠMinor": 3068,
      "Ġquality": 3069,
      "Ġminimize": 3070,
      "Ġreduce": 3071,
      "Ġhardship": 3072,
      "ĠDefinitions": 3073,
      "location": 3074,
      "Man": 3075,
      "uel": 3076,
      "Ġorient": 3077,
      "umps": 3078,
      "ĠFeet": 3079,
      "Ġcommunication": 3080,
      "Ġtimes": 3081,
      "Commercial": 3082,
      "ĠPRO": 3083,
      "Ġcourt": 3084,
      "utions": 3085,
      "ditions": 3086,
      "ĠCommunity": 3087,
      "ortable": 3088,
      "ĠConservation": 3089,
      "ones": 3090,
      "tition": 3091,
      "ature": 3092,
      "ets": 3093,
      "ĠMar": 3094,
      "ĠLim": 3095,
      "ISION": 3096,
      "ĠComprehensive": 3097,
      "ĠMayor": 3098,
      "mise": 3099,
      "Ġbre": 3100,
      "ĠMaster": 3101,
      "ape": 3102,
      "Ġvol": 3103,
      "ĠHealth": 3104,
      "Ġitems": 3105,
      "Ġdescription": 3106,
      "Ġfencing": 3107,
      "Ġproceed": 3108,
      "Ġsubsequent": 3109,
      "Ġ2010": 3110,
      "Ġstored": 3111,
      "Ġ120": 3112,
      "idelines": 3113,
      "Ġadvertising": 3114,
      "Ġdirection": 3115,
      "Ġwalk": 3116,
      "foot": 3117,
      "Ġmixed": 3118,
      "Ġstud": 3119,
      "ĠTra": 3120,
      "ĠUnified": 3121,
      "Ġconformity": 3122,
      "Ġlanes": 3123,
      "Ind": 3124,
      "Use": 3125,
      "......": 3126,
      "Ġ21": 3127,
      "Ġ80": 3128,
      "III": 3129,
      "avy": 3130,
      "tiguous": 3131,
      "Ġsignific": 3132,
      "Ġcommunications": 3133,
      "Ġclassification": 3134,
      "ĠPlat": 3135,
      "Ġschools": 3136,
      "ĠAir": 3137,
      "ably": 3138,
      "Ġarterial": 3139,
      "Ġoverall": 3140,
      "...............": 3141,
      "feet": 3142,
      "Ġcross": 3143,
      "acing": 3144,
      "ĠEst": 3145,
      "Ġagent": 3146,
      "Ġcanopy": 3147,
      "Ġintensity": 3148,
      "33": 3149,
      "Ġpoints": 3150,
      "Ġtogether": 3151,
      "Ġroadway": 3152,
      "Ġrepresent": 3153,
      "ĠControl": 3154,
      "lec": 3155,
      "eries": 3156,
      "Ġpoles": 3157,
      "Ġshrubs": 3158,
      "utes": 3159,
      "Ġsubdivisions": 3160,
      "ĠPlans": 3161,
      "ĠâĢ¢": 3162,
      "Ġ[": 3163,
      "Ġfederal": 3164,
      "ĠHomes": 3165,
      "conform": 3166,
      "Ġpromote": 3167,
      "Ġmessage": 3168,
      "agraph": 3169,
      "ĠDrive": 3170,
      "Ġhand": 3171,
      "lished": 3172,
      "Ġexceeding": 3173,
      "ÂłĠÂłĠÂłĠÂł": 3174,
      "Ġdraw": 3175,
      "Ġprotected": 3176,
      ".............": 3177,
      "avement": 3178,
      "Ġinternal": 3179,
      "Ġtreatment": 3180,
      "BLE": 3181,
      "Ġperformance": 3182,
      "ĠFederal": 3183,
      "Ġ300": 3184,
      "ĠSpec": 3185,
      "Ġconnection": 3186,
      "Ġcolor": 3187,
      "âĢ¦âĢ¦âĢ¦âĢ¦": 3188,
      "UIL": 3189,
      "Ġfunction": 3190,
      "loading": 3191,
      "Ġkee": 3192,
      "rban": 3193,
      "Ġnear": 3194,
      "Ġcircum": 3195,
      "Ġextending": 3196,
      "Ġphysical": 3197,
      "Ġdifferent": 3198,
      "aund": 3199,
      "Ġrev": 3200,
      "Ġgrow": 3201,
      "UILDING": 3202,
      "ĠSept": 3203,
      "coh": 3204,
      "ordin": 3205,
      "annel": 3206,
      "urally": 3207,
      "ĠDate": 3208,
      "Ġhistoric": 3209,
      "tention": 3210,
      "Ġedge": 3211,
      "ĠMaintenance": 3212,
      "TED": 3213,
      "Ġop": 3214,
      "..........": 3215,
      "ĠMunicipal": 3216,
      "Ġsuitable": 3217,
      "Ġwindows": 3218,
      "whic": 3219,
      "Ġtion": 3220,
      "rel": 3221,
      "Ġcond": 3222,
      "lud": 3223,
      "ager": 3224,
      "ĠAmendment": 3225,
      "Purpose": 3226,
      "Ġpub": 3227,
      "ĠMajor": 3228,
      "Ġhereafter": 3229,
      "Ġwords": 3230,
      "Ġaccompan": 3231,
      "Ġbrick": 3232,
      "Ġdepartment": 3233,
      "Ġfact": 3234,
      "aterials": 3235,
      "Ġdrawn": 3236,
      "QU": 3237,
      "comm": 3238,
      "Ġslop": 3239,
      "story": 3240,
      "ousand": 3241,
      "Ġmeasures": 3242,
      "Ġemployees": 3243,
      "Ġdocument": 3244,
      "ĠTrans": 3245,
      "echanical": 3246,
      "ĠCour": 3247,
      "Ġcontiguous": 3248,
      "ulture": 3249,
      "nex": 3250,
      "Ġfully": 3251,
      "Ġhigher": 3252,
      "Ġletter": 3253,
      "Side": 3254,
      "andoned": 3255,
      "ĠNot": 3256,
      "Ġgrading": 3257,
      "anged": 3258,
      "ĠOfficer": 3259,
      "Ġexcluding": 3260,
      "town": 3261,
      "Ġlimitations": 3262,
      "Ġextension": 3263,
      "UM": 3264,
      "UN": 3265,
      "ĉĠĠ": 3266,
      "action": 3267,
      "Ġ28": 3268,
      "ife": 3269,
      "ĠFOR": 3270,
      "ĠFinal": 3271,
      "Ġexpress": 3272,
      "urity": 3273,
      "ĠRest": 3274,
      "emeter": 3275,
      "phone": 3276,
      "Said": 3277,
      "âĢĥ": 3278,
      "izes": 3279,
      "Ġenl": 3280,
      "Ins": 3281,
      "IR": 3282,
      "Ġreport": 3283,
      "Ġbeg": 3284,
      "see": 3285,
      "ibr": 3286,
      "Ġdecor": 3287,
      "ĠClerk": 3288,
      "Ġvalid": 3289,
      "Development": 3290,
      "ridor": 3291,
      "Ġpower": 3292,
      "ane": 3293,
      "Ġreference": 3294,
      "ĠĠĠĠĠĠĠĠĠĠĠĠĠĠ": 3295,
      "ift": 3296,
      "Ġdisch": 3297,
      "Ġthereto": 3298,
      "pati": 3299,
      "ĠSubsection": 3300,
      "Ġwriting": 3301,
      "ĠLandscape": 3302,
      "oid": 3303,
      "Ġmunicipal": 3304,
      "Ġ2009": 3305,
      "Ġtoward": 3306,
      "Ġstatement": 3307,
      "Ġpay": 3308,
      "Ġcos": 3309,
      "urch": 3310,
      "Ġ110": 3311,
      "Ġresponsibility": 3312,
      "Ġdistribution": 3313,
      "Ġself": 3314,
      "but": 3315,
      "Ġthousand": 3316,
      "Ġrules": 3317,
      "asonry": 3318,
      "Ġentrances": 3319,
      "Ġelectric": 3320,
      "Ġairport": 3321,
      "Ġelectronic": 3322,
      "Ġchildren": 3323,
      "Ġsurfaces": 3324,
      "Ġtermin": 3325,
      "etached": 3326,
      "ĠSIGN": 3327,
      "law": 3328,
      ".....": 3329,
      "ath": 3330,
      "ĠAg": 3331,
      "odging": 3332,
      "................................................................................................................": 3333,
      "LAN": 3334,
      "Ġapplied": 3335,
      "Am": 3336,
      "Un": 3337,
      "may": 3338,
      "ollution": 3339,
      "ĠSeptember": 3340,
      "29": 3341,
      "az": 3342,
      "Ġstone": 3343,
      "Ġplants": 3344,
      "Ġrecons": 3345,
      "Ġinstit": 3346,
      "Ġlights": 3347,
      "Ġreviewed": 3348,
      "Ġextended": 3349,
      "aurants": 3350,
      "prov": 3351,
      "att": 3352,
      "Ġhouses": 3353,
      "Ġhyd": 3354,
      "Ġinstitutional": 3355,
      "Ġrequested": 3356,
      "Ġamendments": 3357,
      "Ġseparated": 3358,
      "Ġabuts": 3359,
      "MIT": 3360,
      "uis": 3361,
      "Ġcertific": 3362,
      "ari": 3363,
      "ects": 3364,
      "Ġvac": 3365,
      "ĠStorage": 3366,
      "ĠPermits": 3367,
      "Ġsignificant": 3368,
      "BA": 3369,
      "Ġec": 3370,
      "roy": 3371,
      "ĠAccess": 3372,
      "ays": 3373,
      "ĠNorth": 3374,
      "Ġdesignee": 3375,
      "Ġimpacts": 3376,
      "Ġnormal": 3377,
      "Area": 3378,
      "inic": 3379,
      "Ġsome": 3380,
      "itch": 3381,
      "ĠTyp": 3382,
      "Ġkept": 3383,
      "iii": 3384,
      "Ġcertified": 3385,
      "atural": 3386,
      "imary": 3387,
      "ĠFe": 3388,
      "Ġconservation": 3389,
      "Ġ500": 3390,
      "ÂłĠÂłĠÂł": 3391,
      "Ġflag": 3392,
      "Ġpools": 3393,
      "Mobile": 3394,
      "bility": 3395,
      "Ġmaster": 3396,
      "ternal": 3397,
      "Ġencourage": 3398,
      "ĠDr": 3399,
      "atell": 3400,
      "lying": 3401,
      "Ġamen": 3402,
      "Ġhighway": 3403,
      "Ord": 3404,
      "En": 3405,
      "TH": 3406,
      "ked": 3407,
      "Ġcul": 3408,
      "Ġlay": 3409,
      "Ġshopping": 3410,
      "ĠSales": 3411,
      "standing": 3412,
      "ĠUSE": 3413,
      "akes": 3414,
      "ARK": 3415,
      "Ġcircumstances": 3416,
      "45": 3417,
      "Ġcateg": 3418,
      "els": 3419,
      "Ġimprovement": 3420,
      "olly": 3421,
      "Ġdevice": 3422,
      "PD": 3423,
      "Ġagricultural": 3424,
      "Ġpavement": 3425,
      "Ġconvey": 3426,
      "Ġconsum": 3427,
      "Ġthereon": 3428,
      "Ġmeets": 3429,
      "Ġdirec": 3430,
      "ĠImprove": 3431,
      "Ġoriginal": 3432,
      "Ġknown": 3433,
      "Ġtall": 3434,
      "Ġbene": 3435,
      "used": 3436,
      "Ġear": 3437,
      "ĠTown": 3438,
      "Ġcomple": 3439,
      "which": 3440,
      "Ġmasonry": 3441,
      "Ġbecome": 3442,
      "Ġcondominium": 3443,
      "09": 3444,
      "ĠAPP": 3445,
      "ĠGr": 3446,
      "Ġcontains": 3447,
      "Ġissue": 3448,
      "Ġpermanently": 3449,
      "edium": 3450,
      "Ġcharacteris": 3451,
      "Ġmarket": 3452,
      "Ġfoundation": 3453,
      "aphy": 3454,
      "Ġradio": 3455,
      "Ġalternative": 3456,
      "Ġ...": 3457,
      "Ġshel": 3458,
      "Ġsource": 3459,
      "Ġpic": 3460,
      "Ġstated": 3461,
      "Ġproperly": 3462,
      "Ġconformance": 3463,
      "Ġautomobile": 3464,
      "VI": 3465,
      "sh": 3466,
      "Ġrele": 3467,
      "ĠPage": 3468,
      "oline": 3469,
      "ĠIll": 3470,
      "ĠLoc": 3471,
      "Ġexcav": 3472,
      "Ġcounted": 3473,
      "ĠNonconforming": 3474,
      "from": 3475,
      "iper": 3476,
      "itation": 3477,
      "ĠRed": 3478,
      "âĢĶ": 3479,
      "onstr": 3480,
      "ESS": 3481,
      "Ġregistered": 3482,
      "Ġretain": 3483,
      "ett": 3484,
      "ĠAD": 3485,
      "ĠRetail": 3486,
      "ĠMax": 3487,
      "Ġchannel": 3488,
      "Ġleg": 3489,
      "Ġencroach": 3490,
      "Ġrequiring": 3491,
      "MENTS": 3492,
      "Ġcompletion": 3493,
      "Ġ$": 3494,
      "Ġmedical": 3495,
      "Ġproj": 3496,
      "Ġexam": 3497,
      "ĠIt": 3498,
      "Ġcompletely": 3499,
      "Ġfixtures": 3500,
      "atellite": 3501,
      "Ġtable": 3502,
      "alties": 3503,
      "ĠScreening": 3504,
      "ulk": 3505,
      "ĠTwo": 3506,
      "ĠStandard": 3507,
      "ĠGulf": 3508,
      "Ġobj": 3509,
      "Ġsections": 3510,
      "Ġparked": 3511,
      "Ġfees": 3512,
      "Ġindicating": 3513,
      "li": 3514,
      "Ġread": 3515,
      "ĠUrban": 3516,
      "ĠFigure": 3517,
      "ervice": 3518,
      "akf": 3519,
      "Ġapproxim": 3520,
      "Ġreferred": 3521,
      "BL": 3522,
      "FOR": 3523,
      "Sub": 3524,
      "atic": 3525,
      "olog": 3526,
      "Ġfuel": 3527,
      "ĠPER": 3528,
      "uble": 3529,
      "Ġunderground": 3530,
      "Ġcannot": 3531,
      "ĠDwellings": 3532,
      "Ġdemonstr": 3533,
      "Ġtelephone": 3534,
      "Ġrecommendation": 3535,
      "Ġimmediately": 3536,
      "Ġcorporation": 3537,
      "Ġcosts": 3538,
      "Single": 3539,
      "Temporary": 3540,
      "Ġtri": 3541,
      "abil": 3542,
      "Ġfaces": 3543,
      "202": 3544,
      "Ġ................................................................................................................................": 3545,
      "erch": 3546,
      "Ġca": 3547,
      "Ġmax": 3548,
      "oted": 3549,
      "Ġneighbor": 3550,
      "Ġcustomarily": 3551,
      "OMM": 3552,
      "ĠLighting": 3553,
      "ĠUSES": 3554,
      "ĠAirport": 3555,
      ".......": 3556,
      ".........": 3557,
      "partments": 3558,
      "Ġreceip": 3559,
      "ĠFrontage": 3560,
      "otels": 3561,
      "Ġsold": 3562,
      "iles": 3563,
      "Ġonto": 3564,
      "ĠUN": 3565,
      "ĠWhen": 3566,
      "Ġagreement": 3567,
      "Ġregulated": 3568,
      "ĠChapter": 3569,
      "Ġcollector": 3570,
      "________________": 3571,
      "Ġmoved": 3572,
      "erchand": 3573,
      "52": 3574,
      "GE": 3575,
      "Ġri": 3576,
      "hest": 3577,
      "ĠCON": 3578,
      "lowed": 3579,
      "Ġprescri": 3580,
      "Except": 3581,
      "08": 3582,
      "pper": 3583,
      "Ġhol": 3584,
      "Ġprevious": 3585,
      "Ġdecl": 3586,
      "Refer": 3587,
      "applic": 3588,
      "Ġpainted": 3589,
      "Ġpotential": 3590,
      "omas": 3591,
      "ĠRES": 3592,
      "uty": 3593,
      "izing": 3594,
      "INI": 3595,
      "âĢĿ.": 3596,
      "Ġagency": 3597,
      "Ġcenterline": 3598,
      "Ġentity": 3599,
      "Ġswimming": 3600,
      "erchandise": 3601,
      "Ġmember": 3602,
      "âĢľ": 3603,
      "Ġenh": 3604,
      "ival": 3605,
      "development": 3606,
      "Ġoccupations": 3607,
      "Ġkind": 3608,
      "Ġsewage": 3609,
      "Ġsitu": 3610,
      "Ġaccompanied": 3611,
      "Ġes": 3612,
      "Ġstand": 3613,
      "Ġfacade": 3614,
      "Ġassembly": 3615,
      "Ġfirm": 3616,
      "ĠHighway": 3617,
      "Ġneighboring": 3618,
      "Ġce": 3619,
      "Ġillumination": 3620,
      "Ġconflict": 3621,
      "Table": 3622,
      "ville": 3623,
      "Ġproposal": 3624,
      "Ġcompon": 3625,
      "Ġparcels": 3626,
      "IGH": 3627,
      "Ġcred": 3628,
      "Ġadv": 3629,
      "ĠUpd": 3630,
      "pliance": 3631,
      "ustry": 3632,
      "Ġtransportation": 3633,
      "IRE": 3634,
      "hold": 3635,
      "Ġfield": 3636,
      "ental": 3637,
      "Ġdata": 3638,
      "abric": 3639,
      "Ġresul": 3640,
      "Ġimproved": 3641,
      "owner": 3642,
      "Ġsuppl": 3643,
      "Ġwhose": 3644,
      "entral": 3645,
      "Ġaffected": 3646,
      "Ġneighborhoods": 3647,
      "Ġemergency": 3648,
      "ĠUpdated": 3649,
      "Front": 3650,
      "go": 3651,
      "rin": 3652,
      "ļ«": 3653,
      "uman": 3654,
      "Ġrestaurant": 3655,
      "Ġrefl": 3656,
      "Landscap": 3657,
      "ĠVehicle": 3658,
      "Ġâļ«": 3659,
      "Other": 3660,
      "uties": 3661,
      "rect": 3662,
      "ering": 3663,
      "ators": 3664,
      "Ġinde": 3665,
      "Ġmail": 3666,
      "this": 3667,
      "Ġques": 3668,
      "ĠStreets": 3669,
      "Ġdisplayed": 3670,
      "Ġobtained": 3671,
      "Ġglare": 3672,
      "Ġorganization": 3673,
      "Ġcleaning": 3674,
      "AS": 3675,
      "UC": 3676,
      "ables": 3677,
      "ĠBuffers": 3678,
      "Ġmeasure": 3679,
      "Ġtrailer": 3680,
      "Ġarrange": 3681,
      "Ġtownhouse": 3682,
      "ÂłĠĠÂł": 3683,
      "inity": 3684,
      "Ġpolic": 3685,
      "Ġmechanical": 3686,
      "Ġstudi": 3687,
      "ĠOwn": 3688,
      "Ġinch": 3689,
      "area": 3690,
      "ĠGwin": 3691,
      "Ġaccessible": 3692,
      "ope": 3693,
      "ERAL": 3694,
      "Ġ1975": 3695,
      "Ġmatter": 3696,
      "Ġcharacteristics": 3697,
      "Min": 3698,
      "light": 3699,
      "nett": 3700,
      "ĠSE": 3701,
      "Ġdef": 3702,
      "ĠMobile": 3703,
      "paque": 3704,
      "Ġenclos": 3705,
      "IF": 3706,
      "ness": 3707,
      "ues": 3708,
      "quirements": 3709,
      "Ġalcoh": 3710,
      "Ġcoverage": 3711,
      "located": 3712,
      "Ġcarry": 3713,
      "Ġcreated": 3714,
      "olesale": 3715,
      "Ġanimal": 3716,
      "Ġconvenience": 3717,
      "Ġcontract": 3718,
      "Ġregardless": 3719,
      "akfast": 3720,
      "omasville": 3721,
      "31": 3722,
      "Location": 3723,
      "hie": 3724,
      "ystem": 3725,
      "Ġaround": 3726,
      "Ġbond": 3727,
      "arr": 3728,
      "Ġshared": 3729,
      "Ġ26": 3730,
      "Ġattr": 3731,
      "Ġ2022": 3732,
      "Ġ36": 3733,
      "Ġachie": 3734,
      "Ġdetention": 3735,
      "ĠGwinnett": 3736,
      "ret": 3737,
      "ĠDay": 3738,
      "ored": 3739,
      "Ġhear": 3740,
      "ĠGu": 3741,
      "Ġconnected": 3742,
      "Ġcombined": 3743,
      "Ġgarages": 3744,
      "Ġarranged": 3745,
      "TE": 3746,
      "ĠK": 3747,
      "Ġsubdivid": 3748,
      "ĠZones": 3749,
      "ples": 3750,
      "ĠXX": 3751,
      "inue": 3752,
      "ĠSc": 3753,
      "Ġang": 3754,
      "Ġhospit": 3755,
      "ĠIs": 3756,
      "ĠDevelopments": 3757,
      "Ġoccupy": 3758,
      "esting": 3759,
      "estock": 3760,
      "Ġ34": 3761,
      "ivestock": 3762,
      "Ġforms": 3763,
      "Ġaffect": 3764,
      "othing": 3765,
      "Ġengaged": 3766,
      "Ġreceipt": 3767,
      "Home": 3768,
      "oper": 3769,
      "trument": 3770,
      "ĠAuthor": 3771,
      "uto": 3772,
      "ollowing": 3773,
      "Ġdiscre": 3774,
      "Ġ903": 3775,
      "Ġdrain": 3776,
      "Ġaffixed": 3777,
      "Ġexists": 3778,
      "Application": 3779,
      "Ġhighest": 3780,
      "alys": 3781,
      "roup": 3782,
      "uly": 3783,
      "Ġconsisting": 3784,
      "ĠElec": 3785,
      "Ġcoven": 3786,
      "Ġpath": 3787,
      "Ġsatisf": 3788,
      "Ġmovement": 3789,
      "Flo": 3790,
      "eed": 3791,
      "Ġna": 3792,
      "Ġrail": 3793,
      "Ġserving": 3794,
      "Ġoperate": 3795,
      "Ġthroughout": 3796,
      "Ġlonger": 3797,
      "ottage": 3798,
      "pendent": 3799,
      "alysis": 3800,
      "Upon": 3801,
      "utive": 3802,
      "icinity": 3803,
      "Ġmach": 3804,
      "Ġnuis": 3805,
      "ENERAL": 3806,
      "District": 3807,
      "MA": 3808,
      "uments": 3809,
      "Ġopaque": 3810,
      "Ġduplex": 3811,
      "Ġegress": 3812,
      "ĠColl": 3813,
      "ĠPrivate": 3814,
      "Ġparty": 3815,
      "anger": 3816,
      "Ġutilized": 3817,
      "Ġdevoted": 3818,
      "QUIRE": 3819,
      "Ġbegin": 3820,
      "Outdoor": 3821,
      "gate": 3822,
      "public": 3823,
      "onom": 3824,
      "ena": 3825,
      "etlands": 3826,
      "acy": 3827,
      "ĠTO": 3828,
      "Ġ2000": 3829,
      "ĠĠĠĠĠĠĠĠĠĠĠĠĠĠĠĠĠĠ": 3830,
      "2021": 3831,
      "Ġgrass": 3832,
      "gram": 3833,
      "urban": 3834,
      "airman": 3835,
      "Ġdistributed": 3836,
      "Ġbicycle": 3837,
      "ecutive": 3838,
      "ĠSP": 3839,
      "ĠMixed": 3840,
      "verages": 3841,
      "Ġresid": 3842,
      "Ġfacing": 3843,
      "Ġaccep": 3844,
      "Ġchanged": 3845,
      "Ġreceive": 3846,
      "Ġdisturbance": 3847,
      "Ġincorporated": 3848,
      "Ġpublished": 3849,
      "Ġinstitutions": 3850,
      "Page": 3851,
      "URE": 3852,
      "Ġod": 3853,
      "ising": 3854,
      "roll": 3855,
      "Ġlab": 3856,
      "esthe": 3857,
      "ivic": 3858,
      "ancial": 3859,
      "tives": 3860,
      "Ġsole": 3861,
      "ĠYards": 3862,
      "Ġleft": 3863,
      "Ġregulation": 3864,
      "arged": 3865,
      "Ġengineering": 3866,
      "Ġgovernmental": 3867,
      "Ġschedule": 3868,
      "sea": 3869,
      "ĠShores": 3870,
      "Ġsupported": 3871,
      "Ġingress": 3872,
      "Ġopport": 3873,
      "cour": 3874,
      "lin": 3875,
      "ĠPARK": 3876,
      "Ġpertain": 3877,
      "ĠReg": 3878,
      "Required": 3879,
      "ĠInstitutional": 3880,
      "Ġreasonably": 3881,
      "Ġcourts": 3882,
      "green": 3883,
      "Ġsubstantially": 3884,
      "Ġacceptable": 3885,
      "work": 3886,
      "arehouse": 3887,
      "ĠHousing": 3888,
      "ords": 3889,
      "ĠProperty": 3890,
      "walks": 3891,
      "ĠThoroughfare": 3892,
      "helsea": 3893,
      "AD": 3894,
      "alt": 3895,
      "acking": 3896,
      "Ġstat": 3897,
      "ĠĠĠĠĠĠĠĠĠĠĠĠĠĠĠ": 3898,
      "ĠBUILDING": 3899,
      "Ġspecies": 3900,
      "Ġtanks": 3901,
      "commercial": 3902,
      "Ġeconom": 3903,
      "80": 3904,
      "Ġfile": 3905,
      "ĠSystem": 3906,
      "Ġperform": 3907,
      "ĠTrees": 3908,
      "sewhere": 3909,
      "Ġlease": 3910,
      "Ġwaters": 3911,
      "Ġpreserve": 3912,
      "Ġrecords": 3913,
      "ĠĠĠĠĠĠĠĠĠĠĠĠĠĠĠĠĠĠĠĠĠĠĠĠĠĠĠĠĠĠĠĠĠĠĠĠĠĠĠĠĠĠĠĠĠĠĠĠĠĠĠĠĠĠĠĠĠĠĠĠĠĠĠĠ": 3914,
      "Ġboarding": 3915,
      "Manufactured": 3916,
      "Ġoriented": 3917,
      "Ġdiscretion": 3918,
      "ĠĉĠĉĠ": 3919,
      "oring": 3920,
      "Ġdown": 3921,
      "Ġwor": 3922,
      "Ġmerchandise": 3923,
      "ĠChelsea": 3924,
      "ĠBo": 3925,
      "Ġacross": 3926,
      "ĠManufacturing": 3927,
      "Ġneeds": 3928,
      "Ġneeded": 3929,
      "Ġgovernment": 3930,
      "Ġevidence": 3931,
      "Ġtruck": 3932,
      "Buffer": 3933,
      "Within": 3934,
      "Â°": 3935,
      "reestanding": 3936,
      "Ġment": 3937,
      "ĠSuch": 3938,
      "Ġgolf": 3939,
      "ameter": 3940,
      "ĠThere": 3941,
      "Ġrestrictive": 3942,
      "Ġmodified": 3943,
      "Ġentirely": 3944,
      "Ġtrailers": 3945,
      "edimentation": 3946,
      "Ġtopography": 3947,
      "')": 3948,
      "37": 3949,
      "STR": 3950,
      "Ġbillb": 3951,
      "Ġharm": 3952,
      "Ġcompound": 3953,
      "Ġallowable": 3954,
      "tivity": 3955,
      "ĠPerformance": 3956,
      "Ġfinding": 3957,
      "Ġreplaced": 3958,
      "Ġalleys": 3959,
      "Ġglass": 3960,
      "bruary": 3961,
      "ablishment": 3962,
      "oke": 3963,
      "Ġeee": 3964,
      "ander": 3965,
      "Ġoffic": 3966,
      "Ġplantings": 3967,
      "ĠCourt": 3968,
      "Ġlayout": 3969,
      "OF": 3970,
      "ennel": 3971,
      "Ġfabric": 3972,
      "ĠHel": 3973,
      "resses": 3974,
      "ĠProhibited": 3975,
      "Ġwhile": 3976,
      "Ġelevations": 3977,
      "Ġcolum": 3978,
      "Ġstreams": 3979,
      "Ġeffects": 3980,
      "Ġpractices": 3981,
      "Ġpetition": 3982,
      "Figure": 3983,
      "Rec": 3984,
      "ĠSchool": 3985,
      "Ġrequires": 3986,
      "ĠAllowed": 3987,
      "uminated": 3988,
      "Ġconduct": 3989,
      "Additional": 3990,
      "Ġincreased": 3991,
      "Ġentertainment": 3992,
      "Ġsecondary": 3993,
      "Ġ................................": 3994,
      "ars": 3995,
      "Ġoccupants": 3996,
      "ISH": 3997,
      "Ġagain": 3998,
      "ĠClass": 3999,
      "Institutional": 4000,
      "Ġdecorative": 4001,
      "ĠFebruary": 4002,
      "Ġbal": 4003,
      "ansion": 4004,
      "lose": 4005,
      "Ġconver": 4006,
      "ĠLe": 4007,
      "ontinu": 4008,
      "Ġdry": 4009,
      "Ġdivided": 4010,
      "Ġconcer": 4011,
      "junction": 4012,
      "Ġnet": 4013,
      "paration": 4014,
      "Ġportions": 4015,
      "Ġpaving": 4016,
      "Ġvolum": 4017,
      "Dwelling": 4018,
      "ck": 4019,
      "hing": 4020,
      "Ġconforming": 4021,
      "ols": 4022,
      "ĠMaterials": 4023,
      "Ġadult": 4024,
      "Ġpreservation": 4025,
      "Ġways": 4026,
      "lexander": 4027,
      "Ġexclusively": 4028,
      "four": 4029,
      "Â½": 4030,
      "Ġï": 4031,
      "Ġshe": 4032,
      "Ġfore": 4033,
      "Ġproduce": 4034,
      "Ġconcept": 4035,
      "uled": 4036,
      "ĠFire": 4037,
      "Ġimposed": 4038,
      "Ġlinear": 4039,
      "Ġabandoned": 4040,
      "enced": 4041,
      "Ġinstitution": 4042,
      "Ġassign": 4043,
      "That": 4044,
      "orship": 4045,
      "ĠExceptions": 4046,
      "Ġindividuals": 4047,
      "Ġillustr": 4048,
      "ĠDISTRICTS": 4049,
      "Ġlike": 4050,
      "ĠïĤ¢": 4051,
      "Ġquestion": 4052,
      "bing": 4053,
      "ged": 4054,
      "Ġsk": 4055,
      "ĠBre": 4056,
      "endar": 4057,
      "ports": 4058,
      "utomobile": 4059,
      "Conditional": 4060,
      "Ġlane": 4061,
      "ĠSurface": 4062,
      "EET": 4063,
      "fill": 4064,
      "let": 4065,
      "Ġpa": 4066,
      "Ġreal": 4067,
      "Ġbeverages": 4068,
      "Ġnames": 4069,
      "Ġannex": 4070,
      "Ġhab": 4071,
      "Ġconsecutive": 4072,
      "ersonal": 4073,
      "ĠHouse": 4074,
      "ĠStormwater": 4075,
      "Ġsuper": 4076,
      "never": 4077,
      "ĠREQUIRE": 4078,
      "lawful": 4079,
      "150": 4080,
      "Ġawn": 4081,
      "iture": 4082,
      "ĠSo": 4083,
      "ĠCITY": 4084,
      "uration": 4085,
      "uilt": 4086,
      "that": 4087,
      "Ġmanufacture": 4088,
      "Ġinside": 4089,
      "Ġindoor": 4090,
      "ĠAdministrative": 4091,
      "grounds": 4092,
      "Ġbox": 4093,
      "Ġlargest": 4094,
      "related": 4095,
      "full": 4096,
      "hind": 4097,
      "ĠAlexander": 4098,
      "Ġsubmission": 4099,
      "Ġ202": 4100,
      "venty": 4101,
      "ĠShopping": 4102,
      "ief": 4103,
      "Ġcontinued": 4104,
      "70": 4105,
      "CON": 4106,
      "Ġever": 4107,
      "ĠPurpose": 4108,
      "ĠNew": 4109,
      "Ġcontinue": 4110,
      "Ġtransmission": 4111,
      "Ġliqu": 4112,
      "Ġactual": 4113,
      "MP": 4114,
      "ik": 4115,
      "ink": 4116,
      "alv": 4117,
      "Ġthem": 4118,
      "art": 4119,
      "Ġlit": 4120,
      "ĠTitle": 4121,
      "ists": 4122,
      "Ġra": 4123,
      "Ġcounty": 4124,
      "ĠFloor": 4125,
      "ĠAmendments": 4126,
      "IVISION": 4127,
      "90": 4128,
      "lass": 4129,
      "necessary": 4130,
      "Ġshop": 4131,
      "ĠCle": 4132,
      "ires": 4133,
      "Ġinters": 4134,
      "Ġwhole": 4135,
      "Ġflat": 4136,
      "Ġenvironmental": 4137,
      "ĠCorner": 4138,
      "Ġgranting": 4139,
      "IDEN": 4140,
      "Ġindependent": 4141,
      "Open": 4142,
      "iqu": 4143,
      "Ġaesthe": 4144,
      "ero": 4145,
      "Ġpost": 4146,
      "Ġlaund": 4147,
      "ĠAgricultural": 4148,
      "Ġexceptions": 4149,
      "Ġincom": 4150,
      "Ġactions": 4151,
      "aging": 4152,
      "Ġremove": 4153,
      "Ġcalendar": 4154,
      "ĠHelena": 4155,
      ",âĢĿ": 4156,
      "ring": 4157,
      "ĠSections": 4158,
      "Ġ32": 4159,
      "Ġrow": 4160,
      "opies": 4161,
      "incip": 4162,
      "Ġseats": 4163,
      "earing": 4164,
      "Ġclub": 4165,
      "venue": 4166,
      "Ġelsewhere": 4167,
      "Ġrespect": 4168,
      "ashing": 4169,
      "Ġinvolved": 4170,
      "ogn": 4171,
      "Ġstudy": 4172,
      "Industrial": 4173,
      "Ġconsumption": 4174,
      "ĠImprovements": 4175,
      "Ġexcavation": 4176,
      "Ġsupplies": 4177,
      "As": 4178,
      "xt": 4179,
      "ĠFort": 4180,
      "Ġ90": 4181,
      "Ġproduct": 4182,
      "azard": 4183,
      "no": 4184,
      "structure": 4185,
      "Ġsus": 4186,
      "tim": 4187,
      "ĠCover": 4188,
      "Ġcompany": 4189,
      "ĠProject": 4190,
      "Ġcarri": 4191,
      "UL": 4192,
      "ok": 4193,
      "yards": 4194,
      "ĠĠÂł": 4195,
      "itate": 4196,
      "rosion": 4197,
      "ĠPen": 4198,
      "Ġgo": 4199,
      "ĠInc": 4200,
      "Ġunderlying": 4201,
      "ĠParks": 4202,
      "Ġequival": 4203,
      "Ġoverlay": 4204,
      "Ġsixty": 4205,
      "58": 4206,
      "icing": 4207,
      "Ġvicinity": 4208,
      "Ġnext": 4209,
      "Ġinterpretation": 4210,
      "premise": 4211,
      "Ġvisibility": 4212,
      "Ġdischarge": 4213,
      "ĠPERMIT": 4214,
      "Ġaccepted": 4215,
      "Ro": 4216,
      "Ġpitch": 4217,
      "ĠOR": 4218,
      "ĠBound": 4219,
      "istance": 4220,
      "TIAL": 4221,
      "Ġ70": 4222,
      "Ġseven": 4223,
      "Ġoccupant": 4224,
      "139": 4225,
      "Ġload": 4226,
      "Ġcourses": 4227,
      "Ġlaws": 4228,
      "BD": 4229,
      "alu": 4230,
      "aled": 4231,
      "alid": 4232,
      "Ġbehind": 4233,
      "igious": 4234,
      "Ġstee": 4235,
      "Ġgarden": 4236,
      "Ġdeed": 4237,
      "ĠTowers": 4238,
      "griculture": 4239,
      "Permit": 4240,
      "ĠMultiple": 4241,
      "ĠCollector": 4242,
      "Ġshape": 4243,
      "urance": 4244,
      "Ġ250": 4245,
      "Ġsty": 4246,
      "Ġtrash": 4247,
      "ointed": 4248,
      "Ġtransfer": 4249,
      "Ġprojects": 4250,
      "Ġ199": 4251,
      "Ġbuild": 4252,
      "pril": 4253,
      "ĠRecreation": 4254,
      "Ġenlarged": 4255,
      "Height": 4256,
      "ially": 4257,
      "occup": 4258,
      "year": 4259,
      "reen": 4260,
      "arant": 4261,
      "access": 4262,
      "urther": 4263,
      "ĠMH": 4264,
      "ĠFood": 4265,
      "ĠRepair": 4266,
      "Ġcompr": 4267,
      "Ġporches": 4268,
      "ĠThat": 4269,
      "Ġentry": 4270,
      "Ġguidelines": 4271,
      "Ġmodifications": 4272,
      "Ġfiling": 4273,
      "Ġdamaged": 4274,
      "Ġbarri": 4275,
      "Ġslope": 4276,
      "Ġamenities": 4277,
      "ĠLocal": 4278,
      "Ġprescribed": 4279,
      "Ġcolumns": 4280,
      "Code": 4281,
      "ister": 4282,
      "leep": 4283,
      "ucco": 4284,
      "Ġislands": 4285,
      "ĠHistoric": 4286,
      "................................................................................................................................": 4287,
      "fined": 4288,
      "Ġprojecting": 4289,
      "Ġrestricted": 4290,
      "Ġmaps": 4291,
      "Ġdiameter": 4292,
      "ĠCorridor": 4293,
      "umbers": 4294,
      "Ġmethods": 4295,
      "VEL": 4296,
      "oding": 4297,
      "ĠOp": 4298,
      "Ġdeline": 4299,
      "rior": 4300,
      "Ġchurch": 4301,
      "aves": 4302,
      "Ġmodification": 4303,
      "Ġtelevision": 4304,
      "Ġcovenants": 4305,
      "Ġequivalent": 4306,
      "Cons": 4307,
      "inion": 4308,
      "Ġpond": 4309,
      "Ġfun": 4310,
      "Ġ112": 4311,
      "une": 4312,
      "Ġreserved": 4313,
      "END": 4314,
      "erms": 4315,
      "premises": 4316,
      "ĠThomasville": 4317,
      "Ġidentification": 4318,
      "Ġpattern": 4319,
      "Ġoppos": 4320,
      "Ġdrawings": 4321,
      "rinted": 4322,
      "rolled": 4323,
      ")(": 4324,
      "iol": 4325,
      "mb": 4326,
      "tached": 4327,
      "Ġsiding": 4328,
      "Ġ27": 4329,
      "uburn": 4330,
      "Ġsigned": 4331,
      "Ġchapter": 4332,
      "Ġseventy": 4333,
      "Ġreprinted": 4334,
      "ĠAssoci": 4335,
      "Ġguests": 4336,
      "ĠRecreational": 4337,
      "Ġtaller": 4338,
      "Ġriver": 4339,
      "fully": 4340,
      "ABLE": 4341,
      "fl": 4342,
      "plan": 4343,
      "ĠCal": 4344,
      "ĠNational": 4345,
      "Ġplaces": 4346,
      "Ġdoors": 4347,
      "Ġindustry": 4348,
      "ĠConcept": 4349,
      "exc": 4350,
      "ĠAdministration": 4351,
      "Ġreceived": 4352,
      "Ġevents": 4353,
      "Ġclassified": 4354,
      "Definitions": 4355,
      "IDENTIAL": 4356,
      "leeping": 4357,
      "Ġapartment": 4358,
      "Ġtitle": 4359,
      "oration": 4360,
      "Ġcommonly": 4361,
      "Ġregarding": 4362,
      "Ġencouraged": 4363,
      "Ġmoving": 4364,
      "Ġimmediate": 4365,
      "Ġresidences": 4366,
      "oards": 4367,
      "sac": 4368,
      "time": 4369,
      "Ġpowers": 4370,
      "ĠCenters": 4371,
      "ĠPres": 4372,
      "Ġ111": 4373,
      "Ġhuman": 4374,
      "encies": 4375,
      "Ġinterfe": 4376,
      "ĠNotice": 4377,
      "Ġtenant": 4378,
      "Ġsecurity": 4379,
      "Ġeduc": 4380,
      "Ġsatisfac": 4381,
      "Ġpipe": 4382,
      "Ġgrowth": 4383,
      "Ġcategory": 4384,
      "IGHT": 4385,
      "Ġsatellite": 4386,
      "Ġdivision": 4387,
      "Ġprogram": 4388,
      "Ġann": 4389,
      "ĠRiver": 4390,
      "ĠNumber": 4391,
      "Ġplane": 4392,
      "Ġfronting": 4393,
      "Ġrecogn": 4394,
      "paper": 4395,
      "Ġposted": 4396,
      "Ġletters": 4397,
      "ĠUtility": 4398,
      "Ġopinion": 4399,
      "Ġnuisance": 4400,
      "Ġagainst": 4401,
      "Ġwee": 4402,
      "Ġlife": 4403,
      "Ġparti": 4404,
      "ifying": 4405,
      "Ġunlawful": 4406,
      "sel": 4407,
      "Ġhaz": 4408,
      "Ġremed": 4409,
      "anges": 4410,
      "Ġpercentage": 4411,
      "Ġfootage": 4412,
      "Ġaddresses": 4413,
      "Ġcourse": 4414,
      "Ġlawful": 4415,
      "raft": 4416,
      "ĠPrimary": 4417,
      "nis": 4418,
      "itc": 4419,
      "ĠSU": 4420,
      "ĠCol": 4421,
      "ĠAuburn": 4422,
      "ĠDec": 4423,
      "ĠMod": 4424,
      "Ġresources": 4425,
      "ĠUPD": 4426,
      "Ġ33": 4427,
      "ĠSubdivisions": 4428,
      "ishing": 4429,
      "Ġconvenient": 4430,
      "Ġdetailed": 4431,
      "isturbing": 4432,
      "ĠAuthority": 4433,
      "VELOP": 4434,
      "Ġhazards": 4435,
      "Rear": 4436,
      "ique": 4437,
      "oking": 4438,
      "Ġais": 4439,
      "ariance": 4440,
      "tration": 4441,
      "Ġnumbers": 4442,
      "unities": 4443,
      "Ġappointed": 4444,
      "Ġexpen": 4445,
      "Ġparagraph": 4446,
      "Ġimplement": 4447,
      "ĠProfessional": 4448,
      "eterin": 4449,
      "property": 4450,
      "Ġcompatibility": 4451,
      "Ġrefuse": 4452,
      "Ġwalkways": 4453,
      "Multi": 4454,
      "Ġax": 4455,
      "Ġter": 4456,
      "Ġsizes": 4457,
      "Ġtheater": 4458,
      "Ġwind": 4459,
      "Ġgive": 4460,
      "ums": 4461,
      "Ġwholly": 4462,
      "ĠExisting": 4463,
      "Ġroadways": 4464,
      "Ġwere": 4465,
      "Ġkeeping": 4466,
      "Ġdeclared": 4467,
      "ah": 4468,
      "day": 4469,
      "otion": 4470,
      "otive": 4471,
      "anopy": 4472,
      "Ġche": 4473,
      "atest": 4474,
      "ete": 4475,
      "Ġhold": 4476,
      "iration": 4477,
      "Ġattention": 4478,
      "ewer": 4479,
      "Ġ400": 4480,
      "acks": 4481,
      "Ġexpansion": 4482,
      "ÂłĠÂłĠĠÂł": 4483,
      "Ġcolors": 4484,
      "vironmental": 4485,
      "Ġradius": 4486,
      "Ġscheduled": 4487,
      "ĠAssociation": 4488,
      "Tr": 4489,
      "derm": 4490,
      "Ġrender": 4491,
      "ĠSTA": 4492,
      "ĠAs": 4493,
      "ĠĠĠĠĠĠĠĠĠĠĠĠĠĠĠĠĠĠĠĠĠ": 4494,
      "Intent": 4495,
      "Ġdouble": 4496,
      "Ġrelation": 4497,
      "except": 4498,
      "Ġintersections": 4499,
      "Ġcredit": 4500,
      "dermen": 4501,
      "com": 4502,
      "quipment": 4503,
      "ationship": 4504,
      "through": 4505,
      "Ġtherein": 4506,
      "ĠAppeal": 4507,
      "ĠManager": 4508,
      "Ġacreage": 4509,
      "phalt": 4510,
      "Ġhazardous": 4511,
      "Ġnormally": 4512,
      "Ġtrucks": 4513,
      "AGE": 4514,
      "wood": 4515,
      "ĠSquare": 4516,
      "ireless": 4517,
      "ĠROW": 4518,
      "term": 4519,
      "Ġheavy": 4520,
      "Ġestate": 4521,
      "Ġcontainers": 4522,
      "Ġgrounds": 4523,
      "Ġreceiving": 4524,
      "Ġnotification": 4525,
      "ariances": 4526,
      "Ġpreviously": 4527,
      "Ġenhance": 4528,
      "Tree": 4529,
      "Ġlower": 4530,
      "iling": 4531,
      "ĠRight": 4532,
      "ĠMA": 4533,
      "ĠNatural": 4534,
      "Ġadmin": 4535,
      "irable": 4536,
      "Ġfacades": 4537,
      "Ġprincip": 4538,
      "ĠManual": 4539,
      "chitectural": 4540,
      "enerally": 4541,
      "isturbed": 4542,
      "Ġrailroad": 4543,
      "Ġevergreen": 4544,
      "two": 4545,
      "Ġess": 4546,
      "Ġir": 4547,
      "Ġtax": 4548,
      "Ġshift": 4549,
      "oli": 4550,
      "Ġtrade": 4551,
      "ensation": 4552,
      "Ġheights": 4553,
      "Ġsupplemental": 4554,
      "Ġsymb": 4555,
      "ĠEngineering": 4556,
      "Ġstructurally": 4557,
      "application": 4558,
      "VE": 4559,
      "eric": 4560,
      "eration": 4561,
      "Ġcemeter": 4562,
      "acted": 4563,
      "Ġhalf": 4564,
      "Ġdead": 4565,
      "aining": 4566,
      "dix": 4567,
      "elik": 4568,
      "Ġflooding": 4569,
      "Ġapproach": 4570,
      "ĠAldermen": 4571,
      "Ġdetermining": 4572,
      "Ġclearing": 4573,
      "Ġindicate": 4574,
      "grees": 4575,
      "ordinate": 4576,
      "Ġdirected": 4577,
      "ĠElectr": 4578,
      "Ġaesthetic": 4579,
      "elika": 4580,
      "DE": 4581,
      "VIII": 4582,
      "bage": 4583,
      "henever": 4584,
      "endix": 4585,
      "Ġpropos": 4586,
      "Ġstucco": 4587,
      "illage": 4588,
      "Ġservicing": 4589,
      "Ġinstrument": 4590,
      "Ġassess": 4591,
      "Existing": 4592,
      "Ġadverti": 4593,
      "ĠUtilities": 4594,
      "Ġcalculated": 4595,
      "FORM": 4596,
      "ĠPARKING": 4597,
      "Pr": 4598,
      "evelopment": 4599,
      "Ġfind": 4600,
      "isa": 4601,
      "Ġlater": 4602,
      "imal": 4603,
      "Ġconjunction": 4604,
      "Ġexternal": 4605,
      "Ġparties": 4606,
      "Ġunloading": 4607,
      "ĠGLA": 4608,
      "ĠAdditional": 4609,
      "Ġdoor": 4610,
      "Ġpedestrians": 4611,
      "Ġfailure": 4612,
      "Ġcertification": 4613,
      "ĠIssu": 4614,
      "Light": 4615,
      "ĠĠĉĠ": 4616,
      "Ġportable": 4617,
      "Ġbl": 4618,
      "orne": 4619,
      "ĠShall": 4620,
      "Ġvote": 4621,
      "ĠOrdinances": 4622,
      "Ġrange": 4623,
      "Ġclinic": 4624,
      "Ġtransmit": 4625,
      "Ġquar": 4626,
      "edestrian": 4627,
      "REA": 4628,
      "Ġevalu": 4629,
      "ĠREQUIREMENTS": 4630,
      "ĠOpelika": 4631,
      "TOR": 4632,
      "Ġsleeping": 4633,
      "ony": 4634,
      "Ġshort": 4635,
      "Ġprocedure": 4636,
      "Ġanalysis": 4637,
      "ula": 4638,
      "ĠBan": 4639,
      "state": 4640,
      "iform": 4641,
      "ĠTelecommunications": 4642,
      "hibit": 4643,
      "Ġcouncil": 4644,
      "Ġadministrator": 4645,
      "Ġvarious": 4646,
      "Ġtrails": 4647,
      "Ġconventional": 4648,
      "Ġadversely": 4649,
      "ĠRestaurant": 4650,
      "retary": 4651,
      "CH": 4652,
      "HOP": 4653,
      "MIN": 4654,
      "OU": 4655,
      "ĠQ": 4656,
      "Ġpan": 4657,
      "itations": 4658,
      "Ġceas": 4659,
      "Ġnorth": 4660,
      "ĠPLAN": 4661,
      "ĠRS": 4662,
      "ions": 4663,
      "Ġdegrees": 4664,
      "permitted": 4665,
      "verse": 4666,
      "emi": 4667,
      "Ġunnecessary": 4668,
      "Ġratio": 4669,
      "Ġnews": 4670,
      "Ġerection": 4671,
      "tructural": 4672,
      "Ġcopies": 4673,
      "Ġfails": 4674,
      "pdf": 4675,
      "ĠDrainage": 4676,
      "pace": 4677,
      "¿½": 4678,
      "Ġcall": 4679,
      "arage": 4680,
      "Ġwarr": 4681,
      "Ġlodging": 4682,
      "ĠSe": 4683,
      "ĠAG": 4684,
      "ĠLast": 4685,
      "lude": 4686,
      "ĠHe": 4687,
      "ĠHazard": 4688,
      "Ġdesignation": 4689,
      "ĠIntern": 4690,
      "Ġobject": 4691,
      "Ġelimin": 4692,
      "ĠConven": 4693,
      "Ġbecause": 4694,
      "Ġinvolving": 4695,
      "Ġwaived": 4696,
      "patible": 4697,
      "Ġshelter": 4698,
      "Ġinterfere": 4699,
      "built": 4700,
      "Ġturn": 4701,
      "ĠĠĉĠĉĠ": 4702,
      "Ġsum": 4703,
      "Ġbon": 4704,
      "Ġclose": 4705,
      "Ġdanger": 4706,
      "ĠCOMM": 4707,
      "Ġhard": 4708,
      "ĠFl": 4709,
      "owners": 4710,
      "Ġart": 4711,
      "Ġwholesale": 4712,
      "Ġcorrec": 4713,
      "Ġpreserved": 4714,
      "Ġappeals": 4715,
      "ĠCompliance": 4716,
      "Ġautomatic": 4717,
      "rooms": 4718,
      "Ġpassage": 4719,
      "Ġdrives": 4720,
      "Ġproceedings": 4721,
      "Ġnearby": 4722,
      "Ġearth": 4723,
      "VELOPMENT": 4724,
      "mpervious": 4725,
      "ital": 4726,
      "ĠNurs": 4727,
      "Ġpreparation": 4728,
      "enspace": 4729,
      "Ġopenings": 4730,
      "aving": 4731,
      "Ġreduction": 4732,
      "subject": 4733,
      "aneous": 4734,
      "Drive": 4735,
      "Su": 4736,
      "afety": 4737,
      "pet": 4738,
      "yl": 4739,
      "ĠĉĠ": 4740,
      "Ġdin": 4741,
      "active": 4742,
      "veloped": 4743,
      "Ġabs": 4744,
      "Ġroofs": 4745,
      "ĠAdjacent": 4746,
      "Ġlevels": 4747,
      "ĠJan": 4748,
      "Ġfeature": 4749,
      "Ġavoid": 4750,
      "ĠOccupations": 4751,
      "Ġvariances": 4752,
      "Ġgasoline": 4753,
      "ÂłĠĠÂłĠÂłĠĠÂł": 4754,
      "Recre": 4755,
      "disturbing": 4756,
      "ptic": 4757,
      "ĠRel": 4758,
      "Ġimpose": 4759,
      "ĠExcept": 4760,
      "ĠAntenn": 4761,
      "ĠTraffic": 4762,
      "ĠTransportation": 4763,
      "38": 4764,
      "44": 4765,
      "Design": 4766,
      "SION": 4767,
      "ms": 4768,
      "Ġpollution": 4769,
      "Ġbulk": 4770,
      "gular": 4771,
      "State": 4772,
      "Ġidentify": 4773,
      "Administr": 4774,
      "Ġhousehold": 4775,
      "gregate": 4776,
      "Ġrecommendations": 4777,
      "entioned": 4778,
      "Ġdenial": 4779,
      "Further": 4780,
      "Private": 4781,
      "tin": 4782,
      "ĠPh": 4783,
      "Ġnoted": 4784,
      "ĠFair": 4785,
      "ĠLow": 4786,
      "Ġcooking": 4787,
      "Inter": 4788,
      "âĢĿ,": 4789,
      "Ġupper": 4790,
      "Ġoperator": 4791,
      "trictions": 4792,
      "Ġconnections": 4793,
      "ĠPreliminary": 4794,
      "Ġenclosure": 4795,
      "AND": 4796,
      "ATIONS": 4797,
      "PUD": 4798,
      "Ġaway": 4799,
      "int": 4800,
      "Ġinj": 4801,
      "ĠWall": 4802,
      "Ġdecide": 4803,
      "locks": 4804,
      "ĠChairman": 4805,
      "Buildings": 4806,
      "Ġinvalid": 4807,
      "Ġaccommodations": 4808,
      "Ġvariety": 4809,
      "umbing": 4810,
      "Ġexcessive": 4811,
      "ludes": 4812,
      "ĠTownhouse": 4813,
      "Access": 4814,
      "FINI": 4815,
      "Not": 4816,
      "housing": 4817,
      "Ġsight": 4818,
      "Ġdust": 4819,
      "Ġshield": 4820,
      "ĠCRD": 4821,
      "ĠAM": 4822,
      "Ġvibr": 4823,
      "Ġundisturbed": 4824,
      "Ġseptic": 4825,
      "Ġmini": 4826,
      "Regulations": 4827,
      "Ġplats": 4828,
      "Ġphase": 4829,
      "Ġcaliper": 4830,
      "Ġpatr": 4831,
      "orestry": 4832,
      "OME": 4833,
      "Ġdocumentation": 4834,
      "STREET": 4835,
      "Ġofficer": 4836,
      "May": 4837,
      "SP": 4838,
      "TUR": 4839,
      "gree": 4840,
      "atch": 4841,
      "Ġresol": 4842,
      "Ġunc": 4843,
      "Ġfacilitate": 4844,
      "TIES": 4845,
      "angle": 4846,
      "Ġ137": 4847,
      "Ġrepairs": 4848,
      "profit": 4849,
      "Ġnursing": 4850,
      "Ġrepresentative": 4851,
      "BLISH": 4852,
      "ĠRESIDENTIAL": 4853,
      "ĠCoverage": 4854,
      "ĠJanuary": 4855,
      "Vehic": 4856,
      "itive": 4857,
      "escri": 4858,
      "Ġfeas": 4859,
      "rop": 4860,
      "Ġmul": 4861,
      "TIN": 4862,
      "Ġ1002": 4863,
      "Ġjoint": 4864,
      "Ġmonument": 4865,
      "Ġpractic": 4866,
      "Ġwaiver": 4867,
      "Ġarrangement": 4868,
      "Ġ#": 4869,
      "Ġ................": 4870,
      "Ġorna": 4871,
      "ĠCar": 4872,
      "ĠAL": 4873,
      "Ġhotel": 4874,
      "Ġrestr": 4875,
      "ĠErosion": 4876,
      "ERV": 4877,
      "Ġcorn": 4878,
      "TABLISH": 4879,
      "Ġremaining": 4880,
      "Ġalcoholic": 4881,
      "eterinary": 4882,
      "Prov": 4883,
      "made": 4884,
      "Ġage": 4885,
      "arehousing": 4886,
      "ĠLisa": 4887,
      "apet": 4888,
      "Ġ65": 4889,
      "Ġnonconform": 4890,
      "ĠEnvironmental": 4891,
      "ĠUnited": 4892,
      "Ġlimitation": 4893,
      "Ġsmoke": 4894,
      "Only": 4895,
      "Ġcorporate": 4896,
      "Amended": 4897,
      "Ġstyle": 4898,
      "Rest": 4899,
      "een": 4900,
      "ick": 4901,
      "Ġdone": 4902,
      "Ġlivestock": 4903,
      "Ġappur": 4904,
      "Ġexerc": 4905,
      "ained": 4906,
      "ĠStores": 4907,
      "enclosed": 4908,
      "Ġwidths": 4909,
      "Ġfinancial": 4910,
      "Ġcontrib": 4911,
      "ĠPreservation": 4912,
      "Pre": 4913,
      "more": 4914,
      "era": 4915,
      "orts": 4916,
      "Ġnight": 4917,
      "quency": 4918,
      "Ġspacing": 4919,
      "Ġhed": 4920,
      "Ġunique": 4921,
      "ĠĠĠĠĠĠĠĠĠĠĠĠĠĠĠĠĠĠĠĠ": 4922,
      "Ġpurch": 4923,
      "Ġpriv": 4924,
      "Exam": 4925,
      "Ġframe": 4926,
      "Ġintegral": 4927,
      "ĠInterpretation": 4928,
      "luded": 4929,
      "going": 4930,
      "FINITIONS": 4931,
      "Board": 4932,
      "PO": 4933,
      "mall": 4934,
      "Ġsti": 4935,
      "Ġbur": 4936,
      "Ġbest": 4937,
      "vehic": 4938,
      "asing": 4939,
      "ĠDown": 4940,
      "Ġusable": 4941,
      "lank": 4942,
      "storage": 4943,
      "Ġsubordinate": 4944,
      "aded": 4945,
      "Ġcompensation": 4946,
      "ĠCommon": 4947,
      "viation": 4948,
      "Ġoperating": 4949,
      "Ġtypically": 4950,
      "Requirements": 4951,
      "Ġdetails": 4952,
      "Ġsituated": 4953,
      "Ġcomponents": 4954,
      "Ġachieve": 4955,
      "Â°)": 4956,
      "Ġweek": 4957,
      "MIL": 4958,
      "Way": 4959,
      "auty": 4960,
      "wimming": 4961,
      "Ġtur": 4962,
      "Ġseas": 4963,
      "anish": 4964,
      "Ġefficient": 4965,
      "ĠCOD": 4966,
      "umer": 4967,
      "uting": 4968,
      "tertainment": 4969,
      "ĠLO": 4970,
      "Ġ31": 4971,
      "ĠGFA": 4972,
      "ĠAdd": 4973,
      "Ġexceeds": 4974,
      "oultry": 4975,
      "Ġjunk": 4976,
      "Ġgoverning": 4977,
      "Ġsmaller": 4978,
      "Ġangle": 4979,
      "required": 4980,
      "Ġsent": 4981,
      "Ġpatio": 4982,
      "Ġmand": 4983,
      "Ġreferen": 4984,
      "Ġnecess": 4985,
      "ĠAvenue": 4986,
      "Ġforward": 4987,
      "Ġstep": 4988,
      "ĠRM": 4989,
      "ĠRem": 4990,
      "ump": 4991,
      "ĠFarm": 4992,
      "ĠTND": 4993,
      "aren": 4994,
      "ership": 4995,
      "Ġoffered": 4996,
      "ives": 4997,
      "placement": 4998,
      "Ġarc": 4999,
      "paired": 5000,
      "ĠUnion": 5001,
      "Ġjud": 5002,
      "Ġadded": 5003,
      "Ġmodify": 5004,
      "Ġrunway": 5005,
      "ARDS": 5006,
      "ĠNorthport": 5007,
      "ĠType": 5008,
      "Ġcarried": 5009,
      "Ġessential": 5010,
      "72": 5011,
      "district": 5012,
      "inery": 5013,
      "Ġflex": 5014,
      "ĠCore": 5015,
      "amps": 5016,
      "position": 5017,
      "Ġpermitting": 5018,
      "ĠStates": 5019,
      "tifamily": 5020,
      "Ġartif": 5021,
      "usement": 5022,
      "Standards": 5023,
      "ĠOFF": 5024,
      "ĠOccupation": 5025,
      "ĠUnits": 5026,
      "Ġapproximately": 5027,
      "Ġresulting": 5028,
      "Ġhospital": 5029,
      "Flood": 5030,
      "Ġincompatible": 5031,
      "Ġponds": 5032,
      "IM": 5033,
      "Setback": 5034,
      "ras": 5035,
      "service": 5036,
      "Ġsl": 5037,
      "Ġfav": 5038,
      "Ġda": 5039,
      "Ġlist": 5040,
      "Ġanch": 5041,
      "ĠDetached": 5042,
      "Ġstay": 5043,
      "ĠBed": 5044,
      "Ġunob": 5045,
      "ĠPlanner": 5046,
      "Ġplot": 5047,
      "ĠGENERAL": 5048,
      "Ġdisapp": 5049,
      "supp": 5050,
      "Ġwhat": 5051,
      "Ġrelationship": 5052,
      "Ġclearance": 5053,
      "Ġdocuments": 5054,
      "ĠPROV": 5055,
      "tee": 5056,
      "Ġtext": 5057,
      "orting": 5058,
      "icular": 5059,
      "Ġwetlands": 5060,
      "otal": 5061,
      "pped": 5062,
      "Ġstating": 5063,
      "Ġrather": 5064,
      "Ġdesirable": 5065,
      "Ġcompre": 5066,
      "Ġactive": 5067,
      "parking": 5068,
      "agn": 5069,
      "Ġdetri": 5070,
      "Ġoutlin": 5071,
      "Ġreligious": 5072,
      "Storage": 5073,
      "Ġelement": 5074,
      "Ġrestaurants": 5075,
      "ĠRoof": 5076,
      "Ġcontrary": 5077,
      "999": 5078,
      "Ġinitiated": 5079,
      "Ġexpressly": 5080,
      "ĠRedevelopment": 5081,
      "Landscaping": 5082,
      "Ġbeginning": 5083,
      "Ġadvertise": 5084,
      "Ar": 5085,
      "Be": 5086,
      "Structure": 5087,
      "Ġduties": 5088,
      "uster": 5089,
      "ĠAREA": 5090,
      "urety": 5091,
      "Ġusually": 5092,
      "ries": 5093,
      "Ġ51": 5094,
      "rticles": 5095,
      "Ġphr": 5096,
      "Approval": 5097,
      "Reserved": 5098,
      "Ġsolely": 5099,
      "Ġvolume": 5100,
      "Ġnewspaper": 5101,
      "ĠInternational": 5102,
      "MILY": 5103,
      "Ġcomprehensive": 5104,
      "Agricultural": 5105,
      "BER": 5106,
      "ware": 5107,
      "Ġpage": 5108,
      "Ġbott": 5109,
      "Ġfixed": 5110,
      "Ġrepaired": 5111,
      "ĠAutomobile": 5112,
      "ĠDIVISION": 5113,
      "Ġasphalt": 5114,
      "Ġexposed": 5115,
      "Ġprec": 5116,
      "tification": 5117,
      "ĠPermanent": 5118,
      "ĠApplicable": 5119,
      "Ġtownhouses": 5120,
      "Ġlowest": 5121,
      "ĠFAIR": 5122,
      "ĠïĤ·": 5123,
      "Ġkeep": 5124,
      "ĠOwner": 5125,
      "Ġsubdivided": 5126,
      "Ġaxis": 5127,
      "Ġpracticable": 5128,
      "TABLISHMENT": 5129,
      "bel": 5130,
      "read": 5131,
      "orks": 5132,
      "astic": 5133,
      "urches": 5134,
      "Ġ23": 5135,
      "Ġdegree": 5136,
      "ĠNC": 5137,
      "identially": 5138,
      "ĠEase": 5139,
      "hedule": 5140,
      "Ġjus": 5141,
      "Ġphot": 5142,
      "Ġguarant": 5143,
      "Ġbank": 5144,
      "pendicular": 5145,
      "Ġhydr": 5146,
      "occupied": 5147,
      "Ġexpense": 5148,
      "Retail": 5149,
      "avel": 5150,
      "gu": 5151,
      "hope": 5152,
      "minimum": 5153,
      "oy": 5154,
      "Ġher": 5155,
      "Ġurban": 5156,
      "cell": 5157,
      "ĠMedium": 5158,
      "Ġsubs": 5159,
      "Ġdistances": 5160,
      "stallation": 5161,
      "Ġdenied": 5162,
      "Ġfilling": 5163,
      "HOPE": 5164,
      "ĠFairhope": 5165,
      "ĠFAIRHOPE": 5166,
      "Com": 5167,
      "mar": 5168,
      "pg": 5169,
      "vant": 5170,
      "Ġdest": 5171,
      "Ġproof": 5172,
      "quee": 5173,
      "Ġ29": 5174,
      "ĠTABLE": 5175,
      "ĠHE": 5176,
      "ĠHor": 5177,
      "Ġthereafter": 5178,
      "ĠSpanish": 5179,
      "ĠAmeric": 5180,
      "ĠĠĠĠĠĠĠĠĠĠĠĠĠĠĠĠĠĠĠĠĠĠĠĠĠĠĠĠĠĠĠĠĠĠĠĠĠĠĠĠĠĠĠĠĠĠĠĠ": 5181,
      "Ġdiscontinu": 5182,
      "Ġexample": 5183,
      "Ġeconomic": 5184,
      "65": 5185,
      "Ġsuc": 5186,
      "Ġsens": 5187,
      "Ġmaking": 5188,
      "Ġonce": 5189,
      "ĠFin": 5190,
      "Ġunus": 5191,
      "tensity": 5192,
      "Ġcoul": 5193,
      "Ġimpair": 5194,
      "ĠProposed": 5195,
      "oval": 5196,
      "Ġgreenspace": 5197,
      "Ġrelative": 5198,
      "ĠExemp": 5199,
      "Ġexpand": 5200,
      "itional": 5201,
      "Ġproduction": 5202,
      "apped": 5203,
      "Ġrenew": 5204,
      "ographic": 5205,
      "ATIONAL": 5206,
      "roadc": 5207,
      "Ġthoroughfares": 5208,
      "âĢ¦âĢ¦âĢ¦âĢ¦âĢ¦âĢ¦âĢ¦âĢ¦": 5209,
      "ĠAgreement": 5210,
      "Ġreconstructed": 5211,
      "IFIC": 5212,
      "Ġbillboard": 5213,
      "gment": 5214,
      "hether": 5215,
      "ending": 5216,
      "Ġbin": 5217,
      "cember": 5218,
      "etermin": 5219,
      "ĠCriteria": 5220,
      "ocial": 5221,
      "ĠTR": 5222,
      "ivid": 5223,
      "ĠWireless": 5224,
      "scape": 5225,
      "Insp": 5226,
      "ERE": 5227,
      "rought": 5228,
      "gineers": 5229,
      "Ġconsists": 5230,
      "signs": 5231,
      "ĠSpecifications": 5232,
      "Ġworking": 5233,
      "rastructure": 5234,
      "Ġcould": 5235,
      "300": 5236,
      "ian": 5237,
      "Ġ,": 5238,
      "Ġfam": 5239,
      "ectives": 5240,
      "ĠSTR": 5241,
      "Ġforce": 5242,
      "ĠPell": 5243,
      "Ġperpendicular": 5244,
      "ulated": 5245,
      "utter": 5246,
      "Ġcomposed": 5247,
      "rie": 5248,
      "entif": 5249,
      "Ġuns": 5250,
      "ĠStories": 5251,
      "ĠĠĠĠĠĠĠĠĠĠĠĠĠĠĠĠĠ": 5252,
      "Ġgraphic": 5253,
      "Ġinterv": 5254,
      "earch": 5255,
      "ĠAppendix": 5256,
      "Ġmeetings": 5257,
      "Ġcustomary": 5258,
      "Ġrecommended": 5259,
      "Ġbecomes": 5260,
      "self": 5261,
      "olitical": 5262,
      "48": 5263,
      "head": 5264,
      "ĠSafety": 5265,
      "imilar": 5266,
      "amp": 5267,
      "Ġsignals": 5268,
      "vertising": 5269,
      "ustments": 5270,
      "eeping": 5271,
      "ills": 5272,
      "Ġcommence": 5273,
      "Ġserves": 5274,
      "âĢĻ-": 5275,
      "Ġcontrolled": 5276,
      "Ġinsure": 5277,
      "Ġfloors": 5278,
      "Ġagree": 5279,
      "Ġexpected": 5280,
      "Ġviolations": 5281,
      "Ġadjoins": 5282,
      "Ġstrict": 5283,
      "ĠApplicability": 5284,
      "Ġexempted": 5285,
      "ĠSupport": 5286,
      "Ġregularly": 5287,
      "Ġvacant": 5288,
      "Ġpolice": 5289,
      "Ġappurten": 5290,
      "CIL": 5291,
      "OL": 5292,
      "pe": 5293,
      "Ġsound": 5294,
      "Ġpumps": 5295,
      "Ġredevelopment": 5296,
      "ilies": 5297,
      "Ġ125": 5298,
      "Ġpermission": 5299,
      "Ġaside": 5300,
      "Ġgall": 5301,
      "Ġresidentially": 5302,
      "ailure": 5303,
      "Ġdish": 5304,
      "Ġtreated": 5305,
      "Ġseparation": 5306,
      "Ġextends": 5307,
      "ĠArterial": 5308,
      "echnical": 5309,
      "ximity": 5310,
      "Ġsurveyor": 5311,
      "alvage": 5312,
      "ĠPERMITTED": 5313,
      "66": 5314,
      "Mar": 5315,
      "TURE": 5316,
      "ou": 5317,
      "wenty": 5318,
      "ich": 5319,
      "Ġworship": 5320,
      "ighted": 5321,
      "illuminated": 5322,
      "Ġenj": 5323,
      "opted": 5324,
      "grade": 5325,
      "Ġtenants": 5326,
      "Ġdisplays": 5327,
      "ĠChange": 5328,
      "ĠComp": 5329,
      "Ġobstruct": 5330,
      "Ġrelevant": 5331,
      "Ġodor": 5332,
      "Ġbalcon": 5333,
      "Ġlaundry": 5334,
      "ĠPenalties": 5335,
      "Ġdining": 5336,
      "Feet": 5337,
      "ey": 5338,
      "following": 5339,
      "mounted": 5340,
      "Ġduly": 5341,
      "ĠPersonal": 5342,
      "ĠDuplex": 5343,
      "Ġextr": 5344,
      "ticip": 5345,
      "ĠHOME": 5346,
      "Ġrate": 5347,
      "ĠDecember": 5348,
      "Ġzero": 5349,
      "Ġdisp": 5350,
      "ĠVillage": 5351,
      "Ġcontext": 5352,
      "Ġcomplies": 5353,
      "ondominium": 5354,
      "Ġagencies": 5355,
      "Ġadequately": 5356,
      "Ġfrequency": 5357,
      "ROV": 5358,
      "URIS": 5359,
      "space": 5360,
      "Ġintegrated": 5361,
      "Ġdriving": 5362,
      "ĠSurvey": 5363,
      "Ġhandic": 5364,
      "Ġlegally": 5365,
      "ĠGuidelines": 5366,
      "TING": 5367,
      "ĠDowntown": 5368,
      "AP": 5369,
      "Day": 5370,
      "New": 5371,
      "Service": 5372,
      "rap": 5373,
      "wy": 5374,
      "Ġpati": 5375,
      "igation": 5376,
      "Ġstabil": 5377,
      "istration": 5378,
      "ĠIND": 5379,
      "irm": 5380,
      "ĠHospit": 5381,
      "ĠGas": 5382,
      "Ġoffense": 5383,
      "ceptac": 5384,
      "ĠYes": 5385,
      "Ġdetermines": 5386,
      "Ġplatted": 5387,
      "Ġlawfully": 5388,
      "withstanding": 5389,
      "Ġalterations": 5390,
      "Ġplaygrounds": 5391,
      "ĠINS": 5392,
      "Ġpertaining": 5393,
      "Ġannexation": 5394,
      "CONFORM": 5395,
      "excluding": 5396,
      "MINISTR": 5397,
      "tinent": 5398,
      "Ġdaily": 5399,
      "Ġfamilies": 5400,
      "51": 5401,
      "VII": 5402,
      "afe": 5403,
      "non": 5404,
      "Ġtaking": 5405,
      "Ġsemi": 5406,
      "Ġsocial": 5407,
      "Ġmass": 5408,
      "ĠCBD": 5409,
      "ĠDR": 5410,
      "Ġdel": 5411,
      "resp": 5412,
      "elf": 5413,
      "ĠVariance": 5414,
      "Ġoccupying": 5415,
      "conditions": 5416,
      "ĠResources": 5417,
      "ĠEntertainment": 5418,
      "ĠSubject": 5419,
      "Ġquanti": 5420,
      "Ġcustomer": 5421,
      "Ġtopographic": 5422,
      "110": 5423,
      "AC": 5424,
      "Ft": 5425,
      "Generally": 5426,
      "mobile": 5427,
      "ru": 5428,
      "Ġsket": 5429,
      "Ġpoultry": 5430,
      "igures": 5431,
      "ĠSF": 5432,
      "ĠCentral": 5433,
      "Ġge": 5434,
      "Ġparapet": 5435,
      "ĠFreestanding": 5436,
      "Ġroot": 5437,
      "ĠWithin": 5438,
      "Inc": 5439,
      "Ġsever": 5440,
      "Ġsupplement": 5441,
      "ircraft": 5442,
      "____________": 5443,
      "Ġrestoration": 5444,
      "Ġreconstruction": 5445,
      "provided": 5446,
      "ological": 5447,
      "Ġpartially": 5448,
      "itchen": 5449,
      "Ġornamental": 5450,
      "Ġfavor": 5451,
      "ticipated": 5452,
      "96": 5453,
      "Pell": 5454,
      "Ġbord": 5455,
      "Ġmedium": 5456,
      "ĠCirc": 5457,
      "Ġhow": 5458,
      "Ġpertinent": 5459,
      "ĠStore": 5460,
      "Ġmanager": 5461,
      "thens": 5462,
      "tivities": 5463,
      "Ġwatercour": 5464,
      "Ġporch": 5465,
      "Ġsyn": 5466,
      "ĠConditions": 5467,
      "Ġcount": 5468,
      "Ġcalculation": 5469,
      "ĠINTER": 5470,
      "ĠSupplemental": 5471,
      "nership": 5472,
      "ISIONS": 5473,
      "butting": 5474,
      "eeds": 5475,
      "ĠBreakfast": 5476,
      "ĠBoundaries": 5477,
      "Ġbarrier": 5478,
      "SU": 5479,
      "Tra": 5480,
      "af": 5481,
      "hang": 5482,
      "right": 5483,
      "Ġmiti": 5484,
      "Ġreceptac": 5485,
      "asons": 5486,
      "Ġtrunk": 5487,
      "Ġ48": 5488,
      "Ġsex": 5489,
      "Ġsell": 5490,
      "Ġbufferyard": 5491,
      "ICTION": 5492,
      "Ġregulate": 5493,
      "Appeals": 5494,
      "Ġvalues": 5495,
      "Ġerr": 5496,
      "Ġcalculations": 5497,
      "Unless": 5498,
      "Ġconverted": 5499,
      "Ġnetwork": 5500,
      "Ġawning": 5501,
      "orney": 5502,
      "Max": 5503,
      "Ne": 5504,
      "night": 5505,
      "Ġbay": 5506,
      "Ġcab": 5507,
      "Ġpermis": 5508,
      "ĠLOT": 5509,
      "ĠEN": 5510,
      "Ġcomplex": 5511,
      "Ġapproving": 5512,
      "Ġundue": 5513,
      "overed": 5514,
      "ĠProcedure": 5515,
      "ARE": 5516,
      "Ġsecure": 5517,
      "Ġcustomers": 5518,
      "Ġbenef": 5519,
      "Ġapproximate": 5520,
      "Ġopportunity": 5521,
      "Ġoutlined": 5522,
      "Ġunusual": 5523,
      "SIGN": 5524,
      "Town": 5525,
      "dr": 5526,
      "structed": 5527,
      "tle": 5528,
      "Ġice": 5529,
      "Ġoil": 5530,
      "aling": 5531,
      "Ġpaid": 5532,
      "Ġcivic": 5533,
      "Ġshade": 5534,
      "ush": 5535,
      "ĠAN": 5536,
      "astal": 5537,
      "Ġstanding": 5538,
      "under": 5539,
      "ĠUnder": 5540,
      "Ġunified": 5541,
      "Ġ52": 5542,
      "ĠGround": 5543,
      "ĠGreen": 5544,
      "Ġdoll": 5545,
      "actor": 5546,
      "Ġprotective": 5547,
      "Ġwash": 5548,
      "Ġbasement": 5549,
      "Ġgarbage": 5550,
      "ĠArt": 5551,
      "ÂłĠÂłĠÂłĠÂłĠÂłĠÂł": 5552,
      "Ġdirectional": 5553,
      "Ġperformed": 5554,
      "42": 5555,
      "ctions": 5556,
      "eu": 5557,
      "ĠÂ½": 5558,
      "ites": 5559,
      "Ġcell": 5560,
      "Ġreasons": 5561,
      "Ġeven": 5562,
      "ĠAthens": 5563,
      "ĠRental": 5564,
      "ĠTen": 5565,
      "ĠHearing": 5566,
      "ĠEX": 5567,
      "ĠCommunications": 5568,
      "Ġamong": 5569,
      "obiles": 5570,
      "ĠRestrictions": 5571,
      "Ġaggregate": 5572,
      "Ġtennis": 5573,
      "Ġexpiration": 5574,
      "Ġ1958": 5575,
      "within": 5576,
      "Spec": 5577,
      "Ġobstruction": 5578,
      "Ġobserved": 5579,
      "ĠSuper": 5580,
      "Office": 5581,
      "Ġinitial": 5582,
      "ĠEstablishment": 5583,
      "Ġhydro": 5584,
      "Ġestim": 5585,
      "Ġreflect": 5586,
      "Supp": 5587,
      "belt": 5588,
      "Ġsuccess": 5589,
      "Water": 5590,
      "cont": 5591,
      "home": 5592,
      "life": 5593,
      "Ġsand": 5594,
      "Ġmix": 5595,
      "trip": 5596,
      "Ġnone": 5597,
      "oting": 5598,
      "lege": 5599,
      "uck": 5600,
      "urist": 5601,
      "Ġconv": 5602,
      "Ġ113": 5603,
      "olia": 5604,
      "stream": 5605,
      "ĠLodging": 5606,
      "Ġuniform": 5607,
      "Ġ55": 5608,
      "change": 5609,
      "ensities": 5610,
      "obby": 5611,
      "Ġclubs": 5612,
      "Ġcluster": 5613,
      "ECIAL": 5614,
      "Ġcorrect": 5615,
      "Ġvisually": 5616,
      "ternative": 5617,
      "Ġappealed": 5618,
      "Ġrequests": 5619,
      "Ġoccurs": 5620,
      "Ġsubmittal": 5621,
      "Ġconfig": 5622,
      "Ġexistence": 5623,
      "Nonconforming": 5624,
      "ĠBeach": 5625,
      "ĠDEVELOPMENT": 5626,
      "Ġstudents": 5627,
      "Ġslopes": 5628,
      "Ġpaths": 5629,
      "Ġfindings": 5630,
      "iques": 5631,
      "Ġsteps": 5632,
      "IX": 5633,
      "VER": 5634,
      "mant": 5635,
      "Ġapartments": 5636,
      "Ġaircraft": 5637,
      "Ġsing": 5638,
      "Ġshed": 5639,
      "icted": 5640,
      "Ġcentral": 5641,
      "Ġcottage": 5642,
      "Ġmic": 5643,
      "Ġlive": 5644,
      "ĠPollution": 5645,
      "Ġtypical": 5646,
      "ferred": 5647,
      "ildlife": 5648,
      "Ġmajority": 5649,
      "Conforming": 5650,
      "ridors": 5651,
      "Ġwaive": 5652,
      "Ġdemand": 5653,
      "Ġpainting": 5654,
      "ELL": 5655,
      "ĠOnly": 5656,
      "Ġfurniture": 5657,
      "Ġsatisfact": 5658,
      "ĠPROVISIONS": 5659,
      "URISD": 5660,
      "CIAL": 5661,
      "Ġshare": 5662,
      "ĠCopy": 5663,
      "ĠAb": 5664,
      "ĠAbutting": 5665,
      "urrent": 5666,
      "veloper": 5667,
      "vers": 5668,
      "ĠTax": 5669,
      "Ġaccur": 5670,
      "Ġvary": 5671,
      "ĠHwy": 5672,
      "ĠVariances": 5673,
      "finition": 5674,
      "Ġauthorize": 5675,
      "Ġcanopies": 5676,
      "Ġvariation": 5677,
      "Ġbodies": 5678,
      "Ġapplies": 5679,
      "ĠAPPROV": 5680,
      "Ġobjection": 5681,
      "Ġgoals": 5682,
      "ĠHeavy": 5683,
      "Ġresolution": 5684,
      "Yard": 5685,
      "rub": 5686,
      "Ġtesting": 5687,
      "Ġpred": 5688,
      "iting": 5689,
      "Ġdumps": 5690,
      "Ġproximity": 5691,
      "lev": 5692,
      "Ġ($": 5693,
      "Ġconges": 5694,
      "Ġperpet": 5695,
      "Ġgiving": 5696,
      "aintenance": 5697,
      "Ġspaced": 5698,
      "areas": 5699,
      "than": 5700,
      "ĠEquipment": 5701,
      "ĠGroup": 5702,
      "ĠWindow": 5703,
      "Ġconstruct": 5704,
      "Ġneg": 5705,
      "Ġ................................................................................................................................................": 5706,
      "Ġidentifying": 5707,
      "Ġaddressed": 5708,
      "Ġmeaning": 5709,
      "Ġnotify": 5710,
      "Ġinfrastructure": 5711,
      "ĠSTAND": 5712,
      "Ġartificial": 5713,
      "Ġunobstructed": 5714,
      "MINISTRATION": 5715,
      "Ġcongestion": 5716,
      "Cl": 5717,
      "Shall": 5718,
      "bs": 5719,
      "keeping": 5720,
      "Ġauto": 5721,
      "eness": 5722,
      "Ġcand": 5723,
      "Ġdensities": 5724,
      "Ġmotion": 5725,
      "imne": 5726,
      "olid": 5727,
      "ĠEvent": 5728,
      "Ġplastic": 5729,
      "ĠĠĠĠĠĠĠĠĠĠĠĠĠĠĠĠĠĠĠ": 5730,
      "Ġ85": 5731,
      "Ġseq": 5732,
      "Ġrecyc": 5733,
      "ĠEngineers": 5734,
      "Ġattach": 5735,
      "Ġ198": 5736,
      "Ġhighways": 5737,
      "Ġrepeal": 5738,
      "adio": 5739,
      "Ġpresented": 5740,
      "Ġintegrity": 5741,
      "ÂłÂłÂłÂł": 5742,
      "ĠTypes": 5743,
      "ĠSchedule": 5744,
      "Ġrecognized": 5745,
      "ividual": 5746,
      "Ġenjoy": 5747,
      "URISDICTION": 5748,
      "112": 5749,
      "74": 5750,
      "ATE": 5751,
      "Pl": 5752,
      "Ġsedimentation": 5753,
      "Ġpop": 5754,
      "orient": 5755,
      "Ġbel": 5756,
      "ĠCo": 5757,
      "ĠApril": 5758,
      "ĠPDD": 5759,
      "umul": 5760,
      "ody": 5761,
      "ĠMedical": 5762,
      "vert": 5763,
      "atern": 5764,
      "endent": 5765,
      "Ġ38": 5766,
      "Ġprovider": 5767,
      "ĠIntensity": 5768,
      "Ġadditions": 5769,
      "ARY": 5770,
      "Ġrelating": 5771,
      "Ġroofline": 5772,
      "Ġconforms": 5773,
      "Ġsecured": 5774,
      "CED": 5775,
      "Ġremains": 5776,
      "Ġbanner": 5777,
      "Planned": 5778,
      "Ġbreakfast": 5779,
      "ĠTraditional": 5780,
      "Ġmunicipality": 5781,
      "Ġlabor": 5782,
      "Ġobjectionable": 5783,
      "AY": 5784,
      "Density": 5785,
      "Dimensional": 5786,
      "Every": 5787,
      "MH": 5788,
      "SS": 5789,
      "ropriate": 5790,
      "Ġcr": 5791,
      "Ġwast": 5792,
      "Ġpropor": 5793,
      "Ġanticipated": 5794,
      "ĠHC": 5795,
      "Ġundert": 5796,
      "Ġseating": 5797,
      "Ġwherein": 5798,
      "Ġdeck": 5799,
      "Ġtransport": 5800,
      "Adj": 5801,
      "Ġautomobiles": 5802,
      "URPO": 5803,
      "ĠRecord": 5804,
      "ĠAttached": 5805,
      "CCESS": 5806,
      "UMBER": 5807,
      "ĠSoil": 5808,
      "Ġfinds": 5809,
      "Recreational": 5810,
      "Ġsingular": 5811,
      "400": 5812,
      "Ac": 5813,
      "Screening": 5814,
      "VC": 5815,
      "ZONING": 5816,
      "cery": 5817,
      "ipped": 5818,
      "lig": 5819,
      "Ġblocks": 5820,
      "itor": 5821,
      "Ġmotel": 5822,
      "oming": 5823,
      "Ġcompact": 5824,
      "Ġplumbing": 5825,
      "ĠStory": 5826,
      "ĠViol": 5827,
      "ventory": 5828,
      "ritten": 5829,
      "ĠExp": 5830,
      "Stormwater": 5831,
      "Ġapplying": 5832,
      "Ġsupports": 5833,
      "Ġbanks": 5834,
      "ĠPremises": 5835,
      "Ġfurnish": 5836,
      "Ġtechnical": 5837,
      "Ġnursery": 5838,
      "ĠLimitations": 5839,
      "Ġretained": 5840,
      "Ġcomponent": 5841,
      "Ġstudio": 5842,
      "Ġopportunities": 5843,
      "Ġï¿½": 5844,
      "Ġeducational": 5845,
      "Ġvibration": 5846,
      "Ġfeasible": 5847,
      "Ġmandatory": 5848,
      "Ġexpanded": 5849,
      "oriented": 5850,
      "Prior": 5851,
      "TMENT": 5852,
      "Util": 5853,
      "flic": 5854,
      "habil": 5855,
      "height": 5856,
      "Ġsurety": 5857,
      "enes": 5858,
      "Ġpack": 5859,
      "Ġdomes": 5860,
      "Ġlie": 5861,
      "Ġlakes": 5862,
      "usic": 5863,
      "trus": 5864,
      "asses": 5865,
      "Ġconference": 5866,
      "uneral": 5867,
      "Ġspir": 5868,
      "Ġreserv": 5869,
      "ĠUpon": 5870,
      "istent": 5871,
      "ĠEm": 5872,
      "ĠStream": 5873,
      "ĠProcess": 5874,
      "Ġpartnership": 5875,
      "Ġdecks": 5876,
      "ooth": 5877,
      "Ġattend": 5878,
      "Ġregulatory": 5879,
      "fession": 5880,
      "Ġseparately": 5881,
      "Ġbedroom": 5882,
      "ĠFAA": 5883,
      "Ġobjectives": 5884,
      "Ġcontractor": 5885,
      "Ġsatisfy": 5886,
      "Ġconcerning": 5887,
      "Ġnonconformity": 5888,
      "Nothing": 5889,
      "Two": 5890,
      "ken": 5891,
      "kers": 5892,
      "reason": 5893,
      "Ġbays": 5894,
      "Ġduty": 5895,
      "Ġmis": 5896,
      "ĠCO": 5897,
      "ĠAT": 5898,
      "ĠPR": 5899,
      "ĠRV": 5900,
      "Ġheard": 5901,
      "Ġheated": 5902,
      "Ġgravel": 5903,
      "âĢĿ)": 5904,
      "Ġrecording": 5905,
      "rence": 5906,
      "ICE": 5907,
      "Ġdevelop": 5908,
      "existing": 5909,
      "Ġrespective": 5910,
      "ĠSidewalks": 5911,
      "Ġsolar": 5912,
      "Prohibited": 5913,
      "Ġgenerated": 5914,
      "istorical": 5915,
      "Ġstrips": 5916,
      "FAC": 5917,
      "illegal": 5918,
      "Ġdrawing": 5919,
      "Ġpayment": 5920,
      "Ġpick": 5921,
      "Ġassigned": 5922,
      "Ġsymbols": 5923,
      "Interpretation": 5924,
      "Ġdetrimental": 5925,
      "Ġappurtenances": 5926,
      "Ġsketch": 5927,
      "imneys": 5928,
      "47": 5929,
      "49": 5930,
      "Cle": 5931,
      "ILE": 5932,
      "grie": 5933,
      "ĸ¡": 5934,
      "ina": 5935,
      "Ġbath": 5936,
      "Ġmeals": 5937,
      "Ġconce": 5938,
      "uild": 5939,
      "Ġcomments": 5940,
      "ĠNP": 5941,
      "ĠTroy": 5942,
      "Ġwheels": 5943,
      "plete": 5944,
      "istingu": 5945,
      "ensing": 5946,
      "ĠEntr": 5947,
      "Ġcharge": 5948,
      "Ġreturn": 5949,
      "ĠSecretary": 5950,
      "argement": 5951,
      "Ġemployed": 5952,
      "Ġtank": 5953,
      "conformities": 5954,
      "Ġmeasurement": 5955,
      "Ġhearings": 5956,
      "ennels": 5957,
      "Ġpaper": 5958,
      "ĠCalera": 5959,
      "Ġdestroy": 5960,
      "grieved": 5961,
      "ADING": 5962,
      "Gr": 5963,
      "SC": 5964,
      "bow": 5965,
      "eveloped": 5966,
      "lor": 5967,
      "Ġblank": 5968,
      "Ġfall": 5969,
      "Ġfewer": 5970,
      "Ġinst": 5971,
      "Ġhar": 5972,
      "andon": 5973,
      "Ġdepos": 5974,
      "ĠName": 5975,
      "ĠLiving": 5976,
      "Ġpublication": 5977,
      "Ġenact": 5978,
      "Ġenfor": 5979,
      "ĠWH": 5980,
      "ags": 5981,
      "Ġallows": 5982,
      "ĠSignage": 5983,
      "Ġinstruction": 5984,
      "ERS": 5985,
      "ERCIAL": 5986,
      "Those": 5987,
      "Ġdefinitions": 5988,
      "Ġformal": 5989,
      "Ġconnect": 5990,
      "Ġarchitecturally": 5991,
      "iece": 5992,
      "Ġboats": 5993,
      "Applications": 5994,
      "Ġpipes": 5995,
      "ĠSchools": 5996,
      "Ġintersecting": 5997,
      "Ġquarters": 5998,
      "ĠCODE": 5999,
      "Ġflexibility": 6000,
      "Ġreceptacles": 6001,
      "43": 6002,
      "Ban": 6003,
      "ST": 6004,
      "Typ": 6005,
      "design": 6006,
      "rame": 6007,
      "enses": 6008,
      "Ġpet": 6009,
      "Ġrect": 6010,
      "ĠPRD": 6011,
      "ardens": 6012,
      "ĠMet": 6013,
      "ĠNUMBER": 6014,
      "ideo": 6015,
      "ĠHotel": 6016,
      "Ġtrust": 6017,
      "ĠĠĠĠĠĠĠĠĠĠĠĠĠĠĠĠĠĠĠĠĠĠ": 6018,
      "Ġcontent": 6019,
      "Ġaggrieved": 6020,
      "Ġcharged": 6021,
      "Ġfloodway": 6022,
      "walk": 6023,
      "Ġexpire": 6024,
      "ĠAnn": 6025,
      "Ġinvolve": 6026,
      "Ġweather": 6027,
      "Ġtechniques": 6028,
      "Ġholding": 6029,
      "Ġceiling": 6030,
      "Ġfunctions": 6031,
      "Ġadminister": 6032,
      "Ġprinciple": 6033,
      "Ġshielded": 6034,
      "escription": 6035,
      "Ġsensitive": 6036,
      "Ġintervals": 6037,
      "Fences": 6038,
      "Group": 6039,
      "LO": 6040,
      "ae": 6041,
      "care": 6042,
      "ded": 6043,
      "dis": 6044,
      "pended": 6045,
      "âĸ¡": 6046,
      "Ġoption": 6047,
      "reat": 6048,
      "Ġfine": 6049,
      "Ġcro": 6050,
      "Ġder": 6051,
      "ĠCH": 6052,
      "ĠCanopy": 6053,
      "imize": 6054,
      "ainbow": 6055,
      "ĠFult": 6056,
      "ĠFAR": 6057,
      "ĠFences": 6058,
      "Ġhel": 6059,
      "ĠLAND": 6060,
      "Ġvoid": 6061,
      "ĠPlanting": 6062,
      "Ġcompet": 6063,
      "Ġtracts": 6064,
      "ĠWorks": 6065,
      "Ġabate": 6066,
      "Ġdismant": 6067,
      "INE": 6068,
      "Ġoperators": 6069,
      "Ġminutes": 6070,
      "ellant": 6071,
      "ĠJune": 6072,
      "Proposed": 6073,
      "Ġpractice": 6074,
      "USTR": 6075,
      "ablishments": 6076,
      "Ġconveyance": 6077,
      "ology": 6078,
      "Ġstands": 6079,
      "Ġliquor": 6080,
      "Roof": 6081,
      "ĠElectronic": 6082,
      "ĠQu": 6083,
      "Ġpatrons": 6084,
      "NING": 6085,
      "zoned": 6086,
      "Ġap": 6087,
      "Ġafore": 6088,
      "inyl": 6089,
      "Ġsediment": 6090,
      "Ġberm": 6091,
      "Ġdated": 6092,
      "ĠSedimentation": 6093,
      "ley": 6094,
      "ĠDimension": 6095,
      "umes": 6096,
      "ĠBal": 6097,
      "ĠLI": 6098,
      "Ġcomputed": 6099,
      "Ġsetting": 6100,
      "ĠEnc": 6101,
      "Ġauthorization": 6102,
      "Ġoverhang": 6103,
      "chitec": 6104,
      "Ġcharacterized": 6105,
      "Ġpractical": 6106,
      "ldg": 6107,
      "Ġcertify": 6108,
      "Ġadvance": 6109,
      "CK": 6110,
      "Dr": 6111,
      "dwelling": 6112,
      "Ġedi": 6113,
      "Ġillegal": 6114,
      "Ġbrought": 6115,
      "ormit": 6116,
      "anch": 6117,
      "Ġprof": 6118,
      "irty": 6119,
      "poses": 6120,
      "charge": 6121,
      "Ġ600": 6122,
      "lish": 6123,
      "Ġleased": 6124,
      "Ġindirect": 6125,
      "Ġassure": 6126,
      "ĠXI": 6127,
      "celeration": 6128,
      "ORY": 6129,
      "utomotive": 6130,
      "ĉĠĉĠĉĠĉĠ": 6131,
      "ĠNonresidential": 6132,
      "Ġboat": 6133,
      "itiz": 6134,
      "ĠCorps": 6135,
      "Ġcovering": 6136,
      "Ġexpressed": 6137,
      "ĠIllustr": 6138,
      "Ġmachinery": 6139,
      "Ġboxes": 6140,
      "Ġinjur": 6141,
      "Ġbottom": 6142,
      "55": 6143,
      "DISTRICT": 6144,
      "Failure": 6145,
      "LIC": 6146,
      "OARD": 6147,
      "aim": 6148,
      "bo": 6149,
      "lim": 6150,
      "ĠĉĠĠ": 6151,
      "uction": 6152,
      "ĠDU": 6153,
      "ĠDuties": 6154,
      "Ġexper": 6155,
      "ĠBar": 6156,
      "Ġsignal": 6157,
      "Ġadap": 6158,
      "Ġincons": 6159,
      "ĠFees": 6160,
      "ĠPlant": 6161,
      "Ġcoordin": 6162,
      "Ġ105": 6163,
      "Ġlesser": 6164,
      "Ġinterpre": 6165,
      "Ġinterference": 6166,
      "ondary": 6167,
      "Ġmaintaining": 6168,
      "Ġestablishing": 6169,
      "Ġkitchen": 6170,
      "atories": 6171,
      "ÂłĠÂłÂł": 6172,
      "Ġrestriction": 6173,
      "ANU": 6174,
      "CEMENT": 6175,
      "TABLE": 6176,
      "Ġadministration": 6177,
      "Ġinspector": 6178,
      "livery": 6179,
      "Ġhospitals": 6180,
      "Ġremedies": 6181,
      "Ġprivacy": 6182,
      "Ġpermissible": 6183,
      "Cor": 6184,
      "au": 6185,
      "rup": 6186,
      "shed": 6187,
      "Ġerect": 6188,
      "ĠDo": 6189,
      "Ġstage": 6190,
      "Ġexec": 6191,
      "ams": 6192,
      "Ġproviders": 6193,
      "ĠEast": 6194,
      "................................................................................................................................................": 6195,
      "Ġ502": 6196,
      "Ġspecimen": 6197,
      "Ġabout": 6198,
      "Ġconditioning": 6199,
      "Ġwhom": 6200,
      "Ġcorridors": 6201,
      "trie": 6202,
      "Ġcreation": 6203,
      "Ġflashing": 6204,
      "Ġvegetative": 6205,
      "ĠArchitectural": 6206,
      "Ġenterpr": 6207,
      "Planning": 6208,
      "ĠLimited": 6209,
      "Ġcondominiums": 6210,
      "Ġprojection": 6211,
      "Ġstatus": 6212,
      "Ġguarantee": 6213,
      "Ġerror": 6214,
      "euver": 6215,
      "ĠAPPROVAL": 6216,
      "ANUFAC": 6217,
      "He": 6218,
      "WELL": 6219,
      "around": 6220,
      "dentif": 6221,
      "flow": 6222,
      "aland": 6223,
      "enic": 6224,
      "Ġpiece": 6225,
      "Ġfas": 6226,
      "araland": 6227,
      "Ġlink": 6228,
      "Ġnine": 6229,
      "ĠSaraland": 6230,
      "ime": 6231,
      "ĠPURPO": 6232,
      "ĠNON": 6233,
      "ird": 6234,
      "ĠLaw": 6235,
      "Ġcompar": 6236,
      "formation": 6237,
      "ĠStation": 6238,
      "ĠInterior": 6239,
      "Ġtowards": 6240,
      "Ġrelief": 6241,
      "ollut": 6242,
      "Ġdepicted": 6243,
      "Ġreplace": 6244,
      "Ġmarked": 6245,
      "Applicability": 6246,
      "Ġcuts": 6247,
      "ĠIntersection": 6248,
      "bris": 6249,
      "ĠSpecific": 6250,
      "attached": 6251,
      "Ġflags": 6252,
      "Ġretaining": 6253,
      "lassified": 6254,
      "Ġopposite": 6255,
      "Ġtheaters": 6256,
      "Ġclinics": 6257,
      "Ġdollars": 6258,
      "chitecture": 6259,
      "WELLING": 6260,
      "CD": 6261,
      "ZA": 6262,
      "cal": 6263,
      "ever": 6264,
      "ier": 6265,
      "my": 6266,
      "sed": 6267,
      "Ġbro": 6268,
      "Ġfit": 6269,
      "Ġfund": 6270,
      "rolling": 6271,
      "Ġretention": 6272,
      "Ġbeauty": 6273,
      "Ġprohibit": 6274,
      "Ġprofession": 6275,
      "ignment": 6276,
      "Ġuncons": 6277,
      "ĠStations": 6278,
      "ĠGarden": 6279,
      "ĠWh": 6280,
      "ERT": 6281,
      "ĠAdjustments": 6282,
      "Ġ08": 6283,
      "Ġrented": 6284,
      "Ġinspections": 6285,
      "Ġcapable": 6286,
      "Ġintention": 6287,
      "ĠFloodplain": 6288,
      "Ġbeds": 6289,
      "Ġfurnished": 6290,
      "Ġdemonstrate": 6291,
      "Ġresults": 6292,
      "Ġalcohol": 6293,
      "Ġharmony": 6294,
      "Ġdelineated": 6295,
      "Ġcemetery": 6296,
      "ready": 6297,
      "cellaneous": 6298,
      "umulative": 6299,
      "54": 6300,
      "After": 6301,
      "BH": 6302,
      "Fac": 6303,
      "GENERAL": 6304,
      "flo": 6305,
      "mon": 6306,
      "mentioned": 6307,
      "Ġfigures": 6308,
      "atus": 6309,
      "ĠSERV": 6310,
      "urable": 6311,
      "ubbing": 6312,
      "Ġexit": 6313,
      "tically": 6314,
      "ĠLic": 6315,
      "ople": 6316,
      "Ġcontact": 6317,
      "ustries": 6318,
      "Ġtraditional": 6319,
      "Ġadopt": 6320,
      "Ġeighteen": 6321,
      "Ġqualified": 6322,
      "USIN": 6323,
      "Ġpenalties": 6324,
      "ĠAgency": 6325,
      "Ġrelease": 6326,
      "Ġattractive": 6327,
      "Ġmultifamily": 6328,
      "ĠAmerican": 6329,
      "euvering": 6330,
      "AT": 6331,
      "Mod": 6332,
      "Whenever": 6333,
      "meas": 6334,
      "nial": 6335,
      "ĠCLA": 6336,
      "Ġdebris": 6337,
      "ĠMoul": 6338,
      "ĠRev": 6339,
      "Ġ42": 6340,
      "Ġcho": 6341,
      "Ġimage": 6342,
      "anced": 6343,
      "Ġability": 6344,
      "Ġ103": 6345,
      "Ġsuit": 6346,
      "Ġseal": 6347,
      "ĠAdvertising": 6348,
      "conn": 6349,
      "Ġopening": 6350,
      "ESTABLISHMENT": 6351,
      "vention": 6352,
      "Ġcorridor": 6353,
      "Ġprivately": 6354,
      "ĠOffices": 6355,
      "umination": 6356,
      "Ġorderly": 6357,
      "enger": 6358,
      "ĠIndoor": 6359,
      "Ġbackground": 6360,
      "Ġthird": 6361,
      "emedies": 6362,
      "ĠActivity": 6363,
      "Ġclosest": 6364,
      "Common": 6365,
      "ĠInspection": 6366,
      "Ġpeak": 6367,
      "Ġdedication": 6368,
      "Ġdeny": 6369,
      "ĠRestaurants": 6370,
      "BAMA": 6371,
      "Ġ343": 6372,
      "Ġsatisfied": 6373,
      "Floor": 6374,
      "Ġmanufacturer": 6375,
      "Trans": 6376,
      "Ġautomatically": 6377,
      "Ġjudgment": 6378,
      "Ġedition": 6379,
      "USINESS": 6380,
      "ĠMoultrie": 6381,
      ".\"": 6382,
      "61": 6383,
      "BUILDING": 6384,
      "EW": 6385,
      "Ill": 6386,
      "LOT": 6387,
      "Perm": 6388,
      "vail": 6389,
      "zone": 6390,
      "Ġapart": 6391,
      "Ġpad": 6392,
      "Ġnative": 6393,
      "ĠStrip": 6394,
      "Ġstacking": 6395,
      "Ġhall": 6396,
      "Ġhistorical": 6397,
      "Ġsignature": 6398,
      "ĠNO": 6399,
      "ĠImpervious": 6400,
      "ĠTower": 6401,
      "iston": 6402,
      "Ġaccessed": 6403,
      "Ġunderstory": 6404,
      "Ġinsurance": 6405,
      "Ġelect": 6406,
      "Ġovernight": 6407,
      "Ġindividually": 6408,
      "Ġregistration": 6409,
      "Ġguide": 6410,
      "ĠClinic": 6411,
      "ĠMini": 6412,
      "ivers": 6413,
      "Ġpeople": 6414,
      "Ġdisturbing": 6415,
      "Ġfactors": 6416,
      "Ġforegoing": 6417,
      "Ġsteel": 6418,
      "Permits": 6419,
      "Construction": 6420,
      "Ġaisles": 6421,
      "Ġproposals": 6422,
      "Administration": 6423,
      "Ġrestrict": 6424,
      "ĠRemoval": 6425,
      "ĠEasements": 6426,
      "CONFORMING": 6427,
      "ĠEmergency": 6428,
      "andonment": 6429,
      "ĠAnniston": 6430,
      "76": 6431,
      "::": 6432,
      "FF": 6433,
      "IES": 6434,
      "ball": 6435,
      "sec": 6436,
      "Ġwrec": 6437,
      "Ġreverse": 6438,
      "Ġnin": 6439,
      "ĠCertific": 6440,
      "Ġprop": 6441,
      "ĠRainbow": 6442,
      "velop": 6443,
      "amm": 6444,
      "ĠMX": 6445,
      "ĠFCC": 6446,
      "ests": 6447,
      "Ġ---": 6448,
      "ĠEvery": 6449,
      "ression": 6450,
      "Ġdesired": 6451,
      "Ġnotices": 6452,
      "Ġplaz": 6453,
      "Ġitself": 6454,
      "Ġfollowed": 6455,
      "scale": 6456,
      "Ġ77": 6457,
      "finished": 6458,
      "Ġoutward": 6459,
      "Ġcontainer": 6460,
      "rennial": 6461,
      "titute": 6462,
      "ondale": 6463,
      "Ġreviewing": 6464,
      "Ġbuffering": 6465,
      "plex": 6466,
      "Exception": 6467,
      "Ġchangeable": 6468,
      "Ġcarports": 6469,
      "proof": 6470,
      "elecommunication": 6471,
      "ominant": 6472,
      "Ġsoils": 6473,
      "Ġorientation": 6474,
      "IFS": 6475,
      "Ġhabit": 6476,
      "Ġliteral": 6477,
      "ĠClean": 6478,
      "ĠConventional": 6479,
      "Ġseasonal": 6480,
      "ĠFultondale": 6481,
      "Occup": 6482,
      "Offic": 6483,
      "TEN": 6484,
      "UBL": 6485,
      "iary": 6486,
      "mical": 6487,
      "sur": 6488,
      "uit": 6489,
      "Ġii": 6490,
      "Ġpolitical": 6491,
      "ede": 6492,
      "ism": 6493,
      "Ġdistingu": 6494,
      "Ġmor": 6495,
      "Ġbearing": 6496,
      "Ġnar": 6497,
      "ĠSwimming": 6498,
      "Ġeas": 6499,
      "veloc": 6500,
      "entially": 6501,
      "eled": 6502,
      "Ġ2014": 6503,
      "Ġcommenced": 6504,
      "parcel": 6505,
      "Ġspecifying": 6506,
      "ĠâĢĶ": 6507,
      "Ġtherefore": 6508,
      "Ġoblig": 6509,
      "airs": 6510,
      "Ġviewed": 6511,
      "Ġfratern": 6512,
      "Ġbring": 6513,
      "Shopping": 6514,
      "Ġprojected": 6515,
      "Landscape": 6516,
      "Minor": 6517,
      "Ġodors": 6518,
      "Ġsupervision": 6519,
      "Ġexercise": 6520,
      "Ġhydrants": 6521,
      "ĠHEIGHT": 6522,
      "Neighborhood": 6523,
      "ĠSTANDARDS": 6524,
      "habilitation": 6525,
      "Ġspirit": 6526,
      "UBLIC": 6527,
      "87": 6528,
      "Business": 6529,
      "Est": 6530,
      "Pen": 6531,
      "Wh": 6532,
      "gation": 6533,
      "has": 6534,
      "wall": 6535,
      "Ġ]": 6536,
      "Ġveloc": 6537,
      "Ġple": 6538,
      "Ġbi": 6539,
      "ĠCondominium": 6540,
      "ĠALA": 6541,
      "omet": 6542,
      "ĠPortable": 6543,
      "Ġhour": 6544,
      "ĠON": 6545,
      "Ġdelivery": 6546,
      "ffective": 6547,
      "Ġalready": 6548,
      "Ġlandfill": 6549,
      "ĠDef": 6550,
      "eees": 6551,
      "Ġtrim": 6552,
      "Ġplural": 6553,
      "ported": 6554,
      "minent": 6555,
      "owl": 6556,
      "open": 6557,
      "placed": 6558,
      "Ġthereby": 6559,
      "Ġ1004": 6560,
      "Ġphases": 6561,
      "Ġcreating": 6562,
      "Ġindicates": 6563,
      "Ġbook": 6564,
      "Ġconsiderations": 6565,
      "Also": 6566,
      "Ġshelters": 6567,
      "Ġpicture": 6568,
      "Ġawnings": 6569,
      "Ġaisle": 6570,
      "Ġeliminate": 6571,
      "oufl": 6572,
      "Ġsatisfactory": 6573,
      "Ġnegative": 6574,
      "Ġdestroyed": 6575,
      "Ġinconsistent": 6576,
      "Ġunconstitutional": 6577,
      "ĠALABAMA": 6578,
      "Bed": 6579,
      "COMM": 6580,
      "IB": 6581,
      "IP": 6582,
      "Own": 6583,
      "oe": 6584,
      "uf": 6585,
      "ĠÂ": 6586,
      "angular": 6587,
      "Ġcitiz": 6588,
      "Ġordin": 6589,
      "Ġlatest": 6590,
      "etention": 6591,
      "ĠCR": 6592,
      "irection": 6593,
      "Ġsto": 6594,
      "unt": 6595,
      "mittent": 6596,
      "ĠBond": 6597,
      "ĠNA": 6598,
      "ĠNR": 6599,
      "Ġincenti": 6600,
      "Ġresource": 6601,
      "ĠTour": 6602,
      "ĠEd": 6603,
      "ĠStaff": 6604,
      "Ġcommod": 6605,
      "TIVE": 6606,
      "ailer": 6607,
      "Ġ603": 6608,
      "Ġpremise": 6609,
      "ĠWalls": 6610,
      "ancing": 6611,
      "Ġapprovals": 6612,
      "Ġinterpret": 6613,
      "ĠUnless": 6614,
      "ITE": 6615,
      "Ġelevated": 6616,
      "Ġdiffic": 6617,
      "Ġposs": 6618,
      "udy": 6619,
      "Ġgoverned": 6620,
      "Ġ180": 6621,
      "Ġexceptional": 6622,
      "Ġmarquee": 6623,
      "Ġhousekeeping": 6624,
      "Ġwires": 6625,
      "ÂłĠÂłĠÂłĠÂłĠÂłĠÂłĠÂł": 6626,
      "Ġprepare": 6627,
      "buildings": 6628,
      "Ġselected": 6629,
      "Ġinfil": 6630,
      "ĠEstate": 6631,
      "Ġtions": 6632,
      "Ġbenefit": 6633,
      "Ġencroachment": 6634,
      "Subdivision": 6635,
      "Ġbillboards": 6636,
      "ĠSouth": 6637,
      "Ġannual": 6638,
      "Ġcheck": 6639,
      "ĠLOADING": 6640,
      "Structures": 6641,
      "roadcast": 6642,
      "Ġconfiguration": 6643,
      "56": 6644,
      "59": 6645,
      "Leeds": 6646,
      "NATIONAL": 6647,
      "den": 6648,
      "Ġsil": 6649,
      "Ġsod": 6650,
      "Ġfer": 6651,
      "Ġments": 6652,
      "Ġlibr": 6653,
      "Ġbear": 6654,
      "ĠAction": 6655,
      "asting": 6656,
      "Ġusers": 6657,
      "They": 6658,
      "ĠOpp": 6659,
      "mittee": 6660,
      "Ġresiding": 6661,
      "ĠTerms": 6662,
      "adj": 6663,
      "ĠZON": 6664,
      "Ġaccessories": 6665,
      "Ġutilizing": 6666,
      "ĠApplications": 6667,
      "olesaling": 6668,
      "Ġhorizont": 6669,
      "iums": 6670,
      "Ġmatters": 6671,
      "Ġpassive": 6672,
      "ĠImpact": 6673,
      ".âĢĿ)": 6674,
      "like": 6675,
      "Ġready": 6676,
      "Ġholder": 6677,
      "Ġfields": 6678,
      "Ġachieved": 6679,
      "operative": 6680,
      "ĠThoroughfares": 6681,
      "Setbacks": 6682,
      "agnolia": 6683,
      "Ġphrases": 6684,
      "ĠSTRUC": 6685,
      "ĠINTERNATIONAL": 6686,
      "Ġpopulation": 6687,
      "Ġcompetent": 6688,
      "USTRIAL": 6689,
      "Ġhorizontally": 6690,
      "Car": 6691,
      "Certificate": 6692,
      "Elec": 6693,
      "Fl": 6694,
      "Loc": 6695,
      "gated": 6696,
      "roduc": 6697,
      "atto": 6698,
      "etland": 6699,
      "ĠAgriculture": 6700,
      "ĠBY": 6701,
      "ĠBUSINESS": 6702,
      "ĠLet": 6703,
      "ĠLab": 6704,
      "Ġvideo": 6705,
      "Ġunoccupied": 6706,
      "Ġramps": 6707,
      "Ġpublicly": 6708,
      "illing": 6709,
      "ĠInstallation": 6710,
      "ablished": 6711,
      "Ġgrades": 6712,
      "ĠÂ§Â§": 6713,
      "Ġsouth": 6714,
      "emporarily": 6715,
      "Ġobsc": 6716,
      "Ġexcluded": 6717,
      "ĠInsurance": 6718,
      "Ġhereinafter": 6719,
      "Ġchanging": 6720,
      "Ġsewers": 6721,
      "raf": 6722,
      "Ġdepict": 6723,
      "Ġrent": 6724,
      "Ġcurbs": 6725,
      "ĠContinu": 6726,
      "lementary": 6727,
      "Ġincorporate": 6728,
      "ĠSIGNS": 6729,
      "Ġsubdivider": 6730,
      "Ġliquid": 6731,
      "Vehicle": 6732,
      "Examples": 6733,
      "Ġreferenced": 6734,
      "ĠExemptions": 6735,
      "Ġdomestic": 6736,
      "Ġlieu": 6737,
      "\".": 6738,
      "62": 6739,
      "Ass": 6740,
      "April": 6741,
      "Personal": 6742,
      "density": 6743,
      "gs": 6744,
      "pic": 6745,
      "Ġcultural": 6746,
      "iduous": 6747,
      "Ġee": 6748,
      "Ġeaves": 6749,
      "ĠAcc": 6750,
      "Ġproble": 6751,
      "Ġstock": 6752,
      "Ġappellant": 6753,
      "ĠRural": 6754,
      "though": 6755,
      "Ġaccount": 6756,
      "ĠDefined": 6757,
      "Ġtraining": 6758,
      "Ġdesigns": 6759,
      "Ġundeveloped": 6760,
      "ENS": 6761,
      "ISSION": 6762,
      "Ġgreatest": 6763,
      "ĠExterior": 6764,
      "Ġappropriately": 6765,
      "Ġposition": 6766,
      "Ġhealthy": 6767,
      "Ġentirety": 6768,
      "Lots": 6769,
      "spec": 6770,
      "ÂłĠÂłĠÂłĠÂłĠÂł": 6771,
      "Ġorganized": 6772,
      "Ġrevised": 6773,
      "Ġattract": 6774,
      "Ġforest": 6775,
      "Ġirr": 6776,
      "Principal": 6777,
      "Ġdiscontinued": 6778,
      "Ġenjoyment": 6779,
      "ĠWHERE": 6780,
      "Ġhelp": 6781,
      "Ġaforementioned": 6782,
      "ĠPURPOSE": 6783,
      "DOT": 6784,
      "Farm": 6785,
      "PLE": 6786,
      "iency": 6787,
      "inking": 6788,
      "Ġsources": 6789,
      "Ġsalvage": 6790,
      "Ġpump": 6791,
      "Ġoften": 6792,
      "Ġcumulative": 6793,
      "Ġlighted": 6794,
      "ĠCodes": 6795,
      "ĠPrior": 6796,
      "ulations": 6797,
      "ĠREC": 6798,
      "Ġdepartments": 6799,
      "olar": 6800,
      "ĠMon": 6801,
      "ĠBG": 6802,
      "ĠBZA": 6803,
      "arehouses": 6804,
      "emption": 6805,
      "Ġdestruction": 6806,
      "cepti": 6807,
      "Ġ44": 6808,
      "Ġoffering": 6809,
      "Ġrock": 6810,
      "ĠâĢĺ": 6811,
      "Ġmaneuvering": 6812,
      "Ġseen": 6813,
      "Ġarrow": 6814,
      "ĠProduc": 6815,
      "ĠParagraph": 6816,
      "Ġsimple": 6817,
      "Ġelig": 6818,
      "Ġafford": 6819,
      "ĠPrac": 6820,
      "Ġantennae": 6821,
      "Conven": 6822,
      "Ġobtaining": 6823,
      "Ġgrowing": 6824,
      "Ġenlargement": 6825,
      "Ġraised": 6826,
      "Ġcornice": 6827,
      "Ġhedge": 6828,
      "Ġbenefits": 6829,
      "CCESSORY": 6830,
      "Garage": 6831,
      "atives": 6832,
      "business": 6833,
      "car": 6834,
      "ober": 6835,
      "set": 6836,
      "wich": 6837,
      "Ġent": 6838,
      "inct": 6839,
      "Ġtem": 6840,
      "Ġforestry": 6841,
      "Ġcable": 6842,
      "Ġmusic": 6843,
      "ĠSelf": 6844,
      "ĠCut": 6845,
      "ĠCDD": 6846,
      "ĠCottage": 6847,
      "ĠArticles": 6848,
      "Ġconcent": 6849,
      "ĠRA": 6850,
      "utters": 6851,
      "irst": 6852,
      "ĠUC": 6853,
      "Ġvision": 6854,
      "oused": 6855,
      "ĠStudy": 6856,
      "Ġ43": 6857,
      "Ġchurches": 6858,
      "ĠWest": 6859,
      "Ġdecisions": 6860,
      "ĠAnimal": 6861,
      "Ġpaint": 6862,
      "FAMILY": 6863,
      "Ġcurrently": 6864,
      "isturbance": 6865,
      "Ġcutting": 6866,
      "illboards": 6867,
      "Ġterminal": 6868,
      "Ġcertificates": 6869,
      "Ġprojections": 6870,
      "ĠïĢ": 6871,
      "Ġabsence": 6872,
      "Ġcabin": 6873,
      "Ġenactment": 6874,
      "Ġninety": 6875,
      "Air": 6876,
      "DS": 6877,
      "TENT": 6878,
      "bate": 6879,
      "uity": 6880,
      "warehouse": 6881,
      "Ġ06": 6882,
      "Ġtemporarily": 6883,
      "Ġbus": 6884,
      "Ġbicyc": 6885,
      "Ġfenced": 6886,
      "itches": 6887,
      "anes": 6888,
      "Ġduration": 6889,
      "ĠSTOR": 6890,
      "Ġthough": 6891,
      "ĠPC": 6892,
      "ĠPool": 6893,
      "ĠPolic": 6894,
      "Ġhalls": 6895,
      "ĠRun": 6896,
      "permanent": 6897,
      "upon": 6898,
      "aped": 6899,
      "erving": 6900,
      "Ġ37": 6901,
      "Ġstreetscape": 6902,
      "ĠRegul": 6903,
      "ĠWords": 6904,
      "facilities": 6905,
      "ctober": 6906,
      "Ġ72": 6907,
      "ught": 6908,
      "Ġrecess": 6909,
      "Ġscenic": 6910,
      "Ġloan": 6911,
      "Ġseparating": 6912,
      "Ġproduced": 6913,
      "Ġposting": 6914,
      "Ġsurrounded": 6915,
      "ĠApplicant": 6916,
      "Ġmeanings": 6917,
      "Ġviews": 6918,
      "Ġdemol": 6919,
      "ĠAssess": 6920,
      "Ġnurseries": 6921,
      "Ġcauses": 6922,
      "Ġarrangements": 6923,
      "Ġdrains": 6924,
      "ĠRegional": 6925,
      "Ġsheet": 6926,
      "Ġstip": 6927,
      "Ġanchored": 6928,
      "supporting": 6929,
      "Ġbinding": 6930,
      "Supplemental": 6931,
      "reasonable": 6932,
      "ĠBald": 6933,
      "Drainage": 6934,
      "\",": 6935,
      "DI": 6936,
      "MUM": 6937,
      "Natural": 6938,
      "PA": 6939,
      "Towers": 6940,
      "UT": 6941,
      "each": 6942,
      "ierc": 6943,
      "ker": 6944,
      "Ġ02": 6945,
      "Ġfumes": 6946,
      "anent": 6947,
      "arning": 6948,
      "Ġlap": 6949,
      "letic": 6950,
      "imp": 6951,
      "Ġstop": 6952,
      "tery": 6953,
      "ĠMagnolia": 6954,
      "ritical": 6955,
      "Ġaccent": 6956,
      "ĠHolly": 6957,
      "Ġrural": 6958,
      "ipe": 6959,
      "ĠReplacement": 6960,
      "Ġ404": 6961,
      "ĠGC": 6962,
      "Ġ104": 6963,
      "ĠRequirement": 6964,
      "ssential": 6965,
      "Ġtransient": 6966,
      "hibition": 6967,
      "Ġcollective": 6968,
      "Ġcontrols": 6969,
      "Attached": 6970,
      "Ġsurfaced": 6971,
      "ĠMarch": 6972,
      "Ġchannels": 6973,
      "INIMUM": 6974,
      "Ġannexed": 6975,
      "Ġsuspended": 6976,
      "Restaurant": 6977,
      "ĠAddress": 6978,
      "Inspector": 6979,
      "ĠINSERT": 6980,
      "Permanent": 6981,
      "rafts": 6982,
      "picuous": 6983,
      "AB": 6984,
      "Bo": 6985,
      "Coun": 6986,
      "EAL": 6987,
      "EMA": 6988,
      "HIC": 6989,
      "ITIES": 6990,
      "RES": 6991,
      "cing": 6992,
      "cape": 6993,
      "detached": 6994,
      "ton": 6995,
      "vesting": 6996,
      "Ġ00": 6997,
      "Ġseries": 6998,
      "Ġball": 6999,
      "Ġbrid": 7000,
      "Ġtoil": 7001,
      "Ġnum": 7002,
      "Ġprofit": 7003,
      "ĠDisturbance": 7004,
      "Ġisland": 7005,
      "abled": 7006,
      "ateway": 7007,
      "âĢĸ": 7008,
      "ĠBulk": 7009,
      "istant": 7010,
      "Ġheating": 7011,
      "Ġunrelated": 7012,
      "ĠDefinition": 7013,
      "ĠES": 7014,
      "Ġcompacted": 7015,
      "Ġchass": 7016,
      "owled": 7017,
      "Ġoffer": 7018,
      "Ġfronts": 7019,
      "place": 7020,
      "Ġselling": 7021,
      "Ġallowing": 7022,
      "Ġ95": 7023,
      "anging": 7024,
      "Ġdrug": 7025,
      "ĠExam": 7026,
      "Ġinstallations": 7027,
      "Ġwashing": 7028,
      "Ġeighty": 7029,
      "ĠArmy": 7030,
      "Ġpassenger": 7031,
      "Ġdischarg": 7032,
      "Ġangles": 7033,
      "Ġfuneral": 7034,
      "Ġterr": 7035,
      "ĠIssuing": 7036,
      "ĠNursing": 7037,
      "ĠAMEND": 7038,
      "dentification": 7039,
      "attoo": 7040,
      "ĠWHEREAS": 7041,
      "63": 7042,
      "Author": 7043,
      "EX": 7044,
      "HO": 7045,
      "Name": 7046,
      "iers": 7047,
      "paren": 7048,
      "isl": 7049,
      "arages": 7050,
      "atures": 7051,
      "Ġwildlife": 7052,
      "ĠCan": 7053,
      "ĠBOARD": 7054,
      "Ġsports": 7055,
      "Ġlanding": 7056,
      "Ġranges": 7057,
      "Ġ59": 7058,
      "Ġchimneys": 7059,
      "Ġprin": 7060,
      "oods": 7061,
      "Ġsea": 7062,
      "Ġencomp": 7063,
      "Ġcorners": 7064,
      "Ġdistinct": 7065,
      "derly": 7066,
      "ORT": 7067,
      "Ġexplos": 7068,
      "Ġfourteen": 7069,
      "Ġshows": 7070,
      "Ġrunning": 7071,
      "ĠPlaces": 7072,
      "Ġsewerage": 7073,
      "Ġinternally": 7074,
      "ĠSupply": 7075,
      "Ġextensions": 7076,
      "Ġpolicies": 7077,
      "ĠXXX": 7078,
      "Ġworks": 7079,
      "ĠLevel": 7080,
      "ĠCollege": 7081,
      "ĠModifications": 7082,
      "Ġcemeteries": 7083,
      "DEFINITIONS": 7084,
      "Ġassessment": 7085,
      "Statement": 7086,
      "Ġturning": 7087,
      "Ġquantity": 7088,
      "enestration": 7089,
      "Ġchassis": 7090,
      "Division": 7091,
      "Detached": 7092,
      "Nurs": 7093,
      "Under": 7094,
      "author": 7095,
      "clos": 7096,
      "hab": 7097,
      "iar": 7098,
      "six": 7099,
      "Ġtent": 7100,
      "Ġtex": 7101,
      "eding": 7102,
      "arten": 7103,
      "Ġwarehousing": 7104,
      "Ġmid": 7105,
      "Ġlod": 7106,
      "Ġlumin": 7107,
      "acre": 7108,
      "aches": 7109,
      "Ġemission": 7110,
      "loss": 7111,
      "ĠPedestrian": 7112,
      "ĠDam": 7113,
      "Ġhotels": 7114,
      "Ġhoused": 7115,
      "ĠRules": 7116,
      "Ġconsult": 7117,
      "Ġconspicuous": 7118,
      "Ġlocate": 7119,
      "iber": 7120,
      "ĠStudi": 7121,
      "ĠGolf": 7122,
      "ounts": 7123,
      "ĠĠĠĠĠĠĠĠĠĠĠĠĠĠĠĠĠĠĠĠĠĠĠĠĠ": 7124,
      "ĠWal": 7125,
      "ĠWhenever": 7126,
      "Ġ102": 7127,
      "Ġ106": 7128,
      "Ġsupers": 7129,
      "Ġ802": 7130,
      "aker": 7131,
      "ĠAla": 7132,
      "Ġfinish": 7133,
      "Ġoverhead": 7134,
      "Ġnewly": 7135,
      "Exemp": 7136,
      "Ġstring": 7137,
      "Ġconnecting": 7138,
      "uditor": 7139,
      "Ġautomotive": 7140,
      "Ġmembership": 7141,
      "Ġappli": 7142,
      "ergarten": 7143,
      "Ġaccomplished": 7144,
      "Ġoccurring": 7145,
      "Ġphysically": 7146,
      "Ġfilled": 7147,
      "ĠImprovement": 7148,
      "Ġconversion": 7149,
      "Ġraising": 7150,
      "Ġeducation": 7151,
      "Lighting": 7152,
      "draw": 7153,
      "Ġenterprise": 7154,
      "measured": 7155,
      "Ġinfiltration": 7156,
      "46": 7157,
      "EM": 7158,
      "Green": 7159,
      "LY": 7160,
      "PRO": 7161,
      "USE": 7162,
      "have": 7163,
      "oir": 7164,
      "vices": 7165,
      "wh": 7166,
      "Ġiii": 7167,
      "reme": 7168,
      "Ġpec": 7169,
      "Ġpun": 7170,
      "Ġfulf": 7171,
      "Ġord": 7172,
      "Ġlying": 7173,
      "Ġrelocation": 7174,
      "etr": 7175,
      "igital": 7176,
      "ĠCre": 7177,
      "Ġexpos": 7178,
      "Ġexemption": 7179,
      "permit": 7180,
      "ĠMe": 7181,
      "Ġspe": 7182,
      "entil": 7183,
      "thing": 7184,
      "adding": 7185,
      "ĠLines": 7186,
      "ĠLaund": 7187,
      "Ġvia": 7188,
      "Ġrain": 7189,
      "ĠElev": 7190,
      "Ġenumer": 7191,
      "redit": 7192,
      "ounge": 7193,
      "Ġroll": 7194,
      "opole": 7195,
      "fficiency": 7196,
      "Ġ82": 7197,
      "Ġ800": 7198,
      "oundaries": 7199,
      "Ġ1008": 7200,
      "Ġtense": 7201,
      "Ġtransitional": 7202,
      "overn": 7203,
      "ĠJud": 7204,
      "Ġeffectively": 7205,
      "Project": 7206,
      "Ġinspected": 7207,
      "Commission": 7208,
      "Ġpromoting": 7209,
      "Ġparticularly": 7210,
      "Ġflows": 7211,
      "Ġdividing": 7212,
      "Ġorigin": 7213,
      "Ġcrossings": 7214,
      "Ġexamin": 7215,
      "Ġblend": 7216,
      "Ġcease": 7217,
      "Ġcalled": 7218,
      "Ġwarrant": 7219,
      "ĠCOUN": 7220,
      "irectional": 7221,
      "ĠBaldwin": 7222,
      "67": 7223,
      "903": 7224,
      "Gas": 7225,
      "JURISDICTION": 7226,
      "Ġartic": 7227,
      "enior": 7228,
      "role": 7229,
      "Ġcast": 7230,
      "Ġdurable": 7231,
      "Ġinventory": 7232,
      "Ġshrub": 7233,
      "uliar": 7234,
      "ĠOctober": 7235,
      "umping": 7236,
      "ĠBy": 7237,
      "stanti": 7238,
      "Ġvinyl": 7239,
      "erson": 7240,
      "ervices": 7241,
      "owling": 7242,
      "Ġ101": 7243,
      "Ġ107": 7244,
      "ensive": 7245,
      "Ġadjustment": 7246,
      "Ġgraded": 7247,
      "then": 7248,
      "Ġintermittent": 7249,
      "Ġbufferyards": 7250,
      "Ġscaled": 7251,
      "Ġcomplying": 7252,
      "organ": 7253,
      "ĠClub": 7254,
      "ĠPlace": 7255,
      "Ġ608": 7256,
      "Ġinvolves": 7257,
      "Ġinterests": 7258,
      "Ġconstitutes": 7259,
      "Ġdiscus": 7260,
      "ĠAtt": 7261,
      "Ġwalkway": 7262,
      "ĠDriveways": 7263,
      "ĠADJ": 7264,
      "Ġholid": 7265,
      "Ġvolumes": 7266,
      "ĠBoundary": 7267,
      "accessory": 7268,
      "Ġcomprise": 7269,
      "Ġturnaround": 7270,
      "ĠCOMMISSION": 7271,
      "ĠHortic": 7272,
      "Ġbalconies": 7273,
      "Ġcoordinated": 7274,
      "Ġcomparable": 7275,
      "ĠMXD": 7276,
      "Ġnarrow": 7277,
      "Ġirrigation": 7278,
      "HICLE": 7279,
      "Ġenumerated": 7280,
      "BR": 7281,
      "Maintenance": 7282,
      "NA": 7283,
      "RON": 7284,
      "Small": 7285,
      "aula": 7286,
      "col": 7287,
      "eget": 7288,
      "tled": 7289,
      "wing": 7290,
      "Ġiv": 7291,
      "Ġagriculture": 7292,
      "till": 7293,
      "Ġpollut": 7294,
      "Ġberms": 7295,
      "atum": 7296,
      "Ġmight": 7297,
      "Ġbeer": 7298,
      "ĠAwn": 7299,
      "Ġgutter": 7300,
      "oss": 7301,
      "ĠMaterial": 7302,
      "irt": 7303,
      "Ġconsent": 7304,
      "Ġ39": 7305,
      "izations": 7306,
      "Ġchain": 7307,
      "102": 7308,
      "Ġcontour": 7309,
      "Ġarchitecture": 7310,
      "Ġregional": 7311,
      "Ġperiods": 7312,
      "ointment": 7313,
      "ĠShops": 7314,
      "appropriate": 7315,
      "Ġvertically": 7316,
      "Property": 7317,
      "istribution": 7318,
      "URES": 7319,
      "Ġbanners": 7320,
      "Ġoccurred": 7321,
      "subsection": 7322,
      "ĠDEFINITIONS": 7323,
      "person": 7324,
      "Ġfunctional": 7325,
      "Sidewalks": 7326,
      "LANK": 7327,
      "Ġbeneath": 7328,
      "ĠGrade": 7329,
      "Ġdowntown": 7330,
      "Ġhabitable": 7331,
      "Ġsexual": 7332,
      "DISTRICTS": 7333,
      "ammable": 7334,
      "ufaula": 7335,
      "Ġeligible": 7336,
      "Ġconcentr": 7337,
      "roleum": 7338,
      "68": 7339,
      "85": 7340,
      "Ab": 7341,
      "Impervious": 7342,
      "PRE": 7343,
      "Pedestrian": 7344,
      "Troy": 7345,
      "comp": 7346,
      "similar": 7347,
      "Ġ____________": 7348,
      "anty": 7349,
      "trans": 7350,
      "ĠShel": 7351,
      "ĠCemeter": 7352,
      "ĠRR": 7353,
      "abilities": 7354,
      "arded": 7355,
      "aints": 7356,
      "type": 7357,
      "Ġothers": 7358,
      "ĠFee": 7359,
      "Ġventil": 7360,
      "oft": 7361,
      "ĠEufaula": 7362,
      "viations": 7363,
      "Ġdeter": 7364,
      "Ġgrubbing": 7365,
      "Ġlessee": 7366,
      "Ġrecent": 7367,
      "Ġtimber": 7368,
      "Ġequals": 7369,
      "Ġutilize": 7370,
      "Ġpresence": 7371,
      "Ġlog": 7372,
      "ĠConformance": 7373,
      "Ġaffecting": 7374,
      "Ġguy": 7375,
      "chools": 7376,
      "Ġdescribing": 7377,
      "Ġemployment": 7378,
      "Ġincreases": 7379,
      "ĠContents": 7380,
      "Once": 7381,
      "USES": 7382,
      "Ġwalking": 7383,
      "Ġbright": 7384,
      "Ġacceptance": 7385,
      "Should": 7386,
      "lights": 7387,
      "Ġmachines": 7388,
      "ĠBUILDINGS": 7389,
      "ĠClassification": 7390,
      "Ġindependently": 7391,
      "structures": 7392,
      "Ġpatterns": 7393,
      "Ġevaluation": 7394,
      "Ġbonus": 7395,
      "Ġpurchase": 7396,
      "ĠChangeable": 7397,
      "Ġhandicapped": 7398,
      "Ġseveral": 7399,
      "Ġwatercourse": 7400,
      "Ġreservoir": 7401,
      "Ġintentionally": 7402,
      "Ġdistinguished": 7403,
      "Ġpeculiar": 7404,
      "53": 7405,
      "57": 7406,
      "ALE": 7407,
      "Major": 7408,
      "Portable": 7409,
      "aight": 7410,
      "Ġ05": 7411,
      "Ġ________________": 7412,
      "Ġta": 7413,
      "hered": 7414,
      "alty": 7415,
      "Ġbul": 7416,
      "Ġfoc": 7417,
      "Ġfair": 7418,
      "Ġinund": 7419,
      "Ġeating": 7420,
      "Ġstall": 7421,
      "Ġstadi": 7422,
      "Ġstoring": 7423,
      "Ġdeems": 7424,
      "Ġincur": 7425,
      "ĠTOW": 7426,
      "adem": 7427,
      "ender": 7428,
      "Ġ2020": 7429,
      "Ġfacts": 7430,
      "Ġ64": 7431,
      "Ġimport": 7432,
      "ĠWorship": 7433,
      "Ġfrontages": 7434,
      "Ġhomeowners": 7435,
      "ĠAdult": 7436,
      "Ġimpr": 7437,
      "ĠApproach": 7438,
      "ĠResource": 7439,
      "1401": 7440,
      "useums": 7441,
      "streets": 7442,
      "Ġmeters": 7443,
      "Ġformed": 7444,
      "Ġbasins": 7445,
      "REE": 7446,
      "Ġofficials": 7447,
      "Ġthence": 7448,
      "truments": 7449,
      "Ġpotentially": 7450,
      "Areas": 7451,
      "Ġconflicts": 7452,
      "construction": 7453,
      "ĠDriveway": 7454,
      "Ġreadily": 7455,
      "Ġstudies": 7456,
      "Mini": 7457,
      "Ġcontractors": 7458,
      "Ġbarriers": 7459,
      "Ġchemical": 7460,
      "Ġstabilized": 7461,
      "Ġwastes": 7462,
      "Ġundertaken": 7463,
      "ĠCLASS": 7464,
      "CW": 7465,
      "Ground": 7466,
      "Lo": 7467,
      "Trees": 7468,
      "board": 7469,
      "frame": 7470,
      "lare": 7471,
      "mary": 7472,
      "sale": 7473,
      "xic": 7474,
      "Ġfigure": 7475,
      "issu": 7476,
      "Ġcub": 7477,
      "Ġwid": 7478,
      "Ġmm": 7479,
      "Ġmedi": 7480,
      "Ġlast": 7481,
      "Ġrehabilitation": 7482,
      "aste": 7483,
      "ĠDon": 7484,
      "Ġ1000": 7485,
      "Ġgain": 7486,
      "Ġexchange": 7487,
      "mittal": 7488,
      "ĠBLANK": 7489,
      "stand": 7490,
      "ĠIS": 7491,
      "ĠIlex": 7492,
      "ĠFence": 7493,
      "ĠFuneral": 7494,
      "Ġhead": 7495,
      "ends": 7496,
      "ĠLINE": 7497,
      "Ġ205": 7498,
      "ĠGross": 7499,
      "Ġpreced": 7500,
      "ĠWith": 7501,
      "Ġgrand": 7502,
      "oining": 7503,
      "Ġ98": 7504,
      "Ġinser": 7505,
      "Ġequipped": 7506,
      "Ġmining": 7507,
      "ANC": 7508,
      "ĠJunk": 7509,
      "Ġsiting": 7510,
      "approval": 7511,
      "Secs": 7512,
      "ĠPlacement": 7513,
      "Ġplayground": 7514,
      "eeeeeeee": 7515,
      "Ġsafegu": 7516,
      "IDE": 7517,
      "Ġtraveling": 7518,
      "Amend": 7519,
      "VIEW": 7520,
      "Ġdemonstrates": 7521,
      "Ġcaused": 7522,
      "Ġprograms": 7523,
      "ĠElectrical": 7524,
      "OUSE": 7525,
      "Ġpanels": 7526,
      "Ġjointly": 7527,
      "ĠFinancial": 7528,
      "Ġestimated": 7529,
      "Ġtransportable": 7530,
      "Ġenforced": 7531,
      "Ġadapted": 7532,
      "Ġhabitat": 7533,
      "Ġproblems": 7534,
      "600": 7535,
      "AG": 7536,
      "Buffers": 7537,
      "Col": 7538,
      "IA": 7539,
      "TO": 7540,
      "aus": 7541,
      "hundred": 7542,
      "point": 7543,
      "inning": 7544,
      "ises": 7545,
      "Ġnull": 7546,
      "Ġemit": 7547,
      "ĠAviation": 7548,
      "omic": 7549,
      "ĠPe": 7550,
      "ĠPay": 7551,
      "Ġstages": 7552,
      "ĠRemedies": 7553,
      "Ġgate": 7554,
      "Ġgift": 7555,
      "ĠOak": 7556,
      "tering": 7557,
      "teration": 7558,
      "Ġadhere": 7559,
      "irting": 7560,
      "ĠFaÃ§ade": 7561,
      "Ġcompaction": 7562,
      "Ġ501": 7563,
      "Ġenforce": 7564,
      "Ġ601": 7565,
      "Ġ605": 7566,
      "Ġ83": 7567,
      "Ġcompli": 7568,
      "Ġdrinking": 7569,
      "Ġassemb": 7570,
      "oving": 7571,
      "Ġpartly": 7572,
      "Ġ115": 7573,
      "locate": 7574,
      "Animal": 7575,
      "Ġstraight": 7576,
      "ĠJuly": 7577,
      "Ġsmooth": 7578,
      "Ġrenov": 7579,
      "Ġgenerate": 7580,
      "Ġedges": 7581,
      "urniture": 7582,
      "Ġobstruc": 7583,
      "Ġminimal": 7584,
      "CCUP": 7585,
      "ĠAssembly": 7586,
      "ĠVehicles": 7587,
      "ĠEstablishments": 7588,
      "Ġcategories": 7589,
      "FORCEMENT": 7590,
      "Ġstudios": 7591,
      "ĠElectric": 7592,
      "ĠSPECIAL": 7593,
      "Ġwatershed": 7594,
      "iquor": 7595,
      "Ġsatisfaction": 7596,
      "Primary": 7597,
      "ĠAntennas": 7598,
      "vehicle": 7599,
      "etermination": 7600,
      "ĠHospital": 7601,
      "ĠCirculation": 7602,
      "CEDURES": 7603,
      "Adjustment": 7604,
      "ĠDimensions": 7605,
      "Corner": 7606,
      "800": 7607,
      "97": 7608,
      "Automobile": 7609,
      "Freestanding": 7610,
      "Le": 7611,
      "Structural": 7612,
      "ece": 7613,
      "ooc": 7614,
      "Ġinn": 7615,
      "Ġrezoned": 7616,
      "Ġsharing": 7617,
      "ĠSH": 7618,
      "ĠCurb": 7619,
      "ĠPass": 7620,
      "ĠDBH": 7621,
      "ĠRatio": 7622,
      "Ġexisted": 7623,
      "ume": 7624,
      "ĠBE": 7625,
      "ĠBicycle": 7626,
      "ĠTotal": 7627,
      "Ġ304": 7628,
      "Ġ58": 7629,
      "porting": 7630,
      "Ġspecify": 7631,
      "ĠĠĠĠĠĠĠĠĠĠĠĠĠĠĠĠĠĠĠĠĠĠĠĠĠĠ": 7632,
      "faced": 7633,
      "Ġdishes": 7634,
      "pending": 7635,
      "Ġ84": 7636,
      "Ġ836": 7637,
      "ĠParcel": 7638,
      "Ġclause": 7639,
      "Ġ1003": 7640,
      "Story": 7641,
      "ĠXII": 7642,
      "Ġtransported": 7643,
      "ĠAnalysis": 7644,
      "Ġrespects": 7645,
      "Ġentitled": 7646,
      "Exterior": 7647,
      "Ġidentifies": 7648,
      "Adopted": 7649,
      "Ġwells": 7650,
      "Ġmotorists": 7651,
      "Ġfram": 7652,
      "Ġbarber": 7653,
      "Ġintegrally": 7654,
      "ĠCONDI": 7655,
      "Ġcece": 7656,
      "Frontage": 7657,
      "Ġmachine": 7658,
      "ĠClear": 7659,
      "Ġannoun": 7660,
      "Multiple": 7661,
      "Ġunsafe": 7662,
      "Ġpatios": 7663,
      "ĠINDUSTRIAL": 7664,
      "Ġhydrolog": 7665,
      "Ġproportion": 7666,
      "ĠViolation": 7667,
      "Ġinstance": 7668,
      "Ġinterpreted": 7669,
      "Ġmorals": 7670,
      "Ġvelocity": 7671,
      "ĠLetter": 7672,
      "ĠïĢ§": 7673,
      "ĠCOUNCIL": 7674,
      "ĠADJUS": 7675,
      "Ġcubic": 7676,
      "250": 7677,
      "Is": 7678,
      "Number": 7679,
      "fall": 7680,
      "main": 7681,
      "square": 7682,
      "Ġ<": 7683,
      "Ġ>": 7684,
      "Ġvelopment": 7685,
      "inter": 7686,
      "Ġowing": 7687,
      "only": 7688,
      "Ġfar": 7689,
      "Ġdon": 7690,
      "Ġinstances": 7691,
      "Ġwine": 7692,
      "Ġrelocated": 7693,
      "iliary": 7694,
      "ectivity": 7695,
      "otechnical": 7696,
      "leges": 7697,
      "dings": 7698,
      "Ġgame": 7699,
      "ĠMust": 7700,
      "ĠTwenty": 7701,
      "Ġconstr": 7702,
      "Ġunenclosed": 7703,
      "Ġ46": 7704,
      "Ġ47": 7705,
      "ĠGarage": 7706,
      "ĠInformation": 7707,
      "adequate": 7708,
      "TIONAL": 7709,
      "manufactured": 7710,
      "Review": 7711,
      "Ġbasic": 7712,
      "exp": 7713,
      "Ġrequesting": 7714,
      "Ġcars": 7715,
      "CEP": 7716,
      "Ġlicenses": 7717,
      "Ġrestored": 7718,
      "Prot": 7719,
      "Ġparticip": 7720,
      "ergy": 7721,
      "2005": 7722,
      "Ġdisturbed": 7723,
      "Ġnotified": 7724,
      "Ġgreenbelt": 7725,
      "rowave": 7726,
      "Ġcamp": 7727,
      "ĠIlluminated": 7728,
      "Ġmeasurements": 7729,
      "Ġlabeled": 7730,
      "ĠLegal": 7731,
      "Ġconceptual": 7732,
      "Ġsky": 7733,
      "Ġrivers": 7734,
      "Ġirre": 7735,
      "ĠRelated": 7736,
      "Administrative": 7737,
      "vehicles": 7738,
      "Specific": 7739,
      "ĠSuperior": 7740,
      "Ġperpetuity": 7741,
      "Ġrepealed": 7742,
      "Ġeasily": 7743,
      "Ġtexture": 7744,
      "Ġexposure": 7745,
      "Ġpollutants": 7746,
      "Mixed": 7747,
      "Window": 7748,
      "oon": 7749,
      "range": 7750,
      "same": 7751,
      "ye": 7752,
      "ľĵ": 7753,
      "Ġte": 7754,
      "aration": 7755,
      "Ġmentioned": 7756,
      "ĠCell": 7757,
      "ĠPUBLIC": 7758,
      "urposes": 7759,
      "ĠBT": 7760,
      "ĠTE": 7761,
      "ĠTri": 7762,
      "Ġalthough": 7763,
      "ditionally": 7764,
      "Ġcomput": 7765,
      "tenant": 7766,
      "ĠGS": 7767,
      "ailroad": 7768,
      "ĠâĢķ": 7769,
      "Ġabandonment": 7770,
      "106": 7771,
      "Ġmains": 7772,
      "ĠApproved": 7773,
      "Ġleaving": 7774,
      "Ġsixteen": 7775,
      "ĠThirty": 7776,
      "ĠSecondary": 7777,
      "Ġcreates": 7778,
      "Ġcollect": 7779,
      "proposed": 7780,
      "Ġvariations": 7781,
      "Ġappliance": 7782,
      "Ġperennial": 7783,
      "Ġmessages": 7784,
      "Ġcamoufl": 7785,
      "ĠDisplay": 7786,
      "Ġâľĵ": 7787,
      "Ġrevisions": 7788,
      "Ġamenity": 7789,
      "Ġreader": 7790,
      "Ġtriangle": 7791,
      "Ġfabrication": 7792,
      "Ġillustration": 7793,
      "ĠIssuance": 7794,
      "ĠCOMMERCIAL": 7795,
      "Ġstill": 7796,
      "Ġnecessarily": 7797,
      "ĠENFORCEMENT": 7798,
      "floor": 7799,
      "Ġfraternal": 7800,
      "ENSITY": 7801,
      "Ġcollectively": 7802,
      "stantial": 7803,
      "Ġincurred": 7804,
      "ĠCLASSIFIC": 7805,
      "Loading": 7806,
      "79": 7807,
      "95": 7808,
      "Awn": 7809,
      "Cemeter": 7810,
      "Hospit": 7811,
      "PER": 7812,
      "homes": 7813,
      "lors": 7814,
      "oked": 7815,
      "top": 7816,
      "Ġaqu": 7817,
      "requirements": 7818,
      "hearing": 7819,
      "Ġsust": 7820,
      "ening": 7821,
      "Ġpress": 7822,
      "orial": 7823,
      "Ġwarehouse": 7824,
      "etween": 7825,
      "ushed": 7826,
      "ĠSUP": 7827,
      "ĠAuto": 7828,
      "Ġgather": 7829,
      "Ġexact": 7830,
      "ĠOCCUP": 7831,
      "ĠMc": 7832,
      "Ġresearch": 7833,
      "Ġsubgrade": 7834,
      "ĠZBA": 7835,
      "Ġacting": 7836,
      "ĠTheater": 7837,
      "ibilities": 7838,
      "TIT": 7839,
      "ivable": 7840,
      "Ġround": 7841,
      "option": 7842,
      "ĠWetlands": 7843,
      "Ġamusement": 7844,
      "there": 7845,
      "ĠAmusement": 7846,
      "Ġinformational": 7847,
      "ENTER": 7848,
      "Ġ1403": 7849,
      "ĠMaps": 7850,
      "Ġmarri": 7851,
      "ĠActivities": 7852,
      "Ġinspect": 7853,
      "ĠProvide": 7854,
      "Ġanimated": 7855,
      "kets": 7856,
      "Ġremainder": 7857,
      "ĠPUDs": 7858,
      "ĠTruck": 7859,
      "Ġfraction": 7860,
      "ĠWaterway": 7861,
      "Ġalternate": 7862,
      "Ġengage": 7863,
      "Therefore": 7864,
      "BACK": 7865,
      "ĠADMINISTRATION": 7866,
      "ĠBoarding": 7867,
      "Conservation": 7868,
      "Ġadministered": 7869,
      "ĠAntenna": 7870,
      "TURES": 7871,
      "Utility": 7872,
      "Ġconceal": 7873,
      "Ġharvesting": 7874,
      "Ġpossess": 7875,
      "lossary": 7876,
      "64": 7877,
      "Date": 7878,
      "Gu": 7879,
      "NC": 7880,
      "Note": 7881,
      "Rel": 7882,
      "Wall": 7883,
      "bul": 7884,
      "wide": 7885,
      "rear": 7886,
      "repair": 7887,
      "Ġlawn": 7888,
      "acco": 7889,
      "Ġthick": 7890,
      "ĠRD": 7891,
      "Ġexits": 7892,
      "eetings": 7893,
      "Ġunreasonable": 7894,
      "ĠHue": 7895,
      "Ġracks": 7896,
      "ounting": 7897,
      "dequate": 7898,
      "ĠVE": 7899,
      "Ġamounts": 7900,
      "Ġcomplied": 7901,
      "Ġassisted": 7902,
      "Ġclaim": 7903,
      "INGLE": 7904,
      "Ġgroundwater": 7905,
      "Ġelderly": 7906,
      "ĠSubmission": 7907,
      "180": 7908,
      "ĠChurch": 7909,
      "Community": 7910,
      "anitation": 7911,
      "Ġ......................................................................................": 7912,
      "Ġorganizations": 7913,
      "lots": 7914,
      "ĠTravel": 7915,
      "Ġvacation": 7916,
      "ĠMHP": 7917,
      "Ġimplementation": 7918,
      "Ġhedges": 7919,
      "Ġagreements": 7920,
      "Ġpredominant": 7921,
      "Ġdumpsters": 7922,
      "ĠEntrance": 7923,
      "Ġdismantling": 7924,
      "Ġexecuted": 7925,
      "Ġcitizens": 7926,
      "ĠEdge": 7927,
      "Ġlibraries": 7928,
      "Ġfulfill": 7929,
      "NON": 7930,
      "cl": 7931,
      "fort": 7932,
      "fuse": 7933,
      "lit": 7934,
      "major": 7935,
      "present": 7936,
      "utr": 7937,
      "ytown": 7938,
      "Ġ_": 7939,
      "hee": 7940,
      "alm": 7941,
      "Ġflu": 7942,
      "orn": 7943,
      "rocery": 7944,
      "Ġdental": 7945,
      "alley": 7946,
      "ĠSaid": 7947,
      "ĠSewer": 7948,
      "ĠSmall": 7949,
      "ĠCul": 7950,
      "ĠClay": 7951,
      "leys": 7952,
      "ĠDi": 7953,
      "Ġstren": 7954,
      "Ġhim": 7955,
      "Ġpervious": 7956,
      "ĠOf": 7957,
      "perties": 7958,
      "ffect": 7959,
      "verts": 7960,
      "ĠLane": 7961,
      "apid": 7962,
      "ĠDep": 7963,
      "ĠDevelop": 7964,
      "tained": 7965,
      "illi": 7966,
      "paragraph": 7967,
      "ĠVis": 7968,
      "Ġhomeowner": 7969,
      "tiliz": 7970,
      "inder": 7971,
      "ultaneous": 7972,
      "Ġclothing": 7973,
      "Ġcharges": 7974,
      "ĠConn": 7975,
      "Ġsecretary": 7976,
      "Ġprocessed": 7977,
      "ĠCommittee": 7978,
      "Ġflush": 7979,
      "Ġalleged": 7980,
      "Ġmarkers": 7981,
      "Professional": 7982,
      "Ġgroups": 7983,
      "Ġstationary": 7984,
      "provide": 7985,
      "ĠTownhouses": 7986,
      "ĠGrading": 7987,
      "Ġmarkets": 7988,
      "ĠIllumination": 7989,
      "ĠReduction": 7990,
      "Ġenclosures": 7991,
      "Ġrows": 7992,
      "ahooc": 7993,
      "Ġpanel": 7994,
      "Ġobjects": 7995,
      "ĠConvenience": 7996,
      "Ġadvertisement": 7997,
      "Ġcommencement": 7998,
      "designed": 7999,
      "ĠSERVICE": 8000,
      "Ġsuitability": 8001,
      "Ġobligations": 8002,
      "ĠLabor": 8003,
      "iercing": 8004,
      "ĠADJUSTMENT": 8005,
      "ĠHueytown": 8006,
      "Ġstreng": 8007,
      "ahoochee": 8008,
      "Auto": 8009,
      "Red": 8010,
      "based": 8011,
      "ewel": 8012,
      "med": 8013,
      "oes": 8014,
      "pole": 8015,
      "Ġarticles": 8016,
      "ĠĠĉĠĠ": 8017,
      "recre": 8018,
      "Ġpound": 8019,
      "Ġpawn": 8020,
      "Ġfish": 8021,
      "Ġchic": 8022,
      "Ġcitation": 8023,
      "Ġcritical": 8024,
      "Ġcrafts": 8025,
      "Ġlumber": 8026,
      "veys": 8027,
      "lements": 8028,
      "Ġdeal": 8029,
      "ĠMANUFAC": 8030,
      "ĠBuild": 8031,
      "Ġspeed": 8032,
      "Ġadding": 8033,
      "ĠICW": 8034,
      "Ġresub": 8035,
      "Ġreside": 8036,
      "Ġath": 8037,
      "ĠFM": 8038,
      "ĠFif": 8039,
      "ĠLE": 8040,
      "ĠDevices": 8041,
      "illary": 8042,
      "Ġenergy": 8043,
      "minor": 8044,
      "Ġsuff": 8045,
      "Ġdiseas": 8046,
      "Ġconditioned": 8047,
      "ĠAlley": 8048,
      "ulturist": 8049,
      "Ġapplicants": 8050,
      "Ġkennels": 8051,
      "Ġtransition": 8052,
      "ĠInstitution": 8053,
      "ĠChild": 8054,
      "ĠIndividual": 8055,
      "approved": 8056,
      "Parks": 8057,
      "Conditions": 8058,
      "Ġmatch": 8059,
      "Alabama": 8060,
      "ĠFAMILY": 8061,
      "bank": 8062,
      "illboard": 8063,
      "Manufacturing": 8064,
      "UNIC": 8065,
      "attahoochee": 8066,
      "Ġgrassed": 8067,
      "OFF": 8068,
      "ĠBrew": 8069,
      "Example": 8070,
      "Ġdisapproval": 8071,
      "Architectural": 8072,
      "Ġphotogr": 8073,
      "Ġrenewal": 8074,
      "TURED": 8075,
      "ĠHospitals": 8076,
      "Ġaccurate": 8077,
      "ĠSTRUCTURES": 8078,
      "ĠAttorney": 8079,
      "Ġmarriage": 8080,
      "Duplex": 8081,
      "Following": 8082,
      "Junk": 8083,
      "Master": 8084,
      "Radio": 8085,
      "Sc": 8086,
      "Variances": 8087,
      "Warehouse": 8088,
      "case": 8089,
      "nic": 8090,
      "oons": 8091,
      "sf": 8092,
      "sing": 8093,
      "Â³": 8094,
      "inch": 8095,
      "Ġtub": 8096,
      "Ġsited": 8097,
      "ert": 8098,
      "also": 8099,
      "eds": 8100,
      "Ġcash": 8101,
      "aratus": 8102,
      "atom": 8103,
      "Ġwetland": 8104,
      "Ġmile": 8105,
      "Ġlin": 8106,
      "Ġrebuilding": 8107,
      "Ġtourist": 8108,
      "idav": 8109,
      "ĠDistance": 8110,
      "ĠRC": 8111,
      "amped": 8112,
      "ĠNOT": 8113,
      "ĠFour": 8114,
      "ĠForestry": 8115,
      "endor": 8116,
      "Ġ20Â³": 8117,
      "Ġveterinary": 8118,
      "ĠHyd": 8119,
      "ewater": 8120,
      "ĠGateway": 8121,
      "ounges": 8122,
      "Ġ604": 8123,
      "Ġrot": 8124,
      "Ġmans": 8125,
      "Ġ74": 8126,
      "Ġ81": 8127,
      "earings": 8128,
      "obb": 8129,
      "Ġsought": 8130,
      "Ġsimultaneous": 8131,
      "ĠNoise": 8132,
      "ICS": 8133,
      "rected": 8134,
      "Ġattorney": 8135,
      "Ġroofed": 8136,
      "Ġscope": 8137,
      "Ġregulating": 8138,
      "Ġaffirm": 8139,
      "Ġcourty": 8140,
      "Procedures": 8141,
      "Ġilluminate": 8142,
      "Ġcurbing": 8143,
      "343": 8144,
      "Ġends": 8145,
      "Ġaccompany": 8146,
      "Ġ....................................................................................................": 8147,
      "Change": 8148,
      "ĠInterstate": 8149,
      "ĠDELE": 8150,
      "ĠDischarge": 8151,
      "Ġhandling": 8152,
      "Ġoptions": 8153,
      "THER": 8154,
      "ĠAPPLIC": 8155,
      "Ġsituation": 8156,
      "ĠSystems": 8157,
      "STRUC": 8158,
      "Ġharmon": 8159,
      "itched": 8160,
      "Ġceases": 8161,
      "Ġdangerous": 8162,
      "Ġsentence": 8163,
      "Ġrecycling": 8164,
      "ormitory": 8165,
      "ĠCertificates": 8166,
      "Airport": 8167,
      "Ġencompass": 8168,
      "Ġexplosive": 8169,
      "ĠDamage": 8170,
      "drawal": 8171,
      "Ġholiday": 8172,
      "ewelry": 8173,
      ".).": 8174,
      "73": 8175,
      "86": 8176,
      "Boundaries": 8177,
      "CRD": 8178,
      "Materials": 8179,
      "Right": 8180,
      "cillary": 8181,
      "dec": 8182,
      "ead": 8183,
      "Ġauditor": 8184,
      "ern": 8185,
      "estig": 8186,
      "ndered": 8187,
      "ici": 8188,
      "roof": 8189,
      "ark": 8190,
      "arized": 8191,
      "aracter": 8192,
      "Ġditches": 8193,
      "Ġtoxic": 8194,
      "Ġshore": 8195,
      "actions": 8196,
      "ĠSanitary": 8197,
      "ĠCU": 8198,
      "ĠApartment": 8199,
      "ĠAfter": 8200,
      "quacy": 8201,
      "ĠPowers": 8202,
      "Ġexcep": 8203,
      "ĠBl": 8204,
      "ĠFive": 8205,
      "ĠFactor": 8206,
      "ĠTall": 8207,
      "ĠTIT": 8208,
      "Ġ207": 8209,
      "ĠHall": 8210,
      "tains": 8211,
      "Ġplain": 8212,
      "ivided": 8213,
      "Ġroutes": 8214,
      "ceptable": 8215,
      "Ġoccupies": 8216,
      "Ġinterstate": 8217,
      "Ġcontrolling": 8218,
      "ĠAlternative": 8219,
      "Ġbetter": 8220,
      "ALL": 8221,
      "Ġaged": 8222,
      "private": 8223,
      "Ġextreme": 8224,
      "Ġvisit": 8225,
      "Ġexplan": 8226,
      "ĠConcrete": 8227,
      "ĠConflic": 8228,
      "Ġconducting": 8229,
      "ĠStatement": 8230,
      "Ġboards": 8231,
      "Ġaccommodation": 8232,
      "Ġqualify": 8233,
      "Alternative": 8234,
      "Ġinitiate": 8235,
      "subdivision": 8236,
      "Ġsubsequently": 8237,
      "provisions": 8238,
      "Ġmaximize": 8239,
      "ĠCONTENT": 8240,
      "ĠOwnership": 8241,
      "ĠRegistered": 8242,
      "Ġdownstream": 8243,
      "Ġ1996": 8244,
      "Ġbuildable": 8245,
      "Ġsymbol": 8246,
      "Ġcorrected": 8247,
      "ĠNursery": 8248,
      "Restaurants": 8249,
      "Ġborder": 8250,
      "Ġconviction": 8251,
      "ĠEvents": 8252,
      "Ġcommodity": 8253,
      "Ġdifficul": 8254,
      "Electr": 8255,
      "ĠPractices": 8256,
      "authorized": 8257,
      "Ġstringent": 8258,
      "atomical": 8259,
      "81": 8260,
      "82": 8261,
      "92": 8262,
      "Cont": 8263,
      "Canopy": 8264,
      "DR": 8265,
      "FAR": 8266,
      "Homes": 8267,
      "Imp": 8268,
      "More": 8269,
      "motor": 8270,
      "nas": 8271,
      "nants": 8272,
      "oastal": 8273,
      "ï¿½": 8274,
      "ĠïĤ§": 8275,
      "Ġopment": 8276,
      "Ġsized": 8277,
      "Ġfa": 8278,
      "ishes": 8279,
      "Ġcream": 8280,
      "Ġmort": 8281,
      "ĠSus": 8282,
      "ĠSolar": 8283,
      "legal": 8284,
      "Ġcondu": 8285,
      "ĠDoc": 8286,
      "ĠDescription": 8287,
      "ĠDWELLING": 8288,
      "ulate": 8289,
      "Ġapparatus": 8290,
      "ĠMD": 8291,
      "ĠMU": 8292,
      "ĠMore": 8293,
      "ĠBlock": 8294,
      "Ġspr": 8295,
      "ĠFt": 8296,
      "Ġheat": 8297,
      "established": 8298,
      "ĠHI": 8299,
      "Ġ2002": 8300,
      "ĠEssential": 8301,
      "ĠRequ": 8302,
      "Ġenough": 8303,
      "ĠGlossary": 8304,
      "Ġ602": 8305,
      "Ġ87": 8306,
      "ercent": 8307,
      "enches": 8308,
      "ĠProbate": 8309,
      "Ġdrink": 8310,
      "Thomasville": 8311,
      "ĠUnloading": 8312,
      "Ġscrap": 8313,
      "Ġforming": 8314,
      "Ġfootpr": 8315,
      "ïĤ·": 8316,
      "Ġdimensioned": 8317,
      "Ġoutdoors": 8318,
      "ĠShop": 8319,
      "ĠSidewalk": 8320,
      "Ġinvestig": 8321,
      "IGURE": 8322,
      "Procedure": 8323,
      "Ġfoundations": 8324,
      "Ġentering": 8325,
      "Ġaccomplish": 8326,
      "Ġconstituting": 8327,
      "Ġaccordingly": 8328,
      "Plans": 8329,
      "Ġfactory": 8330,
      "ĠSubsections": 8331,
      "Road": 8332,
      "Ġcomprised": 8333,
      "Ġcomprising": 8334,
      "Ġassessed": 8335,
      "Ġreferences": 8336,
      "Ġbalcony": 8337,
      "Ġextra": 8338,
      "Ġhandicap": 8339,
      "ĠGasoline": 8340,
      "Traffic": 8341,
      "Ġsheds": 8342,
      "Ġmicro": 8343,
      "Ġfasten": 8344,
      "Facilities": 8345,
      "Occupancy": 8346,
      "ĠTourist": 8347,
      "PLEMENT": 8348,
      "Ġdemolition": 8349,
      "Ġmansard": 8350,
      "ĠTITLE": 8351,
      "Dry": 8352,
      "Lim": 8353,
      "TN": 8354,
      "classified": 8355,
      "date": 8356,
      "peal": 8357,
      "single": 8358,
      "vis": 8359,
      "Ġtables": 8360,
      "Ġpumping": 8361,
      "Ġbat": 8362,
      "Ġblo": 8363,
      "Ġcup": 8364,
      "Ġdance": 8365,
      "Ġmechan": 8366,
      "Ġreach": 8367,
      "Ġrendered": 8368,
      "using": 8369,
      "Ġnav": 8370,
      "ĠSC": 8371,
      "Ġthreat": 8372,
      "ĠPos": 8373,
      "ĠPatio": 8374,
      "Ġanatomical": 8375,
      "unit": 8376,
      "ĠRadio": 8377,
      "amed": 8378,
      "ĠBody": 8379,
      "rient": 8380,
      "ĠIdentification": 8381,
      "ĠFollowing": 8382,
      "Ġ350": 8383,
      "ĠHand": 8384,
      "ĠHuman": 8385,
      "Ġrub": 8386,
      "Ġrise": 8387,
      "resh": 8388,
      "ĠThese": 8389,
      "Ġ41": 8390,
      "Ġchairman": 8391,
      "asement": 8392,
      "Ġsets": 8393,
      "Ġ108": 8394,
      "Ġundivided": 8395,
      "ĠVer": 8396,
      "ĠVeterinary": 8397,
      "Ġ79": 8398,
      "Ġ803": 8399,
      "205": 8400,
      "Ġleasing": 8401,
      "ICES": 8402,
      "Ġdeveloping": 8403,
      "Ġaffidav": 8404,
      "Exp": 8405,
      "ĠChattahoochee": 8406,
      "ĠIndustry": 8407,
      "ĠShrubs": 8408,
      "Ġrestore": 8409,
      "ustomary": 8410,
      "Ġavailability": 8411,
      "lusion": 8412,
      "Ġliability": 8413,
      "Ġdocks": 8414,
      "ĠInspections": 8415,
      "Ġadministratively": 8416,
      "constructed": 8417,
      "laws": 8418,
      "Enforcement": 8419,
      "Before": 8420,
      "Ġgeographic": 8421,
      "ĠAbandoned": 8422,
      "Ġdeposited": 8423,
      "ĠDouble": 8424,
      "Establishment": 8425,
      "ĠHorticulturist": 8426,
      "Ġbrightness": 8427,
      "Ġathletic": 8428,
      "Ġsimultaneously": 8429,
      "Ġharmonious": 8430,
      "77": 8431,
      "91": 8432,
      "ACE": 8433,
      "Out": 8434,
      "Ph": 8435,
      "RIC": 8436,
      "Viol": 8437,
      "With": 8438,
      "Words": 8439,
      "buffer": 8440,
      "Ġ%": 8441,
      "Ġpil": 8442,
      "Ġfowl": 8443,
      "Ġweight": 8444,
      "Ġmo": 8445,
      "Ġlat": 8446,
      "Ġefficiency": 8447,
      "Ġhad": 8448,
      "Ġuser": 8449,
      "Ġgutters": 8450,
      "hern": 8451,
      "Ġdelay": 8452,
      "Ġcomposition": 8453,
      "ĠMO": 8454,
      "ĠBMP": 8455,
      "Ġresemb": 8456,
      "Ġrid": 8457,
      "Ġ--": 8458,
      "Ġcommunities": 8459,
      "ĠGoods": 8460,
      "ailers": 8461,
      "Ġoffensive": 8462,
      "ĠWood": 8463,
      "120": 8464,
      "include": 8465,
      "ĠAdopted": 8466,
      "ĠYARD": 8467,
      "angu": 8468,
      "Ġissues": 8469,
      "Ġassist": 8470,
      "industrial": 8471,
      "Ġspecialized": 8472,
      "exceed": 8473,
      "ĠAnnex": 8474,
      "Ġflammable": 8475,
      "produc": 8476,
      "aÃ§ades": 8477,
      "Ġpresentation": 8478,
      "Ġwoody": 8479,
      "***": 8480,
      "----": 8481,
      "Ġvolunt": 8482,
      "Individual": 8483,
      "applicant": 8484,
      "ĠGuarant": 8485,
      "Ġpatron": 8486,
      "TURAL": 8487,
      "districts": 8488,
      "Ġsubstit": 8489,
      "ĠĠĠĠĠĠĠĠĠĠĠĠĠĠĠĠĠĠĠĠĠĠĠĠĠĠĠĠĠĠĠĠĠĠĠĠĠĠĠĠĠĠĠĠĠĠĠĠĠĠĠĠĠĠĠĠĠĠĠ": 8490,
      "Ġmicrowave": 8491,
      "Ġcrops": 8492,
      "Ġindirectly": 8493,
      "Ġinjury": 8494,
      "month": 8495,
      "Ġrecessed": 8496,
      "Ġdischarges": 8497,
      "Ġdeterior": 8498,
      "512": 8499,
      "71": 8500,
      "BILE": 8501,
      "PLAN": 8502,
      "bus": 8503,
      "dra": 8504,
      "gical": 8505,
      "max": 8506,
      "val": 8507,
      "yn": 8508,
      "Ġbroadcast": 8509,
      "Ġbenches": 8510,
      "iscellaneous": 8511,
      "Ġclosed": 8512,
      "Ġdimin": 8513,
      "Ġlisting": 8514,
      "Ġreception": 8515,
      "ilit": 8516,
      "etc": 8517,
      "trac": 8518,
      "ĠSm": 8519,
      "ĠSET": 8520,
      "Ġeast": 8521,
      "ĠData": 8522,
      "ĠOTHER": 8523,
      "Ġparlors": 8524,
      "standard": 8525,
      "ĠLake": 8526,
      "ĠLiquor": 8527,
      "respon": 8528,
      "ipher": 8529,
      "Ġdesires": 8530,
      "Ġ54": 8531,
      "Ġenable": 8532,
      "Ġplacing": 8533,
      "Ġ49": 8534,
      "ĠWIT": 8535,
      "facing": 8536,
      "pension": 8537,
      "Ġ88": 8538,
      "paved": 8539,
      "ENSION": 8540,
      "Ġclient": 8541,
      "Ġclerk": 8542,
      "Ġcorrespon": 8543,
      "Ġauthorizing": 8544,
      "Stream": 8545,
      "alescent": 8546,
      "Replacement": 8547,
      "Ġ190": 8548,
      "Ġregion": 8549,
      "ĠChief": 8550,
      "ANT": 8551,
      "Ġposts": 8552,
      "ĠJun": 8553,
      "Ġcolleges": 8554,
      "ĠCombin": 8555,
      "note": 8556,
      "Ġclassifications": 8557,
      "Ġcontinues": 8558,
      "Def": 8559,
      "Ġbuilder": 8560,
      "Ġdamages": 8561,
      "Ġgeneration": 8562,
      "iversity": 8563,
      "Ġdiscour": 8564,
      "meable": 8565,
      "Ġtreatments": 8566,
      "Ġpenalty": 8567,
      "Ġseeking": 8568,
      "Ġcamps": 8569,
      "Ġcampers": 8570,
      "Ġcontinuously": 8571,
      "coholic": 8572,
      "Ġaccompanying": 8573,
      "Ġfactor": 8574,
      "patibility": 8575,
      "Ġterminate": 8576,
      "Ġearthen": 8577,
      "Ġfuels": 8578,
      "Ġsituations": 8579,
      "Ġnuisances": 8580,
      "Ġduplexes": 8581,
      "Ġstatute": 8582,
      "compliance": 8583,
      "Ġburial": 8584,
      "IMENSION": 8585,
      "Ġphrase": 8586,
      "Ġjustif": 8587,
      "Ġwatercourses": 8588,
      "SCAP": 8589,
      "ceptibility": 8590,
      "Ġbridges": 8591,
      "Ġtoilet": 8592,
      "Ġimportant": 8593,
      "Ġsafeguards": 8594,
      "Ġblood": 8595,
      "RICUL": 8596,
      "drawn": 8597,
      "Ġcorresponding": 8598,
      ")*": 8599,
      "Apartment": 8600,
      "Dec": 8601,
      "Fin": 8602,
      "High": 8603,
      "cce": 8604,
      "farm": 8605,
      "high": 8606,
      "ler": 8607,
      "lets": 8608,
      "regulations": 8609,
      "Ġparen": 8610,
      "Ġfem": 8611,
      "Ġfenestration": 8612,
      "Ġwarning": 8613,
      "Ġmotels": 8614,
      "Ġbehalf": 8615,
      "Ġbeams": 8616,
      "Ġeave": 8617,
      "ĠAS": 8618,
      "ĠACCESSORY": 8619,
      "omest": 8620,
      "asts": 8621,
      "llan": 8622,
      "ults": 8623,
      "above": 8624,
      "ĠOut": 8625,
      "ateur": 8626,
      "Ġnotarized": 8627,
      "ifies": 8628,
      "ĠFuture": 8629,
      "ĠTechnical": 8630,
      "ĠTime": 8631,
      "thru": 8632,
      "enda": 8633,
      "ĠHotels": 8634,
      "ĠEIFS": 8635,
      "ĠRefer": 8636,
      "Ġacadem": 8637,
      "ĠGlare": 8638,
      "Ġoffers": 8639,
      "anches": 8640,
      "ĠInternal": 8641,
      "vie": 8642,
      "scri": 8643,
      "agne": 8644,
      "âĢĻ.": 8645,
      "125": 8646,
      "Interior": 8647,
      "2019": 8648,
      "111": 8649,
      "Ġinstruments": 8650,
      "Ġindustries": 8651,
      "vents": 8652,
      "Ġsimilarly": 8653,
      "ertified": 8654,
      "Ġroofing": 8655,
      "hibits": 8656,
      "Ġbounded": 8657,
      "Ġfeed": 8658,
      "ĠThree": 8659,
      "Ġlimiting": 8660,
      "Ġentities": 8661,
      "Ġmonuments": 8662,
      "Ġemphas": 8663,
      "ĠREVIEW": 8664,
      "ĠFacade": 8665,
      "Performance": 8666,
      "Ġfrequent": 8667,
      "Ġdevelopers": 8668,
      "Ġconsidering": 8669,
      "embership": 8670,
      "Ġsubmitting": 8671,
      "Ġ..............................................................................................................": 8672,
      "Ġswales": 8673,
      "ĠFloodway": 8674,
      "ĠFACIL": 8675,
      "Ġgreenhouses": 8676,
      "Ġtechnology": 8677,
      "Ġproceeding": 8678,
      "Ġrevoked": 8679,
      "Ġdocumented": 8680,
      "Ġsignificantly": 8681,
      "ĠUNIT": 8682,
      "Ġsupplied": 8683,
      "Ġreflected": 8684,
      "Ġcarrying": 8685,
      "ADMINISTRATION": 8686,
      "Ġintersects": 8687,
      "ĠProjecting": 8688,
      "ĠIncidental": 8689,
      "Ġwarranty": 8690,
      "Recreation": 8691,
      "Furthermore": 8692,
      "ĠALL": 8693,
      "Ġjustice": 8694,
      "Ġattendance": 8695,
      "Ġpetroleum": 8696,
      "Ġbroken": 8697,
      "Ġstoops": 8698,
      "Ġincentives": 8699,
      "Ġfertiliz": 8700,
      "Gasoline": 8701,
      "Ġimprison": 8702,
      "Ġpressure": 8703,
      "ĠVEHICLE": 8704,
      "ĠSETBACK": 8705,
      "agnetic": 8706,
      "AIN": 8707,
      "Automotive": 8708,
      "CA": 8709,
      "CO": 8710,
      "Golf": 8711,
      "Medical": 8712,
      "Over": 8713,
      "PCD": 8714,
      "Urban": 8715,
      "YARD": 8716,
      "bre": 8717,
      "purpose": 8718,
      "sim": 8719,
      "Ġiron": 8720,
      "Ġtire": 8721,
      "Ġtile": 8722,
      "Ġtang": 8723,
      "eded": 8724,
      "roached": 8725,
      "Ġdred": 8726,
      "Ġwest": 8727,
      "ÂłĠĠĠ": 8728,
      "usal": 8729,
      "acc": 8730,
      "ĠScreen": 8731,
      "ĠStructural": 8732,
      "otes": 8733,
      "ques": 8734,
      "ĠPLA": 8735,
      "urface": 8736,
      "Ġconfined": 8737,
      "ĠDENSITY": 8738,
      "Ġstops": 8739,
      "Ġstart": 8740,
      "urer": 8741,
      "ultifamily": 8742,
      "Ġgardens": 8743,
      "Ġdeviation": 8744,
      "ĠIT": 8745,
      "ĠFH": 8746,
      "Ġ303": 8747,
      "Ġ2001": 8748,
      "rested": 8749,
      "Ġ57": 8750,
      "Ġcoinc": 8751,
      "easure": 8752,
      "Ġ403": 8753,
      "ows": 8754,
      "Ġ62": 8755,
      "ivil": 8756,
      "Ġaccessibility": 8757,
      "Ġprevention": 8758,
      "Ġprevail": 8759,
      "ĠIniti": 8760,
      "Ġable": 8761,
      "Ġ109": 8762,
      "105": 8763,
      "âĢĻ).": 8764,
      "ĠVac": 8765,
      "Ġ702": 8766,
      "Ġ801": 8767,
      "2012": 8768,
      "Ġarts": 8769,
      "ENAL": 8770,
      "ermost": 8771,
      "ĠResearch": 8772,
      "EST": 8773,
      "Ġwhy": 8774,
      "Ġwholesaling": 8775,
      "Ġelection": 8776,
      "Ġtransit": 8777,
      "LATION": 8778,
      "ĠGeotechnical": 8779,
      "Additionally": 8780,
      "Ġaccommodated": 8781,
      "Ġreducing": 8782,
      "Ġlien": 8783,
      "Ġbars": 8784,
      "Ġcertifying": 8785,
      "Ġsafely": 8786,
      "Ġpending": 8787,
      "Ġpenetr": 8788,
      "Ġconcurrent": 8789,
      "Ġfarming": 8790,
      "ĠLimit": 8791,
      "Ġlettering": 8792,
      "ĠFORT": 8793,
      "Ġdecorations": 8794,
      "ĠFeatures": 8795,
      "Ġcultiv": 8796,
      "PDES": 8797,
      "Ġlegisl": 8798,
      "Ġcaf": 8799,
      "ahue": 8800,
      "Ġprinciples": 8801,
      "SPECIAL": 8802,
      "Ġcornices": 8803,
      "Ġprivile": 8804,
      "ĠExempt": 8805,
      "March": 8806,
      "Clellan": 8807,
      "limited": 8808,
      "Official": 8809,
      "IPAL": 8810,
      "Ġordinary": 8811,
      "specified": 8812,
      "Ġappliances": 8813,
      "Ġstadiums": 8814,
      "ĠDonahue": 8815,
      "Ġconstraints": 8816,
      "ĠDELETED": 8817,
      "ĠCONTENTS": 8818,
      "Ġfootprint": 8819,
      "Ġcupol": 8820,
      "ilitary": 8821,
      "APP": 8822,
      "Bicycle": 8823,
      "Cal": 8824,
      "GLA": 8825,
      "JEC": 8826,
      "Swimming": 8827,
      "cia": 8828,
      "dress": 8829,
      "ios": 8830,
      "lies": 8831,
      "maximum": 8832,
      "sets": 8833,
      "xious": 8834,
      "Ġtail": 8835,
      "Ġtelecommunication": 8836,
      "erate": 8837,
      "along": 8838,
      "itness": 8839,
      "arbage": 8840,
      "atur": 8841,
      "Ġmiles": 8842,
      "Ġrevision": 8843,
      "ĠSale": 8844,
      "ĠSINGLE": 8845,
      "ĠCENTER": 8846,
      "Ġprominent": 8847,
      "ĠPAGE": 8848,
      "Ġanti": 8849,
      "ĠOption": 8850,
      "ĠBillboards": 8851,
      "ĠTop": 8852,
      "well": 8853,
      "Ġlocating": 8854,
      "Ġlandowner": 8855,
      "Ġenacted": 8856,
      "Ġ66": 8857,
      "creens": 8858,
      "ĠWhether": 8859,
      "ĠVR": 8860,
      "Ġinterconn": 8861,
      "Ġouter": 8862,
      "Ġassistance": 8863,
      "Ġgrocery": 8864,
      "Ġrelate": 8865,
      "Ġ135": 8866,
      "Ġeffort": 8867,
      "Ġlogo": 8868,
      "Ġcleared": 8869,
      "elled": 8870,
      "Repair": 8871,
      "ternally": 8872,
      "ĠInstitute": 8873,
      "Antenn": 8874,
      "Ġdiagr": 8875,
      "Ġflor": 8876,
      "Ġreproduc": 8877,
      "ishable": 8878,
      "Ġsubstance": 8879,
      "Ġresponsibilities": 8880,
      "spaces": 8881,
      "lopes": 8882,
      "Ġcamping": 8883,
      "Ġfarms": 8884,
      "Ġbrew": 8885,
      "Ġterminated": 8886,
      "Ġconveyed": 8887,
      "Ġdeclaration": 8888,
      "operable": 8889,
      "Ġhabitation": 8890,
      "ĠFlag": 8891,
      "Ġuncertain": 8892,
      "Ġquantities": 8893,
      "Ġmitigation": 8894,
      "Ġdumpster": 8895,
      "Ġwrecking": 8896,
      "Penalties": 8897,
      "ometric": 8898,
      "Ġcabinet": 8899,
      "ĠAssessor": 8900,
      "Boarding": 8901,
      "Council": 8902,
      "ĠElevation": 8903,
      "ĠMcClellan": 8904,
      "Ġpounds": 8905,
      "Ġaffidavit": 8906,
      "ĠWITH": 8907,
      "CL": 8908,
      "Comp": 8909,
      "DF": 8910,
      "Dis": 8911,
      "Fire": 8912,
      "NR": 8913,
      "STA": 8914,
      "Title": 8915,
      "Whether": 8916,
      "Written": 8917,
      "aks": 8918,
      "augh": 8919,
      "cle": 8920,
      "eb": 8921,
      "free": 8922,
      "ptions": 8923,
      "tree": 8924,
      "tended": 8925,
      "twenty": 8926,
      "taker": 8927,
      "Ġslo": 8928,
      "tire": 8929,
      "Ġpitched": 8930,
      "ingles": 8931,
      "Ġbu": 8932,
      "arc": 8933,
      "Ġdil": 8934,
      "Ġwiring": 8935,
      "Ġmuseums": 8936,
      "Ġrebuilt": 8937,
      "veget": 8938,
      "ĠSand": 8939,
[...]
