#version: 0.2 - Trained by `huggingface/tokenizers`
Ġ a
i n
Ġ t
Ġ o
r e
Ġ s
h e
o n
Ġ Ġ
a l
e r
Ġt he
e n
t i
Ġ p
in g
e d
a n
e s
Ġ b
Ġ f
Ġo f
o r
Ġa n
i t
i s
ti on
Ġ c
r o
a r
i c
Ġan d
en t
a t
Ġ d
. .
Ġ w
Ġ in
Ġ m
Ġo r
al l
Ġ re
l o
Ġt o
Ġb e
Ġs h
c e
i l
i g
e t
Ġsh all
v e
u s
e c
m ent
a tion
Ġt h
Ġ n
i d
Ġs t
l e
Ġ e
ĠĠ ĠĠ
a c
Ġp ro
Ġ S
.. ..
Ġ (
i m
Ġf or
Ġ l
Ġ C
a s
p p
d ing
o m
Ġ A
ig n
u c
Ġc on
it h
u n
Ġw ith
o t
q u
a y
Ġ P
t r
u r
Ġo n
Ġa re
an ce
Ġ us
Ġa pp
Ġ N
u l
l an
Ġ h
u b
u re
i re
Ġ D
Ġp er
Ġ is
l ic
Ġ lo
it y
es s
u il
t ed
l l
an d
Ġ O
a b
Ġa s
uil ding
Ġe x
Ġd e
i on
at e
u m
ar d
he r
t er
T he
t s
ig h
o s
Ġb y
Ġ 1
d i
Ġs ign
Ġn ot
qu ire
Ġ g
lo p
ec tion
.... ....
ve lop
Ġp ar
a g
Ġ R
a in
c c
i al
l y
o l
Ġth at
Ġpro p
Ġan y
at ed
d in
re et
t her
Ġb uilding
m it
Ġre quire
h ic
f f
ment s
v er
Ġ 2
Ġ ĉ
Ġs p
Ġus e
d e
ation s
din ance
tr ic
Ġth is
t ure
â Ģ
e et
r a
r i
igh t
u t
Ġc om
Ġ B
velop ment
Ġa d
Ġo ther
Ġpro v
s t
lo w
k ing
i r
Ġd is
id e
0 0
uc h
ro m
t y
ar y
i f
on ing
Ġ un
Ġp lan
a m
di tion
Ġf rom
ag e
Ġ v
Ġin c
en ti
ab le
Ġm ay
en d
ĠO r
t ing
ro v
o d
is ion
Ġa t
Ġs uch
ĠP lan
ĠĠĠĠ ĠĠĠĠ
Ġa l
uc ture
Ġst reet
o w
Ġapp lic
Ġst r
at er
Ġf eet
Ġcon s
a ce
im um
Ġs ub
Ġre s
Ġw hic
Ġ he
Ġm o
t h
re s
a p
Ġ M
it e
ĠOr dinance
Ġwhic h
Ġ I
u p
ard s
Ġper mit
Ġ T
es t
Ġstr ucture
Ġa cc
tric t
Ġlo c
l u
s e
Ġde velopment
id enti
Ġare a
Ġa ll
in e
e w
Ġ F
ec t
Ġprop er
ub lic
e m
or m
Ġd es
ĠS ection
Ġwith in
ti es
Ġĉ Ġĉ
Ġcom p
er s
he d
e l
i z
w ay
identi al
Ġpar king
Ġth an
Ġ L
Ġ Z
er v
........ ........
s ion
ĠC ity
om m
Ġc h
Ġl and
Ġinc lu
n ing
Ġapp rov
Ġp ublic
a re
i b
t ain
Ġ E
i p
g ul
un d
ti c
b er
on t
os ed
h o
p or
Ġ U
o f
ĠR e
Ġlo t
and ards
Ġdes ign
c re
Ġw he
Ġin t
Ġrequire d
f orm
in imum
Ġproper ty
v i
Ġus es
an t
il l
Ġ z
Ġn o
ol low
Ġon e
Ġf ollow
Ġs ite
ĠN o
Ġc o
w e
Ġh a
Ġprov id
re d
e p
Ġare as
dition al
Ġm a
ĠS t
Ġ it
ater ial
ĠĠĠĠ Ġ
Ġex ce
Ġ 6
Ġof f
Ġ r
Ġ G
ĠD is
Ġloc ated
ff ic
w n
ĠĠ Ġ
Ġfollow ing
Ġt w
Ġmo re
gul ations
us t
Ġf ac
Ġprop osed
Ġsign s
Ġ V
an g
r ont
Ġo p
all y
Ġrequire ments
d er
Ġ en
ĠZ oning
Ġ im
m end
Ġ ro
ti ve
I I
ision s
Ġprovid ed
Ġsp ec
ĠPlan ning
Ġst andards
Ġm aterial
ac h
o us
Ġ2 0
Ġpermit ted
s c
l is
tr uc
Ġ The
ĠC omm
Ġa c
Ġm inimum
an c
it ed
Ġp r
p os
a d
Ġ le
i ve
er al
i ed
Ġacc ess
Ġ 3
er m
Ġ 7
t en
Ġd et
erv ic
o p
T I
Ġf o
i ties
N o
is sion
k s
Ġdis trict
ab lis
O N
Ġp l
i x
in ess
sc ap
us iness
Ġha ve
Ġp re
as e
ĠI n
Ġf ront
Ġ H
on e
om e
or y
ĠDis trict
or d
Ġor dinance
Ġn on
Ġus ed
Ġsp ace
Ġres idential
c h
Ġz oning
vi ew
ac es
e e
i es
il y
ĠB uilding
Ġp ur
di v
p t
Ġ est
re e
Ġ ve
Ġo wn
en eral
j ect
ĠS ign
Ġex is
âĢ Ļ
2 0
Ġw all
ĠD e
I n
a il
Ġest ablis
Ġo cc
1 0
Ġbuilding s
Ġhe ight
ll ing
Ġs ur
Ġm ain
Ġl im
ow n
Ġ W
Ġwhe re
Ġb usiness
Ġim p
Ġspec if
Ġfac il
c t
Ġad j
Ġa r
is e
Ġd o
Ġg ro
Ġapprov al
ĠComm ission
ac hed
as t
TI ON
on s
Ġcom m
Ġ âĢ
Ġs et
Ġapplic ation
Ġstructure s
Ġ 8
Ġn e
c o
Ġt ra
Ġe ach
Ġcons truc
we lling
e re
Ġ up
en s
ar t
Ġl ine
Ġapprov ed
a de
Ġlo ts
i v
Ġa b
Ġs a
Ġs ervic
Ġcon t
Ġs ide
Ġ y
Ġcon dition
ĠĠĠĠĠĠĠĠ ĠĠĠĠĠĠĠĠ
Ġal low
Ġm e
Ġre view
Ġsp aces
ac k
Ġun it
Â §
Ġin ter
iz e
m ber
p l
ĠC o
Ġde velop
Ġve hic
mit ted
am e
tion s
cre en
is t
A n
Ġ 5
he n
Ġd welling
por t
E C
an s
Ġinclu ding
x imum
en c
Ġd ec
Ġw ill
ĠP ar
s es
u g
Ġre gulations
us e
mend ment
Ġexis ting
Ġb o
Ġch ang
Ġs o
Ġm eet
Ġ2 00
Ġstreet s
Ġf t
ur al
âĢ ¦
u al
Ġm ust
Ġf lo
id th
ul d
Ġexce ed
Ġmaterial s
i or
Ġh ome
Ġapplic able
Ġt im
s u
ac ent
am ily
Ġinclu de
Ġtw o
ĠV II
a Ã
c on
f ic
Ġm an
il e
ib le
Ġpur pos
aÃ §
o c
s ection
in d
Ġt r
c ent
Ġp ri
ve mber
Ġadj acent
v en
ti l
ĠNo vember
anc es
Ġocc up
1 2
Ġ if
EC TION
tion al
ar i
m o
Ġcomp l
................ ................
o uld
in c
Ġs u
âĢ¦ âĢ¦
l es
ul t
ĠDe velopment
n er
er c
ri ve
e ar
qu are
ug h
Ġp o
ing le
im ary
Ġprov ide
Ġun der
on g
Ġapp ro
ire ct
v ent
Ġs im
Ġ1 0
tric ts
em por
empor ary
y p
Ġc or
A ll
Ġtim e
Ġb ut
as s
i i
Ġs creen
ac t
ĠB o
Ġapplic ant
Ġland scap
e at
t e
Ġs quare
Ġon ly
Ġex p
art ment
u ff
Ġthe re
Ġprov isions
Ġr ight
Ġfacil ities
i k
Ġper cent
) ,
i ent
p tion
Ġs ame
Ġf aÃ§
Ġw idth
un c
ĠA d
Ġs c
Ġl ight
ĠA l
Ġlim ited
re es
ic al
Ġe le
Ġcon tain
in is
ti t
end ed
o od
Ġre c
Ġre qu
Ġ 9
Ġloc ation
ere n
h ib
um ber
iz ed
_ _
h is
Ġbe t
we en
Ġro of
Ġ 4
en ce
il ity
st reet
Ġup on
in ed
al e
Ġd ay
a tive
ĠO p
Ġv is
form ing
Ġle ast
Ġbet ween
l ess
Ġs e
ation al
Ġsub ject
ĠRe quire
ĠRe gulations
Ġop en
Ġmain tain
erc ial
in es
he s
Ġpar t
Ġv i
Ġdet erm
Ġsur f
Ġ ent
ĠU ses
g ine
ul ar
ure s
Ġit s
Ġop er
Ġown er
ip al
Ġoff ic
Ġcondition s
ter ior
Ġv ari
ter n
Ġma ximum
Ġallow ed
Ġflo or
Ġc an
Ġacc ord
ĠE n
Ġconstruc tion
g e
Ġo ver
b or
ĠSign s
Ġ200 7
1 1
o re
Ġa ut
Ġt yp
Ġre l
Ġre p
il ar
âĢ Ŀ
Ġo b
on d
00 0
r it
at ing
ĠD ate
igh bor
Ġsim ilar
ĠBo ard
ĠfaÃ§ ade
Ġaccord ance
Ġs ection
Ġp or
ĠS ECTION
ĠP rov
Ġestablis h
gine er
Ġm et
Ġre f
ĠS ub
Ġĉ ĠĠ
An y
Ġĉ Ġ
el ik
elik a
w al
Ġ u
lo s
d uc
n e
an ent
Ġin s
res s
Ġch ar
Ġexce pt
or age
Ġfor m
Ġl ess
Ġh as
ĠOp elika
) .
a ti
b ack
b ile
o ut
p re
Ġs ingle
ent y
con forming
Ġs ize
ĠG eneral
s s
ĠC on
as on
ir c
Ġpr imary
t ached
es tr
Ġservic e
inc ipal
T his
m is
Ġd rive
Ġper s
Ġsurf ace
Ġu til
2 1
e al
Ġn umber
ĠP er
ĠP ro
ĠD ep
Ġad op
ĠU se
ĠVII I
Ġa g
or s
ec ess
Ġtw enty
div ision
Ġtra ffic
a ding
Ġf eat
cc ess
f ter
i an
ro ugh
ac ter
ĠE x
2 5
k e
u e
ĠA mendment
Ġb uff
Ġc l
res idential
Ġspecif ic
mis es
on es
ti fic
ed estr
hib ited
Ġchar acter
p ri
Ġin d
Ġin st
ĠA r
Ġwhe n
ĠâĢ ľ
ĠDep artment
lo c
Ġis su
Ġ1 9
Ġunit s
ecess ary
ot h
ĠĉĠĉ ĠĉĠĉ
tic le
div id
Ġsa f
ĠPar king
h or
Ġ -
Ġp res
Ġde p
way s
ĠProv isions
pri ate
S E
a ir
c ess
p h
Ġw ater
Ġg r
Ġhe re
p ec
Ġc ity
Ġd i
Ġsh ould
Ġapp ly
ĠO ffic
he re
Ġbe en
Ġcon ditional
ul ti
Ġcomp ly
Ġint ended
5 0
e ver
in al
Ġpr incipal
o ve
ĠĠĠĠ ĠĠĠ
Ġplan ting
ho od
Ġestablis hed
Ġt rees
as ure
Ġdesign ed
Ġappro priate
ĠRequire ments
I N
y s
Ġt emporary
es idential
pp lic
om es
ul ation
ind ow
Ġsu pp
ighbor hood
Ġper m
Ġint o
Ġdec ision
S ee
Ġs ix
Ġth ree
v ing
w ise
Ġe qu
Ġas s
Ġun less
edestr ian
Ġex t
Ġde f
um in
Ġdis tricts
ch it
Ġab ove
Ġy ard
Ġpo in
Ġent r
et y
Ġpar k
ra ditional
Ġother wise
Ġac ti
unc il
S ign
Ġthe se
Ġn ecessary
ĠA n
ĠA t
Ġat tached
ens ity
Ġex terior
Ġal ong
ĠL and
ĠSt andards
Ġ20 21
Ġpri or
Z oning
v ed
ro und
ig ure
as ter
Ġcon f
igh ts
os e
ra m
Ġdesign ated
Ġcompl et
Ġperm anent
S t
or k
Ġspecif ied
Ġday s
c ri
Ġthe ir
en sion
Ġm in
Ġsub mitted
hen s
Ġn ew
ĠL ot
Ġme asure
pl ay
Ġinst all
Ġst orage
Ġe ff
im ension
ag es
Ġad dition
Ġplan s
irect or
ĠEn gineer
I f
f amily
re a
an ding
Ġc er
Ġe l
Ġg re
ir port
tit u
Ġaut hor
chit ect
h ip
Ġo ut
at es
Ġgro und
Ġadop ted
r ic
t al
Ġs ep
ar ing
ce pt
Ġaccess ory
Ġdo es
Ġpurpos es
f t
v ate
Ġt en
Ġp os
Ġf if
Ġth rough
Ġe m
ur b
Ġpurpos e
s o
Ġf ive
Ġl ar
Ġg ra
tic al
Ġchang es
ix ed
ati b
d ed
j ec
ent s
Ġre mo
us tr
ĠD irector
st em
Ġside wal
Ġpers on
Ġbuff er
a w
al es
ti ce
an ts
es ign
ve l
Ġcon form
ĠI X
Ġproper ties
Ġpre mises
Ġt erm
Ġin divid
Ġpro hibited
Ġl ines
Ġdis play
R D
y stem
Ġ X
Ġ ill
Ġp edestrian
ro ve
Ġin form
un t
Ġwith out
ĠSt reet
Ġcomm ercial
ĠOffic ial
Ġ ver
Ġl ic
ide red
Ġcons idered
Ġsub section
anc y
ĠAr ticle
F or
P er
S T
as ed
ĠU n
Ġar chitect
Ġsep ar
o ur
Ġw indow
Ġre cre
ce l
Ġma de
ĠCo uncil
E N
c ed
n ed
o or
Ġp h
ac ed
Ġg eneral
Ġservic es
Ġc ase
Ġre gul
Ġsh own
un ity
ur ing
Ġlo ading
Ġdis t
Ġmo bile
ten ance
Ġtr ans
r ain
al s
Ġc le
Ġre ar
ment al
Ġcon n
ab am
ĠR esidential
ĠT able
Ġpl ace
Ġele v
abam a
j or
Ġf l
Ġw rit
et c
Ġth ose
Ġh omes
Ġown ers
Ġwall s
Ġvehic le
Ġchang e
Ġlight ing
in i
en se
Ġe vent
ĠA ccess
ĠĉĠĉ Ġ
Ġfo ot
Ġfo ur
ĠIn s
ĠAl abama
loc k
u f
ing s
Ġd ate
Ġn at
ĠA ll
Ġnon conforming
Ġlim it
Ġset back
eren ce
Ġmaintain ed
Ġill umin
E x
i ance
u ts
v es
Ġ j
Ġ etc
Ġa mendment
Ġthe y
Ġst o
Ġ1 00
Ġdet ached
oc i
ĠLand scap
e g
o ver
om p
ĠD esign
Ġal so
ĠT raditional
Ġz one
Ġspec ial
Ġsa id
Ġscreen ing
Ġrequ est
Ġtyp e
Ġmeasure d
1 5
m inis
r y
et er
Ġpro t
Ġinc hes
ow ever
Ġres p
Ġhe aring
Ġno tice
Ġcont ro
Ġdevelop ments
âĢ¦âĢ¦ âĢ¦âĢ¦
r id
re c
Ġc re
Ġor der
ec tive
1 4
p r
ĠM inimum
ip ment
Ġlandscap e
Ġindivid ual
p le
v al
Ġ Â§
Ġa ff
Ġs erv
it her
Ġc ent
Ġre n
Ġpro ject
ĠZ ones
Ġ3 0
Ġpri vate
Ġfeat ures
Ġcomplet e
1 3
Ġs ales
Ġto p
Ġto tal
tr ucture
Ġapp eal
Ġh ous
ĠOr d
Ġco p
Ġimp rove
Ġvis ible
Ġvari ance
Ġsaf ety
Ġa fter
Ġp at
Ġc al
Ġc irc
Ġm ap
Ġapp ear
ter s
if ic
cre te
Ġfacil ity
Ġne ighborhood
Ġconstruc ted
Ġvehic les
tific ate
1 8
4 0
i e
Ġw ork
as es
ub s
Ġpar cel
Ġsub division
Ġen c
Ġdevelop er
ĠAd j
Ġgre ater
Ġ k
Ġbe ing
Ġl an
Ġres id
Ġman ner
Ġrec ord
Ġ19 9
e ll
i od
ed i
or t
or th
Ġm ulti
Ġre g
Ġre ason
ac ks
ĠS ite
lan d
are d
Ġint ent
__ __
Ġvi ol
Ġass oci
minis tr
A N
Ġ &
Ġs ec
Ġs id
Ġc los
Ġre t
un ding
Ġ1 6
Ġal le
Ġcomp atib
vi ties
Ġlandscap ing
Ġdi ff
ĠAn y
titu tional
Ġfif ty
ustr ial
I C
I t
d oor
f ive
l ay
Ġ "
Ġb lock
Ġper iod
ut e
Ġro ad
Ġbo und
ven tional
Ġacti vities
Ġinform ation
Per mitted
Ġrecre ational
E S
Ġa mend
Ġs ystem
er ve
id er
Ġst and
Ġcon crete
Ġrequire ment
Ġad ult
ir on
ust ment
Ġvi ew
Ġrep air
Ġgr an
ĠAt hens
W hen
W here
e x
g et
m all
v ity
ro unding
Ġsh ow
Ġe ither
Ġpro cess
ĠS ervic
un ted
Ġsur rounding
ĠCo de
Ġpor tion
Ġel ec
1 9
A L
a k
Ġa v
re am
Ġw ould
Ġh und
Ġde em
Ġcons ider
Ġres tric
Ġma jor
Ġnon residential
Ġmain tenance
Ġcont in
Ġrel ated
Ġind ic
Ġentr ance
cri b
Ġver tical
Ġret ail
Ġhund red
0 2
Ġ ra
re n
re est
Ġf ace
Ġc ol
Ġbe low
Ġad ditional
Ġprov ision
enc y
enc es
Ġhere in
rain age
reest anding
S uch
f ied
Ġ qu
in ing
Ġs ew
Ġm on
Ġad ver
ad es
ix ture
ĠâĢ ĵ
Ġcle ar
B uilding
E R
g al
l ine
v iron
Ġe ver
ac ture
ĠS et
ot her
ra ph
Ġcons ist
Ġha z
Ġne ed
ĠSub section
uf acture
ĠAdj ustment
F igure
U D
i a
ar k
ĠĠĠĠ ĠĠ
qu ate
Ġad d
Ġsub st
ho use
ĠDis tricts
truc tion
Ġme ans
Ġcompl iance
a ximum
f y
t o
Ġw ho
Ġor ient
Ġto w
ĠA mend
ag ed
Ġy ear
Ġarchitect ural
b acks
c er
Ġ enti
Ġa irport
an ti
Ġf inal
ar king
Ġd irect
Ġst ate
ĠA rea
Ġg over
Ġv al
Ġwhe ther
Ġco ll
ffic ient
ĠĠĠĠĠĠĠĠĠĠĠĠĠĠĠĠ ĠĠĠĠĠĠĠĠĠĠĠĠĠĠĠĠ
oc ation
Ġscreen ed
Ġdeterm ined
Ġestablish ment
pec ial
Ġlar g
Ġcop y
Ġimprove ments
% )
. )
e hic
u ous
in ation
Ġf ire
Ġw ay
Ġm aster
Ġe rec
Ġl aw
Ġh igh
ver age
ho ol
Ġpl us
Ġpur su
Ġutil ity
ĠPer mit
Ġequ ipment
Ġinstall ed
Ġgra de
Ġwrit ten
Ġcontro l
* *
f ore
t em
Ġ identi
ro ss
Ġth ir
Ġmo di
iz ont
Ġco ur
Ġocc ur
Ġmeet ing
inis hed
Ġoffic ial
Ġissu ed
ram e
Ġmin im
Ġnat ural
uts ide
Ġdeem ed
i qu
Ġc ar
Ġin v
Ġre ce
Ġfor th
as h
ot e
os t
Ġ2 5
ang e
pos e
Ġle vel
Ġfront age
Ġcomm on
Ġvehic ular
Ġthere of
Ġele ments
Ġoffic e
IN G
Ġpoin ts
1 6
3 0
O ne
P ro
Ġ 0
Ġs ale
en g
or izont
ar ding
ic e
Ġw h
et s
din ances
de quate
Ġen viron
Ġsc ale
eren t
pre t
St reet
ĠEngineer ing
Ġauthor ized
ST R
e ight
u ed
Ġt ree
ate way
omm od
co ur
Ġmet al
rid or
pr il
A pplic
d es
i ous
o g
Ġs mall
Ġre st
il d
ĠC or
ĠP RD
ĠN orth
ĠO ver
Ġacc ommod
Ġfo und
Ġpre vent
Ġimp act
ist or
Ġem p
Ġpursu ant
a ff
r ubs
Ġo utside
Ġp a
Ġf ir
at or
Ġm at
Ġm ixed
lo y
Ġe ase
ection s
Ġcom b
Ġapplic ations
Ġgro ss
tern ative
Ġlic ense
ĠAccess ory
Ġviol ation
f or
al th
ec ted
pp rov
ab ility
Ġcons tit
Ġhe alth
ĠF or
ib ility
Ġr un
Ġdef ined
Ġgran ted
1 00
M EN
f ul
ti g
Ġb oth
it s
Ġe ight
ĠS tructure
Ġex c
Ġg ar
cc up
lu ding
Ġma ke
Ġ20 12
Ġfo od
Ġ5 0
Ġdwelling s
Ġoccup ancy
Ġrequ es
Ġoper ation
Ġelev ation
Ġadd ress
istor ic
. ,
E D
S ection
a use
u d
y c
Ġ J
Ġs q
Ġan other
Ġc are
Ġm ess
Ġst ream
Ġpar tic
ol es
Ġinc re
Ġman ufacture
Ġcor n
Ġrec omm
Ġdrive ways
ric k
ĠLandscap e
Ġav ail
ĠSet back
Ġsubst anti
Ġthir ty
orizont al
Ġemp loy
I STR
R e
Ġ ................................
Ġf r
Ġc ap
ar ies
ar ily
all s
Ġre m
ec h
Ġpro jec
Ġcon duc
ĠG C
Ġinter n
ĠEx ce
Ġspecific ally
Ġpoin t
Ġdist ance
ĠServic es
a v
b o
n ot
ti s
is ting
Ġd imension
Ġw ell
Ġst one
Ġst ore
ac ts
Ġpro duc
pp ing
od y
ii i
Ġconsist ent
O R
a ur
o bile
p s
u ally
Ġa dequate
Ġw ood
ĠN e
ab el
ĠR ec
ho lic
aterial s
Ġr ights
ust om
Ġpl aced
Ġve get
co holic
Ġab ut
Ġcontain ed
Ġob s
rit er
Ġext ent
Ġsepar ate
Ġenc los
Ġassoci ated
ĠNorth port
b y
e velopment
e red
u ary
an it
Ġd rainage
ĠD ISTR
Ġ1 5
ond ary
Ġsidewal ks
Ġdiff erent
IC T
Ġhaz ard
riter ia
ĠDISTR ICT
C on
G eneral
M ay
P arking
S ECTION
b ers
d u
e es
i tion
t own
Ġs ol
Ġp en
Ġp ain
Ġf u
Ġre pl
ur n
ĠPlan ner
ĠComm unity
own town
enc ing
Ġflo od
ĠSub division
Ġsidewal k
Ġresp ons
Ġclos er
crib ed
ixture s
Ġerec ted
eng th
Ġpartic ular
Ġavail able
0 4
m b
or ies
Ġc ustom
Ġd ra
ĠS p
ĠS ep
ĠP ublic
um ption
Ġg u
ĠG ateway
te en
Ġform s
ĠCon ventional
Ġpres ent
Ġwindow s
ĠOver lay
A R
A ccess
I F
S ite
Ġ ed
Ġt re
Ġb ased
Ġf ul
Ġc ases
Ġd am
us es
Ġpro m
im eter
Ġde m
Ġg l
ĠZ one
Ġz ones
Ġro om
Ġdet ail
op y
Ġinter pret
ason ry
Ġfeat ure
Ġeff ective
Ġremo ved
Ġcent er
Ġappear ance
Ġreason able
Ġcompatib le
Ġstand ard
tem ber
Ġfir st
MEN T
ĠSep tember
0 1
N on
S h
T N
c hes
f are
g re
Ġthe n
Ġb ody
Ġf ence
ar m
Ġw as
lo od
ĠS ec
ĠS pecial
Ġfor ty
ĠA g
Ġh owever
Ġsub mit
ĠM ap
ĠĉĠĉ ĠĉĠĠ
form ance
Ġha ving
Ġle gal
Ġsc hool
Ġout door
Ġpos s
Ġsto res
Ġenti re
u ment
is ted
Ġd ensity
all el
le v
le x
ac ing
Ġpro f
Ġpro ced
Ġl ong
Ġl ength
ĠC h
ĠC ent
Ġh orizontal
ĠO ff
Ġde v
if t
Ġplan ned
Ġmo unted
ĠM aterials
Ġpermit s
ect or
ĠRe view
Ġint eg
Ġy ards
Ġdevelop ed
Ġrep res
Ġutil ities
Ġterm s
Ġcomplete ly
Ġsew er
Ġever y
Ġinv ol
ĠStructure s
ĠExce ption
du ce
Ġinteg r
I T
h od
r imary
Ġs he
Ġb ack
Ġf amily
Ġbe fore
ĠC l
Ġh is
ire c
Ġg ood
ri p
Ġal ter
ĠM an
ĠT r
Ġtyp es
Ġsaf e
Sign s
Ġcer tificate
Ġlan es
Ġmon th
Ġgover n
Ġconstit ute
b r
in s
Ġs f
on ed
Ġf reestanding
Ġm asonry
Ġto wn
Ġsh rubs
ĠS ide
ĠA pplic
ur pose
ĠO ccup
Ġprop os
ĠB usiness
Ġcons umption
op s
Ġbusiness es
Ġset backs
creen ing
ĠAd ministr
Ġext end
imension al
Ġph ys
Ġserv ed
Ġlarg est
ĠCor ridor
Ġmess age
IF S
A d
O r
i el
o ugh
en er
Ġf inished
Ġc riteria
Ġd uring
Ġcon tr
ĠN on
Ġ1 4
Ġpar ks
Ġplan ted
Ġres ult
el ve
Ġch ild
Ġland s
Ġinclu ded
Ġno ise
ĠSt ate
ĠH eight
Ġgro up
ens ed
ĠRequire d
ĠCon ditional
Ġcl ass
Ġremo val
Ġadver se
Ġminim ize
Ġenviron ment
R E
i ver
m ission
s ure
s ite
Ġa verage
Ġt e
on ic
Ġb ase
Ġb rick
Ġc urb
ent al
Ġw a
le ment
ĠS T
ĠS h
Ġl isted
ĠC om
un ic
tr onic
Ġapp l
Ġh our
ĠO F
Ġex ten
The se
Ġ1 1
Ġ1 8
Ġcons tr
Ġtw elve
Ġpl at
Ġtra il
iv ing
Ġsu fficient
te red
Ġsc hed
Ġent er
tern al
Ġob tain
ini tions
Ġcal c
Ġsid ing
Ġalle y
Ġmanufacture d
Ġveget ation
Ġabut ting
Ġposs ible
2 4
P urpose
Y es
g round
Ġa ir
Ġs it
Ġp ot
Ġf in
Ġd irec
ĠC er
ĠP UD
ur ren
Ġlo w
Ġpar allel
ight ing
Ġplan ning
el s
Ġpre p
Ġadj o
Ġfl ag
Ġillumin ated
Ġhous ing
Ġcirc ulation
land s
Ġ0 25
anit ary
2 6
M inimum
d ic
l ed
m s
p osed
Ġ Y
in ary
en e
Ġf il
ic yc
Ġm ot
Ġm em
Ġsh ift
Ġn or
Ġl abel
om obile
uc k
Ġcon ven
ess ion
ag raph
Ġun til
Ġinclu des
ĠV ehic
Ġen gineer
Ġac tion
Ġac res
Ġimp acts
ĠPar k
Ġbo ard
unc tion
Ġdeterm ine
Ġmet hod
Ġpers ons
Ġowners hip
Ġelec tric
Ġconsider ation
Ġaccommod ate
Ġrecomm end
Or d
urren t
E ach
L A
u is
y ond
Ġ end
Ġp e
il ities
ĠO ther
ter ial
ĠB uff
od es
ĠPlan s
Ġhe l
ap ter
ĠM ay
ĠT emporary
Ġint ensity
ĠComm ercial
Ġexp osed
ĠAl low
Ġissu ance
Ġconf erence
Ġrestric tions
Ġreques ted
Ġemploy ee
Ġintern al
Ġproduc ts
Ġenclos ed
Ġadjo ining
6 0
H owever
O n
T o
f er
p er
w ning
Ġ er
re ational
Ġs erve
ed eral
Ġb as
Ġb uil
Ġd iv
Ġbe yond
et ail
Ġst orm
Ġst ories
Ġh ig
Ġper imeter
Ġ1 7
ĠR E
st ablis
if ied
ĠT h
ĠF igure
Ġint ere
Ġprovid ing
Ġgro w
Ġme an
mo oth
inc luding
Ġestablish ments
Ġref use
ĠPer mitted
cri ption
Ġlar ge
Ġillumin ation
Ġamend ments
Ġclear ly
pprov al
Ġtre at
Ġinterpret ation
Ġintere st
0 3
0 7
L O
Z A
h ing
m edi
p end
u le
Ġa is
Ġa cre
Ġt a
er y
Ġb r
Ġd ue
.. .
Ġor ig
Ġbe ver
ec ts
Ġst aff
ĠS ingle
ĠC ons
Ġh ol
Ġ1 2
Ġsign age
ace ment
Ġen sure
Ġro w
ĠBuilding s
Ġbo arding
Ġoccup ation
Ġappro ve
Ġdep th
Ġsupp or
ĠUn it
Ġbever ages
A l
A pril
L ot
L ocation
a fter
d ustrial
f initions
l at
p hic
Ġ i
Ġt ak
Ġs anitary
Ġp ow
Ġb ar
Ġf ixtures
is ed
Ġd en
Ġor dinances
Ġst ation
ith in
un ty
ate ly
ĠR ed
ir ing
enti al
Ġal coholic
Ġal tered
ĠM aximum
Ġ20 20
ĠW idth
fic ation
Ġoccup ied
Ġoper ations
irc ulation
Ġind ustrial
Ġacti vity
ĠLot s
Ġinstall ation
Ġlic ensed
ĠIns p
Ġshow ing
Ġorient ed
tig uous
Ġfr on
A t
p tions
u ties
y ing
Ġan im
Ġc ross
Ġw al
Ġm ass
ve ment
id ental
ac ity
uc co
ay s
ul ated
Ġacc omp
erv ed
erm anent
Ġroof s
Ġins p
Ġdrive way
Ġsid es
Ġbound ary
ex t
Ġrest aur
Ġrem ain
Ġdimension s
ĠCer tificate
ĠAllow ed
g an
i ti
n s
p on
Ġs lop
Ġb an
Ġf low
Ġn ame
id ed
Ġst y
Ġst ucco
Ġl et
Ġcon tiguous
Ġex em
ol s
ĠPlan ned
Ġal ternative
Ġfac ing
ĠW hen
Ġdo c
Ġcomm unity
Ġcor ner
Ġexp ress
Ġvis ual
ne x
Ġdep ic
hens ive
Ġplace ment
ini tion
âĢ¦âĢ¦âĢ¦âĢ¦ âĢ¦âĢ¦âĢ¦âĢ¦
Ġlan e
Ġbound aries
Ġamend ed
for ce
Ġprojec ting
Ġrespons ible
Ġed ge
Ġprof ession
ĠOccup ancy
Ġphys ical
icyc le
7 5
L and
R O
g es
m ing
p ro
w ard
Ġ ke
Ġt able
Ġo pp
Ġs er
ti vity
Ġc ause
Ġin de
Ġre z
Ġre co
Ġre port
Ġre duc
ve y
Ġst rip
ur is
Ġon to
ĠR o
ĠB ZA
am p
Ġinc idental
se e
iz es
Ġco ver
Ġco de
Ġ6 0
Ġim medi
ĠDe finitions
In s
ĠW here
ons tr
Ġbuff ers
Ġplanting s
Ġcre ate
Ġpat tern
ific ant
Ġsec ondary
Ġsubstanti al
Ġ................................ ................................
Ġfu ture
Ġrepres ent
stablis h
Ġorig inal
Ġfron ting
F A
F amily
I S
M aximum
l us
m p
u es
Ġ =
al f
Ġf encing
Ġan nex
ro om
Ġm ark
Ġbe c
Ġbe h
Ġth ous
ĠS c
ĠS ho
pp ed
uc t
qu ent
ur ther
Ġad ministr
ap et
ĠI f
iz ation
erv ation
Ġexce ption
Ġar r
Ġar terial
iv ed
ĠĠĠĠĠĠĠĠĠĠĠĠĠĠĠĠ ĠĠ
ĠĠĠĠĠĠĠĠĠĠĠĠĠĠĠĠ ĠĠĠĠĠ
Ġcontain ing
Ġ4 0
Ġref er
Ġag ent
tific ation
oth ing
Ġdef inition
Ġease ment
Ġcorn ice
Ġcap acity
Ġconduc ted
ĠNe ighborhood
Ġprom ote
Ġdem onstr
Ġalter ation
Ġhour s
Ġconstr ued
Ġtak en
Ġthous and
' s
2 2
a z
u tion
x im
Ġa m
in ity
re as
Ġs ome
er g
ti m
ic inity
Ġd ri
ec tivity
Ġn orm
im arily
age ment
Ġat tr
ĠM ulti
ĠI I
ĠT his
ĠF lood
tain ment
ip er
ho uses
vi ous
scap e
ĠH ome
Ġinter section
Ġbo x
Ġrequ iring
Ġcan opy
pre mises
Ġcomplet ed
Ġmin or
Ġeff ect
Ġregul ation
Ġprot ect
Ġtop og
____ ____
Ġelec tronic
Ġtow ard
Ġmonth s
Ġpropos al
Ġmot or
Ġsty le
D A
L E
R esidential
S ide
T raditional
V E
h ie
l im
m in
o ading
t ent
Ġ |
Ġ es
Ġ ri
re ct
ĠĠ ĉ
al ity
Ġp an
Ġf ences
Ġf ees
or ough
ic es
Ġw ide
Ġw el
Ġre duce
ce mber
et r
Ġth orough
Ġl iqu
ĠA pp
ĠA irport
Ġis lands
um st
ra phic
Ġdis pos
Ġplan e
Ġstr uct
se quent
omm ercial
Ġen cour
Ġ3 5
TION S
Ġso ur
ne ys
Ġconform ity
Ġelev ations
Ġprot ection
Ġcirc umst
Ġproced ures
Ġpot ential
ĠY ard
Ġmem bers
force ment
Ġke ep
uris dic
) ;
E n
a f
l ing
o le
s ac
Ġ ite
re w
or din
it able
Ġc e
Ġc urrent
Ġin f
Ġm ost
Ġn et
Ġn um
ĠC ont
Ġh ards
Ġex am
Ġg as
Ġg ener
Ġsub sequent
ĠT ra
ĠF amily
ĠL ocation
ĠL ighting
Ġac hie
ten n
Ġexis t
ĠDe cember
Ġdo or
co unt
Ġtra ditional
Ġreview ed
oc k
ult ural
vent y
Ġse venty
Ġref erence
Ġadop tion
Ġsix ty
Ġconf lic
Ġfif teen
Ġregul ar
Ġresp ect
Ġpat h
Ġresid ents
Ġreg ard
Ġalle ys
Ġcompatib ility
Ġcour t
Ġcomb ination
Ġincre ase
ech n
Ġbuil t
Ins titutional
Ġwel fare
urisdic tion
T emporary
c es
f rame
l ar
o ff
w o
Ġa mo
in t
Ġs mooth
he ver
en tion
Ġan tenn
ic ally
at her
Ġre v
Ġst ep
Ġpro j
im neys
ĠC irculation
ĠA N
Ġus ing
Ġv icinity
Ġwhic hever
ĠF e
ĠF ront
Ġdes cribed
are st
Ġim age
Ġac t
Ġpr ac
Ġpr imarily
ad ding
Ġar t
Ġne arest
Ġinter f
ĠCo unty
ĠfaÃ§ ades
Ġconn ection
Ġlimit ations
Ġserv ing
Ġk n
Ġresid ence
Ġindic ating
Ġval ue
ĠDISTRICT S
Ġpain ted
Ġful l
ĠSide wal
ĠAdministr ator
Ġappl ied
ĠVehic le
Ġprofession al
Ġbeh ind
Ġcircumst ances
Ġhards hip
0 5
1 7
3 5
A s
C h
D rive
R ec
U ses
g n
i ence
l aw
m ise
n ers
p artment
v id
Ġ ec
Ġthe m
Ġp ic
ed ic
Ġb ays
or ding
or ks
Ġc odes
Ġsh iel
et ached
ĠS creening
Ġh istoric
The re
ol um
ĠB e
st ory
Ġv ac
ĠOr dinances
ĠĠĠĠĠĠĠĠ ĠĠ
Ġdes cription
ĠL im
ĠE IFS
tic s
ĠU SE
Ġfac es
Ġ7 5
ĠIn dustrial
ĠH O
Ġinter ior
fic ations
ĠAd d
Ġcontain s
Ġcan not
Ġover all
Ġpor ches
pre hensive
Ġequ al
Ġauthor ity
Ġwrit ing
Ġevent s
Ex cept
omp atib
Ġorient ation
Ġease ments
Ġsol d
Ġdra w
Ġgood s
br uary
Ġtown house
Ġsched ule
Ġprep ared
Ġelectric al
ĠRed evelopment
Ġwal k
Ġrez oning
Ġreco gn
erg ency
Ġstep s
ĠFe bruary
R o
V ehic
f our
g o
o id
w ater
w ork
Ġa round
Ġt all
en ding
Ġb ro
Ġb ene
Ġf ree
Ġf rame
or por
Ġc ost
Ġor gan
Ġe vid
ĠA pril
Ġcon cer
ĠP re
ur s
ur ation
ur ally
Ġpar apet
Ġat t
up lex
ĠT o
Ġloc ations
ĠF l
ĠF ire
erv ious
ill bo
Ġfollow s
div isions
20 20
Ġdo ors
ĠâĢ Ķ
Ġsa tis
pl ain
ĠPar agraph
Ġexceed ing
ik e
Ġcontain ers
Ġvis ibility
Ġse x
Ġdeterm ination
Ġsupp ort
Ġentr ances
Ġcer tain
urb an
Ġnat ure
Ġlimit s
Ġj urisdiction
Ġcal iper
Ġsystem s
Ġcol or
raph y
ash ing
ĠRec reational
Ġrepl acement
Ġdam age
Ġgl are
ĠCom prehensive
Ġsit es
Ġlabel ed
Ġgrow th
Ġaccomp an
lus ive
lim inary
Ġri ver
etr ations
ĠAN D
A r
D e
D evelopment
E VE
P UD
R T
i pped
l ines
o b
p ted
Ġ /
Ġs w
er ing
er ch
ti fied
Ġp oles
an ical
an uary
Ġf ee
Ġw ord
Ġin iti
Ġre de
Ġsh ared
Ġl in
Ġl iving
ĠC are
om ical
qu e
tr ib
ur ch
ul es
ĠD owntown
ll y
and ise
Ġex cess
ate g
um ps
Ġcons isting
ĠI N
Ġcomp on
................ ........
Ġen h
anc ial
ĠH istoric
20 40
iv ic
Ġab and
aÃ§ ade
Ġtr uck
Ġcor por
Ġoffic es
Ġpor ch
Ġref l
Ġcharacter ized
rea k
ric ultural
Ġdisplay ed
ĠX X
Ġconn ectivity
ĠLandscap ing
Ġcre ated
Ġcent ers
ific ation
Ġidenti fy
Ġrece ip
Ġmat ter
Ġgar age
ĠJ anuary
tis ing
Ġobs truction
Con ditional
ĠSp aces
Access ory
gre en
ĠTr ans
Ġenter tainment
Ġhel d
Ġdiv ided
Ġtreat ment
Ġexem pt
Ġser ies
Ġannex ation
Ġnorm al
Ġdispos al
Ġite ms
erch andise
5 00
P lan
P ublic
P MENT
P rimary
S P
c lu
e ed
f it
f ront
n one
s p
Ġs y
Ġs ee
al con
Ġp it
ed ical
an sion
Ġb icycle
Ġre al
ce ed
Ġst ated
Ġst ory
ac ilities
Ġpro ceed
Ġfor ward
ul y
Ġh and
Ġ1 3
Ġg iv
st ate
Ġdis count
if e
Ġinc orpor
ĠT rees
Ġloc al
ĠRe v
Ġdesign ation
Ġ8 00
Ġtra vel
art ments
Ġallow able
Ġchang ed
Ġtim es
Ġoccup ants
Ġlandscap ed
Ġspecific ations
ĠAt tached
ĠX I
Ġsepar ated
Ġhous e
Ġrecord ed
edi um
Ġmulti ple
Ġdirect ly
Ġval id
Ġlaw ful
Ġstream s
ech anical
Ġsol id
Ġgu ide
ĠAg ree
ĠCent er
Ġexten sion
Ġbas is
LO PMENT
ĠĠĉ ĠĠ
Ġliqu or
Ġsour ce
ĠTra ffic
Ġsex ual
EVE LOPMENT
Ġgiv en
2 8
A ut
L AN
T h
U R
e res
g ed
i tional
k en
m a
p it
Ġt ri
Ġan at
it le
ic t
lo t
ve red
Ġn uis
Ġst e
Ġst at
Ġst ations
ĠS ystem
Ġl ights
ĠP ri
ĠP rimary
ĠP RO
Ġh ood
ĠD rive
Ġex ternal
Ġsign ificant
ĠR es
ut door
Ġdis a
Ġplan ts
ap e
ĠM ain
ĠI ll
ĠT ree
ĠT yp
se mb
ew er
ĠĉĠĉ ĠĠ
ĠE ach
ill age
ĠSt orage
ĠSt aff
ang ed
truc t
Ġle g
Ġfo re
Ġpre vious
Ġown ed
ĠCo ur
Ġso il
con form
Ġoccup ations
Ġwidth s
Ġele ment
Ġroof line
Ġover lay
Ġins titu
Ġins titutional
eal s
ĠPro ject
Ġdep artment
Ġhere by
Ġeff ects
Ġfl at
Ġren der
Ġindic ated
Ġra di
Ġadver tising
ĠĠĠĠĠĠĠĠĠĠĠĠĠĠĠĠĠĠĠĠĠĠĠĠĠĠĠĠĠĠĠĠ ĠĠĠĠĠĠĠĠĠĠĠĠĠĠĠĠĠĠĠĠĠĠĠĠĠĠĠĠĠĠĠĠ
Ġlarg er
Applic ations
Ġfound ation
Ġcomb ined
Ġrun way
Ġgar ages
Ġsubstanti ally
Ġcustom er
Ġroom s
Ġgovern mental
Ġkeep ing
Ġexam ple
Ġamo unt
Ġantenn as
Ġrede velopment
Ġanat omical
D ate
D imensional
I D
I L
O W
O ffic
S ho
T E
a que
g ram
h ol
h alf
n ess
u pp
u di
w ith
y l
Ġa wning
in yl
Ġs k
he st
Ġf ail
Ġf ind
Ġf urther
Ġd edic
le mental
im ming
ĠA reas
ire d
ĠD ensity
Ġper formance
ĠO n
os pit
Ġpar ts
Ġ2 1
ra ft
Ġun iqu
th rough
ĠI t
ĠI mp
Ġch apter
Ġch urch
Ġma il
ĠG FA
Ġac cept
ĠIn ter
ĠW indow
ĠâĢ ¢
Ġso le
Ġmeet s
Ġoper ated
Ġvari ances
Ġaut omobile
Ġob jec
ĠPer formance
ĠĉĠĉĠĉĠĉ Ġ
Ġgr ant
Ġbuffer ing
RD S
ĠStreet s
Ġfoot age
Ġsto red
Ġaff ixed
Ġprocess ing
Ġwho lly
Ġtow ards
ĠAmend ments
cer y
Ġcoll ective
Ġmodi fications
ud y
Ġdra wn
Ġgl ass
ĠPark way
Ġhig her
Ġais les
Ġinsp ection
Ġtopog raphy
law ful
Ġevid ence
1 10
A D
E T
N othing
P E
P ri
U n
g ress
i ans
l ec
n a
y d
Ġ Q
Ġs ight
Ġs up
al t
Ġp age
Ġb ed
Ġf urn
Ġf unction
or tic
Ġc ul
Ġc os
ro l
ro w
at a
at ory
Ġd uties
Ġre ad
Ġsh ade
ec u
ĠS ize
Ġl it
pp er
ĠA pproval
ĠP r
ĠN ot
ul ations
Ġh ow
ĠD ay
os ion
ver se
st anding
Ġdis trib
Ġun d
Ġplan t
enti ves
Ġsub mission
Ġsub divisions
ĠM a
ĠM aster
Ġacc ording
ĠF ederal
Ġproper ly
ĠĉĠĉ ĠĉĠ
ĠL oading
ĠZ ON
Ġch imneys
tic ally
Ġr ather
ang er
Ġop aque
Ġen forcement
op ies
Ġsur vey
ĠW alls
ons truction
port ation
Ġman agement
Ġpo le
act uring
Ġvis ually
Ġdeterm ines
ĠPro t
divid ed
Ġpres erve
Ġentr y
Ġrecre ation
uf acturing
Ġassoci ation
Ġcontin ue
Ġcontin ued
Ġcol ors
Ġqu ality
Ġneed ed
Ġyear s
Ġcoll ector
Applic ation
Ġexc lusive
Ġflood plain
Ġful ly
Ġdam aged
Non conforming
lev ant
ĠCent ers
ĠApplic ation
ĠNon conforming
unic ipal
Ġfin ding
Ġfil ed
Ġmethod s
Ġpe ti
Ġer osion
Ġopp ort
Ġinde x
ĠSho pping
af e
ordin ate
Ġconflic t
Ġec on
ĠFl ag
Ġnuis ance
Ġcollective ly
7 9
9 5
F ront
I G
O ther
U pon
c ill
f inished
l it
o int
Ġ urban
he tic
Ġf unc
is h
Ġd owntown
Ġm erchandise
Ġm unicipal
Ġre loc
Ġsh ops
Ġst age
Ġe fficient
ac king
ĠS ee
Ġcon ventional
ot t
qu ipment
ĠP l
ĠP ermanent
ub le
ĠD RT
and ard
Ġas semb
Ġde g
Ġprop or
Ġsp acing
âĢ Ķ
Ġdis c
Ġdis cre
Ġun lawful
Ġhe ights
ĠF reestanding
are house
tain ing
ip e
Ġfac t
Ġfac ade
Ġ20 19
ĠIn tent
ĠH ous
Ġcomm ission
Ġ5 00
Ġdec or
Ġcor res
ĠAl ternative
hib it
Ġse ll
Ġse ven
Ġvari ety
Ġrel ation
ĠPro ced
Ġag ency
Ġhere after
Ġsupp lement
Ġconf ig
Ġterm in
Ġchange able
ĠIns titutional
ie f
Ġ199 1
AN DA
Ġroad s
Ġview s
ĠServic e
Ġcol um
Ġqu es
Ġsew age
Ġmon ument
Ġstate ment
Ġwh ile
Ġsmall er
Ġconduc t
Ġcustom arily
Ġintegr al
Ġchild ren
Ġclass ification
ĠST ANDA
Ġrecommend ation
ĠBuff er
pend ent
Ġrow s
Ġpow ers
Ġanim als
Ġdemonstr ates
Ġpan els
Ġstruct ural
ĠCont rol
echn ical
Ġshiel ded
ĠUSE S
Ġtall er
Ġenh ance
Ġaband oned
Ġcos ts
cill ary
Ġdiscre tion
2 00
E IFS
M an
P rov
S pecial
T rees
W ithin
a pplic
c al
d enti
i um
i tive
l s
s ity
Ġt urn
Ġs eat
Ġs izes
he ad
on y
ti fy
Ġp il
Ġp ub
or ation
is ts
Ġc lo
Ġd ata
Ġw et
Ġw ast
Ġm ach
Ġm echanical
Ġre levant
Ġbe er
Ġsh o
ec ting
Ġe ven
ac y
ĠS upp
as tic
ĠA P
ĠA ut
ay out
ĠP LAN
Ġh ipped
Ġper form
ab les
Ġex pos
Ġ1 10
Ġnot ed
Ġpar ty
Ġ2 4
Ġsp lit
Ġun s
Ġinc ompatib
Ġstr ict
Ġhe ar
Ġmo de
Ġcomp r
ĠE lec
of s
Ġint eres
Ġaccess ible
Ġnon conform
ch ange
Ġpur ch
20 19
20 79
ist ered
Ġdec l
Ġvari ation
irc raft
eal th
ĠPro jec
Ġag ain
ĠEx cept
Ġissu e
Ġpres cribed
Ġsupp ly
Ġpos ted
Ġem ergency
Ġregul ate
Ġsto ops
Ġren tal
Ġappeal s
Ġneighborhood s
Ġreg arding
Ġra ti
Ġclear ance
Ġhaz ards
Ġneed s
Ġhigh way
Ġidenti fied
ange ment
Pro hibited
Ġrepl aced
Ġdev ices
ĠCl adding
Ġtrail ers
Ġdirec tion
Ġconven ience
Ġrecommend ations
Ġrestaur ants
Ġslop e
Ġexpress ly
Ġadministr ative
Ġrefer red
Ġencour age
Ġnum bers
Ġachie ve
Ġregard less
Ġbro ken
ĠCour t
Ġuniqu e
Ġecon om
Ġcolum ns
applic ation
7 0
8 02
C ommercial
D is
G round
M in
S creening
U se
a ve
a res
a der
f ace
f ast
i ally
m e
s ets
Ġ Â
Ġs el
er ior
Ġb ul
Ġf ill
Ġf ederal
is tics
Ġc a
Ġc red
Ġc ateg
ar s
Ġto get
ig ious
Ġst ra
le ph
le gal
Ġpro gram
ĠS ur
ĠS ales
ĠP lat
Ġde ad
Ġg o
ĠR ES
ĠR etail
Ġsub ordinate
Ġmo vement
ĠM in
ĠT en
est aur
ĠF acilities
ĠE stablish
ĠE quipment
Ġdesign ee
Ġno tification
Ġco uncil
Ġco unt
Ġco vered
ĠSt ore
Ġr ules
Ġfac ades
ĠV ari
Ġen lar
ad s
ten tion
ĠH ortic
ĠH ealth
ĠW ithin
Ġimp osed
Ġar ticle
Ġne ar
Ġ200 3
Ġappro xim
Ġexp ansion
Ġins ide
ati ves
ĠOffic e
Ġsupp l
Ġext ended
aster s
Ġpermanent ly
Ġsepar ation
Ġconn ections
Ex terior
Ġrecord s
Ġ199 5
Ġsec ond
Ġview ed
Ġgran ting
Ġindic ate
Ġwho le
ĠPermit s
Ġmodi fied
Ġlevel s
Ġwh at
Ġenviron mental
Ġpa ved
pprov ed
Ġincre ased
Ġcorn ers
Re quire
ĠNe ighbor
Ġpen etrations
Ġfu el
AR K
Ġdetail s
Ġcenter line
gre g
Ġexten ding
LA TIONS
ĠBuff ers
Ġhig hest
Ġacre age
Ġrestaur ant
Ġdoc ument
Ġreduc ed
Ġimmedi ate
Ġes tim
Ġthorough fare
Ġrecogn ized
go ing
Ar ticle
Ġlin k
clu de
ID EN
Ġaccept able
ĠQ u
Ġpeti tion
Ġques tion
ĠSTANDA RDS
Ġincompatib le
Ġrati o
Ġtoget her
A TION
E stablish
F OR
F lood
G U
M ulti
N ot
T able
a id
d s
f rom
g ing
i tig
r up
u ments
Ġa est
Ġa ircraft
Ġt ext
er ation
Ġthe ater
Ġp edestr
Ġb illbo
it or
ic ular
Ġd rain
Ġd umps
Ġw ine
Ġw ind
lo g
le tion
Ġe gress
ac cess
Ġl ike
Ġcon forming
ur ist
ĠN umber
Ġh arm
Ġh yd
ĠD o
ĠD EVELOPMENT
and ed
ĠO wn
um an
Ġ1 50
ain ing
ol i
ri e
ri ed
ut y
ĠB ever
Ġad v
Ġad ded
if orm
dition s
Ġmo ving
Ġpermit ting
est ock
ib r
Ġco unted
Ġprovid es
ep t
ĠV illage
Ġen g
Ġim pose
Ġ20 18
ten ce
TI AL
ĠH igh
Ġexis tence
Ġ8 0
Ġne ighbor
Ġline ar
iv estock
Ġdec ide
Ġexceed s
Ġtr act
Ġoccup y
ear ing
Ġpo lic
Ġcor ridor
Ġaut om
Ġob sc
Ġpor tions
Ġref eren
ph as
ph alt
Ġgra ding
Ġconform ance
Ġindivid ually
Ġtrans itional
Ġcle an
Ġaff ected
Ġpat r
Ġk ept
Ġclos est
Ġever green
Ġrest oration
Ġrecomm ended
Ġhazard ous
lev ision
ĠCh apter
Ġinvol ve
Ġshe et
Ġte leph
Ġfin ancial
Ġconven ient
Ġer r
ĠRE GU
pend icular
Ġais le
Ġmass ing
Ġlet ter
Ġimmedi ately
Ġattr ac
Ġnet work
ĠFront age
Ġinterf ere
Ġvac ant
Ġcompon ents
Ġreceip t
Ġsy mb
Ġtri ang
ĠIll umin
ĠZON ING
Ġsho pping
Ġexpos ure
Ġagain st
IDEN TIAL
Ġpedestr ians
ĠREGU LATIONS
2 3
3 6
8 0
A A
C LE
D etached
F ences
N umber
P re
T own
a u
o v
Ġ K
Ġ [
Ġ ing
Ġo d
Ġs hed
Ġp ass
Ġb reak
Ġf it
Ġf arm
or king
is ing
Ġc ast
Ġc amp
ro up
ar ning
at ors
Ġd anger
Ġin j
Ġm unt
Ġm itig
Ġst ating
Ġpro duce
.... ..
Ġl igh
ĠA L
un ities
ot el
ĠP ER
ĠD imensional
Ġper pendicular
ab ly
ab ric
os ite
velop ed
velop ments
Ġpar ties
Ġrequire s
ver s
de red
ir able
Ġv olum
Ġv inyl
ting uis
Ġcons ecu
Ġsub divided
Ġres ul
res h
ĠF inis
ĠF aÃ§ade
Ġdes crib
Ġcomp letion
iz ing
ont in
ĠRe f
ĠRe ar
Ġco ven
Ġma king
Ġac ce
Ġle ft
Ġ3 00
erm s
Ġ7 7
Ġdet erior
TI CLE
Ġpl astic
Ġimp lement
Ġimp ervious
Ġdevelop ing
ist ance
enc ies
Ġdec isions
ĠPar ks
Ġtr im
Ġtr ash
ari an
ult urist
Ġpo ols
Ġsim ulated
Ġexp anded
Ġfloor s
11 8
Ġtyp ically
Ġrel igious
Ġutil ized
ĠPro hibited
tific ates
Ġcharacter istics
ĠĉĠĉĠĉĠĉ ĠĉĠĠ
Ġgr ass
pec ific
Ġmeasure ment
Ġem phas
ĠIns ulation
Ex isting
Ġ100 2
Ġaff ect
Ġmap s
Ġ199 7
AN C
Ġsec ure
Ġroad way
Ġcontin uous
Pro posed
Ġhealth y
Ġexc av
ĠJ uly
Ġintern ally
ĠRec ord
Ġobs truct
ĠSp ace
Ġschool s
Ġdev ice
Ġinvol ving
Ġshe l
ĠMan ual
Ġcontr act
Ġobtain ed
Ġdirec ted
per ty
Ġstorm water
ĠTh in
Ġta ke
Ġsuppor ted
Ġbar ri
ĠInsp ector
Ġlet ters
Ġpattern s
Ġarr angement
Side wal
Ġgener ally
Ġprac tic
Ġkn own
Vehic ular
Ġaccompan ied
Ġsw imming
Ġste ep
ĠPri vate
with standing
ĠPr incipal
Ġsurvey or
Ġopport unities
Ġpil asters
Ġwast e
ĠAut omobile
Ġdecl ared
Ġstra ight
ĠHortic ulturist
Ġneighbor ing
Ġteleph one
Ġmunt ins
Ġconsecu tive
ĠFinis hing
. âĢĿ
0 9
2 7
A pp
A partment
D i
G C
M P
M a
M IT
P ermanent
R etail
S ervic
W alls
W TN
b age
f o
g ative
g rie
o k
p ar
p air
u ation
in ic
in ion
Ġs l
Ġs ti
Ġs ens
Ġs ized
al ed
al ent
er o
es ts
Ġb alcon
Ġb ott
Ġf ile
Ġf resh
or ient
Ġc ab
ro of
ar ge
at h
at s
at est
Ġw ire
Ġw ere
Ġsh ape
il ing
il es
ment ation
Ġst udy
le ments
Ġe ave
Ġl ife
Ġl ayout
Ġcon ver
un k
ĠP ARK
ur ance
ul ed
lan e
lan k
ĠD uties
ĠO ne
Ġde l
Ġde ed
Ġde line
ard en
ĠR ow
Ġ2 50
âĢ ľ
ut ing
ut ters
ĠB O
ir ation
ĠI tem
ĠF inal
ĠF ences
ĠF AA
ip her
por ts
ĠU S
ĠRe pair
ĠSt andard
Ġexce ptions
Ġ6 5
Ġop inion
lis hed
Ġpl ay
ĠH az
ail ure
ĠW all
ĠW orks
Ġne gative
ens ities
iv alent
ven ue
Ġcor rect
Ġthere on
Ġsurf aces
âĢĿ ,
Ġform al
Ġag ricultural
Ġag grie
ĠEx terior
Ġdep artments
Ġequ ivalent
Ġass ign
Ġpark ed
Ġcer tified
Ġel im
Ġgre en
Ġinform ational
Ġver tically
Ġph ot
Ġdist ances
Ġtrans fer
eg al
Ġprot ected
Ġhous es
Ġcop ies
Ġimprove ment
Ġav oid
Ġrestric tion
Ġcoll ection
Ġmodi fication
Ġcar ry
Ġpa vement
Ġmat ters
oles ale
Ġrem ed
Ġdetail ed
Ġproced ure
Ġrepres ents
Ġtown houses
Ġcontr ary
Ġte levision
Ġwa ived
ĠSh all
ĠSh ow
Ġsched uled
Ġcalc ulated
Ġcalc ulations
Ġflag p
Ġhel p
Ġsuppor ting
ĠInsp ections
Ġanim al
pon ding
Ġarr anged
Ġdri ves
rew p
Ġregular ly
Ġproj ection
Ġproj ections
Ġact ual
ĠSidewal k
ĠSidewal ks
ĠLim it
ĠHO D
Ġwalk ways
Ro ofs
ĠTrans portation
ĠRev ised
Ġlawful ly
Ġguide lines
ĠAgree ments
Ġfind s
ĠProt ection
Ġfunc tions
Ġcorres ponding
ĠSupp lemental
Ġinteres ts
Ġeconom ic
Ġbul k
Ġcateg ory
ĠRES IDENTIAL
Ġing ress
roof ed
Ġaggrie ved
) :
0 6
3 1
3 2
5 2
9 7
A rea
A irport
F ailure
H ome
H eight
L ighting
M A
R ear
S ub
T r
U P
a di
a vi
c k
c hed
c ommercial
e en
j ection
j unction
n t
n ecessary
o log
r ub
r ant
s ed
s tructure
u ter
w here
y ards
Ġp ay
an opy
Ġb l
Ġb ur
Ġf ewer
Ġf abric
Ġc he
ic ro
Ġbe g
us ed
Ġn urs
Ġst op
Ġst udi
Ġe rect
.... .
Ġl ater
ĠC omp
om pl
ĠA ss
Ġcon cept
ur ity
ĠN C
Ġh uman
ĠD et
ĠD welling
ess ed
ĠB U
Ġdis p
ide o
Ġun iform
Ġun necessary
Ġv ary
Ġinc entives
Ġat tention
ĠPlan ting
ĠĠĠĠĠĠĠĠ ĠĠĠ
Ġhe avi
ap er
ĠI s
em o
Ġdes irable
ĠE state
ĠU til
form ation
Ġz oned
Ġco uld
Ġoff er
Ġac ross
anc h
Ġaccess ed
ON S
Ġpre liminary
Ġexis ts
Ġcomm unic
ack age
Ġtr aining
Ġsu itable
Ġpo ol
Ġappro ach
ĠBo und
Ġthere after
ĠAl coholic
Ġoper ate
Ġcan opies
Ġover head
Ġrel ative
ĠSub mission
Ġcl ub
Ġ19 75
Ġpres erved
Ġwater cour
pec ted
Ġdi ffic
Ġapply ing
Ġcer tificates
Ġten ant
ĠUn der
Ġarchitect urally
Ġdist urb
eg et
ple x
Ġreg istered
Ġstand s
ĠSet backs
cer tain
Ġenti ty
Ġgover ning
Ġval ues
Ġerec tion
Ġmodi fy
Ġrece ived
og raphic
Ġrun off
Ġeight een
Ġreques ts
Ġcap able
Ġprojec ts
Ġpain t
Ġprom ot
ĠSec ondary
ins ul
Ad ult
ener ally
Ġclass ified
Ġwa iver
Ġtrail er
Ġflag s
Ġtreat ments
ĠCons ervation
Ġban ner
Land scape
Ġinde pendent
Ġreduc tion
IS I
room s
Ġmark et
Ġdri ving
sac s
Ġce iling
ention ed
Drive way
Rec reational
Ġdraw ing
Ġconcer ning
Ġcorpor ation
Ġidentify ing
Ġpit ch
ĠMain tenance
Ġfore going
Ġprevious ly
Ġradi us
na mental
Ġdecor ative
ĠProced ures
Ġconfig uration
denti fication
Ġnonconform ity
ĠProjec ts
Ġapproxim ately
greg ate
oli tical
Ġpatr ons
Ġerr or
Ġdescrib ing
Ġacce pted
Ġemphas is
Ġexcav ation
orient ed
ipher al
Ġheavi er
2 9
3 4
4 5
6 5
A fter
B A
C ity
H E
M H
O p
O ff
P O
T wo
a wn
b re
b uilding
d ay
f its
f ares
h ab
o di
p tional
Ġ il
in ent
in ations
Ġt an
Ġt ur
re en
Ġs us
Ġf re
is hing
Ġc ivic
Ġw ild
Ġm edical
Ġm edium
Ġre ader
et e
Ġth ro
id ing
id es
le ase
Ġe as
ac ades
Ġpro xim
.... ...
im ed
ĠA ct
Ġcon junction
un e
un ts
ot ed
ĠP edestrian
tr y
ĠN othing
ul ture
ĠD etached
ĠO ption
ĠO utdoor
Ġpar ti
ĠR un
ĠR OW
ĠR estaur
ol f
Ġuse able
ri ent
ty p
Ġv ents
Ġv ote
Ġres erved
ĠM ark
ĠI II
ĠT e
ĠF o
ĠF und
ĠF eat
ĠF OR
em i
Ġcomp an
Ġcomp osed
ĠL ee
ĠL oc
ĠL abel
Ġch ain
Ġdesign s
vi ation
ollow ing
Ġexce ptional
ĠV I
ĠV R
ĠThe re
Ġ3 2
Ġ3 6
TI ES
Ġpre c
ĠIn terior
ĠH omes
In c
In ternal
Ġimp rov
Ġdo uble
co hol
Ġcont act
Ġcont ext
Ġme as
Ġinter rup
cent er
Ġoccup ant
12 4
mo unted
................................ ................................
ugh t
Ġunder ground
Ġcor rec
Ġthere to
Ġmaintain ing
Ġdeterm ining
Ġaut o
Ġsection s
ĠProv ide
Ġins pected
Ġag ree
Ġag encies
ĠEx isting
Ġinst ances
ĠĉĠĉĠĉĠĉ ĠĉĠĉĠĉĠĉĠĉĠĠ
IN ST
Ġauthor ize
Ġout l
Ġph r
Ġph ase
Ġconn ect
eter inary
Ġserv es
Ġk ind
ex cept
Ġrestric tive
ufacture d
Ġway s
Ġidenti cal
Ġcour ts
Ġcar ried
Ġrece ive
Ġwh ose
Ġmess ages
Ġpen insul
Ġpresent ed
Ġdev oted
Ġinvol ved
Ġintegr ated
Ġgovern ment
Ġextend s
Ġcontr ib
RE ET
ĠST REET
ĠCom pl
On ly
Ġbas ic
Ġhol der
Ġden ied
Ġrepresent ative
Ġattr act
Ġintersection s
Ġthorough fares
Ġpic ture
Ġdraw ings
ĠPre liminary
Ġrefl ect
Pri or
IG N
Ġassemb ly
Ġpropor tion
ĠHous e
Ġseat s
Ġpub lished
Ġwet lands
Ġmode ls
Ġsel f
Ġenlar ged
Ġaest hetic
Ġbillbo ard
ĠBever age
Ġpolic ies
Ġattrac tive
ĠPER MIT
ĠHaz ard
rewp ub
0 8
9 6
A re
C C
C ons
D ay
D ep
D WTN
F rame
F ixtures
H N
I R
I AL
L ight
M E
M ain
N G
N e
O T
O utdoor
S ingle
S aid
T B
U C
W h
W ood
a und
b le
b ased
c tion
c urrent
e as
g ment
o ber
o ors
o unt
r al
t he
u ations
w arehouse
Ġ x
Ġa p
in ding
in ted
re ation
er ic
ti ves
Ġp et
ing les
Ġb ond
Ġf ixture
Ġf lex
Ġan cillary
it ing
Ġc ur
ro cery
ar age
Ġd one
Ġd own
Ġd ark
Ġd ensities
Ġin l
Ġm ar
Ġor namental
lo or
Ġsh ingles
ig it
Ġn ar
Ġn ight
Ġn am
Ġn ine
Ġst anding
Ġst amp
le tic
Ġe val
ac tion
Ġpro hibit
ĠS uch
im e
Ġl ive
ĠC ul
as ons
ĠA ug
ĠA venue
ĠP art
ur ten
Ġus able
ĠN ational
Ġh all
ĠD es
ĠD imension
ĠD rainage
Ġis land
Ġlo d
ll a
ll ed
ĠO rient
ab led
Ġas phalt
Ġex erc
Ġex change
um er
di es
Ġsign ed
Ġpar agraph
ag ram
ĠR el
ain ts
ff erent
ver y
ri es
ut es
ut ter
ir ting
ty ard
Ġun certain
am eter
Ġinc h
Ġat h
ĠĠĠĠĠĠĠĠ Ġ
ĠĠĠĠĠĠĠĠ ĠĠĠĠ
Ġal ign
Ġal one
Ġres pec
Ġres our
Ġmo ve
th ing
res sion
ĠM edium
ĠT own
ĠT itle
lu ded
se l
ers ed
ĠL ight
ĠL ow
sion s
ĠSt ream
Ġoff ense
Ġoff ered
ĠG ood
ĠDis play
Ġen for
Ġ20 10
Ġac tions
pos ts
ten sity
Ġpl aces
Ġpre mise
ĠH e
ĠH earing
Ġest ate
ct ober
Ġar row
Ġgro cery
Ġapproval s
Ġset ting
Ġab s
Ġab ility
Ġcont our
Ġcondition ing
Ġreview ing
Ġbo dies
Ġpri v
Ġexp er
Ġexp iration
inis h
Ġrec onstruction
Ġopen ings
Ġvi a
Ġoper ating
Ġrel ating
âĢĿ .
los ed
pre mise
ĠPro perty
Ġcl ubs
Ġissu es
chitect ural
Ġterm inal
ĠStreet scape
Ġj ud
Ġcontro lling
Ġcontro lled
rid ge
Ġaff ord
Ġren ov
13 1
Ġ199 6
ort able
Ġra il
Ġcour tyard
Ġcommon ly
Ġfound ations
Ġpa ving
100 2
Ġexc luding
Ġemploy ees
Ġpain ting
Ġrespons ibility
AR TICLE
Ġed uc
Sh all
Sh ow
Sh rubs
ĠAg ricultural
Ġentire ly
Ġback ground
ĠMan agement
ĠTr uck
ĠApplic ability
ĠAdministr ation
Ad ditional
Ġconstr aints
Ġenter ing
dic ate
Ġmem ber
Ġengineer ing
fer red
Ġta king
ĠCons truction
Ġpow er
Ġden ial
Ġcross ings
Ġslop es
Ġdoc uments
Ġdepic ting
ĠRo of
Ġbec ause
ĠSc ale
ĠApp eals
Ġstruct urally
Ġencour aged
Ġpath s
ĠHO ME
Ġbene fit
Ġorgan ization
Ġatt end
UR ES
ĠTyp es
Ġleg ally
Offic e
Ġdedic ated
AD E
Un less
Ġund ue
ĠMa jor
Ġmunicipal ity
ĠPl acement
Ġsupplement ed
Ġuns afe
ĠElec tronic
Ġpurch ase
Ġfill ing
Ġgo als
Require d
Ġestim ated
Ġobsc ure
Ġsymb ols
Ġod or
Ġinj ur
Ġligh ter
Ġcoven ants
Sidewal ks
Ġsens itive
Ġbalcon y
Ġbott om
Ġelim in
Ġflagp ole
emo val
Ġwatercour ses
ISI ONS
Ġil legal
Ġproxim ity
Ġinterrup tion
Ġpeninsul as
ĠAug ust
3 3
C omm
D esign
D rainage
E ff
F R
F aÃ§ade
F acades
L oading
M ass
N ew
P en
R ep
S et
T U
U pper
V ER
a ke
a ired
a uty
b at
d en
i ew
i ers
l ated
l ass
l ights
l ife
m ar
n o
n ight
o y
t wo
t inent
u it
x t
z one
Ġ .
Ġ her
Ġo l
re t
re ad
re lated
Ġs mo
al ties
er k
en ess
Ġp ipe
Ġb inding
Ġf er
or ts
it ure
at ural
Ġd orm
Ġd ining
Ġd uplex
Ġw ee
Ġw orking
Ġin val
Ġre taining
Ġre asons
Ġbe verage
Ġsh op
Ġn orth
Ġn av
Ġst ag
Ġst acking
ĠS quare
ĠS mall
ĠS IGN
Ġl ap
ĠC al
ĠC le
ĠC ON
om ing
ĠA b
ĠA m
Ġcon ce
Ġcon ges
ĠP res
ĠP ipe
tr ation
tr ance
tr ip
Ġon ce
Ġapp urten
Ġh ab
Ġh ospit
Ġg en
Ġg ive
ly ing
Ġ2 2
Ġsp aced
ations hip
ri mental
ĠB reak
dition ally
Ġv ision
Ġv ideo
Ġal cohol
ow ers
Ġstr ing
Ġres trict
Ġhe ard
Ġhe av
Ġmo tion
Ġmo ved
ĠM ixed
Ġacc ount
em eter
ĠSection s
Ġcomp act
el ec
ĠL egal
Ġapprov ing
ib ilities
ill ars
Ġco verage
ĠSt ation
Ġit sel
Ġr ange
ĠG round
ĠG reen
ffic e
ĠV iew
Ġop tion
Ġim it
Ġspec ies
Ġ20 11
Ġ20 14
lis h
Ġac tive
Ġle ase
Ġpl aster
Ġpre clude
ĠIn formation
ĠDe velopments
In dustrial
10 1
10 2
own er
own ers
ĠW ood
Ġspecif ying
Ġar chit
Ġcomm ence
Ġne xt
Ġtra de
iv es
ist urb
Ġdec re
Ġ200 9
Ġexp ire
Ġexp ense
Ġexp ected
hib ition
Ġroof ed
ĠOp en
Ġse ver
Ġvari ations
tern ally
11 3
Ġob jection
rit ten
Ġestablish ing
Ġins tr
ĠCon f
ĠPro f
Ġag gregate
ors hip
ĠEx em
Ġcl ad
Ġcl adding
ĠĉĠĉĠĉĠĉ ĠĉĠĉĠ
ĠĉĠĉĠĉĠĉ ĠĉĠĉĠĉĠĠ
Ġgr id
ĠOffic es
St orage
Ġground s
Ġsep tic
ustr ation
Ġperson al
Ġdisplay s
rove ments
ĠUn less
ĠUn its
Ġlimit ation
rid ors
Ġren ted
Ġren dered
13 8
Ġparcel s
ell ish
Ġreg ion
ES S
Ġview ing
When ever
Ġconsider ing
Ġqu al
Ġqu anti
ĠSubsection s
Ġtow ers
hool s
Ġminim izes
Ġwh olesale
Applic ability
Ġgar bage
ud itor
ĠJ une
Re view
bo ard
Ġenclos ure
Ġpresent ation
Ġintegr ity
ĠBusiness es
Ad d
Ġwa ive
Ġplat ted
Ġobtain ing
Ġcalc ulation
Ġlow er
Ġbr ight
Ġhol d
Ġhol ding
Ġden y
Ġaccomp lish
Ġban ners
Ġexem pted
pro fit
ĠRo ad
Ġbec ome
Ġbec omes
ĠSho ps
Ġam ong
Ġtopog raphic
________ ________
Ġpan el
Ġinf r
Ġprac tical
Ġbene fits
Ġsatis fy
Ġword s
ĠIN T
Ġcorpor ate
Ġincorpor ated
Ġstreams ide
ĠAgree ment
UR PO
ĠTyp e
Ġinstitu tion
Sho pping
Ġsup ersed
Ġread ily
Ġdistrib ution
Ġfloodplain s
ĠFlag s
Ġdeg ree
Ġdisc ontin
Ġcompr ising
ĠÂ ·
ĠMin or
ĠEstablish ment
Establish ments
FOR M
Ġdumps ters
Ġharm ony
ĠOwn er
Ġeng aged
ĠIllumin ation
Town houses
tinguis hed
Ġsteep les
Di fferent
Servic e
fo ot
inic s
ĠPARK ING
adi um
olog ical
ĠBound aries
Ġdiffic ul
Ġwild life
Ġeas ily
Ne ighborhood
Ġnam es
Ġath letic
Ġresour ces
Ġjud gment
Ġrail ro
bat ten
Ġinval id
Ġnav ig
Ġconges tion
Ġitsel f
Ġobjection able
uditor ium
URPO SE
9 0
9 2
9 9
A PE
C E
C ADE
D oor
F orm
F urther
H orizontal
I mp
I TIONS
I dentification
N urs
O B
O M
P ar
Q U
V ISIONS
b ellish
d imensional
f low
f act
f aced
j ections
j oy
m an
m ic
m ergency
n el
o ding
o ke
p et
p ond
p ati
p arking
s ide
s mooth
u ted
v als
w ood
Ġ um
Ġ ir
Ġ rip
in er
in ancial
Ġt echn
Ġo uter
Ġs um
Ġs co
er th
en ity
Ġp ip
Ġp ond
Ġp ati
Ġp illars
an e
Ġb or
Ġf ram
Ġf ash
Ġan c
Ġan g
Ġc ut
Ġc up
Ġc iti
ar ant
ar ters
at ure
Ġd ur
Ġw e
Ġw ar
Ġw orks
Ġm is
Ġm ixture
Ġm icro
Ġre ct
lo ading
Ġsh rub
ec ture
id s
le ys
ac tions
Ġpro s
Ġpro of
ĠS trip
Ġl ivestock
ĠC FR
as ting
as tructure
ĠA D
ĠA partment
uc ks
ĠP o
ĠP URPOSE
ĠN O
Ġper tinent
ĠO b
ĠO ak
ĠO ctober
ĠO VER
Ġde al
ate ment
Ġg abled
ag n
ain ed
Ġsp ir
Ġsp eed
de veloped
ri end
ĠB rick
Ġad ap
Ġdis cour
00 1
Ġv oid
enti ve
Ġal tern
Ġstreet scap
Ġcons ent
Ġres ol
Ġres erve
ĠM A
ĠM obile
ĠM OB
ĠI V
ĠT ow
ĠF u
ĠF ive
Ġcomp ens
ers hip
ĠL e
ĠL AN
omm unic
tain ed
ĠE mergency
ho ut
ĠU sed
ill s
Ġco un
Ġco unty
Ġprovid er
Ġoff sets
ĠG enerally
ust ments
ang es
Ġen joy
sc ale
ĠThe se
Ġac ade
Ġdet rimental
op er
op le
TI NG
ord s
âĢĻ -
ĠW ith
Ġimp air
Ġspecif y
Ġar c
co ver
Ġconstruc t
Ġab uts
Ġcont ent
Ġme als
enc ed
ug hout
Ġbo ards
Ġso ught
Ġmeet ings
Ġ200 2
Ġman ufacturing
Ġtr ucks
Ġcompl ies
Ġsu ffice
Ġunder story
Ġsim ul
eat h
Ġpercent age
ĠAd ditional
tit ute
Ġrec yc
Ġ9 0
Ġ4 5
Ġse am
Ġse lling
Ġvari ous
ge red
11 1
Ġtyp ical
Ġrel ief
Ġmet ers
Ġins ure
ĠCon ditions
ĠPer imeter
ĠPro cess
Ġind irect
divid ual
Ġpres ence
Ġdi verse
Ġdi ameter
IN T
Ġsix teen
Ġpos ts
Ġem bellish
Ġbuffer yards
Ġconform s
Ġtrans ition
Ġfour teen
ĠIns urance
Ex am
minis ter
Ġhearing s
Ġorder ly
ie u
Ġenc ro
Ġresid ing
Ġ199 2
Ġviol ations
Ġdiff ering
Ġrepair s
Ġrestric ted
Ġcontin u
Ġgover ned
Ġlaw s
ĠPermit ting
Ġthir d
Ġcour ses
Pro ced
eng aged
pret ation
MEN D
Ġ................................ ........
Ġprojec ted
ĠRec reation
anit ation
AR Y
Ġdem and
Ġdem ol
Ġdetail ing
Ġinterpret ations
Sh utters
ĠCh ief
IT Y
Ġshe ets
ĠVehic ular
Ġpe ople
Ġbuil d
ĠTh at
Ġta x
Ġbr ing
Al so
ĠWidth s
Ġexpress ed
Ġdepic ted
Ġdepic ts
Ġrepresent ed
Ġrepresent atives
FA CADE
Ġmark ed
Ġcurrent ly
Ġconflic ts
Ġinterf erence
Ġkn ow
Ġpic k
ompatib ility
Ġsatis fied
Ġiniti al
Ġiniti ated
Ġexcess ive
Ġcompon ent
Ġreceip ts
Ġpit ched
Ġproceed ing
Ġincorpor ate
Aut hor
Th at
ma king
ĠDrive way
Ġsignificant ly
Ġdisa pproval
Ġinstitu tions
Ġfail s
Ġdedic ation
Ġsole ly
Ġtermin ated
Prov ide
Ġclo se
Ġnear by
Ġsuppl ied
Ġreferen ced
Ġclean ing
Ġtriang le
Ġvolum e
ĠRef use
Ġdeterior ated
Ġimplement ation
Ġbarri er
Ġpractic able
Ġconver ted
Ġdeline ated
Ġstudi o
Ġconcept ual
ĠDet erm
ĠUtil ities
ĠUnder story
Ġdisturb ance
Op en
Ġthro ughout
ĠTe am
ĠFeat ures
Ġcompan y
Ġimprov ed
Ġpicture s
Dep ending
ĠDes cription
Ġlod ging
ĠOrient ation
ĠTown house
ĠGood s
Mass ing
Ġol der
Ġsmo ke
Ġdorm ers
Ġwee k
Ġstag gered
ĠAm eric
ĠBreak fast
Ġstring ent
Ġarchit ecture
Ġinfr astructure
fact ory
Ġum bre
Ġrip arian
Ġfash ion
Ġcup ol
Ġciti z
Ġstreetscap es
ĠLAN D
Ġacade mic
7 2
A pproval
A TE
B e
B ed
B an
B IL
C ON
C onstruction
D welling
D ING
D owntown
D uplex
E F
F reestanding
F ollowing
G E
G ateway
G roup
G arden
H T
N one
O U
S pecific
T A
T ED
V I
W all
W ay
a ving
a round
b e
b uil
c y
c ons
d ge
e u
e ti
e ad
f riend
h ang
l ation
l ight
m ed
n ap
n els
o res
o uts
o ccup
p ass
r ay
s ing
s uch
s nap
t able
Ġ ice
Ġa way
in et
in ct
Ġt es
Ġt urb
Ġt itle
Ġt echnical
re hensive
Ġs le
Ġs od
he ther
er ations
er ies
Ġp ackage
Ġb all
Ġb est
Ġb erm
Ġb lank
Ġf all
Ġf ine
Ġf inish
Ġof ten
or ing
Ġc all
ro priate
ar ation
ar able
Ġd er
Ġd ance
Ġd ust
Ġd ry
Ġd igit
Ġw ashing
Ġw orship
Ġm id
Ġm and
Ġm ix
Ġm ile
Ġm entioned
Ġre cept
Ġre verse
Ġto il
Ġbe am
Ġbe auty
ig ures
us h
us ing
Ġn in
id ers
id uous
Ġst ub
Ġst adium
le br
Ġe ar
ĠS E
ĠS he
ĠC odes
ĠC anopy
as ion
ĠA s
ĠA wning
un eral
qu ests
ĠP h
ul l
ĠD ec
Ġper taining
Ġlo g
ab or
Ġex ternally
Ġnot e
Ġg all
Ġg ate
Ġg ates
ĠR ight
ĠR EC
ol ine
ol ia
ver ing
Ġ2 6
tric al
ra ding
ut ation
Ġcom ments
ĠB an
ĠB icycle
ĠB illbo
Ġad minister
Ġdis ag
if ying
Ġun developed
Ġv ol
Ġv enti
Ġv ibr
Ġv eterinary
Ġinc ons
end ar
Ġstr ong
Ġres istance
Ġhe ad
ĠM edical
ĠT ext
ĠT echnical
ĠT HE
est one
ĠF ood
ĠF ence
ĠF inancial
Ġdes ired
Ġcomp et
Ġcomp lex
Ġcomp osite
Ġcomp rehensive
Ġcomp arable
ers on
ĠL ine
ĠL OT
Ġch an
Ġch ass
ĠE X
ĠE ST
gul ar
tic les
ho p
Ġz ero
Ġno tified
Ġno tify
ĠNo tice
ĠSt one
ĠSt ates
ĠSt udy
Ġr ise
Ġr ule
ĠG roup
ĠG rocery
ĠV eget
ous ly
op e
ĠIn dicate
Ġar tic
Ġset s
Ġne on
Ġne ither
Ġservic ing
Ġallow ing
Ġinter pre
pl es
ĠCo ll
ist ent
Ġso und
Ġman ual
Ġman eu
Ġtr acts
Ġcompl i
ult ane
erc us
ear ch
Ġcor r
Ġcor ridors
eat her
ĠAd ult
Ġrec essed
hib its
Ġroof ing
Ġse ason
Ġopen ing
Ġpart ners
gine ers
Ġoper able
Ġoper ator
Ġoffic er
ĠEn c
ĠEn forcement
ĠEn gineers
Ġover night
Ġover hang
Ġrep eal
Ġrep aired
âĢĿ )
Ġmet er
Ġu pper
out h
ĠCon ven
ason able
ĠEx p
Ġcl a
Ġind oor
Ġinst ance
ĠAr ticles
Ġdep ending
pec ified
pec ially
Ġdi ver
asure d
IN ITIONS
Ġel ection
Ġgre atest
Ġten ants
Ġpos t
Ġpos ition
Per mit
ĠUn ited
EN T
Ġgeneral ized
Ġdist inct
Ġtrans mitted
Ġtrans mission
Ġconn ected
Ġfl ashing
Ġillumin ate
Ġj us
Ġj oint
Ġ100 3
ĠLandscap ed
over n
omp ass
Ġcre ating
Ġcal endar
Ġenc lo
Ġenc ompass
edi mentation
Ġreason ably
Ġsec urity
Ġdiff erence
Ġperiod s
Ġmajor ity
Building s
Ġcoll ect
Ġidenti fication
Ġoccur s
Ġcar ports
Ġrece iving
ange able
Street s
Applic ants
Ġpa id
Ġpa vers
Ġmat ch
Ġconstit uting
Ġincre ases
Re f
ĠExce ptions
ĠCl erk
Ġpropos als
ĠNon residential
Ġair sp
led ge
Ġfil ing
Ġmot el
Ġpe ak
ĠRE QU
Ġmean ing
LO W
ĠInsp ection
Ġremain ing
âĢ¦âĢ¦âĢ¦âĢ¦âĢ¦âĢ¦âĢ¦âĢ¦ âĢ¦âĢ¦âĢ¦âĢ¦
Ġopp osite
Ġser ious
Ġcover ing
Ġ................................................................ ........................
Ġmark ers
ĠSc hools
Ġadministr ator
Ġdemonstr ate
Ġmotor ists
Ġes pecially
rew ed
Ġgener ated
Ġachie ved
Ġpath ways
Ch imneys
Rec omm
ĠLim estone
Ġorgan ized
Ġatt ach
Ġsatis factory
ĠParagraph s
Ġaccompan ying
De velop
Ġsee king
alcon ies
Ġhouse hol
Ġextension s
Ġstat us
ĠPRO C
ĠRes tric
Ġdisa pproved
Ġleg ible
IL DING
Ġsk irting
Ġfail ure
Ġobjec ts
Ġobjec tives
Pri vate
Ġbed s
Ġbed room
Ġfurn iture
Ġlit es
IG HT
Ġreloc ated
Ġdiscretion ary
Ġturn around
Ġmach ines
ĠAP P
Ġstrict ly
me asured
Ġcred it
Ġcred ited
Ġsuppl ies
ĠQu ercus
Not withstanding
Ġdrain able
ĠDo uble
ĠHigh way
Ġtriang les
Ġshel ters
App eals
Ġsti ll
Ġdel iver
ĠItem s
Ġassign ed
Ġremed ies
Tr ans
Ġbeg in
Ġnurs ing
ompl iance
anch ion
Ġpromot ing
Ġtan ks
Ġtur ning
Ġparti ally
typ ical
ĠMark et
Ġagree ment
Ġflex ibility
Ġcur ve
Ġstamp ed
ĠRel ated
Ġuncertain ty
Ġrespec tive
Ġenfor ced
Ġcontour s
Ġexper i
Ġrenov ations
Ġelimin ate
Eff ect
Pen etrations
ĠSIGN S
Ġappurten ances
elec ommunic
Ġsever al
Ġquanti ty
Ġbright ness
Ġsupersed e
erth s
Ġdur able
Ġwar rant
Ġrect ang
Ġspir it
Ġresol ution
Ġcompens ation
ĠLe vel
Ġrecyc ling
Ġumbre lla
CON FORM
EF INITIONS
friend ly
Ġrecept ac
Ġventi lation
Ġchass is
Ġmaneu vering
Ġpartners hip
Ġairsp ace
elecommunic ations
, "
. "
4 8
6 4
8 04
9 02
A dequate
A wning
B o
B usiness
C irculation
C ivic
D oors
E ST
G S
H igh
H istoric
I LE
I TIES
M ixed
N atural
P h
P or
P EC
R ed
R el
R UC
S C
S S
S c
T ot
T ri
T yp
T URES
U B
V i
a pp
a tically
c ase
c hen
c ulation
c ivic
d ec
d ra
e y
f lic
g er
h oles
i tions
i ency
l ike
l legal
n ectivity
n eath
o il
o lic
o de
o tive
p ublic
p are
p front
r u
r an
r ants
s ec
s ign
s ix
u ate
u ther
v as
v ated
v ail
w ing
z e
Ġ $
Ġ *
Ġ ii
Ġa er
Ġa ge
Ġa uditorium
in ch
Ġt ex
Ġo il
re asonable
Ġs al
Ġs uc
on ment
en ities
ti se
Ġp lot
Ġp olitical
Ġb ay
Ġb loc
Ġb icyc
Ġb erms
Ġb rewpub
Ġb rewed
Ġf as
Ġf um
Ġf ow
Ġf lu
Ġf em
Ġf air
Ġf iel
Ġf igures
it ch
it als
it chen
is hed
Ġc and
ar ages
ic k
ic ense
at to
Ġd r
Ġd im
Ġd omes
Ġd uration
Ġd uty
Ġw arning
Ġw eather
Ġin ade
Ġin app
Ġm ort
Ġre he
Ġre lease
Ġbe l
Ġn ational
Ġn ecess
Ġst ay
ĠS H
ĠS up
ĠS el
ĠS pecific
ĠS anitation
ĠS PEC
Ġ( +
im p
Ġl ist
Ġl atest
ĠC re
ĠC irc
ĠC ross
ĠC riteria
ĠC UP
as ing
om in
ĠA T
ĠA fter
ĠA DA
ĠA viation
Ġcon cent
Ġcon current
qu et
qu ee
qu ency
qu acy
ĠP ortable
tr act
ur ations
Ġus ually
ul ly
lan t
Ġh ard
Ġh orizont
Ġh alls
Ġh ole
ĠD uplex
ĠD EFINITIONS
Ġper vious
ess age
ab il
Ġas ide
Ġex it
Ġde vi
Ġde fic
um p
ter tainment
os ing
Ġ1 20
Ġg iving
Ġg arden
ag er
ag ing
ĠR S
ĠR ate
ĠR ED
ĠR emoval
ain ted
Ġany where
Ġ2 3
Ġ2 7
Ġ2 8
de pendent
de quacy
ture d
ĠB ed
ĠB erms
st orage
Ġdis tinguished
if y
Ġun ified
Ġun reasonable
Ġv en
Ġv ar
Ġinc entive
enti ally
end er
end ent
Ġal loc
Ġapplic ants
Ġcons ists
Ġsub urban
res pass
ĠM on
ĠM ust
ĠM agn
ĠM essage
ĠT w
ĠT wo
Ġacc ur
ĠF eet
ĠF encing
ĠL o
ĠL ist
ĠL aw
ĠL iqu
ĠL ivestock
Ġch o
Ġpublic ation
ber y
ho red
ĠRe gul
Ġwhe el
Ġwhe els
Ġint ention
ĠNo tification
ep ing
ĠSt ock
ĠSt ores
Ġ6 11
Ġoff ering
Ġr ural
ĠG e
ĠG u
Ġfac ts
ĠV er
Ġen act
Ġim pos
Ġro t
Ġ20 13
Ġ20 16
lis ts
truc ted
Ġ7 0
Ġfo c
scap ing
ĠIn c
ĠIn tensity
ĠH ospit
In ter
Ġocc asion
ĠW ater
Ġimp r
ct or
TION AL
Ġ8 5
Ġ8 02
ens ive
Ġab out
Ġy iel
Ġcondition ed
Ġinter s
An cillary
Ġbo ats
Ġchang ing
Ġ200 0
Ġman aged
Ġman holes
12 2
inc ip
Ġunder neath
Ġsim ultane
Ġthere in
Ġthere by
ĠAl leys
ĠOp erations
Ġse al
Ġrel ie
Ġob ject
Ġpor table
ĠSub zone
ress ed
Ġless er
ĠCon cept
ĠPro posed
Ġcl ause
Ġind ustr
ĠAr t
ĠĉĠĉĠĉĠĉ ĠĉĠ
ĠĉĠĉĠĉĠĉ ĠĉĠĉĠĉĠĉĠ
hor t
Ġ- -
Ġpres ervation
Ġdi agram
Ġsupp lemental
Ġequ ipped
Ġdef initions
Sign ificant
St andards
Ġnew sp
Ġaddition s
Ġcer tify
ric ulture
Ġver sion
Per ipheral
cel eration
Ġregul ated
Ġtrans mit
Ġtrans portation
ĠIns titute
Ex p
Ġcre ation
Ġaff ecting
Ġcent ral
Ġren ew
Ġresid ent
Ġresid ences
____ __
Ġclos ed
Ġdiff ers
Ġprocess ed
ak es
Ġdeem s
Ġconsider ations
Ġqu arters
ER C
Ġsubst ations
ĠCor ner
Ġprevent s
Ġfir m
Ġrun ning
Ġexc luded
Ġmanufacture r
Re quests
Ġfr action
OR ARY
Ġobs truc
Ġseparate ly
Con flic
Ġpen alties
Ġrespons ibilities
Ġgu ests
Ġgu arant
Ġtre ated
MENT S
ĠAg ency
Ġprof it
Ġlong er
IT E
Ġalter ations
ĠMan ufacturing
ĠAdministr ative
Ġadverse ly
Ġbase ment
ĠST RUC
Ġappl ies
Ġ18 0
ground s
Ġsit uations
Ġpot entially
Ġgrow ing
Ġhol id
Ġsuppor ts
Al low
Al ternative
Lot s
Ġbar ns
ĠRed uc
Land scaping
Ġ................................................................ ................................
Ġadministr ation
Ġam enities
Ġnorm ally
ĠFlood way
Ġsour ces
Drive ways
Vehic le
ob iles
Ġiniti ate
Ġrefl ective
Plan s
clu des
Ġsee ks
Ġproceed ings
ĠPri or
ĠPRO VISIONS
ĠIll ustration
Ġfore st
OW N
Sho pfront
ĠImp rovements
ĠInter state
ĠWindow s
Ġobjec tive
110 6
PE AL
Ġexclusive ly
Ġreloc ation
Ġdeg rees
Ġpropor tions
Ġdisc us
ĠProced ure
Ġconfig urations
Man ufactured
Ġseat ing
Ġwet land
Ġmach ine
ĠPLAN S
Ġperform ed
ĠSur vey
ĠSur face
ĠVari ances
Ġdocument ation
ĠQu ad
Establish ment
Ġhyd rants
Ġautom obiles
Ġcamp ing
Ġmitig ate
Ġmitig ating
ĠAL LOW
Ġvolum es
Ġsecure d
Ġbarri ers
Ġpractic es
MP ORARY
Ma x
Ma jor
Ġsti p
Ġcab inet
ĠRow s
Sub division
ĠDwelling s
ĠBU ILDING
hab itable
Ġfre quency
ĠRestaur ant
ĠLoc ated
Ġmeas ures
Ġoutl ined
Ġphr ases
Main tenance
Wh ile
aund ry
Ġap art
Ġinl ets
ĠDimension s
Ġalign ment
Ġpriv acy
Ġafford able
Ġinjur y
Rep air
Set backs
Ġgen itals
emeter y
isturb ed
Ġdecre ase
Ġinstr ument
Ġdifficul ty
Ġrailro ad
pati ent
Ġtechn iqu
Ġpip es
Ġbor der
Ġanc hored
Ġworks hop
ĠNO TE
Ġdiscour aged
ĠMOB ILE
ĠTow ards
Ġencro ach
Ġdemol ition
ĠAmeric an
Ġcupol as
Ġcitiz ens
ĠLAND SC
occup ied
Ġsle eping
Ġnin ety
Ġear th
Ġdisag rees
Ġincons istent
Ġcompet ent
Ġchan nel
ĠVeget ative
Ġcla imed
Ġenclo se
ĠPROC ED
Ġexperi encing
Ġreceptac les
Tot al
Tri plex
Vi ol
Ġsuc cess
Ġfum es
Ġfow l
atto o
Ġdomes tic
Ġinade quate
Ġinapp ropriate
Ġconcent r
Ġhorizont ally
ĠMagn olia
ĠLiqu or
Ġsimultane ously
Ġindustr y
Ġnewsp aper
ĠSTRUC TURES
" ,
) (
) ]
- -
0 20
1 50
3 7
3 8
3 20
4 00
5 5
9 8
A RD
A reas
A ction
B ec
B uff
B lock
C l
C al
C or
C ont
C ontin
C anopy
D I
D ec
D irect
D ensity
D umps
E ET
E MA
E very
F F
F lat
F loor
H ospit
I ES
J U
J EC
M aterials
O ver
O ccup
P RE
P olitical
P erson
R iver
R estaur
S k
S ep
T ra
U til
U TU
V ari
V eget
W indow
a tic
a ves
b an
b all
b and
b ut
b ered
c r
c ing
c ar
c and
c ial
c are
c ible
c ape
c ompliance
d is
e pp
e ak
f ies
g r
g ar
g anged
i ances
k ed
l d
l ig
l ap
m ay
m ant
m ade
m ical
m entioned
n is
o king
o tic
o red
o ons
p ot
p ts
p ons
r on
r ing
s ive
t es
t or
t le
u x
u ity
u age
u lev
v able
w ide
w imming
y ear
Â °
Â ·
Ġ '
Ġ \
Ġ {
Ġ ram
Ġ edi
Ġ iron
Ġ ........................
Ġa imed
in ery
Ġt respass
Ġs ing
Ġs ent
Ġs ate
Ġs emi
Ġs edimentation
he ck
al ys
en u
en ed
en ic
en di
en ial
ti ll
Ġp est
Ġp red
Ġp ad
Ġp ie
Ġp its
Ġp aper
Ġp iers
Ġp ump
an opies
Ġb i
Ġb at
Ġb lu
Ġb enc
Ġb erths
Ġf eas
Ġan n
Ġan tic
it ness
is m
is es
is ten
is tration
Ġc r
Ġc able
Ġc ass
Ġc yc
ro p
ro y
ro le
ro sion
ro wn
ic ian
ent ly
Ġd a
Ġd est
Ġd ies
Ġd uly
Ġd BA
Ġw orth
Ġm us
Ġm ul
Ġm arking
lo ts
Ġsh ap
Ġsh are
Ġsh ort
il er
ig uration
et ween
et hod
et tes
us ted
us ion
us ole
Ġth re
Ġth ough
Ġn ull
id ent
id ates
Ġst ren
Ġst ud
Ġst alls
Ġst ops
Ġst ained
le g
ac hes
Ġpro l
Ġpro mo
ĠS af
ĠS UB
ĠS oil
Ġ( âĢľ
im al
Ġl i
Ġl ang
Ġl ast
Ġl ack
Ġl ying
Ġl ibr
Ġl ux
ĠC ond
ĠC OM
pp rove
ĠA c
ĠA ub
ĠA pproved
ĠA ction
ĠA MEND
Ġcon ting
un gal
ĠP ages
ur red
ĠN ew
ĠN one
ul ic
ul ate
Ġh alf
ire s
ĠD ra
ĠD em
ĠD iv
ĠD etail
ĠD enial
Ġper ipheral
Ġper pet
Ġlo an
Ġlo ad
Ġlo go
ll ite
ll ution
and em
ab ilities
ab olic
Ġex hibit
Ġde br
um ed
os ition
Ġsign al
quire d
Ġg ain
Ġg ather
ĠR V
mit tent
Ġsp orts
âĢ ¢
âĢ ĵ
ra d
ra p
ra ulic
ut res
ĠB l
ĠB lock
ĠB ridge
Ġad min
ir ty
Ġdis e
Ġdis ch
Ġdis mant
Ġun us
Ġun cons
Ġplan es
Ġv ene
Ġinc urred
od ity
ĠĠĠĠĠĠĠĠ ĠĠĠĠĠ
Ġsub s
Ġres ub
Ġres erv
ap rooms
ĠM aterial
ĠM erchandise
ĠM echanical
ĠM odi
ĠI llegal
ĠF aÃ§
ĠF loor
ĠF ully
ĠF UTU
em pl
ĠL icense
................ ...
Ġpublic ly
tain s
ĠE N
ĠE lements
ip ate
ip ated
und ation
ĠU N
ĠRe al
Ġdesign ate
vi i
ill ing
ĠNo ise
Ġco re
Ġco oking
Ġprovid ers
ĠSt op
Ġr id
Ġr ub
ĠG as
ĠG ross
ĠDis count
ĠV C
Ġim ages
Ġro ot
ous e
sc enity
Ġpr un
Ġpr incip
Ġaccess ibility
Ġaccess ories
ten sions
Ġdet ention
TI VE
Ġpl ain
Ġpre ferred
ĠIn door
ĠH E
ĠH and
pt ly
20 1
In clude
10 6
Ġmain s
ĠW ritten
Ġadj ustment
Ġadj usted
Ġar ts
Ġar tific
Ġdo ctor
Ġcomm odity
ere ll
ens ing
iv il
Ġab ate
Ġcondition ally
ĠĠĠĠĠĠĠĠĠĠĠĠĠĠĠĠ ĠĠĠ
ack ets
Ġinter vals
pl ace
enc losed
Ġdec iduous
use um
Ġbo ok
Ġso cial
Ġ200 1
Ġflo oding
Ġhome owners
fic ial
ind ustrial
ven ing
ven tion
12 8
âĢ¦âĢ¦ âĢ¦
erc ially
Ġunder lying
ĠBo x
ĠBo ards
Ġthere fore
Ġsc he
Ġsc aled
eren ces
Ġbet ter
Ġ4 8
Ġvis it
Ġse en
Ġse ed
Ġse aled
Ġmaintain s
Ġsurf aced
Ġsurf acing
Ġoper ators
tern et
Ġcan vas
ĠEn sure
ĠEn trance
Ġover lap
Ġrel ationship
Ġob lig
ĠProv iders
ne y
Ġins truction
ress ure
ĠCon nectivity
Ġutil ization
ĠDep artments
rough t
ĠEx tensions
25 0
Ġcl ap
ĠAr terial
ĠĉĠĉĠĉĠĉ ĠĠ
Ġcomply ing
Ġappropriate ly
IN ANC
Ġperm ission
Ġass ess
Ġass ist
Ġdef ine
Ġpark way
Ġacti vated
Ġconf er
St atement
Ġmeasure ments
titu tion
Ġpos ting
so ever
Ġgra phic
jec ted
Ġremo ve
Ġill ustr
unt ary
EN ER
Ġph arm
Ġregul atory
Ġtrans por
Ex em
oci ety
Ġspecial ized
Ġprot ective
Ġcre ates
pr imary
Ġindividual s
Ġren t
Ġappeal ed
Ġcal ming
ific ations
ĠAdj ustments
Ġk itchen
Ġ199 8
Ġmulti family
Ġalle ged
IC E
Ġroad ways
ex c
Ġshow s
Ġprocess es
Ġsurrounding s
crib e
Ġra ised
Ġever gre
Ġorient ations
Ġcontrol s
Ġcour se
Ġminim al
Ġcar s
Ġcar port
Ġ0 1
pret ations
STR EET
cour age
Ġsmall est
Ġaccommod ation
Ġaccommod ated
Ġaccommod ations
Ġmat ches
Ġcomb inations
Ġconstit utes
Ġeight y
Ġreques ting
Ġaddress ing
Ġpartic ipate
Ġcorn ices
Ġavail ability
Ġdimension al
Ġproduc t
Ġadequate ly
Ġveget ative
Con forming
Con ventional
Ġpen ding
Ġparticular ly
Ġgu est
Ġlong est
ĠMan ufactured
ĠApplic ations
ĠOccup ation
ĠOccup ations
Ġphys ically
RE A
Ġappl iances
ĠOF F
Ġtrail s
Ġdirec tional
Ġprep aration
Ġfil ms
LA Y
Ġdiv ision
Ġmean ings
lat able
Ġstation ing
Ġcross ing
Ġwal ks
Ġinsp ector
Ġdepic tion
RO V
pro jections
Ġrez oned
Ġ................................................................ ........
Ġannex ed
tim e
ĠMulti ple
Ġelectronic ally
ĠApp eal
En viron
Ġce ment
Ġnum bered
ĠCont in
Ġgas oline
Ġgener ate
Ġpath way
Ġamo unts
Ġantenn a
Ġrev isions
Ġrev oke
Ġthem e
There fore
olum b
Ġbene ficial
Ar chitectural
De velopments
ob by
Plan ning
Ġsy nt
Ġhand ic
Aut om
Th ree
ma x
Ġstat ue
Ġstat ues
Ġhood ed
Ġdisa pprove
Ġsoil s
Ġradi o
ĠĠĠĠĠĠĠĠĠĠĠĠĠĠĠĠĠĠĠĠĠĠĠĠĠĠĠĠĠĠĠĠĠĠĠĠĠĠĠĠĠĠĠĠĠĠĠĠĠĠĠĠĠĠĠĠĠĠĠĠĠĠĠĠ ĠĠĠĠĠĠĠĠĠĠĠĠĠĠĠĠ
ĠĠĠĠĠĠĠĠĠĠĠĠĠĠĠĠĠĠĠĠĠĠĠĠĠĠĠĠĠĠĠĠĠĠĠĠĠĠĠĠĠĠĠĠĠĠĠĠĠĠĠĠĠĠĠĠĠĠĠĠĠĠĠĠ ĠĠĠĠĠĠĠĠĠĠĠĠĠĠĠĠĠĠĠĠĠĠĠĠĠĠĠĠĠĠĠĠĠĠĠĠĠĠĠĠĠĠĠĠĠĠĠĠĠĠĠĠĠĠĠĠĠĠĠĠĠĠĠĠ
Offic es
Offic ial
Sho uld
ĠOn ly
ĠImp act
Ġfurn ish
Ġread y
Ġfinding s
Ġopport unity
oint ment
Ġfunc tional
Ġreloc ate
Ġfact ors
Ġdecor ations
Ġcorres pond
Ġtermin ate
Man ufacturing
Ġclo thing
ĠPLAN N
Ġ110 8
Ġcompr ise
ĠElec trical
Ġnonconform ities
ĠProjec ting
Dis tricts
ĠVari ance
Ġwhat soever
Ġpetition er
Ġdumps ter
Ġlike ly
Ġhyd rant
Ġeng age
Ġautom atically
Ġsymb ol
Town house
Ġpass ive
Ġbreak fast
Ġcamp ers
Ġresul ts
Ġresul ting
Ġcontinuous ly
Ġsl ides
ĠBO ARD
Ġphot ographic
Tr uck
Ġbl ack
Ġbur den
Ġche ck
Ġche mical
Ġbeg un
ompl ete
ĠAss oci
Ġvary ing
Ġcommunic ation
Ġpromot es
Ġsus p
ĠRun way
ĠRestaur ants
Ġmeas uring
Ġphr ase
Ġcontrib ute
ĠCompl iance
ĠPERMIT TED
CC ESS
Ġnar ra
Ġeval uation
Ġexerc ise
ĠHe ights
Ġarrow s
Ġeduc ation
Ġeduc ational
mar ks
Ġconce al
Ġhab it
Ġhospit al
Ġheav y
Ġimit ating
ĠProf ile
ĠExem ptions
Ġregion al
ĠINT ENT
Ġdiscontin ued
Ġnavig able
Imp ervious
Nurs ing
Ġang le
Ġshrub bery
Ġpros ecu
ĠAD JU
ĠOVER LAY
Ġdeal ing
Ġenjoy ment
Ġarc ades
Ġknow ledge
Author ity
buil t
Ġtes tim
Ġturb ine
Ġball oons
Ġmand atory
lebr ation
Ġlog os
ĠBillbo ards
Ġvol untary
Ġinterpre ted
ĠEnc losed
ĠConven ience
overn ment
Ref use
Ġhousehol d
ĠAPP ROV
Ġbegin ning
anchion s
Ġrectang le
CONFORM ING
Ġconcurrent ly
Ġven ues
ĠLo an
Ġintention ally
ĠQuad plex
Ġtechniqu es
ĠLANDSC APE
Viol ations
Bec ause
JEC T
Occup ancy
epp erell
ulev ard
Ġedi tion
Ġsing ular
Ġsate llite
alys is
endi x
Ġpie ce
Ġbenc hes
Ġantic ipated
isten cy
Ġcass ettes
role um
usole um
Ġstren g
Ġstud ents
Ġlang uage
ĠCOM M
ĠAub urn
Ġconting ent
ungal ow
Ġdebr is
utres cible
Ġadmin istered
Ġuncons titutional
Ġvene er
ĠFaÃ§ ades
ĠFUTU RE
ENER AL
Ġevergre ens
Ġsynt hetic
ĠADJU ST
3 9
3 00
4 2
4 6
4 9
5 4
5 9
7 1
7 4
8 5
A mend
A ss
A pproved
B ungalow
C o
C ar
C olumb
D Y
D uring
E W
E MPORARY
F l
F ive
F ood
F ees
F encing
G olf
G arage
H I
I K
J unk
L IN
L egal
L IK
M aterial
M ini
M obile
M edical
M enu
N ame
N ecessary
N ote
O D
O O
O wn
P r
P edestrian
P RD
P owers
R es
R TICLE
R emoval
S ever
S tructure
S ewer
S truct
T itle
T ATION
T attoo
U S
U SE
V ING
W ater
W ords
Y ard
Z ON
a iver
a vement
b ed
b rew
d ers
d rive
d esign
e asure
f all
f eet
f ord
f ood
f ort
f iguration
g ments
g ra
g over
g arage
h s
h y
h igh
i ary
i erc
k es
l or
l et
l ieu
m n
m y
m ail
m ark
m ator
n ts
n ow
n ants
p ay
p edestrian
r ig
r ight
r ban
s h
s et
s ervic
s ible
s uring
t of
t oc
t ended
u ance
u ters
u its
v ic
v age
v ices
w ar
w are
w ings
w orks
x ious
ï Ĥ
Ġ ,
Ġ 00
Ġ iii
Ġ ïĤ
Ġa mb
Ġa partment
Ġa fo
Ġa dequacy
in k
in ts
in king
in der
in tensity
Ġt er
Ġt ent
Ġt ail
Ġt andem
re p
re ed
Ġs ure
he tics
on se
er ie
en estr
en nels
ti fies
Ġp ent
Ġp ec
Ġp are
Ġp op
Ġp ack
Ġp ads
Ġp ressure
ing erie
ed ian
an a
an es
es ted
Ġb al
Ġb us
Ġb ir
Ġb reas
Ġb rought
Ġf a
Ġf und
Ġf eed
or ting
Ġan us
Ġan alysis
it ate
is les
Ġc ub
Ġc ard
Ġc ree
Ġc ivil
ro duc
ar ber
ar ized
at us
at ch
Ġd il
Ġd irector
Ġd ressed
Ġw rec
Ġw ash
Ġw arehouse
Ġw earing
Ġm od
Ġm ans
Ġm ph
Ġor din
Ġre ver
Ġre tain
Ġre ject
Ġre con
Ġre cent
Ġre building
Ġre built
lo sion
lo red
lo ad
Ġbe au
ce ive
il s
il tration
et he
ve re
ation ally
Ġn ative
id av
Ġst able
Ġst ages
Ġst ock
Ġst ables
Ġst abil
le ge
le ges
Ġe mit
ac ted
ac ant
Ġpro gress
Ġpro hibition
ĠS e
ĠS ale
ĠS ewer
ĠS emi
ĠS ociety
Ġfor ce
Ġl anding
Ġl abor
Ġl akes
Ġl aundry
Ġl ingerie
ĠC ar
ĠC ol
ĠC red
ĠC urb
ĠC OR
ĠC opy
ĠC ompatibility
ĠC emetery
as ic
as ses
as phalt
om s
ĠA re
ĠA cc
ĠA mo
ĠA RTICLE
ĠA isles
uc tion
Ġcon vey
un ior
un ge
Ġwith dra
ot or
ot els
ĠP en
ĠP or
ĠP rom
ĠP ist
ĠP awn
ur face
Ġare na
Ġapp ra
ĠN ON
ĠN ame
Ġh ang
Ġh oles
Ġh otel
Ġper mis
lic it
Ġlo ss
ĠO RD
ĠO utside
ĠO PE
ĠO CC
Ġas pec
Ġas cribed
Ġex act
Ġex hibits
Ġde pos
ard ens
ter m
ter ing
The y
Ġsign als
Ġnot withstanding
Ġnot arized
Ġg e
Ġg al
Ġg ame
Ġg ift
Ġg az
Ġg utters
Ġg ender
Ġg ardens
velop er
ag s
ĠR et
ĠR ules
ol id
Ġany thing
hic h
Ġsp ray
de p
ri x
Ġcom es
Ġcom mit
ĠB ro
ĠB uil
ĠB ody
ĠB MP
Ġad here
Ġother s
st art
ir m
Ġdis posed
if eration
Ġun p
Ġun mar
Ġun enclosed
Ġplan ner
am m
Ġinc lus
end s
ting s
ĠĠĠĠĠĠĠĠ ĠĠĠĠĠĠ
Ġal read
ow s
ow ered
Ġstr ateg
Ġsub par
Ġres tr
Ġhe ads
Ġhe dge
th m
res ent
res aid
ĠM o
ĠM ar
ĠM eet
ĠM ore
ĠM ini
ĠI m
ĠI dentification
ĠT N
ĠT RE
ĠT ime
ĠT elecommunications
ĠT EMPORARY
est ablis
Ġacc ent
Ġloc ate
se where
identi ally
ĠF P
ĠF if
ĠF ast
ĠF ees
ĠF arm
ĠF unction
ĠF ollowing
em ote
Ġcomp uted
Ġcomp osition
el ing
el ine
el lant
ĠL ess
ĠL ength
ĠL ayout
ĠL arge
ĠL uther
................ .......
Ġland owner
are ho
und ed
tic es
ĠU p
ĠU rban
ĠRe ader
cre ase
vi ii
vi val
Ġfollow ed
Ġco ordin
we ight
ĠSt ations
ĠSt orm
ĠSt ep
Ġ6 00
Ġoff ers
Ġr hy
ĠG LA
ĠG raphic
ĠG olf
ĠG rading
ĠG ENERAL
ĠV is
ĠV IL
ĠV inyl
ĠV acant
Ġop tions
Ġim port
Ġro ugh
ach ing
Ġ20 6
Ġac ted
Ġac ts
Ġac quired
anc ing
ad d
Ġle ased
Ġ3 4
erm ination
Ġpl az
Ġpre ced
Ġpre vail
ase ment
ĠIn ternal
ĠIn dividual
ĠIn dec
ĠIn ternet
ĠH N
ĠH o
ĠH all
Ġnon profit
Ġexis ted
âĢĻ )
In dividual
In cludes
Ġestablis hes
10 8
ĠW hich
Ġcomm ercially
Ġcomm uters
co vered
Ġtra ditionally
ens es
art in
Ġline al
iv able
ack ed
ack ground
Ġinter mittent
Ġinter vening
Ġdevelop ers
Ġdec k
Ġdec ks
Ġdec lar
ĠPar cel
ĠPar apet
ug ated
use ment
Ġbo at
su pp
su fficient
Ġoccup ying
12 5
ari um
Ġsu it
Ġsu ff
Ġunder standing
Ġunder going
Ġsim ulation
Ġbut toc
te gr
Ġexp lan
Ġexp los
Ġexp losion
Ġexp licit
ik ew
Ġsc ope
Ġsc enic
Ġlight weight
Ġday care
Ġse a
Ġpart ly
Ġoper ational
Ġoffic ers
ĠEn try
ge ment
Ġover c
11 5
11 6
Ġrep eti
Ġrep roduc
Ġsimilar ly
ĠProv iding
gineer ing
Ġref ers
ĠSub divisions
Ġins urance
Ġchar ge
Ġchar ged
Ġutil ize
Ġutil izing
Ġnumber ing
Ġadop t
Ġag ents
Ġag reed
Ġfeat uring
ĠEx posed
Ġcl ient
Ġcl inics
Ġinst ead
ĠAr chitectural
loc ity
Ġpres erv
Ġdep ression
air y
air man
Ġwater s
Ġgr and
Ġhere tof
IN D
Ġass essed
igure d
Ġconf igured
St and
Ġmin ors
Ġeff orts
Ġel sewhere
Ġauthor ization
Ġground cover
Ġpos es
Ġgra vel
Ġgra des
Ġph ases
Ġcle aring
Ġelev ated
Ġfl ush
Ġfoot pr
Ġj unk
eg u
Ġresp onse
Ġaff ix
Ġaff idav
Ġprivate ly
Ġhous ed
Ġcirc le
Ġwork place
ĠAdj acent
Ġk ennels
Ġreg istration
AN G
Ġ16 0
AL L
Ġcontin ues
Ġindic ates
Ġadver tise
ER S
ER PRE
Ġenti t
Ġhigh ly
Ġhigh ways
Ġminim izing
Ġinv est
Ġinv ited
16 0
Pro ject
Ġ0 4
og raphy
Ġfir ms
ator ies
Ġmat rix
Ġrun ways
Ġexc lu
Ġfood s
Ġaddress ed
Ġemploy ed
Ġ................................ ........................
Ġfr uits
Ġrem ote
bo x
bo arding
Ġproduc ed
OR T
OR Y
Ġobs erved
Ġpen etr
Ġrepl ace
Ġcustom ary
ĠSp acing
Ġpresent ly
IF IC
Ġprom ptly
Non residential
Non conform
ĠAg riculture
Ġsubmit ting
ĠCh angeable
ĠCh airman
Ġinvol ves
IT S
ĠCl ass
ĠCl ubs
ĠTr ash
ĠApplic able
Ġpropos es
Ġphys ician
Ad ditionally
Ġclass ifications
Ġenvironment ally
iver sity
Ġcurb s
ĠSh rubs
Ġsufficient ly
Ġair ports
Ġsit uation
Ġfin ance
ĠCer tain
Ġlow est
Ġprep are
Ġconven tion
ession al
ĠVehic les
LA GE
Ġend s
On ce
fer ably
Ġdiv ide
ĠRE AR
ĠRE VI
stablis hed
ĠTh irty
Ġorig in
Ġdepth s
Al coholic
Ġtak es
Ġbar s
At tached
Ġinsp ect
Ġinsp ections
Ġremain s
Ġban ks
Ġban quet
Ġflow s
Ġflow line
Ġdoc ks
pro posed
Ġopp osing
Ġreco ver
ĠRo ofs
Ins truction
Ġ................................................................ .....
IS TING
Ġbeh alf
Ġdemonstr ating
min or
tent hs
Ġes cape
ĠApp endix
En trance
En tertainment
En gineering
Ġite m
Ġinf ill
Ġinf iltration
Ġrev ised
Ġrev ok
law s
Ġec ological
Ġwalk way
Ro oming
Vehic les
Ġbro ad
Ġconcer n
Ġatt or
ob ility
Ġsw ing
Ġlin ks
ĠTrans itional
Plan t
sp acing
Ġhand ling
Ġincorpor ates
Aut o
Aut omobile
Th rough
Ġtri ps
Ġste el
Ġstat ute
ĠPRO JECT
ĠRes pons
ĠMain tain
Ġinstitu ted
Ġrender ings
ĠImp acts
Ġmail ed
ĠInter pretation
ĠInter pretations
110 8
AD ING
Ġsup erv
Ġfurn ishing
Ġlit eral
Ġdistrib uted
Ġund isturbed
ĠMa usoleum
Ġopaque ly
ĠFlag p
ĠPl ain
âĢĶ âĢĶ
ĠHous ing
Prov ided
Ġpub ic
Ġclo th
Ġmach inery
ĠAP PEAL
Ġ110 7
Ġuns ight
Ġmode l
Ġinteres ted
Ġpurch ased
Dis trict
Ġca uses
Ġca used
Ġprogram s
ĠPlat s
Ġenlar gement
Ġapproxim ate
Require ment
Ġfuel ing
Ġestim ates
Multi ple
Ġaest hetics
Ġbillbo ards
ĠOwn ership
ĠBever ages
Ġadv ance
Ġadv ant
Ġreferen ces
Pre mise
au x
ĠK ing
Ġdanger ous
Ġligh ted
ĠAL L
Ġresul ted
Ġcoven ant
ANC E
Ġshel ter
Ġcontract or
Sidewal k
App eal
Di agram
Servic es
par ation
Ġsl ip
Ġwire s
Ġconver sion
Ġdeed s
ĠBO DY
ĠUS GS
Ġplay grounds
Ġremed y
ĠLimit ations
Ġbur ied
Ġnurs ery
ĠComp utation
ĠIs land
ĠUtil ity
Ġcommunic ations
Ġwaiver s
BA MA
HE IGHT
Ġtan k
Ġsus tain
Ġparti al
Ġprec ast
Inc luding
Inc entives
Ġcorrec tion
Ġcorrec ted
Cons ervation
IR ED
the ning
Ġpet roleum
Ġinl et
Ġalign ed
Ġsetting s
Ġabs ence
Ġpriv ile
Ġterminal s
Comm on
Comm unity
ĠCal iper
ĠCle ar
ĠPres ervation
Ġhab itable
Ġhospit als
Ġheav ily
Ġcommence ment
ĠExem pt
Ġsatisfy ing
ĠINT ERPRE
Ġnavig ation
Ġir re
Ġsco re
Ġsco red
Ġwe igh
ĠOb scenity
Ġaltern atives
ĠMA SS
ĠFu ture
Ġcoun ting
Ġsimul ators
Ġembellish ment
Ġembellish ments
Exam ple
Exam ples
Proced ure
Proced ures
Ġ........................................ ...
Ban ners
BIL ITIES
Ġcall ed
Ġder ived
Ġtoil et
ĠShe et
ĠEX ISTING
ĠColl ector
Ġcompli ment
Ġcorr ugated
Ġrepeal ed
ĠREQU IRED
Recomm ended
ĠRestric tions
Ġdeliver y
Por ches
Typ ical
ran ting
sec ondary
Ġtex tured
Ġbloc ks
Ġfas ten
Ġflu ids
Ġfem ale
Ġfiel d
Ġcand idates
Ġrehe aring
ĠSel ected
ĠSPEC IFIC
ĠCirc uit
Ġdevi ations
ĠRED EVELOPMENT
ĠTw enty
Ġaccur ately
ĠVer tical
Ġenact ment
Ġfoc us
ĠHospit ality
Inter pretation
Ġimpr is
Ġyiel ded
Ġinters ect
Ġrelie ve
Ġdiagram s
ERC IAL
Conflic t
Ġguarant ee
Ġholid ay
ĠPROCED URES
Ġsuccess ful
Buff ers
Cal culation
Vari ances
cr imp
gar ten
pot ential
Ġsent ence
till ery
Ġpred omin
Ġblu e
Ġcyc lists
roy ed
Ġda ily
Ġdest royed
Ġthre at
Ġprol iferation
ĠSaf ety
ĠDem and
ĠDiv ision
Ġdisch arge
Ġunus ual
ĠModi fications
Ġartific ial
âĢ¦âĢ¦âĢ¦ ..
Ġtranspor ted
Autom otive
Ġcorrespond ence
ĠPLANN ED
Ġsusp ended
Ġtestim ony
Ġstreng thening
ĠCOMM ERCIAL
ĠADJUST MENT
Ass isted
Co uncil
LIK A
Sever ability
ZON ING
gover ning
mator ium
servic e
ĠïĤ §
Ġafo resaid
inder garten
Ġbreas ts
Ġcub ic
Ġdil ig
Ġmans ard
Ġrecon figuration
Ġstabil ized
ĠCred it
ĠPist ac
Ġappra ised
ĠOPE LIKA
ĠOCC UP
Ġaspec ts
Ġgaz e
Ġspray ing
Ġunmar ried
Ġinclus ion
Ġalread y
Ġsubpar agraph
areho using
Ġrhy thm
ĠVIL LAGE
Ġrough ly
ĠIndec ency
Ġdeclar ation
Ġbuttoc ks
Ġrepeti tive
Ġreproduc tions
Ġheretof ore
Ġaffidav it
ĠREVI EW
Ġrevok ed
ĠAPPEAL S
ĠINTERPRE TATION
" )
" .
) "
1 12
1 000
4 1
4 3
4 4
5 6
5 7
6 1
6 7
6 8
7 6
8 07
8 05
< âĢĶ
A G
A Y
A g
A BIL
A band
B us
B rick
B icycle
B LAN
B lank
B alconies
B ld
B ackground
C S
C e
C ul
C omp
C ross
C amp
C ompatibility
C anopies
D et
D ue
D irector
D EVELOPMENT
D istance
E lement
E lements
E rosion
F eet
F ast
F acilities
F uneral
G r
G as
G enerally
G rocery
G arages
H ig
H otel
H ANG
I A
I ll
I RE
I denti
L L
L ED
M ar
M ore
M IN
N A
N C
N ON
P A
P l
P ARK
P ackage
P ortable
R ight
R ural
R ever
R CS
S ac
S lop
S mall
S afe
S outh
T AL
T ER
U L
U sing
V icinity
V eterinary
V ICE
W ith
W arehouse
W ritten
W arehousing
W AY
Y ards
Z ero
a x
a us
a pped
b a
b ro
b ur
b ase
b lock
b arge
c l
c ks
c irc
c lass
d le
d oors
d isturb
f ts
f ill
f acilities
f ills
f ron
g s
h aus
i ar
i king
i enti
i able
i encies
i ries
k ers
l ies
l az
l iner
m on
m us
m ini
n d
n on
n ic
n ection
n ial
o es
o und
o ided
o inted
p a
r act
r ins
r angement
r ackets
s tructed
t ance
t op
u tr
u ated
v il
v oid
w s
w orking
w hether
x is
y r
y ard
y ze
z en
z oning
Â ½
â ī
Ġ _
Ġ ix
Ġ iv
Ġ __
Ġ ________________
Ġa id
Ġa pr
Ġa fore
Ġa udi
Ġa xis
in v
in ce
in um
in ks
Ġt ub
Ġt ents
Ġt ables
Ġt inted
Ġt asting
Ġt elecommunications
Ġt aprooms
Ġo wning
Ġo ught
Ġo wing
re cre
re ls
re me
re lla
Ġs un
Ġs qu
Ġs ince
on ly
al yze
er ous
er int
Ġthe at
en ing
en ior
ti que
Ġp ed
Ġp ens
Ġp umps
an ing
es ti
es ide
Ġb ure
Ġb ra
Ġb ike
Ġb ath
Ġb eside
Ġf ro
Ġf ar
Ġf am
Ġf ib
Ġf ast
Ġf igure
Ġf ixed
Ġf alls
Ġf enestr
Ġf aux
Ġf esti
or ses
or als
Ġan no
it al
is s
is ture
is ory
is cel
Ġc ance
Ġc uts
Ġc ash
Ġc ashing
ro us
ro pri
ar ter
ar ial
ar ri
ar acter
ar get
ar bage
ic il
ic ians
at ur
at um
at ly
at eness
Ġd id
Ġd om
Ġd ated
Ġd ip
Ġd ram
Ġd rop
Ġd airy
Ġw iring
Ġw eed
Ġin vent
Ġin ves
Ġin oper
Ġin sufficient
Ġm ight
Ġm edic
Ġm alt
Ġm edian
Ġm orals
Ġor ders
all ey
Ġre d
Ġre tention
Ġre jection
Ġre hab
Ġre tained
lo oding
Ġto o
Ġto t
Ġbe gan
Ġsh aring
ce ip
ce ption
il t
il it
il ies
ig ible
et al
et or
et ers
et ch
et te
us al
ment ed
ment ally
Ġth ings
Ġth ick
Ġn ow
Ġn odes
Ġn ationally
id ance
id ence
id ences
id den
Ġst art
le arning
Ġe y
Ġe ffic
Ġe ating
Ġe aves
ac her
ac ies
Ġpro ff
Ġpro ble
ĠS q
ĠS it
ĠS ell
ĠS ER
ĠS anitary
ĠS afe
ĠS outh
ĠS hort
ĠS wimming
Ġl f
Ġl at
Ġl ik
Ġl umber
Ġl umin
Ġl acks
Ġl av
Ġl awn
Ġl ake
Ġl asting
Ġl ieu
ĠC R
ĠC ur
ĠC ell
ĠC ustom
ĠC olum
ĠC ITY
ĠC heck
as ive
om ini
ĠA E
ĠA dequate
ĠA LA
ĠA CCESS
ign ment
uc ted
Ġcon vic
un ges
un loading
ot age
ot ating
ot echnical
qu ality
ĠP ers
ĠP ond
ĠP EN
ĠP urpose
ĠP ole
ĠP oint
ĠP ath
ĠP owers
ĠP epperell
ĠP ierc
tr ail
tr actions
Ġon site
Ġus ers
Ġapp are
Ġapp ointed
ĠN urs
ul a
ul ating
ul iar
Ġh ost
Ġh istor
Ġh itch
Ġh orses
Ġh idden
ure d
ĠD i
ĠD oor
ĠD WTN
ĠD igit
ĠD atum
Ġper il
Ġper tains
lic ensed
ess ing
ll ards
ĠO ut
Ġex tr
Ġex its
Ġex hibition
Ġex haus
Ġde lic
Ġde ath
Ġde viation
Ġde celeration
Ġde leg
ard ed
ter ies
os a
Ġnot ation
Ġg am
Ġg ateway
Ġg olf
Ġpar ap
Ġpar lor
ag ation
ag inary
ĠR est
ĠR ural
ĠR iver
ĠR otating
ain ting
Ġprop ri
Ġprop agation
ver ns
ver green
Ġĉ ĠĠĠ
Ġsp r
Ġsp ons
de veloper
ri ment
ri ft
ut h
ut ting
ut ine
ut ors
Ġcom ing
Ġcom fort
ĠB Y
ĠB y
ĠB ase
ĠB ased
ĠB ene
ĠB lank
ĠB alconies
ĠB etween
ĠB rackets
Ġad he
st ore
st ream
st ead
ir st
Ġdis cer
Ġdis tractions
00 4
Ġun op
Ġun con
Ġun des
Ġun ob
Ġun related
Ġun loading
Ġun ifying
Ġun occupied
Ġun bro
am ps
am eters
Ġv ir
Ġv oc
Ġv ii
Ġv iii
Ġv alley
Ġinc ome
Ġinc lusive
Ġinc omplete
ĠĠĠĠĠĠĠĠ ĠĠĠĠĠĠĠ
Ġal umin
Ġstreet scape
ow ling
Ġapplic ability
ater ing
Ġcons ult
Ġcons ervation
Ġcons umer
Ġcons istency
Ġsub divid
Ġres earch
Ġres identially
Ġhe at
Ġmo isture
th ough
th ouse
res ses
ap room
ĠM ER
ĠM icro
ĠM ethod
ĠM easure
ĠM artin
ĠI lex
ĠT O
ĠT ri
ĠT op
ĠT arget
est al
est ation
Ġacc ents
Ġloc ating
se we
Ġdevelopment al
ine ar
ew ork
ĠF low
ĠF ee
ĠF ixtures
ĠF uneral
ĠF EMA
ĠF irst
Ġdes ires
Ġcomp lement
Ġcomp uter
ers al
hed ule
el ting
iz ations
iz ers
ĠL et
ĠL eg
Ġland marks
are t
ib utes
ĠE ase
ĠE ast
ĠE very
ĠE stablished
ĠE vergreen
ip arian
ĠU mb
of ar
ĠRe lease
ĠRe ceip
Ġdesign ations
cre ens
vi e
vi ed
Ġco ated
Ġco inc
Ġco ordinate
Ġco oper
Ġha d
Ġma pping
ĠSt anchions
ĠSt atus
Ġoff ensive
Ġr is
Ġr ig
Ġr ation
Ġr ate
Ġr ain
Ġr acks
Ġr ins
ĠG ra
ĠG room
ĠG arages
ĠG overnment
ĠDis tinguished
ĠDis tance
ĠV al
ĠV olum
Ġen able
Ġen erg
Ġen umer
Ġen suring
Ġim aginary
Ġro ute
Ġro unded
Ġro utine
sc ri
sc hool
ĠThe y
ĠThe ater
Ġac celeration
Ġpr inted
Ġle vied
ive red
Ġ3 7
Ġ3 50
Ġ7 4
Ġ7 04
Ġ7 05
Ġ7 06
Ġ7 08
Ġfo un
Ġpre f
Ġpre application
Ġpre vention
ĠIn f
ĠIn crease
ĠIn tegr
ĠH UD
ĠH otel
ch anges
Ġve locity
Ġown s
Ġwall ed
ĠDe veloped
ĠDe ferred
ĠDe vices
In dicate
ail ed
10 9
Ġsur round
Ġsur vival
ĠW ind
ĠW ords
ĠW hether
Ġwhere in
Ġwhere ver
Ġimp ed
Ġadj ustments
Ġar ise
Ġar tis
Ġdo ll
ons tructed
ĠâĢ ĺ
Ġset t
Ġ8 04
Ġ8 07
Ġ8 05
co lored
Ġup land
Ġup ward
ens is
art hen
Ġy et
ĠĠĠĠĠĠĠĠĠĠĠĠĠĠĠĠ ĠĠĠĠĠĠĠ
Ġallow ance
Ġinter state
ĠCo verage
ist ant
An imal
Ġ5 2
ĠPar abolic
Ġbo llards
Ġso uth
ual ity
Ġman y
Ġtr an
Ġtr ue
til izers
12 1
12 3
mo re
Ġcompl ied
................................ ........
................................ ........................
inc tive
Ġsu ite
Ġpo ly
Ġpo uring
Ġpo llution
Ġunder br
Ġappro aches
Ġsim ple
Ġtime ly
act or
ĠBo ulevard
Ġexp end
Ġexp ired
ĠAd v
ĠAd ditions
Ġsc ul
ĠAl ter
Ġ9 6
Ġ9 05
eren nial
hib itions
Ġ4 3
Ġ4 00
Ġse gments
Ġse vere
ines e
Ġdeterm inations
Ġent ries
Ġoper ates
ĠEn courage
Ġover flow
Ġrel ate
Ġref usal
Ġless ee
ati s
pre c
ĠCon crete
ĠPro hibitions
Ġfeat her
ian a
ĠEx change
Ġcl ar
Ġcl inic
Ġcl utter
ĠAr my
Ġsaf egu
hor ization
Ġpres cription
Ġdep rive
Ġdep endent
air s
IN ESS
Ġext reme
Ġdef ect
umin ation
ĠAt tor
St ream
St udi
Ġmin i
Ġel igible
Ġgre y
Ġout we
Ġout line
Ġout ward
Ġout fall
Ġout doors
Ġground water
cept able
Ġpos itive
Ġgra ded
Ġremo vable
ustr ades
Ġill ustration
Per formance
ĠUn d
ĠUn sewe
Ġsepar ator
our s
Ġregul ating
Ġdist inctive
Ġtrans it
Ġtrans form
Ġtrans ient
Ġtrans action
Ġtrans actions
Ġconn ecting
Ġfl or
Ġfl utter
Ġfl amm
etc hes
ĠAccess ible
Ġfoot ings
Ġillumin ating
Ex posed
Ġj o
Ġj ob
Ġj unior
eg ative
Ġprot ecting
Ġresp ond
Ġcre am
pr ises
ple mentation
ĠÂ§ Â§
Ġaff irm
13 6
Ġcirc uit
Ġappear ing
18 0
18 8
Ġenc asement
Ġk indergarten
Ġ199 9
ell ed
Ġreg ards
Ġviol ate
Ġviol ating
Ġassoci ations
IC AL
Ġbound ed
19 0
AL TIES
ak ed
Ġav oided
Ġcontin uation
02 4
Ġra ise
Ġherein after
Ġsew ing
Ġmon ot
raph s
Ġadd resses
Ġtow ing
Ġoccur ring
Ġofficial s
Ġinv asive
ange ments
Pro f
Pro per
eng er
og raphs
Ġrest ored
ĠCor n
ĠCor ps
ĠOver ly
Ġprevent ing
Ġpa wn
Ġlicense e
ĠFor ty
tig ation
Ġstream ers
ISTR ATION
Re ceive
Ġ................................ .......................
Ġcap ability
av y
av or
av ail
Ġstore front
Ġproduc tion
Ġwood ed
Ġwood working
ĠNe on
Ġveget ables
Ġenclos ures
Con ditions
Ġpen nants
Ġrepl acing
Ġflood way
Ġcustom ers
ĠSp eed
Ġgu idance
Ġed ges
Ġeffective ly
Sh ared
Ġbody work
Ġwas hes
ĠSec urity
Ġsubmit tal
Ġentire ty
Ġprof ile
Ġproced ural
ĠCh ild
ĠCh aracter
ĠCent ral
Ġintegr ation
Ġintegr ally
ĠCl inics
Ġmonth ly
Ġgroup s
Ġte aching
Ġte acher
Ġbase ments
Ġcurb ing
ĠSh ared
ĠSh ape
ĠCom b
Ġappl iance
Ġplat s
Ġplat ting
Ġcalc ulating
Ġalley ways
Ġsit uated
26 7
ĠY ards
Ġfil es
Ġboard ed
Ġend anger
ĠMay or
Ġbr aces
Ġbr anch
ĠCons umption
ĠCons umer
ĠCons titution
Ġpow der
Ġpow ered
Ġbar rels
At hens
Ġwal king
Ġmass age
Ġslop ed
Ġlet tered
âĢ¦âĢ¦âĢ¦âĢ¦âĢ¦âĢ¦âĢ¦âĢ¦ âĢ¦âĢ¦âĢ¦âĢ¦âĢ¦âĢ¦âĢ¦âĢ¦
âĢ¦âĢ¦âĢ¦âĢ¦âĢ¦âĢ¦âĢ¦âĢ¦ âĢ¦âĢ¦âĢ¦âĢ¦âĢ¦âĢ¦âĢ¦âĢ¦âĢ¦âĢ¦âĢ¦âĢ¦
pro of
ĠRo oms
Ġcover s
Ġ................................................................ ..
Ġ................................................................ ......
ĠSc ope
ĠSc hedule
Ġarr angements
Ġarterial s
Ġattr ibutes
Ġelectronic s
Ġmotor ized
lim ited
Ġri b
ĠApp ointment
ĠApp ropri
Ġinf latable
Ġnum erous
ĠCont ents
ĠTra iler
Ġrev ol
Ġrev ision
Ġhardship s
Ch urch
Ch anges
Ch angeable
Ġpic nic
Ġshiel d
Ġshiel ding
Ġvac ated
ĠLim its
ĠAdd ress
Ġwalk able
Ġrecogn ize
Ġrecogn ition
Ġrecogn izes
Ġorgan izations
Ġconcer ns
ĠPre vent
Ġaccompan y
De finitions
Ġsw itch
Ġlin er
ateg ories
Ġaband on
ĠTrans ition
front age
Ġ13 4
ĠRev oke
Ġtravel ing
Ġvalid ity
Ġvalid ly
Th ose
ĠRes earch
Ġradi i
Ġawning s
Ġsk in
Ġsk ills
Ġsk etches
Ġuniqu eness
ĠInter section
110 7
AD MIN
Un der
ĠQ uality
Ġfunction ally
ĠPr imarily
ĠNot es
Ġdistrib ute
Ġdistrib utors
Ġund uly
ĠMa x
Ġaccording ly
ĠZON ES
ĠProt ect
Ġentry ways
Ġpeti tions
Ġefficient ly
Ġassemb le
Ġassemb ling
Ġdeg rad
âĢĶ >
Ġdisc arded
Ġfact or
ĠHous es
Ġtermin ates
ĠAut horization
Ġperform ances
Ġcompr ised
Ġeconom y
Min or
Ġsel ected
Ġfill ed
Ġcateg ories
ĠSur f
ĠEstablish ments
Ġnear ly
Ġsecond s
Ġdocument ed
FOR MA
FOR CE
Flood lights
Ġdrain s
Ġhyd raulic
Ġtract or
Ġobsc ene
Ġpatr on
Ġerr ors
Ġletter ing
ĠIllumin ating
Pre mises
Ġod ors
Ġpass enger
Ġfit tings
Ġfarm s
tinguis hing
Ġdeterior ating
Ġgrass ed
ANC ES
ĠRecord s
Ġshel f
Ġcontract ors
par allel
Ġsl ab
Ġbalcon ies
Ġcab aret
lane ous
Ġdel ivered
ĠUS DA
ĠRepair s
Ġelim ination
Ġphot ographs
Ġtransfer red
Ġcarry ing
Ġflagp oles
Sub zone
adi o
structure s
Ġpay ment
Ġfabric ation
Ġstudi es
Ġlater als
ĠAss ess
Ġdisp ensing
ĠIs su
ĠBound ary
Ġdiffic ult
Op elika
Ġthro at
ĠFo x
ĠFo undation
ĠFo otage
ĠFeat her
Ġcompan ies
Ġprec ise
Ġimprov es
................................................................ ......
Ġagree ments
Ġcontrib ution
ĠCompl ete
Ġproportion ed
Wh olesale
aund rom
eas ures
Ġap artments
Ġflex ible
Ġmar in
Ġmar quee
Ġnar row
Ġhall ways
Ġexerc ising
Ġrespec ts
Ġmove ments
ĠStream side
Ġenfor cing
Ġattend ance
Ġattend ant
ret arial
Ġfer mentation
Ġfer mented
Ġfer tilizers
Ġduplex es
ĠCON T
ĠCON DI
ĠAb utting
Ġconce pts
ĠPres ent
Ġgen us
emeter ies
Ġimit ations
Ġdecre ases
ĠConf erence
ĠProf essional
Ġqual ifying
Ġqual ify
________________ ______
Ġdifficul ties
Ġrailro ads
Further more
Imp rovements
OM MEND
Par ks
Ġpati o
Ġfram es
Ġfram ework
Ġang les
ĠStrip ing
ĠOVER HANG
Ġdeal ership
Ġadap t
Ġadap ted
ĠFu eling
Ġcoun try
Ġcontinu ance
Author ization
ĠDeterm ine
Be fore
GE FORMA
Ġdigit al
Ġmid dle
Ġtoil ets
Ġbeam s
Ġstadium s
ĠAwning s
ĠPh ot
Ġgall on
ĠREC OMMEND
Ġvibr ation
Ġvibr ations
Ġartic ulated
Ġcompli ant
Ġcorr als
Ġoverhang s
ĠExp ansion
ĠExp iration
Ġdiver g
Ġdiver sity
Ġpost mark
Ġjoint ly
ĠREQU IRE
Recomm end
Develop ers
Bo ard
Red uction
ode tic
pare nt
sign ificant
Ġaer ial
Ġsal vage
Ġbicyc les
Ġdim inish
ĠSH APE
ĠSup erv
ĠSpecific ations
ĠCre matorium
ĠAT P
Ġdefic iency
Ġdefic iencies
Ġvar ied
Ġalloc ated
ĠMon itor
ĠLaw s
Ġcho ice
ĠRegul ation
ĠRegul ate
ĠGe odetic
ĠGu ide
Ġimpos es
Ġrot ate
ĠInc entives
Ġcertify ing
Exp ansion
Exp ression
Ġrenew al
Ġobstruc ts
Allow ed
ĠReduc ing
Ġdiscus sed
ĠALLOW ED
Ġstip ulated
Ġencroach ment
Cor ner
Contin uous
Dumps ter
Hospit als
Person al
Restaur ants
Sk irting
Util ity
Veget ation
Window s
cand le
Ġ\ *
Ġram ps
Ġbat teries
Ġfeas ibility
Ġann ual
Ġcr ime
Ġmus ic
Ġmul ch
Ġshap ed
Ġpromo tions
Ġlibr aries
ĠCond ucted
ĠAMEND MENTS
ĠDra wings
ĠDetail s
ĠBl inking
Ġdismant led
Ġreserv es
empl ate
ĠEN FORCE
Ġrid ges
Ġprun ing
Ġprincip le
Ġbook store
Ġsche me
Ġvisit ors
Ġclap board
Ġassess ments
Exem ptions
exc luding
Environ mentally
Ġhandic ap
Ġchemical s
ĠAssoci ation
Ġnarra tive
Ġprosecu ted
ĠAPPROV AL
Amend ments
Columb us
Fl ag
HI B
Own er
Pr incipal
brew ery
rig ation
sh all
Ġamb ient
Ġpent house
Ġpec uliar
Ġpare nts
Ġpack aging
Ġbal ustrades
Ġbir ds
Ġfa ith
Ġcard board
Ġcree k
Ġwrec ked
Ġordin arily
Ġrever t
Ġbeau tification
ĠAmo unts
Ġpermis sible
ĠORD INANC
Ġcommit ment
Ġstrateg y
establis hed
ĠFif teen
Ġcoordin ated
Ġplaz as
ĠHo lly
Ġexplan atory
Ġexplos ive
Ġfootpr int
Ġadvertise ment
Ġentit lements
Ġpenetr ation
Nonconform ities
Ġattor ney
ĠRespons ibilities
ĠFlagp oles
Ġadvant age
Ġirre gular
Ġweigh ted
Ġcompliment ary
Ġfasten ed
Ġimpris onment
Ġdilig ently
ABIL ITY
Aband oned
BLAN K
Bld g
Element ary
Hig hest
Ill umination
PARK ING
Rever se
Slop ing
disturb ing
ienti fic
laz ing
rins ing
âī ¥
Ġ________________ ______________________
Ġapr on
Ġafore mentioned
Ġaudi ble
recre ational
Ġsqu ares
erint endent
Ġtheat re
Ġped estal
Ġbure au
Ġbra ke
Ġfro zen
Ġfam ilies
Ġfib rous
iscel laneous
icil iary
atur ated
Ġdip lo
Ġthick ness
Ġeffic iency
Ġproble ms
ĠColum n
omini um
ĠALA BAMA
Ġconvic tion
ĠPers ons
ĠPEN ALTIES
ĠPath ways
ĠPierc ing
trail er
ĠNurs ery
Ġhistor ical
ĠDigit al
Ġexhaus tive
Ġdeleg ated
Ġparap ets
Ġpropri etor
Ġdiscer n
Ġunop ened
Ġunob structed
Ġunbro ken
Ġalumin um
Ġsubdivid ing
ĠMER GEFORMA
ĠEase ments
ĠUmb rella
ĠReceip ts
Ġcoinc ide
Ġcooper ate
Ġrins ed
ĠGroom ing
Ġenumer ated
Ġsurround ed
Ġunderbr ush
Ġsevere ly
ĠUnsewe red
Ġflamm able
ĠAppropri ateness
ADMIN ISTRATION
Ġdegrad ation
ĠCONDI TIONAL
Ġdealership s
ĠRECOMMEND ED
Ġpostmark ed
ĠREQUIRE MENTS
ĠENFORCE MENT
ĠMERGEFORMA T
" -
# #
) -
) âĢ¦
) ...
) âĢĿ.
, âĢĿ
1 20
2 000
4 7
5 1
5 3
5 8
5 60
5 31
6 2
6 3
6 6
6 9
7 3
7 8
7 50
7 07
7 05
8 1
8 00
9 4
9 04
9 03
9 07
9 05
A B
A C
A T
A c
A m
A ZA
A TU
A uditorium
A CE
A CCESS
A VING
B loc
B AN
B ak
B ody
B ZA
B illbo
B alcon
B rewpub
B asic
B owling
C A
C D
C er
C om
C ol
C riteria
C lus
C opies
C UP
C OU
C ompliance
C emetery
C heck
D es
D oc
D ry
D edic
D RT
D UC
E G
E H
E X
E lev
E ns
E rect
E lec
E quipment
E LL
F H
F ire
F ace
F ore
F inal
F IC
F arm
F IR
F EMA
F itness
F illing
G L
G all
G reen
G lass
G overn
G overnment
G ranting
G lazing
H e
H ED
H MENT
H uman
H OU
H obby
H OD
I M
I s
I SE
I ERC
I VING
I BILITIES
J urisdiction
L o
L ic
L im
L od
L ow
L oc
L IC
L IS
L ake
L iner
L ikew
M U
M o
M ust
M AN
M ING
M ED
M asonry
M eals
M odi
M ethod
M useum
M otor
M ALL
M obility
N L
N T
N orth
N ER
N egative
N EX
O P
O b
O RD
O LO
O RDS
O ctober
O INT
O ADING
P et
P age
P ark
P lat
P TIONS
P ONS
P epperell
P ORT
P ICAL
R un
R out
R eal
R ES
R ID
R emote
R iparian
S I
S o
S p
S w
S he
S ec
S im
S el
S TI
S ome
S ize
S ex
S anitary
S mooth
S upp
S emi
S IGN
S pecified
S hort
S wimming
S INESS
T H
T T
T en
T op
T ables
T ime
T OWN
T ermination
U p
U s
U STR
U RE
U IS
U TIES
U IND
U ANCE
V D
V illage
V ID
W ine
W el
W ork
W arning
W aiver
W ELL
W IM
Y PICAL
Z one
] )
a ign
a ure
a king
a ult
a pping
a pproval
a ordin
b s
b ing
b ate
b os
b ra
b ons
b uff
b ott
b etween
b arber
c or
c le
c ul
c ol
c ut
c ast
c omp
c ia
c irculation
c ulations
c ulture
d al
d ate
d irect
d ensity
d rew
d uplex
d istance
d ger
d ominium
e an
e lo
e op
e ech
f e
f i
f ac
f as
f ire
f ted
f ree
f ined
f erence
f inition
g in
g id
g age
g rading
h an
h and
h otel
h iking
i er
i ro
i ation
i ard
i hood
i lots
k et
l er
l uc
l ers
l iness
l ong
l ined
l los
m as
m ain
m ary
m ous
m ium
n al
n as
n ew
n ecting
n cy
o op
o osa
p es
p ic
p ture
p ut
p ip
p art
p ark
p loy
p ermanent
p ervious
p oint
p lying
p utrescible
p owered
p ersal
r ance
r um
r ally
r ights
r als
s ities
s ize
s afe
s pecified
s urface
t w
t end
t ach
t ory
t rees
t ors
t ak
t urn
u ce
u ating
u ony
v y
v ision
v isions
v ideo
w ards
w est
w alls
x i
x ic
y er
y mb
y mn
z or
Â ł
Ġ +
Ġ ;
Ġ ess
Ġ ide
Ġ ................
Ġ ____
Ġ %)
Ġ **
Ġ ________
Ġ <âĢĶ
Ġa qu
in ter
in ine
in ous
in terior
in force
in ners
in arian
in dependent
in stead
in ensis
Ġt ar
Ġt id
Ġt end
Ġt ied
Ġt ee
Ġt rip
Ġt iers
Ġt ethe
Ġt ilt
Ġo st
re f
re ar
re zoning
Ġs m
Ġs of
Ġs ited
Ġs ug
Ġs ense
Ġs izing
Ġs anitation
Ġs now
Ġs ags
Ġs creens
Ġs aturated
he ater
he ast
he llos
on ous
on ious
on au
al ty
al se
al ism
er n
er ted
er ial
er ary
er red
er ical
er its
Ġthe ft
en tions
en nel
en eath
ti ven
ti ble
ti dal
Ġp al
Ġp le
Ġp as
Ġp un
Ġp ure
Ġp lu
Ġp ine
Ġp ose
Ġp ock
Ġp oli
Ġp erennial
Ġp ilots
Ġp hellos
ing e
ing ly
ing ness
an y
an or
an tive
an gular
es y
es ter
Ġb on
Ġb ac
Ġb od
Ġb ind
Ġb rea
Ġb ins
Ġb acking
Ġb ridge
Ġb read
Ġb ikew
Ġb aking
Ġb eneath
Ġf an
Ġf ol
Ġf ined
Ġf ond
Ġf uses
Ġf ishing
Ġf enced
Ġf ender
Ġf alse
or ations
or ied
or ative
or gan
Ġan tique
it ts
it ating
it ants
it ches
it heater
is or
is able
is ite
is hes
is ms
is lat
Ġc ro
Ġc at
Ġc as
Ġc um
Ġc her
Ġc ra
Ġc ust
Ġc ited
Ġc art
Ġc ans
Ġc ultural
Ġc ott
Ġc atering
Ġc emeteries
ro ll
ro em
ro lling
ro per
ro log
ar ture
ar ry
ar ability
ar atory
ar ger
ic ed
ent rance
at c
at t
at ess
Ġd ates
Ġd ental
Ġd ict
Ġd omin
Ġw id
Ġw est
Ġw ear
Ġw ines
Ġw eight
Ġw ording
Ġw ishing
Ġin n
Ġin qu
Ġin tr
Ġin here
Ġin land
Ġin lay
Ġin fer
Ġin hibit
Ġin hab
Ġin pati
Ġin undation
Ġin put
Ġm as
Ġm ag
Ġm uch
Ġm uff
Ġm ale
Ġm iles
Ġm useum
Ġm elting
Ġor al
Ġor ific
Ġor dered
all ation
all elo
Ġre ve
Ġre use
Ġre ward
Ġre application
Ġre established
Ġto uch
Ġto ols
Ġto pped
Ġbe ar
Ġbe aring
Ġsh ot
Ġsh ad
Ġsh ore
Ġsh ove
il low
ig hed
et erm
et eness
Ġshall ow
Ġshall own
us ter
us hed
us tic
us cal
us tible
ment ations
Ġth read
Ġth ru
Ġn ailed
id a
id ents
Ġst all
Ġst ri
Ġst air
Ġst ubs
Ġst acks
Ġst ret
Ġst anchion
Ġst anchions
Ġst acked
Ġst atis
Ġst aked
le a
le y
Ġe ll
Ġe ast
ac tive
ac ility
Ġpro b
Ġpro c
Ġpro hibits
ĠS C
ĠS k
ĠS im
ĠS ight
ĠS ix
ĠS ens
ĠS pl
ĠS ame
ĠS creen
ĠS pec
ĠS erve
ĠS IT
ĠS iting
ĠS pecified
ĠS wing
ĠS ITE
ĠS olid
ĠS AVING
ĠS MALL
ĠS WIM
Ġ( "
Ġ( $
Ġ( %)
im a
im ing
im ize
Ġl ate
Ġl if
Ġl est
Ġl ens
Ġl ie
Ġl ets
Ġl amp
Ġl int
Ġl ists
ĠC ER
ĠC LA
ĠC ashing
ĠC raft
ĠC anopies
ĠC REA
ĠC LIN
ĠC ategories
as er
as ide
as hes
as ium
om y
om et
om ason
om iciliary
ĠA p
ĠA cer
ĠA pprov
ĠA RT
ĠA BA
ĠA IR
ĠA vail
ĠA dequacy
ĠA REA
Ġcon de
Ġcon st
Ġcon du
Ġcon greg
Ġcon dominium
un it
un ting
un ks
ot ing
ot os
ot yp
ot lights
qu arters
ay ed
ay day
ay ette
ĠP C
ĠP T
ĠP V
ĠP ass
ĠP ost
ĠP LA
ĠP OW
ĠP iles
ĠP ackage
ĠP aving
ĠP eti
ĠP ainted
ĠP OO
ĠP avement
ĠP IERC
ĠP OINT
ĠP itts
ĠP ayday
ur ances
ur ient
ur ned
ur ches
ur ring
Ġare ol
Ġare nas
Ġus ual
Ġapp ointment
Ġapp ellant
ĠN OT
ĠN atural
ĠN RCS
ĠN UIS
ĠN fi
ul ing
ul ative
ul ins
lan ting
Ġh im
Ġh os
Ġh ist
Ġh ose
Ġh obby
Ġh otels
ub lished
ure ty
ire less
ĠD ri
ĠD am
ĠD enti
ĠD el
ĠD own
ĠD EC
ĠD rain
ĠD ry
ĠD og
ĠD irec
ĠD IS
ĠD ATE
ĠD OWN
ĠD war
ĠD UTIES
ĠD WELL
Ġper ver
Ġper col
lic ation
Ġlo u
Ġlo ans
Ġlo ud
Ġlo unge
ess es
ll s
and alism
ĠO R
Ġas h
Ġas certain
Ġex pose
Ġex plain
Ġex otic
Ġex changes
Ġde ep
Ġde prec
um e
um bing
her ing
ter y
The ater
The rea
os en
os ter
os ol
os ystem
Ġby laws
Ġ1 000
Ġ1 25
Ġ1 18
Ġ1 40
Ġ1 111
Ġsign ific
Ġg un
Ġg ated
Ġg utter
ection ery
Ġpar abolic
Ġpar allelo
ĠR en
ĠR ent
ĠR ange
ĠR ental
ĠR emo
ĠR emote
ĠR adio
ol ing
ol ving
ol ved
ol ute
Ġprop ensity
mit ting
mit tal
ff ect
ff ee
ff its
ver tising
ver sions
Ġ2 9
Ġ2 90
Ġsp ect
Ġsp ati
Ġsp ark
Ġsp illage
Ġsp eak
Ġsp ouse
Ġsp orting
Ġsp eech
Ġsp inners
de os
de me
de fined
ra ils
ut a
ut able
Ġcom e
ĠB E
ĠB ack
ĠB ond
ĠB loc
ĠB oth
ĠB rewp
ĠB rewpub
ĠB erths
ĠB arber
ĠB asic
ĠB arri
Ġad ding
Ġad mission
Ġad hering
st ances
st ars
st roem
st allation
ir led
ir ming
ir ling
Ġdis h
Ġdis con
Ġdis hes
Ġdis rup
Ġdis abilities
Ġdis covered
if estation
Ġun at
Ġun ity
Ġun ch
Ġun inc
Ġun tit
Ġun divided
Ġun war
Ġun avail
Ġun limited
am us
am per
Ġv end
Ġv ill
Ġv ending
Ġv illage
Ġv ested
Ġv inous
Ġv andalism
Ġinc iner
Ġinc ident
Ġmay be
end a
ĠOr der
ĠOr namental
rov ed
Ġat tic
Ġat ten
Ġat tem
Ġat tics
ĠPlan t
Ġal lot
Ġal ba
Ġal though
ow er
Ġstr ings
ater al
ater nal
Ġcons erve
Ġcons iders
Ġcons pic
Ġsub jected
Ġres ide
Ġres em
Ġhe ated
Ġhe ading
Ġhe dger
Ġmo ves
Ġmo unting
th at
th ru
th rift
res tric
res ee
ap ons
ap anes
ap han
ĠM S
ĠM y
ĠM us
ĠM id
ĠM ail
ĠM ast
ĠM ass
ĠM IC
ĠM ining
ĠM asonry
ĠM eals
ĠM otor
ĠM obility
ĠM easures
ĠM iscellaneous
ĠM erits
ĠI denti
ĠI SS
ĠT I
ĠT V
ĠT ie
ĠT urn
ĠT IT
ĠT rip
ĠT erms
ĠT OWN
ĠT aprooms
ĠT ax
ĠT emplate
ĠT YPICAL
ĠT uscal
Ġacc um
Ġloc king
ĠF r
ĠF rom
ĠF orm
ĠF ill
ĠF rid
ĠF iel
ĠF LO
ĠF lat
ĠF IS
ĠF ishing
ĠF acades
ĠF itness
ĠF INANC
ĠF looding
ĠF avor
ĠF acility
em pt
em pted
em ploy
Ġdes er
Ġdes truction
Ġcomp uting
Ġcomp ound
ers ion
ers erved
el ihood
ĠL ate
ĠL od
ĠL ong
ĠL IN
ĠL ibr
ĠL abor
ĠL ivable
ĠL aundrom
ĠL EG
ĠL IVING
ĠL OADING
ĠZ el
ĠZ ero
erv ances
................ .....
omm ended
Ġch ief
Ġch iro
Ġch inensis
Ġch urches
Ġch osen
Ġland fills
ib ly
tain er
ĠE Q
ĠE l
ĠE vent
ĠE duc
ĠE val
ĠE lev
ĠE dge
ĠE FF
ĠE rosion
ĠE arthen
ĠE uony
ĠE ffect
ip ses
ip ulation
und er
und ations
und able
und aries
tic os
tic ian
tic ides
ber t
ho le
por tions
ĠU l
ĠRe g
ĠRe qu
ĠRe port
ĠRe verse
ĠRe venue
ĠRe versions
Ġdesign ates
cre ated
cre tory
Ġwhe ne
Ġint ense
Ġint ensive
Ġint entions
form ational
ill umin
ill iard
Ġno xious
Ġno tices
ĠNo tify
Ġco pper
Ġco oling
Ġco ffee
we ather
ep l
Ġma kes
ĠSt ory
ĠSt acking
ĠSt abil
Ġ6 4
Ġ6 9
Ġ6 40
Ġ6 03
Ġoff site
Ġoff set
Ġr ust
Ġr ates
Ġr ays
ĠG od
ĠG ift
ĠG ener
ĠG arage
ĠG lass
ĠG ATE
ĠG arbage
ĠDis abilities
ĠDis persal
Ġtw ice
ĠV AN
ĠV ET
ĠV ISI
ĠV EH
ang ing
Ġop acity
der ly
Ġen gine
Ġen ough
Ġen force
Ġen acted
Ġro cks
II ES
Ġspec ially
ach ment
sc aled
lis t
lis hing
ĠComm on
Ġac ting
Ġac up
Ġac ry
Ġminimum s
anc ies
Ġpr iced
Ġpr ima
Ġpr urient
pos al
ad y
ad ult
Ġle ases
Ġle arning
Ġle aving
eral s
Ġaccess ways
Ġ3 3
Ġ3 9
Ġ3 000
erm ark
Ġ7 2
Ġ7 01
Ġ7 07
ten ant
Ġdet ract
op tion
TI FIC
Ġfo resee
Ġpl ate
Ġpl ural
Ġpl acing
Ġpl iable
Ġpre val
Ġpre ferably
Ġpre mium
Ġpre empted
ĠIn n
ĠIn clude
ĠIn let
ĠIn tended
ĠIn stallation
Ġfront ages
ĠH ill
ĠH alls
ĠH yd
ĠH ave
ĠH olog
ĠH ours
ĠH AZA
ĠH GL
Ġnon compliance
Ġnon ethe
Ġnon putrescible
Ġpur posed
ĠSign age
âĢĻ ,
In terior
In formation
10 5
Ġsur ge
Ġsur ren
ĠW h
ĠW SE
ĠW ork
ĠW ash
ĠW IT
ĠW orship
ĠW aiver
ĠW ADING
ĠW ORD
ĠW ireless
Ġimp ly
Ġimp roper
Ġimp lication
Ġspecif ies
Ġdo ing
Ġgro wn
Ġcomm enced
Ġ8 03
Ġne atly
co vers
Ġconstruc ting
Ġup right
Ġup load
Ġup rights
Ġab le
Ġab ridge
Ġab atement
Ġcont emporary
Ġcont empl
ĠĠĠĠĠĠĠĠĠĠĠĠĠĠĠĠ ĠĠĠĠ
Ġallow s
Ġallow ances
Ġme at
Ġme ats
ack aged
Ġinter cour
Ġinter change
ĠCo re
ĠCo ordin
An alyze
Ġ5 5
Ġ5 7
Ġ5 21
port able
EC TIVE
Ġdec ent
Ġdec ree
Ġdec line
Ġdec ided
Ġdec ayed
Ġwill ingness
ĠPar ameters
Ġbo ulevard
Ġso ffits
âĢ¦ ...
Ġexceed ed
Ġtim ing
su ance
con tiguous
con tained
Ġman ure
Ġman ually
Ġman ager
Ġman ifestation
Ġman ipulation
Ġtr ain
Ġtr acing
Ġtr unk
Ġtr unks
12 9
inc luded
Ġsu ited
erc ise
Ġpo or
Ġ10 2
Ġ10 6
yp ress
ĠBo arding
ĠBo ok
te ase
Ġexp ended
Ġexp edi
ient s
unc tive
ĠAd dition
ĠAd vertising
ĠAd option
Ġsc ientific
ĠAl ong
ĠAl cohol
inis hes
Ġrec ording
Ġrec onstructed
Ġrec apping
Ġrec esses
Ġrequ isite
Ġ9 5
Ġ9 00
Ġ9 02
Ġ9 03
Ġ9 08
__ .
Ġroof top
street s
Ġday light
ĠOp tions
ĠOp eration
Ġse greg
Ġvari able
ĠEn h
ĠEn viron
ĠEn tertainment
Ġover view
11 11
Ġrep lant
Ġrep ainting
Ġrep lanting
Ġrep utable
âĢĿ ),
âĢĿ ).
Ġob no
Ġpor ous
Ġpor ticos
ĠProv ision
ĠSub ject
ĠSub mittal
ĠSub stances
Ġins ec
Ġins ect
Ġins titute
Ġins ofar
Ġins erted
Ġchar ter
Ġchar itable
Ġform at
Ġform ula
Ġless en
ati o
out heast
pre ferably
ĠCon form
ĠCon trib
estr y
estr ian
ĠPer iod
ĠPro gram
ĠPro bate
ĠPro portions
ĠDep th
ĠEx cretory
ke ep
Ġcl ay
Ġcl erk
Ġcl asses
Ġcl erical
Ġcl uster
Ġspecific ation
Ġcharacter s
Ġind ec
ĠAr rangement
ĠDepartment al
Ġ19 7
Ġ19 8
ĠĉĠĉĠĉĠĉ ĠĉĠĉĠĉĠ
hor izont
hor ough
Ġpres ents
Ġpres crib
Ġpres umed
Ġdep arture
SE R
ph itheater
ph otos
Ġwater line
Ġhere of
Ġhere under
pec tive
Ġdi agn
Ġdi aphan
ĠOffic er
IN ARY
IN STI
ys ical
ys icians
Ġperm e
Ġequ estrian
Ġass ure
Ġass umed
Ġass urances
Ġdef ines
Ġdef ects
Ġdef ray
Ġdef erred
Ġpark ways
Sign age
ĠAn im
ĠAn cillary
ĠAn imal
ĠLand s
Ġprior ity
Ġconf ined
Ġconf ines
Ġconf usion
Ġconf erences
Ġconf idence
Ġconf ectionery
St orm
St ep
St ory
St art
St acking
St andard
St oop
Ġmin ing
Ġmin ute
Ġmin utes
Ġnew ly
Ġinstall ing
Ġcer tification
Ġel derly
titu tions
Ġauthor izing
Ġout patient
Ġten nis
Ġem inent
urb ation
Ġgra vity
Ġremo de
stem med
tice work
Ġinform al
Ġinform ed
ĠOfficial s
Ġlic ensing
Ġsubsection s
Per imeter
ĠUn ion
ĠUn iform
ĠUn iversity
ĠUn safe
EN ANCE
Ġtrans parent
Ġtrans luc
Ġcle ared
Ġconn ects
Ġfl ight
Ġfl ame
Ġfoot ing
ĠIns titutions
Ġlimit ing
Ex ternal
Ġj ust
Ġj ail
Ġj og
over flow
ĠDesign ated
15 1
15 9
eter ious
eter inarian
Ġprot ects
Ġcre ative
Ġorder ing
14 8
pr one
pr ism
pr actor
Ġaff ects
Ġcent rally
Ġren ts
Ġproject ors
13 0
13 4
13 5
13 7
Ġcop ulation
Ġpat ently
Ġcirc les
Ġappear s
18 3
ell er
Ġmulti plying
land scape
land owners
Ġviol ated
Ġviol ates
Ġassoci ate
ministr ation
Ġsec luded
Ġsec retarial
Ġclos ets
Ġret urned
Ġ16 4
Ġdiff er
IC LE
Ġblock ed
Ġperiod ic
Ġperiod ically
ider ation
Ġstand pip
ex it
ex empt
Ġshow er
Ġshow ers
Ġelec ted
19 2
19 7
19 99
Ġconsider able
Ġcontin ual
Ġra kes
Ġra zor
ren ce
Ġcol d
Ġcol lege
Ġcol leges
Ġqu arter
Ġsew ers
ER Y
ER INARY
Ġsubst ances
Ġsubst andard
Ġsubst antive
Ġtow ed
Ġenti ties
Ġfinal ized
Ġdirect ory
Ġstate ments
Ġval ves
Ġcoll ected
uous ly
Ġfire arm
Ġfire works
Ġerec ting
** *
Ġidenti ty
Ġoccur red
Ġoccur rence
Ġminim ized
Ġcar ries
Ġinv iting
Ġrece ptions
Ġrece ives
Ġrece ivable
ING S
16 5
Pro of
Pro perty
Pro jections
Ġ0 3
Ġwh om
Ġenviron ments
Street scape
cour t
Ġrest rooms
ĠCor ridors
Ġaccommod ating
Ġaccommod ates
Ġemp owered
Ġemp ower
Ġmat urity
Ġcomb ustible
Ġhealth ful
Ġrun s
100 3
tig uity
ED ITS
ud ge
ĠJ udge
Ġincre asing
Ġcorn uta
Ġemploy ment
Re fer
Re visions
Ġ................................ ......
Ġfr anch
Ġcap tive
Ġconduc ting
bo ards
bo uts
bo ok
Ġwell s
Ġstore fron
Ġproduc es
OR E
ĠRec ommended
Ġveget ated
Ġobs ervances
Con tract
du ate
Ġpen alty
Ġgu y
AR IIES
AR INGS
Ġtre ll
Ġdam ages
Ġgl az
Non compliance
Sh rub
TN D
arm acy
ĠAg gregate
ĠMap s
ĠMap le
Ġposs essing
Ġprof iles
ĠCh anges
ĠReview ing
Ġsewer age
IT ED
Ġshe ared
ĠCl ub
ĠCl ients
ĠMan aged
ĠMan ager
ĠTr unk
Ġsafe ly
Ġgovern ments
ĠApplic ant
ĠApplic ants
Ġpropos ing
Ad j
Ad ministration
Or gan
Ġgroup ings
Ġclass room
RE ATION
iver sities
Ġcurb ed
Ġwa iving
ĠST ATU
ĠST ORE
ĠSh rub
ĠCom ments
Ġexten sive
Ġ11 10
Ġsched ules
Ġenter prises
Ġcalc ulate
Ġpot able
Ġpot ting
Ġdirec ting
ĠCer tificates
ĠPUD s
Ġprep aratory
Ġprep ackaged
Ġfil m
Ġboard ers
Ġelectric ity
Ġend uring
Ġpe ace
ĠBuff ery
Ġer otic
Ġdiv iding
Ġdiv ides
ĠRE PEAL
ĠRE MED
ĠTh an
ĠTh rough
ĠTh omason
Ġgrow er
Ġlarge ly
medi ate
medi um
Ġta verns
Ġbr acing
Ġbr ackets
Ġbr ushed
Ġstaff ed
Ġsuppor tive
Al tered
Al leys
Al ley
Ġbar ber
Ġden ote
Ġstation ary
ĠRed uce
Ġfron ts
Ġmass ive
Ġslop ing
Ġban k
Ġflow ing
Ġflow lines
Ġsty led
âĢ¦âĢ¦âĢ¦âĢ¦âĢ¦âĢ¦âĢ¦âĢ¦ ..
RO DUC
pro hibited
pro perty
pro jected
Ġke y
Ġreco very
Ġreduc es
Ġstrip ing
ĠRo oming
ĠRo bert
Ġrepresent ations
FA A
IS R
ĠSc hool
ĠSc rolling
ĠSho e
az ard
Ġam ate
Ġam pl
Ġam enity
Ġam usement
Ġam phitheater
ĠMulti family
ĠĠĉ Ġ
Ġliqu ors
Ġliqu ids
Ġdispos ition
Ġcircumst ance
Ġmembers hip
En forcement
En lar
En courage
af ayette
Ġce ase
Ġce ased
Ġce ases
Ġce lebr
Ġce lebration
Ġinf lu
Ġnet works
Ġnum erals
Ġexam ine
Ġexam ples
Ġsubsequent ly
Ġdoor way
Ġdoor ways
Ġregard ed
Ġcourt esy
Ġrev ital
ĠAN NEX
Ġact ually
Ġprac tice
Ġinterf eres
Ġkn ee
Ġkn ives
Ch ange
Ch apter
Ch inese
Rec ord
Ġec osystem
Ġpic tor
Ġhistoric ally
ĠBe fore
Ġvac ation
Ġvac ancies
ĠLim ited
Ġwalk ability
Ro of
Ro ad
Ro ads
Ġbro wn
orpor ated
Ġorgan ic
Ġevid encing
Ġconcer t
Ġconcer ned
ĠPre vious
ĠPre vention
ĠPre paration
Ġatt ested
ĠFl ashing
ĠFl utter
ĠâĢĶ _
Ġriver front
De ferred
De finition
Ġrede veloped
trib ution
ĠIN FORM
Ġenh ances
Ġenh ancing
Ġaband onment
Ġcorpor ations
Ġrefl ects
ĠTrans pare
Plan ts
Ġsy n
Ġpit ches
Ġhand le
Ġhand rails
Ġ13 20
ĠRev isions
ĠRev ocation
ĠRev olving
28 0
UR BAN
ma tic
ma jor
Ġnuis ances
Ġste ady
ĠSystem s
ĠPRO HIB
ĠPRO VID
ĠRes erved
ĠRes idences
ĠMain tained
ĠTyp ical
semb ly
Ġleg end
ĠCour ts
ĠCour thouse
Ġelement ary
Ġrender ing
ĠĠĠĠĠĠĠĠĠĠĠĠĠĠĠĠĠĠĠĠĠĠĠĠĠĠĠĠĠĠĠĠĠĠĠĠĠĠĠĠĠĠĠĠĠĠĠĠĠĠĠĠĠĠĠĠĠĠĠĠĠĠĠĠ ĠĠĠĠĠĠĠĠĠĠĠĠ
TE ST
TE MENT
TE MPORARY
gram s
Ġsk etch
Ġfail ing
Ġdedic ate
ĠImp rove
ĠImp ervious
Ġmail ing
Ġmail box
110 9
AD OP
Un til
Un licensed
Ġsup er
Ġsup erior
Ġbed ding
Ġfurn ished
Ġfunction ing
Ġlit tle
Ġlit erary
ĠNot withstanding
Ġund erserved
ĠMa king
ĠProt ects
Ġentry way
Ġecon omical
Front age
ĠPl aces
Ġsell s
Ġsupplement ary
Ġtermin ating
Ġques tions
ĠSTANDA RD
Man ure
Man ufacture
Prov ision
Prov isions
cal aure
Ġpil es
Ġpub lishing
Ġwast es
Ġsho e
Ġeven ing
ĠSupp ly
ĠAP PO
Ġperform s
Ġperform ers
ĠElec tric
Ġpurch ases
Ġdecl ares
Dis posal
Dis tribution
ĠÂ ©
ĠÂ ½
Ġca vity
Ġca using
Ġca ustic
Ġcred its
Ġstra w
Ġprogram med
Ġdead line
ĠRES PONS
ĠMin imize
ĠVari able
ĠHortic ulture
Require ments
Ġestim ate
Ġlink ed
ĠQu arry
Flood way
Flood plain
Multi family
Ġtheater s
access ory
Ġharm onious
ĠDo ors
Ġadv ise
Ġadv isable
Ġ80 6
Ġpolic y
Ġautom ated
Ġautom otive
Ġreferen cing
Ġclean outs
Ġattrac ting
ĠIllumin ated
Pre vent
Pre paration
ov a
ĠK ey
Ġbreak er
Ġfarm er
Ġinj unctive
ĠAL TER
tinguis h
Ġdescrib es
Ġdeterior ate
Ġimplement ing
Ġtrim med
ANC Y
Ġsecure ly
Ġconsecutive ly
MIT TAL
ath s
Ġwire less
Ġdel eterious
Ġdeline ate
Ġdeline ating
ĠBO X
ĠBO UIND
ĠUS AG
ĠHaz ards
Ġcorrect ly
Ġassign ment
Ġassign ee
Ġgreen way
Ġgreen ways
Ġgreen house
Ġgreen houses
Ġphot o
Ġtransfer able
Ġtransfer ability
Ġremed ied
Ġpay day
Ġbl ending
Ġbur ial
ĠComp ly
ĠComp any
ĠAss ure
ĠDet riment
ĠBU FF
ĠBU SINESS
Ġdisp ensed
Ġdisp ersion
Ġuniform ity
ĠPlanting s
Ġcommunic ate
Ġwatercour se
Ġdisturb ing
Ġdisturb ed
ographic al
bre l
odi al
Ġtur gid
Ġsus pend
Ġfre ight
Ġfre quent
typ e
ĠMark er
ĠFo undations
ĠLoc al
ĠLoc ations
................................................................ ........
Ġoutl ining
Ġoutl ets
Ġcontrib uting
ĠCompl eteness
Ġattract ant
Ġreflect ors
ĠPERMIT S
ĠHazard ous
Cons ignment
Dep artment
UC TIONS
eas ible
Ġx i
Ġbond s
Ġdown stream
Ġnar rown
Ġnight time
Ġnight cl
Ġeval uate
Ġeval uating
ĠDes cribe
Ġexerc ised
ĠRel ationship
Ġmove able
ĠTown houses
ĠHe avy
Ġabs or
Ġabs ent
Ġabs olute
Ġafford ed
Ġrenov ation
Ġinjur ies
Ġinjur ious
Ġelimin ating
Eff ective
Rep resent
TU TIONAL
no tify
ret ail
ĠCal culation
ĠCal culations
ĠCle an
ĠAb and
ĠAb ove
Ġappurten ant
Ġaccount able
elec trical
ĠGround cover
ĠGreen house
Ġactive ly
Ġsever ally
Ġinstr uments
ĠConf ined
Ġqual ified
Ġquanti ties
Add ress
Ġtopographic al
Ġpanel ized
Ġsupersed ed
Ġdiscontin ue
Ġdiscontin uance
Ġinvalid ate
CE PTIONS
Nurs ery
Par apet
Ġir rigation
Ġsum mary
Ġpip eline
Ġpond s
Ġpati ent
Ġpati os
Ġbor dered
Ġfram ing
Ġanc estry
arant ee
Ġwe apons
Ġmis sing
Ġmis rep
Ġmis deme
ĠStrip tease
ĠAD UL
ĠPo ols
ĠPo llution
ĠPo ints
ĠPURPOSE S
ĠNO ISE
ĠOb s
ĠMA P
ĠMA INT
ĠMOB LE
ĠTow er
Ġenjoy ed
ĠWith out
Ġarc ade
Ġsimul ating
ĠProcess ing
INT MENT
INT RODUC
Ġcontinu ing
Ġcontinu ity
Ġ........................................ .....
Ġdemol ished
Ġbuild able
Ġtax pay
Ġknow ingly
Ġpick up
Ġpick ets
Ġclose ly
ĠDeterm ined
ĠDeterm ination
Open ings
ĠAmeric ans
Ġcupol a
Ġcitiz en
OU S
Specific ally
TA IL
TA TT
Ġtes ting
Ġturb o
Ġsod ded
Ġsod omy
Ġberm ing
Ġmid way
Ġmand amus
ĠSE E
ĠShe ets
ĠPh ysicians
ĠDec ision
ĠDec ks
Ġlog ical
Ġgall ons
ĠREC ORDS
ĠREC REATION
ĠBan ks
ĠBan ner
ĠBan ners
ĠBillbo ard
Ġadminister ing
Ġstrong ly
Ġcomplex es
ĠEX CEPTIONS
ĠEST AB
Ġartic ulation
Ġinterpre ting
Ġseason al
ĠEnc ro
Ġposition ed
Ġjus tice
Ġjus tification
Ġjus tifies
âĢ¦âĢ¦âĢ¦âĢ¦âĢ¦âĢ¦âĢ¦âĢ¦âĢ¦âĢ¦âĢ¦âĢ¦ âĢ¦
Ġ........................................................................................ ..
Ġattach ments
Develop er
Develop ing
Ġhousehol ds
ĠRestric ted
IGHT S
ĠAPP LIC
Ġdeliver ing
Trans ition
Trans fer
Trans itional
Ġrectang les
Ġspirit uous
ĠLevel s
CONFORM ITIES
Awning s
Bo undaries
Business es
High way
Ph ase
Ph ysical
Ph armacy
Por ch
Rel ation
Rel ationship
Sc ale
Sc hool
Typ e
ran ted
sec ond
uther n
Ġaer onau
Ġsal on
Ġbloc king
Ġbicyc lists
Ġfas cia
Ġflu id
Ġfem inine
Ġfair s
Ġfair ly
Ġfiel ds
Ġcand y
Ġdr illing
Ġwarning s
Ġmort ar
Ġmort gage
Ġrehe ard
Ġbel ts
Ġbel ong
Ġnecess itate
ĠSH ORT
ĠSup erintendent
ĠSel f
ĠSPEC IAL
ĠCre ate
ĠCirc ular
ĠAT TEST
Ġhard ware
ĠRED UCTIONS
Ġalloc ation
ĠMon ument
ĠTw irling
Ġaccur ate
Ġwheel ed
ĠGe ological
ĠGu arantee
ĠVer ification
Ġfoc used
Ġimpr ac
Ġinters ecting
Ġseal ant
Ġrelie ves
ĠConcept ual
Ġobstruc tions
Conflic ts
Ġguarant eed
Ġholid ays
Allow ing
ĠReduc ed
Ġ................................................................................................ ........................
Ġdiscus s
Ġstip ulate
ĠBUILDING S
Ġearth work
ĠPROCED URE
Ġsuccess ive
Ġconcentr ation
Ġconcentr ate
Ġconcentr ated
Cl ub
Cl inics
Cont ent
DI VISIONS
Dec ision
Dec orative
Direct ory
Dumps ters
Hospit al
River front
Restaur ant
Sep aration
Tra vel
Tra iler
Util ities
cand les
dis tillery
Ġram p
Ġpump ing
Ġbi ological
Ġfeas ible
Ġann ually
Ġmus ical
Ġmul ches
Ġpromo tion
ĠSUB MITTAL
ĠSUB DIVISIONS
Ġli en
Ġlibr ary
ĠAc tivity
ĠAc ceptable
ĠAMEND MENT
Ġperpet ual
Ġperpet uity
Ġload ed
Ġgain ful
Ġgather ings
rad ford
Ġdise ase
Ġdise ased
Ġresub divided
Ġreserv ations
ĠUN IT
ĠUN ITS
Ġrid ge
Ġrub ber
ĠGas oline
Ġprun ed
Ġprincip les
Ġplain ly
ĠHE ARINGS
ĠHE IGHTS
ĠHand ic
ĠHand book
Ġoblig ate
Ġclap boards
Ġconfer red
Ġillustr ated
Ġillustr ates
Ġpharm acy
Ġpharm acies
Exem pt
exc lusive
Ġ........................................................................ ...
Ġ........................................................................ ......
Environ mental
ĠContin ue
ĠContin ued
Ġhandic apped
ĠĠĠĠĠĠĠĠĠĠĠĠĠĠĠĠĠĠĠĠĠĠĠĠĠĠĠĠĠĠĠĠĠĠĠĠĠĠĠĠĠĠĠĠĠĠĠĠĠĠĠĠĠĠĠĠĠĠĠĠĠĠĠĠĠĠĠĠĠĠĠĠĠĠĠĠĠĠĠĠ ĠĠĠĠĠĠĠĠ
ĠĠĠĠĠĠĠĠĠĠĠĠĠĠĠĠĠĠĠĠĠĠĠĠĠĠĠĠĠĠĠĠĠĠĠĠĠĠĠĠĠĠĠĠĠĠĠĠĠĠĠĠĠĠĠĠĠĠĠĠĠĠĠĠĠĠĠĠĠĠĠĠĠĠĠĠĠĠĠĠĠĠĠĠĠĠĠĠĠĠĠĠĠĠĠĠĠĠĠĠĠĠĠĠĠĠĠĠĠĠĠĠĠĠĠĠĠĠĠĠĠĠĠĠĠĠĠĠ ĠĠĠĠĠĠĠĠĠĠĠĠĠĠĠĠĠĠĠĠĠĠĠĠĠĠĠĠĠĠĠĠĠĠĠĠĠĠĠĠĠĠĠĠĠĠĠĠĠĠĠĠĠĠĠĠĠĠĠĠĠĠĠĠĠĠĠĠĠĠĠĠĠĠĠĠĠĠĠĠĠĠĠĠĠĠĠĠĠĠĠĠĠĠĠĠĠĠĠĠĠĠĠĠĠĠĠĠĠĠĠĠĠĠĠĠĠĠĠĠĠĠĠĠĠĠĠĠ
Ġfurnish ings
Ġnarra tives
Ġhabit ation
Ġprosecu tions
ĠAPPROV ED
Ġsingular ly
Ġunconstitutional ity
74 60
Junk yards
Junk yard
LIN E
Res erved
Structure s
Struct ural
Struct urally
US GS
gra de
mn ation
Ġ00 6
Ġter rain
Ġtent h
Ġtail oring
rep ellant
Ġpop ulations
Ġfund s
Ġmod ular
load ed
ĠSe a
ĠCol leges
ĠCOR NER
ĠCOR RID
Ġconvey ed
Ġconvey ance
Ġwithdra wal
ĠPen alties
ĠPor tions
ĠPor ches
ĠProm ote
Ġhang ing
Ġge otechnical
dep th
ĠBro kers
ĠBuil d
ĠBuil t
Ġunp ainted
Ġrestr ained
resent ation
ĠMo ving
ĠMar ch
ĠMeet ings
ĠIm plementation
ĠTRE E
ĠTRE ES
ĠStorm water
ĠGraphic s
ĠVis ible
ĠVis ibility
Ġimport ance
Ġimport ant
Ġpreced ence
Ġprevail ing
supp orting
Ġsuit ably
Ġexplicit ly
Ġoverc ome
Ġpreserv ing
Ġpreserv es
Ġdepression al
IND USTR
Ġinvest or
Ġexclu de
Ġexclu des
Ġorigin ally
Ġsuperv ision
Ġunsight ly
Ġunsight liness
Ġprivile ge
Ġprivile ges
ĠClear ance
ĠClear ly
Ġsuccessful ly
Ġpredomin ant
Ġpredomin ately
Ġcubic les
ĠPistac he
ĠPistac ia
ĠOCCUP ATION
ĠOCCUP ANCY
Ġgaze bo
Ġgaze bos
Ag riculture
Ce lebration
Det ention
Gr ass
Identi fy
Mar quee
More over
NA TIVE
NON CONFORMITIES
Pl aces
bur se
circ les
mon th
pa ulins
vil inear
inv olved
Ġsun light
Ġbath rooms
Ġfar ther
Ġfenestr ation
Ġfesti vals
Ġanno unc
iss a
Ġdom ain
Ġweed s
Ġinvent oried
Ġinves tigation
Ġinoper able
Ġmedic ine
Ġrehab ilit
Ġtot ally
Ġey es
Ġproff ered
ĠSit uations
ĠSER VICE
Ġlat ticework
Ġlik elihood
Ġlumin ance
Ġlav atory
ĠCR EDITS
ĠCur ve
ĠACCESS ORY
Ġappare l
ĠDi ameter
Ġextr aordin
Ġdelic atess
Ġgam brel
ĠRiver front
Ġspr ings
ĠBene fits
Ġadhe res
Ġuncon ventional
Ġundes irable
Ġvir gin
Ġvoc ational
ĠMethod s
ĠMeasure ment
ĠTop ographic
ĠLet ter
ĠLeg islat
Ġris k
Ġrig id
Ġrain water
ĠVolum e
Ġenerg y
Ġfoun tains
Ġpref ixed
ĠInf latable
ĠIntegr ated
Ġimped e
Ġartis tic
Ġdoll ar
Ġtran scri
........................................................ ..
Ġpoly ester
Ġexpend iture
ĠAdv isory
Ġscul pture
ĠAlter ation
Ġclar ified
Ġsafegu ard
ĠAttor ney
Studi os
Ġoutwe igh
ĠUnd isturbed
Ġtransform ers
Ġflor ida
Ġjo ined
Ġmonot onous
Prof ile
ĠCorn us
ĠCharacter istics
ĠComb ined
Ġrib bons
Ġrevol ves
Ġpicnic king
Under story
ĠSurf acing
ĠAssess ment
ĠIssu e
Ġmarin as
ĠPresent ment
Ġadapt ability
Ġdiverg ence
Recommend ation
ĠSuperv isor
ĠGuide lines
ĠORDINANC ES
Ġ______________________________________ _
Ġdiplo ma
Ġdiscern able
AT P
Bloc king
Bak ery
Balcon y
Col lege
Clus tering
COU NT
Des cribe
Ens uring
Fore court
FIR M
Gall ery
Govern mental
HOU SE
Is suance
Lic ensed
Lod ging
LIS HMENT
Likew ise
Mo vie
MAN ENT
Run way
Rout ine
RES IDENTIAL
So uthern
Sec ondary
Sel f
Ten nis
Top ography
Wel ding
bott om
cor ner
cul ine
drew s
eop ath
fac ie
fas ts
main tenance
tach ments
vy n
ymn asium
Ġess ential
Ġide al
Ġ____ ,
Ġaqu atic
Ġtar paulins
Ġtid al
Ġtethe red
Ġost eopath
Ġsof ten
Ġsug ges
tiven ess
Ġpas ted
Ġpun ished
Ġplu gs
Ġpock et
Ġpoli tic
Ġbac calaure
Ġbod ily
Ġbrea ks
Ġbread th
Ġbikew ays
Ġfol ded
Ġfond ling
Ġcat ast
Ġcum ulative
Ġcra fts
Ġcust odial
Ġinqu iries
Ġinhere nt
Ġinhab itants
Ġinpati ents
Ġmas culine
Ġmuff lers
Ġorific e
Ġreve als
Ġtouch ing
Ġshad ow
Ġshove ls
Ġshallown ess
Ġstri ps
Ġstatis tics
Ġell ipses
ĠSim ilar
ĠSens itive
ĠSpl it
ĠSIT TING
ĠSwing ing
ĠSWIM MING
Ġlif ts
Ġlint els
ĠCER TIFIC
ĠCLA USE
ĠCREA TING
ĠCLIN IC
ĠApprov als
ĠABA TEMENT
ĠAIR PORT
ĠAvail ability
Ġconde mnation
Ġconst ant
Ġcondu its
otyp ical
ĠPass ive
ĠPLA IN
ĠPOW ERS
ĠPeti tions
ĠPOO L
ĠPIERC ING
ĠPOINT S
Ġareol a
ĠNUIS ANCES
ĠNfi PA
Ġhist ory
ĠDri ving
ĠDam age
ĠDenti st
ĠDel iver
ĠDown s
ĠDEC ISIONS
ĠDog wood
ĠDIS COUNT
ĠDOWN TOWN
ĠDwar f
ĠDWELL ING
Ġperver ted
Ġpercol ation
Ġdeprec iation
Therea fter
osol ids
Ġsignific ance
Ġparallelo grams
Ġspati al
ĠBloc ks
ĠBrewp ubs
stroem ia
Ġdiscon necting
Ġunch anged
Ġuninc orporated
Ġuntit led
Ġunwar ranted
Ġvill ages
Ġatten ding
Ġallot ted
Ġconspic uously
Ġheading s
apanes e
ĠMast urbation
ĠMass age
ĠMIC RO
ĠISS UANCE
ĠTIT LE
ĠTOWN HOUSE
ĠTuscal oosa
ĠForm s
ĠFrid ay
ĠFLO OD
ĠFINANC IAL
ĠFavor able
employ ee
ĠLIN ES
ĠLibr aries
ĠLabor atories
ĠLaundrom at
ĠLEG AL
Ġchiro practor
ĠEval uate
ĠElev ation
ĠEFF ECTIVE
Ġwhene ver
illumin ated
ĠGATE WAY
ĠVET ERINARY
ĠVISI BILITIES
ĠVEH ICLE
Ġacry lic
Ġforesee able
ĠHolog raphic
ĠHAZA RDS
Ġnonethe less
Ġsurge on
Ġsurren der
ĠWIT H
Ġcontempl ated
Ġintercour se
Ġ521 9
Ġexpedi ti
Ġsegreg ated
ĠEnviron mental
Ġobno xious
horizont al
horough fare
Ġprescrib ing
Ġdiagn os
Ġdiaphan ous
INSTI TUTIONAL
Ġtransluc ent
Ġjog ging
Ġstandpip es
Ġfirearm s
Ġfranch ise
Ġstorefron ts
Ġglaz ed
Organ ization
ĠSTATU S
ĠBuffery ard
ĠREMED IES
ĠANNEX ATION
Ġpictor ial
ĠINFORM ATION
ĠTranspare ncy
ĠPROHIB ITED
ĠPROVID ERS
ADOP TED
ĠAPPO INTMENT
ĠRESPONS IBILITIES
ĠQuarry ing
ĠALTER NATIVE
ĠBOUIND ARIIES
ĠUSAG ES
ĠBUFF ER
Ġnarrown ess
Represent atives
Ġmisrep resentation
Ġmisdeme anor
ĠADUL T
ĠMAINT ENANCE
INTRODUC TION
Ġtaxpay er
TATT OO
ĠRECREATION AL
ĠESTAB LISHMENT
ĠAPPLIC ABILITY
Ġaeronau tical
ĠCORRID OR
INDUSTR IAL
Ġextraordin ary
Ġvirgin iana
ĠLegislat ure
ymnasium s
Ġbaccalaure ate
ĠCERTIFIC ATE
% .
% ).
' -
' );
' âĢĶ>
) )
) /
) âĢ¦âĢ¦âĢ¦âĢ¦âĢ¦âĢ¦âĢ¦âĢ¦
* ,
* .
- ,
- .
. /
. :
. ;
. ).
. âĢ¦âĢ¦âĢ¦âĢ¦âĢ¦âĢ¦âĢ¦âĢ¦âĢ¦âĢ¦âĢ¦âĢ¦âĢ¦âĢ¦âĢ¦âĢ¦âĢ¦âĢ¦âĢ¦âĢ¦
. âĢ¦âĢ¦âĢ¦âĢ¦âĢ¦âĢ¦âĢ¦âĢ¦..
/ .
0 12
2 40
2 122
3 36
6 00
7 7
8 2
8 3
8 4
8 9
9 1
9 3
9 11
; *
> |
@ _
A M
A b
A cc
A ff
A ir
A th
A cre
A TI
A mendment
A his
A SE
A DA
A ircraft
A ck
A PRE
A uction
A BAMA
B B
B M
B U
B i
B y
B al
B ot
B ur
B ul
B ase
B oth
B ased
B ER
B RE
B LE
B rew
B MP
B ridge
B US
B arri
B irming
B radford
C a
C re
C ent
C le
C ur
C and
C art
C ond
C over
C opy
C hie
C af
C ashing
C ars
C reation
C lass
C oy
C ode
C rap
C omplete
C IA
C ategories
C emeteries
C MU
C amper
D C
D or
D ra
D ist
D ress
D air
D imension
D ED
D isting
D irec
D iver
D etail
D uties
D IS
D ensities
D OT
D ITIONS
D EFINITIONS
D oes
D omiciliary
E A
E M
E m
E s
E le
E as
E ast
E duc
E rec
E stablis
E MP
E asement
E stablished
E OUS
F o
F in
F ar
F ac
F low
F if
F ine
F red
F our
F aced
F inished
F AR
F ederal
F IS
F inding
F inancial
F ores
F ull
F ully
F PA
F UL
F ound
F looding
F lea
F oster
G ated
G ra
G ame
G ates
G ross
G ene
G rading
G ENERAL
G ink
G arbage
G ICAL
G VD
H O
H P
H ards
H el
H ous
H omes
H EN
H yd
H ortic
H ealth
H aving
H olid
H azard
I X
I m
I r
I TI
I OR
I llegal
I ron
I ANCES
J us
J anit
J unior
J apanese
K E
K ey
K ennel
K CIA
L ess
L aw
L eg
L LAN
L ibr
L ivestock
L arge
L ieu
L abor
L icense
L akes
L inks
L aundrom
L arger
L afayette
M O
M S
M c
M on
M ul
M od
M ap
M ill
M ove
M aster
M arking
M ost
M IS
M edium
M alt
M unicipal
M otel
M icro
M ode
M easure
M artin
M etal
M ailed
M easures
M iscellaneous
M CA
M ean
M BER
N U
N or
N et
N am
N orm
N ational
N odes
N ewer
N ana
N RCS
N atc
O F
O S
O ut
O utside
O PE
O LATIONS
O rient
O FF
P H
P o
P ay
P res
P est
P erm
P rec
P ER
P ost
P RO
P ole
P ending
P TE
P oint
P awn
P URPOSE
P aving
P olic
P ick
P ainted
P utrescible
P avement
R S
R et
R est
R ational
R eg
R ental
R ules
R ADE
R adio
R IOR
S a
S am
S lu
S por
S ix
S quare
S te
S our
S iting
S edimentation
S UB
S pot
S ociety
S urface
S enior
S FH
S ymb
S urety
S outheast
T a
T re
T ul
T ire
T ree
T urb
T EN
T LO
T echnical
T ilt
T aproom
T emplate
T CD
T iming
T LINE
T horoughfare
U ph
U sed
U TH
U KE
V is
V ol
V II
V EN
V eter
V IC
V AL
V ED
V inyl
V IR
V AC
W et
W ire
W est
W ind
W orking
W hether
W CA
W illow
W ERY
W FUL
X X
Y MENT
Y awn
[ ,
\ }
_ .
_ Â
a ver
a ut
a up
a ug
a ved
a mental
a ised
a ution
a ircraft
a erial
b on
b al
b es
b it
b ic
b ment
b ac
b ay
b ure
b les
b ility
b rid
b ak
b ark
b ud
b rick
b by
b ish
b used
b rewpub
b alconies
b arium
c an
c us
c ation
c ard
c ra
c king
c ap
c up
c omm
c ho
c op
c les
c ue
c omes
c urb
c ort
c ades
c hool
c ross
c yc
c av
c onstr
c lim
c ording
c ashing
c raft
c onstruction
c asting
c ommunic
c rop
c atering
c urring
c ypress
c Far
d n
d o
d r
d ance
d um
d ri
d able
d welling
d ens
d ustr
d rain
d irec
d ental
d etail
d ness
d anger
d airy
d ova
d cypress
e k
e ve
e ties
e tic
e ks
e ase
e lling
e ue
e fied
e fficient
e lev
e lebration
e mitting
f u
f ine
f ers
f ee
f les
f ence
f reestanding
f iel
f urther
f iles
f ortable
f easible
g ation
g un
g low
g ree
g eneral
g ical
g mental
g ateway
g ues
g raphic
g row
g enerally
g rown
h al
h ment
h um
h am
h ome
h omes
h att
h azard
i et
i ec
i as
i ri
i los
i ences
i aries
i pping
i rie
i roy
j ud
k o
k er
k el
k ets
k og
k now
k indergarten
k ova
l as
l ter
l am
l able
l ative
l iance
l ective
l ared
l ets
l abel
l iving
l astic
l awn
l ete
l ake
l aundry
l ier
m en
m es
m at
m ard
m ated
m ir
m inimum
m ill
m ust
m eral
m op
m ory
m ens
m ulti
m ixed
m other
m ost
m aterials
m erg
m ars
m otel
m etal
n ce
n ation
n ine
n ant
n ad
n iv
n ual
n orth
n ote
n ections
n ition
n atural
o on
o ti
o ks
o ven
o tional
o ining
o ices
o ffice
o ured
p e
p he
p id
p lan
p ting
p ace
p ap
p ite
p se
p ect
p ho
p ile
p ension
p ages
p ole
p ave
p lane
p erson
p ainted
p ensive
p avement
p ening
p elled
p ublished
p aths
p oured
r or
r ated
r ary
r ist
r ans
r ong
r ass
r ued
r ised
r ata
r tle
r mop
s f
s q
s he
s it
s im
s ag
s od
s hed
s erv
s ho
s ome
s ses
s quare
s ingle
s ures
s ales
s mall
s pecial
s creening
s pecific
s try
s trip
s hop
s outh
s hort
s ident
s aturated
s outheast
t c
t on
t ay
t ten
t ee
t ree
t ail
t emporary
t ue
t anding
t ops
t hest
t inted
t aproom
u din
u tive
u ities
u tical
u ded
u mental
u aries
v a
v d
v o
v s
v an
v ation
v ir
v if
v res
v ise
v ile
v oc
v ari
v ales
v ice
v ins
v inyl
v acy
v ature
v entive
v aging
w all
w ill
w hen
w rec
w ithin
w arning
w ritten
w att
w dness
x ing
x iv
x ii
x iii
x yd
x inum
y m
y lan
y og
y man
y brid
z ed
z ones
z oned
z ero
¦ âĢ¦âĢ¦âĢ¦âĢ¦âĢ¦âĢ¦âĢ¦âĢ¦âĢ¦âĢ¦âĢ¦âĢ¦âĢ¦âĢ¦âĢ¦âĢ¦âĢ¦âĢ¦âĢ¦âĢ¦
© sident
Â ¶
Â »
Â ¾
Ã Ĺ
Ã ©sident
ĉ Ġ
Ġ #
Ġ )
Ġ :
Ġ >
Ġ `
Ġ q
Ġ }
Ġ ~
Ġ et
Ġ ure
Ġ ut
Ġ ip
Ġ 000
Ġ Yes
Ġ );
Ġ .âĢĿ
Ġ ______
Ġ ...................
Ġ .......................
Ġ @_
Ġ ÃĹ
Ġa a
Ġa il
Ġa le
Ġa uc
Ġa ur
Ġa ud
Ġa ward
Ġa head
Ġa eration
Ġa venue
Ġa unts
Ġa viation
Ġa ware
Ġa ko
in it
in ate
in ated
in ting
in ner
in ical
in ets
in for
in after
in atory
in ars
in formation
in ball
in lets
Ġt on
Ġt it
Ġt ire
Ġt ess
Ġt ag
Ġt ight
Ġt ut
Ġt em
Ġt el
Ġt ack
Ġt ile
Ġt ear
Ġt ong
Ġt ie
Ġt ren
Ġt row
Ġt une
Ġt attoo
Ġt ires
Ġt enses
Ġt acked
Ġt eller
Ġo S
Ġo s
Ġo re
Ġo ur
Ġo mitted
Ġo uts
Ġo utr
Ġo aths
Ġo mens
re al
re quire
re st
re ew
re view
re ast
re ens
re ading
re fer
re verse
re levant
re taining
re tention
re quired
re ception
re gation
Ġs is
Ġs ac
Ġs and
Ġs end
Ġs em
Ġs ill
Ġs ory
Ġs ail
Ġs con
Ġs tit
Ġs wal
Ġs edi
Ġs anit
Ġs lat
Ġs ills
Ġs earch
Ġs enior
Ġs omet
Ġs ilos
he z
he ight
he wn
he aring
he ld
he ws
on or
on ent
on ding
on ies
on ze
al ide
al able
al one
al ong
al tern
al vage
er a
er ce
er ate
er ating
er head
er ries
er ware
er ows
Ġthe l
Ġthe rap
Ġthe rmop
en ch
en act
en gine
en ge
en ographic
en acted
ti ed
ti tion
ti le
ti ated
ti st
ti ally
ti ses
ti vities
ti ered
ti vated
Ġp f
Ġp p
Ġp es
Ġp ig
Ġp ra
Ġp ap
Ġp ist
Ġp ian
Ġp ages
Ġp edi
Ġp ins
Ġp acking
Ġp lease
Ġp ull
Ġp utrescible
Ġp asses
Ġp airs
Ġp inball
Ġp onding
ing o
ed ing
ed ding
ed ge
ed lots
an k
an an
an ted
an se
an other
an nex
an nels
an ism
es h
es ting
es cop
Ġb it
Ġb ab
Ġb um
Ġb are
Ġb of
Ġb ord
Ġb ones
Ġb anding
Ġb ric
Ġb ases
Ġb acks
Ġb ark
Ġb urn
Ġb uses
Ġb lood
Ġb rie
Ġb erth
Ġb aked
Ġb illiard
Ġb reast
Ġb erries
Ġf ed
Ġf ur
Ġf ly
Ġf ide
Ġf ix
Ġf enc
Ġf ines
Ġf ading
Ġf unding
Ġf av
Ġf ish
Ġf oli
Ġf lying
Ġf riend
Ġf uneral
Ġf avor
Ġf inishes
Ġof A
or ial
or dinance
or se
or ating
or ists
or nad
Ġan est
Ġan ch
Ġan gular
Ġan alyze
it on
it es
it ation
it ance
it ated
it ations
it age
it ory
it ures
it ality
it arian
it udin
is on
is ter
is tic
is matic
is cation
is lative
tion ed
Ġc S
Ġc res
Ġc ere
Ġc ulti
Ġc lock
Ġc ell
Ġc alls
Ġc riter
Ġc afe
Ġc ables
Ġc asters
Ġc ats
Ġc iting
Ġc ru
Ġc rown
Ġc atch
Ġc ows
Ġc amps
Ġc ypress
ro ad
ro phic
ro sive
ro active
ro deos
ro tten
ar n
ar ted
ar ate
ar ting
ar ch
ar terial
ar ges
ar row
ar chitectural
ar let
ar atus
ar inum
ar pening
ic a
ic h
ic ial
ic ture
ic ting
ent h
ent ure
ent house
at ted
at ures
at uity
Ġd t
Ġd us
Ġd ot
Ġd de
Ġd ir
Ġd ine
Ġd red
Ġd ang
Ġd ating
Ġd ress
Ġd ense
Ġd ues
Ġd imming
Ġd ump
Ġd rown
Ġd rought
Ġd ancing
Ġd itches
Ġd inner
Ġw s
Ġw ing
Ġw ig
Ġw om
Ġw ate
Ġw ra
Ġw ading
Ġw ings
Ġw ired
Ġw ides
Ġw ives
Ġw itness
Ġw arehousing
Ġw ishes
Ġw oven
Ġw rong
Ġw edding
Ġin k
Ġin her
Ġin ver
Ġin und
Ġin hib
Ġin ex
Ġin hibits
Ġin patient
Ġin scri
Ġm all
Ġm im
Ġm ut
Ġm ater
Ġm ill
Ġm one
Ġm ere
Ġm ist
Ġm ural
Ġm edi
Ġm ange
Ġm ud
Ġm alls
Ġm ech
Ġm ixtures
Ġm odes
Ġm alf
Ġm owers
Ġm enu
Ġm ils
Ġm osa
Ġm esh
Ġor ange
Ġor na
all ic
all ow
all eries
all oon
all enge
Ġre le
Ġre im
Ġre vi
Ġre ading
Ġre vers
Ġre used
Ġre lying
Ġre dec
Ġre jected
Ġre aching
Ġre inv
Ġre inforce
Ġre infor
lo ba
lo unges
lo bes
Ġto e
Ġto y
Ġto ol
Ġto uris
Ġto urist
Ġto ler
Ġto xic
Ġto bac
Ġbe ac
Ġsh um
Ġsh ut
Ġsh ine
Ġsh utters
Ġsh akes
Ġsh ipping
Ġsh arpening
ce ment
ce ll
ce way
ce ptions
ce ived
ce ives
il ed
il ation
il ver
il asters
il itate
ig ra
ig ger
ig uities
et h
et ed
et ula
ve hic
ve ys
ve get
ve locity
us ts
us ive
us tice
us ins
us hing
us band
us tering
us pension
ec ution
ec tiveness
ment ous
Ġth ing
Ġth us
Ġth rift
Ġn ur
Ġn ep
Ġn ights
Ġn ience
Ġn ick
Ġn utr
Ġn iec
Ġn igra
id ge
id ges
Ġst ain
Ġst out
Ġst ability
Ġst ays
Ġst atic
Ġst enographic
Ġst arted
le ad
le vel
Ġe o
Ġe ee
Ġe ights
Ġe arthen
ac ting
ac ities
ac ons
ac tional
ac ency
ac erations
ac quet
ac cording
ac tivated
Ġpro ve
Ġpro pped
ĠS F
ĠS lop
ĠS am
ĠS se
ĠS ew
ĠS und
ĠS oc
ĠS aw
ĠS eg
ĠS ports
ĠS ills
ĠS aving
ĠS edimentation
ĠS enior
ĠS creens
ĠS atis
ĠS ymb
ĠS urety
ĠS alvage
ĠS ilver
ĠS uspension
Ġ( .
im es
im ate
im posed
im inatory
Ġfor t
Ġfor fe
Ġl un
Ġl ay
Ġl ab
Ġl um
Ġl am
Ġl end
Ġl ies
Ġl isting
Ġl acking
Ġl itig
Ġl aund
Ġl ager
Ġl enses
Ġl yr
Ġl amps
Ġl aser
Ġl acerations
ĠC c
ĠC ance
ĠC ab
ĠC ard
ĠC ap
ĠC ast
ĠC erc
ĠC ong
ĠC los
ĠC ash
ĠC urrent
ĠC amp
ĠC ultural
ĠC ott
ĠC ake
ĠC OU
ĠC ivil
ĠC olumb
ĠC amper
ĠC aution
ĠC elebration
as ant
as ma
om ed
om og
om itor
om eric
om bment
ĠA O
ĠA S
ĠA id
ĠA tr
ĠA ir
ĠA cre
ĠA verage
ĠA mb
ĠA mp
ĠA udi
ĠA MP
ĠA uditorium
ĠA void
ĠA erial
ĠA UTH
ign ia
uc er
uc ed
Ġcon ve
Ġcon cludes
Ġcon tiguity
Ġcon curring
un te
un eration
un try
un iary
un iversity
un cement
Ġwith hol
qu ence
qu ility
qu ees
qu arter
ĠP f
ĠP et
ĠP ur
ĠP os
ĠP op
ĠP ear
ĠP ort
ĠP lay
ĠP its
ĠP oles
ĠP AR
ĠP ervious
ĠP aid
ĠP aper
ĠP olitical
ĠP illars
ĠP VI
ĠP erson
ĠP ledge
ĠP eak
ĠP utrescible
ĠP yr
ĠP ainting
ĠP erennial
ĠP ublished
ĠP atio
ĠP RIOR
ĠP aved
ĠP icture
ĠP enthouse
ĠP ilasters
tr ade
tr ances
tr ified
tr active
tr idges
ur ities
ur ies
ur ric
ur vey
ur ford
Ġus er
Ġus age
Ġapp ended
Ġapp aratus
ĠN n
ĠN um
ĠN ight
ĠN ote
ĠN uis
ĠN ature
ĠN ana
ĠN egative
ĠN FPA
ĠN arrow
ul ance
ul ts
ul ty
ul ting
ul sion
ul ang
ul ings
ul ators
ul bouts
Ġh ot
Ġh ay
Ġh ire
Ġh ide
Ġh ip
Ġh ue
Ġh ortic
Ġh atch
Ġh amm
Ġh iking
Ġh oes
Ġh ier
Ġh atc
Ġh ybrid
Ġh onor
Ġh alide
Ġh usband
Ġh omog
ub ling
ub divided
ub outs
ure ii
ire able
ĠD up
ĠD orm
ĠD oc
ĠD irect
ĠD ress
ĠD ue
ĠD uring
ĠD ental
ĠD uration
ĠD ET
ĠD anger
ĠD ensities
ĠD IR
ĠD eline
ĠD ANG
ĠD iversity
ĠD omiciliary
Ġper tain
Ġper forming
Ġper ish
Ġper ipher
Ġper ception
Ġper ceived
lic e
lic ting
lic op
lic ative
lic ating
Ġlo z
Ġlo st
Ġlo se
Ġlo ose
Ġlo ads
Ġlo fts
Ġlo unges
Ġlo bby
uil ty
ll er
ll ation
ll as
ll ut
ll ector
ĠO cc
ĠO LED
ĠO NL
ĠO xyd
ab ove
ab itable
ab etic
Ġas pect
Ġex iting
Ġex tinguishing
Ġde form
Ġde lay
ion al
ate ver
ate board
um a
um ard
um ers
um ans
um ptions
ard less
ard ians
her s
her ies
ter ations
ter prises
ter tainer
os es
os itions
os pho
Ġby pass
Ġ1 12
Ġ1 11
Ġ1 21
Ġ1 15
Ġ1 14
Ġ1 13
Ġ1 19
Ġ1 16
Ġ1 30
Ġ1 100
Ġ1 24
Ġ1 26
Ġ1 35
di ent
di us
Ġsign atures
Ġnot ing
Ġnot es
Ġnot ations
Ġnot hing
Ġg ir
Ġg able
Ġg lu
Ġg ang
Ġg ase
Ġg own
Ġg los
Ġg ram
Ġg ases
Ġg ables
Ġg ymnasiums
Ġg aug
Ġg ym
Ġg anan
Ġg lobes
Ġg uilty
........ .
........ ....
velop e
velop able
Ġpar ameters
Ġpar vif
ag ments
ag og
ĠR ace
ĠR em
ĠR ail
ĠR ecess
ĠR acing
ĠR ough
ĠR iding
ĠR IGHT
ĠR inks
ĠR iparian
ĠR atio
ĠR AM
ĠR aised
ĠR idge
ain s
ain t
cc ine
ol ition
Ġprop elled
Ġprop eller
Ġprop onent
Ġprop ulsion
Ġany one
reet ing
ther a
ther s
mit ory
mit rans
ver n
ver ts
Ġ2 40
Ġsp as
Ġsp un
Ġsp ot
Ġsp ill
Ġsp ear
Ġsp aring
Ġsp read
Ġsp ires
Ġsp illing
Ġsp elled
Ġsp otlights
Ġuse ful
de velopment
de ep
de par
de gree
de velopable
eet bay
ra ce
ra plex
ra xinum
ra dius
ri age
ri ves
ri otic
ut tered
Ġcom ment
Ġcom fortable
ĠB us
ĠB ay
ĠB ir
ĠB eat
ĠB rid
ĠB acking
ĠB earing
ĠB rewed
ĠB ungalow
ĠB right
ĠB ackground
ĠB owling
ĠB illiard
ĠB radford
ĠB ASE
ĠB ench
ĠB alloon
ĠB etula
ĠB urford
ĠB ulbouts
Ġad mit
Ġad hes
Ġad ults
st orm
st op
st ood
st amp
st andard
ir d
ir ds
ir med
Ġdis tic
Ġdis mis
Ġdis aster
Ġdis crete
Ġdis pose
Ġdis abled
Ġdis tract
Ġdis tillery
Ġdis tinguishing
Ġdis tinguish
Ġdis burse
00 2
rom ised
rom ises
if era
Ġun ion
Ġun su
Ġun so
Ġun fit
Ġun used
Ġun buil
Ġun like
Ġun imp
Ġun mentioned
Ġun licensed
Ġun cle
Ġun inter
Ġun restric
Ġun iversities
Ġun loaded
Ġun cles
Ġun feasible
Ġun zoned
Ġun developable
Ġplan ks
Ġplan ters
am el
am ple
am usement
Ġv an
Ġv et
Ġv ap
Ġv isions
Ġv ase
Ġv ist
Ġv aries
Ġv ital
Ġv ault
Ġv oting
Ġv eterinarian
Ġv itality
Ġv enture
Ġv omitor
enti eth
end as
end um
end ers
end ron
end rum
ĠOr gan
od endron
Ġat hen
ĠPlan ts
Ġal co
Ġal ge
Ġal ph
Ġal titu
Ġstreet lights
Ġcons ents
Ġcons titutional
Ġcons umed
Ġcons ulting
Ġcons umers
ace utical
Ġsub jec
Ġsub lease
Ġsub grade
Ġsub merg
Ġsub zones
Ġres ist
Ġres ervation
Ġres truct
Ġres ched
Ġres istant
Ġres cue
Ġres urvey
Ġhe licop
Ġmo unding
Ġmo vable
Ġmo bility
th s
th an
th is
th ree
th ane
th irds
res cent
res istant
res idents
res pective
ap ed
ap se
ap el
ĠM em
ĠM ill
ĠM ad
ĠM ond
ĠM IN
ĠM ak
ĠM ixture
ĠM arking
ĠM ortic
ĠM ature
ĠM useum
ĠM edian
ĠM atch
ĠM otels
ĠM yr
ĠM ilit
ĠM etal
ĠM ean
ĠM HP
ĠM IX
ĠM PH
ĠM cFar
ite es
ĠI RS
ĠI dn
up s
up led
Ġpermit tee
ĠT B
ĠT y
ĠT ent
ĠT ce
ĠT ail
ĠT ents
ĠT our
ĠT ex
ĠT ER
ĠT ud
ĠT ues
ĠT echn
ĠT upp
ĠT ake
ĠT owers
ĠT respass
ĠT attoo
ĠT andem
ĠT ermination
ĠT aproom
ĠT ern
ĠT horoughfare
ĠT esting
ĠT ornad
ĠT imes
est ment
Ġstructure d
Ġacc es
Ġacc ident
Ġacc idents
Ġacc rued
Ġloc k
Ġloc ally
Ġloc ator
Ġloc ked
Ġloc kers
lu x
lu ent
lu des
ew ater
ew el
ew ays
ĠF ine
ĠF ont
ĠF ile
ĠF ore
ĠF ixed
ĠF inished
ĠF rame
ĠF urn
ĠF urther
ĠF abric
ĠF ailure
ĠF enced
ĠF igures
ĠF LOW
ĠF enestr
ĠF aux
ĠF lea
ĠF oster
ĠF DC
ĠF reew
ĠF raxinum
ect able
Ġproper tied
em y
em orations
Ġdes ire
Ġdes ist
Ġdes cent
Ġdes cri
Ġdes iring
Ġdes pite
ĠĉĠĉ ĠĉĠĠĠ
Ġcomp el
Ġcomp artment
Ġcomp ress
Ġcomp aring
Ġcomp ared
Ġcomp ost
Ġcomp lements
Ġcomp ete
Ġcomp action
Ġcomp eti
Ġcomp utation
Ġcomp osing
Ġcomp ressed
Ġcomp elling
Ġcomp ilation
Ġcomp ositions
Ġcomp romised
hed s
el ed
el low
el ior
el vins
ĠL n
ĠL ive
ĠL ast
ĠL ines
ĠL ights
ĠL ED
ĠL iving
ĠL EVE
ĠL awn
ĠL iner
ĠL ager
ĠL aundry
ĠL anes
ĠL arger
ĠL afayette
ĠL iri
ĠL enders
ĠZ oned
erv ient
................ ..
................ ....
Ġch ance
Ġch art
Ġch ances
Ġch airs
Ġch allenge
Ġch apel
Ġland owners
Ġland mark
Ġapprov es
are a
are houses
tain ers
ĠE S
ĠE co
ĠE ither
ĠE mb
ĠE mp
ĠE rect
ĠE vid
ĠE aves
ĠE vening
ĠE phe
ĠE tc
ip s
ip ient
ip itation
tic able
ho ur
ho ps
ho urs
por ous
por tioned
ĠU pon
ĠU pper
ĠU sing
ĠRe ason
ĠRe loc
ĠRe quests
ĠRe ceive
ĠRe vival
ĠRe inforce
Ġdesign er
Ġdesign ating
Ġdesign ees
cre ased
Ġint end
Ġint ens
Ġint ents
Ġint ensities
Ġint ends
form ed
vi ate
vi ations
ill ings
ill iance
Ġno on
Ġno de
Ġno vo
ĠNo tions
ĠNo tifies
ĠNo tices
Ġco al
Ġco op
Ġco hes
Ġco ating
Ġco unts
Ġco lored
Ġco bra
Ġco efficient
Ġco usins
Ġco ccine
Ġco upled
we aring
we lls
we eks
red ict
Ġma id
Ġma xim
ĠSt and
ĠSt able
ĠSt ages
ĠSt ops
ĠSt ucco
ĠSt udi
ĠSt ables
ĠSt ds
ĠSt adium
ĠSt arting
ĠSt ubouts
Ġ6 1
Ġ6 2
Ġ6 3
Ġ6 6
Ġ6 7
Ġ6 8
Ġ6 13
Ġ6 18
Ġ6 04
Ġ6 72
Ġoff ences
Ġoff enses
Ġr ing
Ġr im
Ġr ack
Ġr ating
Ġr iding
Ġr ink
Ġr ationally
Ġr ags
Ġr uling
Ġr ank
Ġr ich
Ġr acquet
Ġr ulings
ĠG ate
ĠG ated
ĠG ates
ĠG ranting
ĠG lazing
ĠG ymnasiums
ĠG RADE
ĠG rass
ĠG reens
ĠG ingo
ĠG alleries
ĠG reeting
ĠDis cour
ĠDis abled
ĠDis tinguish
ĠDis ease
Ġtw irled
Ġtw entieth
Ġfac ed
Ġfac ulty
ĠV A
ĠV O
ĠV Y
ĠV AR
ĠV ery
ĠV ending
ĠV ideo
ĠV eterinary
ĠV eterinarian
ang le
Ġop tional
Ġop tim
Ġop tician
Ġen ding
Ġen ables
Ġen vir
Ġen velope
Ġen amel
Ġen emy
Ġim min
Ġro le
Ġro od
Ġro und
Ġro ds
Ġro uting
Ġro ck
Ġro deos
Ġro pe
Ġro ller
ous ine
ous tic
Ġ20 1
Ġ20 17
sc ene
sc hools
lis ted
truc k
truc tive
ĠComm ercially
ĠComm only
Ġac know
Ġac oustic
anc ed
anc hes
Ġpr ide
Ġpr one
Ġpr ismatic
pos ure
ad ict
ad ensis
ad cast
ad quarters
Ġle ad
Ġle ading
Ġle ads
Ġle asing
Ġle aves
Ġle wdness
Ġaccess es
Ġ3 1
Ġ3 8
Ġ7 1
Ġ7 3
Ġ7 6
Ġ7 8
Ġ7 9
Ġ7 03
Ġ7 400
ten sive
Ġdet riment
Ġdet achment
Ġdet ectable
op en
TI TA
TI LL
TI NU
Ġfo cal
Ġfo mentations
No ise
No vember
No tices
ission s
ON MENT
ON TLO
Ġpl enty
Ġpl umbing
Ġpl asma
Ġpre con
Ġpre fer
Ġpre jud
Ġpre ventive
ĠIn vent
ĠIn ves
ĠIn iti
ĠIn ternally
ĠIn direct
ĠIn formational
ĠIn dustr
ĠIn tensive
ĠH ear
ĠH ue
ĠH owever
ĠH orizontal
ĠH ob
ĠH uman
ĠH unts
ĠH obby
ĠH otels
ĠH VAC
ĠH edge
ĠH orse
ĠH urric
ĠH abitable
ĠH umans
ord ed
ord ance
ord able
Ġnon con
Ġnon dec
Ġnon inter
Ġnon ref
Ġnon tidal
Ġnon porous
ch air
ch ild
ch arge
ch annels
ch arinum
pt ors
Ġest hetic
ĠSign ificant
ĠSign ature
âĢĻ .
âĢĻ âĢĻ
20 16
20 17
20 2122
Ġwall pap
ĠDe ed
ĠDe velop
ĠDe ad
ĠDe veloper
ĠDe fine
ĠDe vice
In land
In tent
In vas
In ternet
In tended
In crease
In tegr
In stead
In formational
In creased
10 7
10 11
Ġsur gical
Ġsur veys
Ġlim b
Ġlim ousine
own ed
ĠW et
ĠW ay
ĠW ill
ĠW ast
ĠW ell
ĠW ashing
ĠW eed
ĠW arehouse
ĠW orking
ĠW eather
ĠW rap
ĠW ax
ĠW illow
ĠW ashes
ĠW aver
ĠW anted
ĠW arehouses
Ġwhere by
Ġimp lements
Ġimp ression
Ġimp aired
Ġimp lies
Ġfacil itate
Ġfacil itating
Ġadj ust
Ġar bor
Ġar ms
Ġar tery
Ġar bit
Ġar tist
Ġar rives
ise um
Ġdo gs
Ġdo ubling
Ġgro oming
Ġgro omed
ast omeric
ons truct
Ġcomm odi
Ġcomm erce
Ġcomm emorations
ĠâĢ ¦âĢ¦âĢ¦âĢ¦âĢ¦âĢ¦âĢ¦âĢ¦âĢ¦âĢ¦âĢ¦âĢ¦âĢ¦âĢ¦âĢ¦âĢ¦âĢ¦âĢ¦âĢ¦âĢ¦âĢ¦
Ġ8 1
Ġ8 2
Ġ8 3
Ġ8 4
Ġ8 6
Ġ8 7
Ġ8 8
Ġ8 9
Ġ8 01
Ġne at
Ġne go
co llector
Ġtra dition
Ġtra des
Ġtra vers
Ġtra uma
Ġup hol
Ġup side
Ġup date
Ġup wards
Ġup keep
ens ations
ens ils
iv ative
Ġab ated
Ġab ore
Ġab rup
Ġsa ving
Ġcont acting
Ġside lines
Ġy arn
Ġy ellow
ĠĠĠĠĠĠĠĠĠĠĠĠĠĠĠĠ Ġ
ĠĠĠĠĠĠĠĠĠĠĠĠĠĠĠĠ ĠĠĠĠĠĠĠĠ
ĠĠĠĠĠĠĠĠĠĠĠĠĠĠĠĠ ĠĠĠĠĠĠĠĠĠĠĠ
ĠĠĠĠĠĠĠĠĠĠĠĠĠĠĠĠ ĠĠĠĠĠĠĠĠĠ
ĠĠĠĠĠĠĠĠĠĠĠĠĠĠĠĠ ĠĠĠĠĠĠĠĠĠĠĠĠ
Ġme al
Ġreview s
ack et
Ġunit es
Ġinter con
Ġinter fer
Ġinter ming
Ġinter changes
Ġinter mediate
pl ied
pl astic
pl atted
ĠCo ver
ĠCo untry
Ġdevelop s
creen ed
An nex
An drews
Ġ5 1
Ġ5 3
Ġ5 4
Ġ5 6
Ġ5 8
Ġ5 9
Ġ5 12
Ġ5 28
port ant
EC OLO
ans es
Ġdec ade
Ġdec omp
ĠPar ts
ĠPar allel
ĠPar lor
ug s
ug es
use ments
Ġbo oth
Ġbo unding
Ġso ulang
Ġflo uris
ior a
Ġhome owner
Ġhome buil
su ant
con ditional
con vales
Ġman age
Ġman hole
oc ol
section s
ind oors
Ġtr ust
Ġtr acks
Ġtr igger
Ġtr usts
ven ience
til es
til inear
Ġoccup ies
12 7
mo ving
Ġcompl ained
................................ ................
................................ ...................
inc tions
inc ludes
Ġsu its
âĢ¦âĢ¦ ...
ĠDevelopment a
ear ance
Ġpo ured
Ġpo llut
Ġunder go
Ġunder lined
Ġunder tak
Ġunder grow
Ġunder stood
vent s
Ġ10 1
Ġ10 3
Ġ10 4
Ġ10 5
Ġ10 7
Ġ10 8
Ġ10 9
yp e
Ġcor pse
Ġcor rosive
Ġtime frame
ass crete
Ġscreen ings
ĠBo oks
Ġlandscap er
Ġlandscap es
te levision
Ġexp and
Ġexp ression
Ġexp anse
Ġexp anses
Ġthere with
unc ture
unc tions
ĠAd verse
ĠAd minister
Ġsc rap
Ġsc iss
Ġsc roll
Ġsc alable
Ġlight ning
ĠAl a
ĠAl tern
ĠAl loc
ĠAl so
ĠAl ignment
ical s
Ġele ven
Ġcontain er
Ġcontain ment
Ġrec ite
Ġrec lass
Ġrec essing
Ġrec urring
Ġrec ipient
Ġrec onstruct
Ġrec tilinear
Ġ9 1
Ġ9 2
Ġ9 3
Ġ9 4
Ġ9 7
Ġ9 8
Ġ9 9
Ġ9 000
Ġ9 04
Ġ9 01
Ġ9 07
Ġ9 09
Ġ9 06
Ġroof lines
Ġroof tops
Ġ4 1
Ġ4 2
Ġ4 4
Ġ4 6
Ġ4 7
Ġ4 9
Ġ4 20
Ġ4 12
Ġ4 50
Ġ4 31
ĠOp aque
ĠOp erating
Ġvis itor
Ġvis iting
Ġvis ibly
Ġse vered
Ġse gregate
Ġse gment
Ġse asons
Ġse gmental
Ġse quence
ĠRequire ment
Ġpart ner
Ġent ered
Ġent ombment
Ġvari ant
Ġvari eties
Ġcan tile
Ġcan adensis
ĠEn able
ĠEn suring
ĠEn sures
ĠEn terprises
Ġover pay
Ġover bur
Ġover grown
bor s
bor ne
11 4
Ġtyp ographical
Ġrel ates
Ġrel iance
Ġrel atives
Ġrel iable
Ġrep ly
Ġrep utation
Ġrep licating
Ġrep aint
Ġob viate
rit ory
Ġpor ter
Ġpor ts
Ġpor cel
Ġmet als
Ġmet ered
Ġmet allic
Ġref ining
Ġref uses
Ġref resh
Ġref used
Ġref unded
Ġref undable
Ġref uges
ĠSub sequent
ĠSub part
ĠSub surface
Any thing
wal k
ne tic
Ġins ets
Ġins ignia
Ġins ulators
Ġchar ts
Ġform ed
Ġform ally
Ġform ulation
ati le
ati vity
out door
out lined
pre ad
ĠCon forming
ĠCon cer
ĠCon formance
ĠCon tract
ĠCon nection
ĠCon tiguity
ĠCon tainers
Ġutil izes
Ġutil itarian
21 40
ĠPer il
ĠPer ipheral
ĠPro duce
ĠPro xim
ĠPro jections
Ġadop ts
Ġag ed
Ġag enda
Ġag endas
Ġtraffic ked
fter s
ĠEx ternal
ĠEx per
ĠEx pected
ĠEx ternally
ĠEx tinguishing
ĠEx cav
ĠEx ample
ĠEx posure
25 00
Ġbuff ered
Ġcl imate
Ġcl uttered
Ġcl ips
Ġspecific s
tific ial
tific ations
Ġcharacter istic
Ġind eterm
ĠAr ts
ĠAr chitect
ĠAr tis
ĠAr row
ĠAr cades
ĠAr bors
ĠAr tificial
Ġissu ing
Ġ19 0
Ġ19 1
Ġ19 2
Ġ19 3
Ġ19 4
Ġ19 5
Ġ19 6
Ġ19 10
Ġ19 50
Ġ19 29
Ġ19 76
ĠĉĠĉĠĉĠĉ ĠĉĠĉĠĉĠĉ
ĠĉĠĉĠĉĠĉ ĠĉĠĉĠĉĠĉĠĉĠ
Ġsaf er
Ġ- âĢĶâĢĶ
Ġpres cribe
Ġpres chool
Ġdep ot
Ġdep end
Ġdep art
Ġdep ends
SE VER
air plane
ph ase
Ġwater way
Ġwater craft
Ġgr ate
Ġgr ain
Ġgr asses
Ġgr atuity
Ġhere on
Ġdi et
Ġdi vers
Ġdi ode
here inafter
50 1
asure r
IN MENT
IN ACE
Ġinto xic
Ġequ ation
Ġequ ity
Ġequ ally
Ġequ als
Ġequ itable
Ġass uring
Ġass ets
Ġass umption
Ġass istance
Ġass urance
Ġass umptions
Ġext ents
Ġdef iance
Ġdef ective
Ġdef ining
Ġdef ault
Ġdef init
umin ous
Sign ature
ĠAn d
ĠAn alysis
ĠAn tique
ĠAn drews
ĠAn nual
ĠAt tract
ĠAt tend
ĠAt tachments
ĠAt las
ved eres
Ġconf ers
Ġconf use
Ġconf used
Ġconf irming
Ġconf iscation
St age
St able
St one
St adium
Ġinstall er
Ġeff ort
Ġeff ected
Ġeff ectiveness
Ġeff luent
Ġaddition ally
rea der
Ġcer tifies
Ġcer ifera
Ġcer tifications
Ġel ections
Ġel astic
Ġel apse
Ġel astomeric
Ġgre ase
Ġgre ens
Ġgre ases
Ġgre atly
titu ted
Ġauthor izes
Ġout flow
Ġout wards
Ġout comes
Ġground covers
ric a
ric e
Ġten ding
Ġten se
Ġpos ing
Ġpos ter
Ġpos ters
Ġpos itions
Ġthrough way
Ġem br
Ġem issions
Ġgra pes
Ġgra duate
Ġgra zed
Ġgra dient
jec ting
jec tives
aw ning
Ġterm ination
Ġdisplay ing
ĠX VI
Ġill usion
Ġver y
Ġver ified
Ġver ification
Ġver sions
Ġver bal
Ġlic enses
For ty
Per tinent
Per pet
ST ORY
ĠUn ified
ĠUn lawful
ĠUn loading
ĠUn iversities
ĠUn iroy
ĠUn painted
Ġsepar ates
our ces
Ġwindow less
Ġph one
Ġph ased
Ġph asing
Ġph ospho
Ġregul ates
Ġregul ators
Ġdist ant
Ġdist ressed
Ġtrans fe
Ġtrans portable
Ġtrans fers
Ġrear rangement
Ġelev ator
Ġelev ators
Ġfl uct
Ġfl ashes
Ġfl ushing
Ġevent ual
ĠAccess ibility
Ġfoot ball
Ġfoot candles
Ġfoot paths
Ġfour th
ĠIns ures
ĠIns truction
ĠIns titution
ĠIns ofar
Ex t
Ex change
Ex hibition
Ex ercise
Ex ceptions
uts cho
Ġj et
Ġj unction
Ġj urisdic
Ġj ewel
Ġj unctions
Ġsto op
Ġsto pping
Ġ100 1
Ġ100 4
Ġ100 5
Ġ100 6
Ġ100 7
ĠLandscap i
eg ress
over all
ĠDesign ed
ĠDesign ation
Ġspecial s
15 2
15 12
eter ias
Ġprot otypical
Ġprot ocol
Ġnotice able
Ġnotice ably
âĢ¦âĢ¦âĢ¦âĢ¦ âĢ¦âĢ¦âĢ¦..
rec orded
Ġcre st
Ġcre ws
Ġcre mated
Ġcre ativity
14 4
14 5
14 6
14 7
14 9
pr ise
ĠMinimum s
Ġaff airs
Ġcent ered
Ġcent uries
Ġ30 6
Ġsales man
ĠOrd s
Ġpat tering
Ġpat riotic
Ġcal m
Ġcirc ular
18 2
18 6
18 9
Ġwork man
Ġwork weeks
Ġenc ased
ĠAdj oining
Ġk ia
Ġresid ue
Ġresid ency
Ġrecord ation
Ġmulti use
Ġmulti story
Ġmulti unit
Ġmulti plied
Ġreg ime
Ġreg ister
AN SI
AN TITA
Ġsec urities
Ġclos ing
Ġclos ure
Ġret ro
Ġret reading
Ġ16 1
Ġ16 2
Ġ16 3
Ġ16 5
Ġ16 6
Ġ16 7
Ġ16 8
Ġ16 9
Ġalle viation
Ġdiff erences
Ġblock y
Ġperiod icals
Ġview point
Ġrepair ing
Where ver
ex terior
ex isting
ex ternal
ex change
ex istent
ex cludes
ex ercise
Ġshow room
Ġshow rooms
Ġelec trified
19 3
19 4
19 8
19 95
AL LE
AL OW
AL ITY
AL TH
AL ABAMA
Ġindic a
Ġindic ations
Ġentrance ways
Ġra w
Ġra re
Ġra ising
Ġra iling
Ġra ze
Ġra pid
Ġra ceway
Ġra fters
Ġcol iseum
Ġherein above
Ġqu ick
Ġqu eue
Ġqu iet
Ġqu oti
Ġmon o
Ġmon uments
Ġmon itor
Ġadver tises
ER IA
ER OUS
Ġneed les
Ġadd endum
to graphic
Ġtow er
ĠAmend ed
cer tified
anti ty
Ġfinal ity
Ġval et
Ġcoll isions
Ġcoll ateral
ĠĠĠĠĠĠĠĠĠĠĠĠĠĠĠĠĠĠĠĠĠĠĠĠĠĠĠĠĠĠĠĠ Ġ
ĠĠĠĠĠĠĠĠĠĠĠĠĠĠĠĠĠĠĠĠĠĠĠĠĠĠĠĠĠĠĠĠ ĠĠĠĠ
ĠĠĠĠĠĠĠĠĠĠĠĠĠĠĠĠĠĠĠĠĠĠĠĠĠĠĠĠĠĠĠĠ ĠĠĠĠĠĠĠĠ
ĠĠĠĠĠĠĠĠĠĠĠĠĠĠĠĠĠĠĠĠĠĠĠĠĠĠĠĠĠĠĠĠ ĠĠĠĠĠĠĠĠĠĠĠ
ĠĠĠĠĠĠĠĠĠĠĠĠĠĠĠĠĠĠĠĠĠĠĠĠĠĠĠĠĠĠĠĠ ĠĠĠĠĠĠĠĠĠĠĠĠĠĠĠĠĠĠĠĠĠĠĠĠĠĠĠ
Ġlaw yer
Ġhigh light
Ġpursu e
Ġpursu ing
Ġpursu ed
Ġpursu ance
Ġpursu its
Ġidenti fies
Ġcar ts
Ġcar pet
Ġcar bure
Ġcar niv
Ġcar tridges
Ġinv asion
Ġinv oices
Ġinv itees
Ġrece ption
Ġforth with
Ġ25 6
16 8
Pro cess
Pro duce
Pro hibition
Pro jecting
Ġwh iz
Ġwh irled
Ġwh atever
ommod ations
Applic ant
des cribed
og nition
Ġrest ore
Ġrest oring
ĠCor rals
ĠNorth west
ĠOver all
ĠOver flow
Ġprevent ors
Ġmat ure
Ġmat ting
loy ment
Ġcomb ining
for di
pprov es
Ġrun ners
100 1
100 6
Ġexc use
Ġgar ish
Ġ50 1
yc lable
ĠJ urisdiction
ĠJ unk
ĠJ apanese
Ġcare er
Ġcare tak
Ġstream bed
Ġincre mental
Ġsubstanti ate
Re gulations
Re port
Re ader
Re gular
Re asonable
Re hearing
Re ceives
Ġ................................ .
Ġ................................ ....
Ġ................................ ...................
Ġ................................ ....................
Ġfr uit
Ġfr actions
Ġfr inge
Ġfr aternal
Ġfr actional
Ġfr agments
Ġcap tion
Ġcap acities
Ġcap rice
Ġrem nants
Ġrem uneration
Ġconduc ts
Ġconduc ive
Ġintern et
ĠExce eding
av ily
bo at
bo oth
not withstanding
Ġdimension ed
OR ITY
aur ants
ĠNe utr
ĠRec lam
ĠRec yclable
Ġabut ted
Ġobs erve
Ġenclos ing
Ġ15 1
Ġ15 2
Ġ15 3
Ġ15 4
Ġ15 5
Ġ15 6
Ġ15 7
Ġ15 8
Ġ15 9
Con nectivity
Con nection
Con nections
Con venience
bers hip
bers hops
Ġsol vents
Ġpen ns
Ġfu els
Ġflood ed
Ġdra fted
Ġdra pes
ĠSp ot
ĠSp eak
ĠSp otlights
ĠSep tic
Ġgu ys
Ġgu iding
Ġgu ardians
AR EA
Access ible
Ġed ible
Ġtre ad
Ġtre ating
Ġful fill
Ġdam aging
Ġroom ing
Ġcenter lines
Ġstandard ized
Non commercial
Sh ade
Sh umard
gre ater
arm acies
Ġwas her
ĠSec ond
ĠSec ret
ĠSec retarial
ĠSec iton
ĠAg enda
Ġsubmit s
ĠĉĠĉĠĉĠĠ ĉĠ
Ġlegal ize
Ġposs ess
Ġposs ession
Ġposs essed
ument ation
Ġprof iled
Ġlong itudin
ĠCh ain
ĠCh ange
ĠCh inese
ĠCh anging
ĠCh rist
ĠOff ences
Ġdev ise
Ġdev ote
IT ALITY
IT ERIA
Ġshe ep
Ġshe lls
Ġback ed
Ġback flow
Ġback fill
ĠCl ause
ĠCl inic
ĠCl inical
ĠCl ustering
Ġalter ing
ĠMan ure
ĠMan ually
ĠMan hole
ĠMan hatt
ĠTr ust
ĠTr act
ĠTr acts
ĠTr actor
Ġgovern s
ins titutional
Ġtown homes
Ġphys icians
Ad ditions
Ad vise
Or der
iel ding
Ġcontr acts
Ġcontr asting
Ġcontr adict
ĠNon commercial
ĠNon tidal
Ġ14 1
Ġ14 2
Ġ14 3
Ġ14 4
Ġ14 5
Ġ14 6
Ġ14 7
Ġ14 8
Ġ14 9
ĠState ment
Ġgroup ing
Ġgroup ed
Ġclass rooms
Ġclass ify
RE TAIL
RE MO
Ġte a
Ġte am
Ġte lling
Ġte leg
Ġwa ve
Ġwa res
Ġwa iting
Ġwa xing
ĠST ATE
ĠSh ade
ĠSh ielding
unic ation
Ġ11 7
Ġ18 1
Ġ18 2
Ġ18 3
Ġ18 4
Ġ18 5
Ġ18 6
Ġ18 7
Ġ18 8
Ġ18 9
Ġplat inum
Ġenter tainer
Ġenter prise
24 25
ground covers
Ġair ways
Ġair borne
Ġsit ing
Ġsit ting
Ġpot s
Ġfin ite
Ġdirec ts
urren ce
Ġlow ering
Ġparallel s
Ġprep aring
Ġadjo in
Ġadjo ins
led gments
ĠY OLO
ĠY MCA
ĠY WCA
ĠY aup
ene ous
Ġfil ter
Ġfil ters
Ġmot ors
Ġmot els
Ġlabel s
Ġlabel ing
Ġconven tions
Ġconven iences
ession s
Ġelectric ally
LA WFUL
uis h
Ġpe eling
ĠOther wise
ĠBuff ering
Ġhel ps
per y
per ity
per form
per pendicular
per ature
Ġbas ins
Ġbas ket
Ġbas kets
Ġbuil ds
Ġ17 0
Ġ17 1
Ġ17 2
Ġ17 3
Ġ17 4
Ġ17 5
Ġ17 6
Ġ17 7
Ġ17 8
Ġ17 9
ĠRE SER
ĠRE TAIL
ĠTh ree
ĠTh ose
ĠTh ru
ĠTh ird
LO YMENT
Ġta vern
ery ana
Ġbr ass
Ġbr ings
Ġbr onze
Ġbr illiance
Ġbr anches
Ġbr acket
ĠCons ent
ĠCons erve
ĠCons ideration
ĠCons tructive
Ġ12 2
Ġ12 3
Ġ12 7
Ġ12 8
Ġ12 9
Ġensure d
Al ong
Al abama
Al though
Al terations
lat ables
Ġbar b
Ġbar bed
Ġbar bershops
Ġden oting
Ġden uded
Ġstation ery
ĠRed bud
Ġfron ted
At tic
At tend
At tachments
Ġanim ation
Ġanim ated
Ġmass ages
Ġban king
Ġflow n
Ġflow ers
Ġsty les
ols tery
Ġalternative ly
ĠWhen ever
Ġdoc k
Ġdoc ket
Ġexpress ing
Ġdepic t
Land fills
pro hibit
pro files
pro pelled
pro portioned
Ġke g
Ġopp osition
Ġser rata
Ġrez one
Ġreduc ing
vey ard
Ġstrip ed
uris h
ĠRo ads
Ġpattern ed
Ġ................................................................ .......
Ġ................................................................ ...................
Ġ................................................................ .....................
Ġrepresent ation
Ġoriginal ity
IS SI
Ġ= âĢĶâĢĶ
Ġannex ing
Ġannex ations
Ġmark er
Ġbec ame
Ġbec oming
ĠSc enic
ĠSc rap
ĠSc ientific
Ġexception ally
Ġ40 6
Ġdemonstr able
az ines
Ġam ple
Ġam ending
Ġam eric
Ġam elior
tim es
tim ate
Ġdri ed
Ġdri ver
Ġdri ven
Ġdri vers
ĠFlood plain
ĠFlood lights
ĠHome owner
ĠHome owners
Ġbox es
Ġeffect uate
________ ______
Ġmotor ing
Ġmotor ist
Ġ| âĢĶ
Ġ| \}
Ġes cort
Ġri fles
ĠĠĉ ĠĠĠĠĠĠĠ
ĠĠĉ ĠĉĠĉĠ
ĠĠĉ ĠĉĠĉĠĉĠ
ĠĠĉ ĠĉĠĉĠĉĠĉĠĉĠĉĠĉĠĉĠ
Ġpan ic
Ġwide ly
Ġwel ding
Ġliqu id
Ġliqu efied
ĠApp urten
ĠApp ropriate
ĠApp liance
Ġdispos a
Ġdispos ing
Ġdispos able
Ġencour aging
En d
En try
En trances
En tertainer
Ġinf low
Ġinf ants
Ġinf estation
Ġinf easible
Ġinf latables
ĠCont ours
Ġhards cape
Ġexam ination
Ġexam inations
Ġgas ses
Ġgener ators
ĠTra il
ĠTra de
Ġachie ving
Ġachie ves
Ġachie vable
tenn is
lar ge
lar ger
ĠFe edlots
Ġprac tition
Ġart work
Ġinterf ace
17 6
17 8
As ide
As sembly
Ch ild
Ch anged
Ch anging
Rec onstruction
Rec reation
Rec onstructed
Rec ognition
Ġthem sel
Ġpic tographic
ording ly
Ġshiel ds
ĠBe er
ĠBe low
ĠBe auty
ĠBe acons
Ġvac ate
Ġvac ations
Ġvac ancy
ĠHO SP
ĠHO USE
Ġequal ed
Ro oms
four ths
Ġbro thers
Ġfree ly
Ġfree ze
Ġcost ume
Ġorgan isms
Ġevid ent
Ġevid enced
Ġconcer ts
ĠPre mis
ĠPre mises
ĠPre mise
Ġatt ended
ĠFl orists
ĠFire s
ĠâĢĶ -
ĠâĢĶ --
ĠâĢĶ âĢĶ>
ĠâĢĶ >|
Ġsex ually
Ġcertain ty
Ġcolor ation
Ġriver ine
Ar terial
Ar mory
De cember
De veloped
De vices
ob ic
Ġsw ords
Ġsw itches
Ġiniti ative
ĠIN ST
........................ ....
........................ ...
Ġenh anced
Ġrefl ection
Ġrefl ected
Ġrefl ector
Ġrefl ecting
ĠTrans mitting
Plan ting
Plan ner
Plan ned
Plan tings
fit ted
sp as
sp ot
sp eed
sp outs
sp eak
Ġsee k
Ġreal m
Ġreal ized
Ġreal tors
Ġproceed ed
Ġhand led
Ġhand ball
Ġhand cra
Ġhand yman
Ġ13 1
Ġ13 2
Ġ13 3
Ġ13 6
Ġ13 7
Ġ13 8
Ġ13 9
Ġincorpor ation
Ġtravel ed
ĠCenter line
Th irty
ken nels
ma tical
pit ched
Ġtri ed
Ġtri angular
Ġste am
ĠPri vile
ĠDrive ways
Ġexternal ities
ĠRes erve
ĠRes identially
ĠRes ources
Ġdisa pproves
ĠMain taining
semb ling
Ġleg ibly
Ġleg islative
Ġfore ground
Ġfore most
Ġoverlay s
Ġdepartment al
Ġradi ator
ĠĠĠĠĠĠĠĠĠĠĠĠĠĠĠĠĠĠĠĠĠĠĠĠĠĠĠĠĠĠĠĠĠĠĠĠĠĠĠĠĠĠĠĠĠĠĠĠĠĠĠĠĠĠĠĠĠĠĠĠĠĠĠĠ ĠĠĠĠĠĠĠĠ
ĠĠĠĠĠĠĠĠĠĠĠĠĠĠĠĠĠĠĠĠĠĠĠĠĠĠĠĠĠĠĠĠĠĠĠĠĠĠĠĠĠĠĠĠĠĠĠĠĠĠĠĠĠĠĠĠĠĠĠĠĠĠĠĠ ĠĠĠĠĠĠĠĠĠĠĠĠĠĠĠĠĠĠĠĠĠĠĠĠĠĠĠĠĠĠĠĠĠ
with out
Ġsk y
Ġsk ating
Ġfail ures
Ġfurther ance
ĠImp roved
ĠInter mittent
ĠInter ception
ĠInter ference
Pri vacy
Un lawful
Un iform
Ġsup erintendent
Ġsup ermark
Ġfurn ace
Ġcul tured
Ġcul verts
Ġcos me
row ding
Ġread ers
Ġlit ter
ĠPr incip
ĠPr Ã©sident
ĠNot ational
Ġsubmission s
ĠZON Es
Ġsurvey ed
ĠProt otypical
Other wise
ĠPl ace
ĠPl umbing
Ġassemb led
Ġpropor tional
âĢĶ _
Ġfact ory
Ġdecor ating
Ġsell ers
Ġcolum barium
Ġmonument ed
Ġconduct ors
200 5
Man y
Man aged
Prov iding
cal ming
Ġturn s
Ġturn over
Ġturn outs
head s
head walls
ony mous
Ġpil ing
Ġwast ewater
Ġeven ly
ĠSupp ort
ĠSupp lies
Ġexpos es
Ġexpos itions
Ġ110 1
Ġ110 2
Ġ110 3
Ġ110 4
Ġ110 5
Ġ110 6
Ġ110 9
Ġuns pecified
Ġuns ubdivided
Ġuns creened
Ġincompatib ilities
Ġhear se
Ġmode ling
Ġpurch aser
Ġdecl ining
Ġrati os
Ġeconom ically
70 6
70 8
Dis tillery
Dis cus
Dis allow
Ground cover
Use able
ĠÂ ¢
ĠÂ °
ĠÂ ¶
Ġsel ection
Ġsel ect
Ġbul b
Ġbul bs
Ġbul bouts
Ġca pped
Ġca ution
leph one
Ġprogram ming
ĠSur faced
Ġdead ly
Ġgo al
Ġgo ats
ĠRES IDEN
ĠTen nis
ĠVari ation
ĠVari ations
ĠVari ous
Ġenlar ging
Ġexpansion s
Ġsuppl iers
Ġdocument ing
ĠQu antity
Ġquestion able
Not es
rup ted
Ġwind proof
log ical
Ġharm less
Ġharm ful
Ġhyd rolog
ĠDo ctor
ĠOwn ed
ĠOwn ers
Ġadv ances
Ġadv ice
Ġadv ising
Ġeng ines
Ġ80 8
Ġ80 9
Ġneighbor s
Ġpolic e
Ġpolic es
Ġobsc ures
Ġobsc enity
Ġreferen dum
phas ize
Ġclean ers
Ġsheet ing
Ġteleph ones
Ġconvenient ly
Ġattrac tion
Ġattrac tiveness
ĠIllumin ance
Pre liminary
au tions
ov ative
ov ating
ĠK O
ĠK itchen
ĠK ennel
ĠK tay
ĠK elvins
Ġ[ (
Ġod d
Ġshed s
Ġpass ing
Ġpass ed
Ġpass able
Ġpass ability
Ġbreak fasts
Ġcamp ground
Ġcamp aign
Ġinj unction
Ġinj ustice
Ġmitig ation
Ġmitig ated
ĠAL DOT
ĠPER MANENT
abric ated
ĠRef ers
ĠRef und
Ġacce pts
Ġacce pting
Ġdeterior ation
Ġgrass crete
Ġgrass pave
Ġemphas ize
Ġemphas ized
Ġexcav ations
Ġexcav ating
ĠRecord ed
Ġcontract ual
Ġsteep er
App endix
App earance
Ma usoleum
par cel
Ġsl ide
Ġsens or
Ġsens ory
Ġsens ors
Ġbott le
Ġbott led
Ġbott ling
orient ation
Ġcab inets
Ġconver sions
Ġdel eted
Ġdeline ates
ĠRepair ing
Ġplay ing
Ġassign s
Ġassign ing
Ġphot os
Ġphot ography
Ġphot omet
Ġavoid s
Ġavoid ing
Ġcorresponding ly
Ġbulk heads
Sub mit
Sub ject
Sub divisions
olog y
Ġpay ing
Ġpay ments
Ġbl ight
Ġbl end
Ġbl ade
Ġbl inking
Ġbl ends
Ġbur dens
Ġche cks
Ġche cking
Ġnurs eries
Ġstudi os
Ġlater al
ĠComp act
ĠComp letion
ĠComp uter
ĠComp romises
ĠAss istance
ĠAss istant
ĠDet ention
ĠDet rimental
ĠBU NG
ĠBU REA
Ġdisp ute
Ġdisp ersed
Ġdisp atch
Ġdisp ersal
Ġdisp ensations
Ġuniform ly
Ġcommunic ative
Ġrelative ly
Ġclub house
Ġclub houses
ĠUnder ground
Ġmodify ing
insul a
Ġindependent ly
Ġmarket ed
bre viations
building s
day light
odi um
Ġil leg
Ġtur f
Ġtur ned
Ġfre eways
ete enth
Ġeas y
Ġeas tern
Ġproxim ate
ĠRun off
ĠROW s
typ es
typ ically
ĠMark ers
ĠMark ets
ĠTe levision
ĠTe lephone
ĠLoc ate
Ġchain ed
Ġ36 1
Ġprec ision
Ġprec luding
Ġprec ipitation
Ġprec autions
Inc idental
Inc entive
Inc omplete
Ġinterrup tions
................................................................ ................................
................................................................ ........................................
................................................................ ..................
................................................................ ...........................
Ġcorrec ting
Ġcorrec tive
Ġcorrec tions
Ġoutl et
Ġpeninsul a
Ġcontrib utive
ĠCompl ies
Cons umer
Cons istency
Cons olid
Cons ideration
Day care
Main tained
NG VD
Ne ither
Wh ite
ount ants
Ġx ii
Ġx iii
Ġap iaries
Ġbond ed
Ġcur ved
Ġcur tail
Ġcur vature
Ġdown s
Ġdown grading
Ġdown spouts
Ġmar ks
Ġmar ble
Ġmar quees
Ġmar riage
Ġnam epl
Ġeval uations
Ġprohibit ing
Ġlod ge
Ġlod ges
Ġparagraph s
ĠRel igious
Ġath lete
Ġresour ce
ression al
ĠDisplay s
ĠHe ard
ĠHe adquarters
ĠHe avily
Ġexper ts
Ġexper ience
Ġexper tise
Ġjud icial
Ġafford s
Ġrenov ated
Ġrail ings
Show ing
Ġbackground s
ĠRoof line
ADE M
ĠElectronic ally
Ġbottom s
Ġelimin ated
Comm unication
Design ation
Drainage way
FR ONTLO
Mass age
New ly
Pen alties
Pen nant
Rep aired
Set back
night cl
Ġher bic
Ġher itage
Ġol d
ret ort
Ġsmo kel
Ġdorm er
Ġwee ks
Ġnorth west
Ġstag nation
ĠSmall er
Ġlap se
ĠCal ming
ĠCle aring
ĠCle aning
ĠCle yer
ĠCON DITIONS
ĠCON VEN
ĠCON TINU
ĠAb uts
ĠAb atement
ĠAm ending
Ġconce aled
ĠPres erve
ĠPres ident
ĠBreak fasts
Ġaccount ant
Ġaccount ability
Ġcompact ors
ĠStation ery
ĠGround s
ĠView point
Ġimit ates
Ġarchit ects
Ġtrade marks
Ġexpire s
ĠOpen ing
Ġinstr umental
ĠConf iguration
ĠConf erences
ĠConf irm
ĠConf licting
ĠProf essions
ellish ment
Ġqual ities
ĠRoad ways
Ġinfr inge
99 9
CE LLAN
Form al
Nurs eries
Par ties
Par allel
Par tially
QU ANTITA
man ual
Ġir oning
Ġir respective
Ġtechn ician
Ġtechn ology
Ġpati ents
Ġcut off
Ġdur ability
Ġwe ir
Ġwe ighed
Ġwar ranting
Ġmis constr
Ġmis lead
Ġmicro organ
Ġmicro clim
Ġrect angular
Ġpros pective
Ġpros ecution
Ġpros perity
ĠStrip s
ĠAD EM
ĠPo ol
ĠPo lice
ĠOb tain
ĠOb jectives
Ġspir its
Ġspeed s
Ġadap tive
Ġadap table
Ġdiscour age
Ġdiscour ages
Ġaltern ate
Ġaltern ating
Ġaltern ates
Ġaltern ately
Ġresol ve
ĠFu el
Ġcompens ate
ĠLe ly
Ġcoun ter
oper able
oper ating
Ġsimul ate
Ġsimul ates
Ġrecyc led
Ġindirect ly
Ġencro ached
Ġencro aches
Ġcontinu um
Ġ........................................ .......
Ġbuild ers
Ġbuild out
Ġtax es
Ġbring ing
Ġpick et
ĠDeterm ining
Ġweek ly
Ġweek day
Ġweek ends
Ġumbre llas
Be auty
Bed room
Ban k
Ban ks
Ban ner
Duplex es
TA BLE
TA INMENT
VI OLATIONS
be ing
be yond
cons umption
cons ume
occup ancy
Ġsle eve
Ġball ot
Ġcall out
Ġcall eryana
Ġder ive
Ġder ives
Ġder ivative
Ġdry er
Ġdry ing
Ġnin eteenth
Ġear ly
ĠSE PTE
ĠShe lter
ĠAs h
ĠAs phalt
ĠAs sembly
ĠAs sembling
ĠPh asing
ĠPh armacies
ĠDec iduous
ĠDec orations
ĠDec lared
Ġgall ery
Ġgall eries
ĠBan quet
Ġdisag ree
Ġvol unte
Ġvol atile
Ġvibr ant
Ġincons istency
Ġhead lights
Ġhead walls
Ġhead quarters
Ġcompet ing
ĠLOT LINE
Ġchan nels
ĠEX TEN
Ġnotify ing
ĠVeget ation
Ġartic ulations
Ġartic ulate
ĠColl ect
ĠColl ects
ĠColl ateral
ultane ous
Ġoverhang ing
ĠConven tion
ĠConven ient
ĠExp anded
Ġcla iming
Ġdiver ts
Permit s
Permit ting
Ġdistinct ly
Ġtransmission s
Ġjus tified
Ġenclo ses
Ġencompass ed
Ġcollect ors
Ref erence
Ref erences
Ġmeaning ful
âĢ¦âĢ¦âĢ¦âĢ¦âĢ¦âĢ¦âĢ¦âĢ¦âĢ¦âĢ¦âĢ¦âĢ¦ âĢ¦âĢ¦âĢ¦..
âĢ¦âĢ¦âĢ¦âĢ¦âĢ¦âĢ¦âĢ¦âĢ¦âĢ¦âĢ¦âĢ¦âĢ¦ âĢ¦âĢ¦...
Ġserious ly
Ġ........................................................................................ .
Ġ........................................................................................ ....
Ġ........................................................................................ ...
Ġ........................................................................................ ......
Ġ........................................................................................ .......
Ġattach ment
ĠPROC ESS
ĠRestric tion
Private ly
Ġturnaround s
Ġdeliver ies
Trans it
Ġrespective ly
Ġexperi enced
Ġreceptac le
Ġpartnership s
Bo arding
Red evelopment
Red uced
Rel ated
Rel igious
Sc hools
Sc arlet
dra wal
dra ke
pare nts
six ty
Ġ$ =
Ġaer obic
Ġauditorium s
Ġtex ture
Ġtex tiles
Ġoil s
Ġsal vaging
Ġbicyc list
Ġdr ug
Ġdr ink
Ġdr inks
Ġdr illings
Ġdim s
Ġdim ing
Ġdim inishes
Ġweather proof
Ġmort uary
Ġmort uaries
Ġbel t
Ġbel vederes
Ġnecess ity
Ġnecess arily
Ġnecess itating
Ġnecess itated
Ġstay ed
ĠSH ALL
ĠSup ermark
ĠSpecific ally
imp act
ĠCre ating
ĠCross walk
ĠAT HEN
tract ors
Ġdevi ate
Ġdevi ates
Ġven ue
Ġalloc ating
ĠMon o
ĠLo unge
Ġcho ose
Ġcho osing
Ġcho oses
Ġwheel chair
ĠStock pile
ĠGe otechnical
ĠGu ard
Ġimpos t
Ġimpos ing
Ġimpos sible
Ġrot ating
Ġrot ates
ĠInc ome
ĠInc idental
ĠInc ompatibility
ĠHospit al
ĠHospit als
Inter state
Inter pretations
Ġoccasion al
Ġyiel d
Ġyiel ding
Ġtransmit tal
Ġrenew ing
Ġrenew ed
Ġrenew able
______ _
Ġobstruc ting
Allow ances
ĠReduc tion
Ġ................................................................................................ ...
Ġ................................................................................................ .....................
Ġ................................................................................................ ............
Ġdiscus sing
ĠSurvey ed
ĠQuad raplex
Ġstip ulation
Ġtechniqu e
Ġencroach ing
Ġencroach ments
ĠLANDSC APRE
Viol ation
-- --
Buff ering
Cl ubs
Cal iper
Cor ridor
Cor rals
Cont act
Cont ents
Cont rol
Contin uation
Contin uance
Dec ks
Over all
Over cup
River ine
Sk ating
Sk etch
Sep tic
Sep arability
Sep arate
Tra ffic
Vari ance
Veget ated
Veget ative
ban k
cr iminatory
car ts
car ports
car bon
dis till
dis charge
dis criminatory
gr asscrete
gar bage
ld n
pons ibility
Ġ' )
Ġ{ |
Ġ{ ----
Ġ........................ .
Ġ........................ ....
Ġ........................ ...
Ġ........................ .....
Ġ........................ .......
Ġpred eterm
Ġbi king
Ġbi osolids
Ġbi loba
Ġbat ch
Ġbat hing
Ġblu eline
Ġcr acks
Ġcr acked
Ġcyc le
rop he
Ġda iries
Ġdest inations
Ġdies el
Ġmarking s
Ġshap ing
Ġshap es
Ġshort est
Ġthre ats
Ġnull ify
Ġprol ong
ĠSaf egu
ĠSUB JECT
Ġli able
Ġli ability
Ġli abilities
Ġlack ed
ĠCond y
ĠCond uct
ĠAc tivities
ĠPages VII
ĠDra wing
ĠDra pery
ĠDem olition
ĠDiv iding
ĠDetail ed
Ġperpet ually
Ġsignal ization
Ġgain s
Ġgather s
Ġgather ing
raulic s
ĠBl end
ĠBl vd
Ġdise ases
Ġdisch arges
Ġdismant lement
Ġdismant ling
Ġunus able
Ġsubs titution
Ġsubs urface
Ġsubs idence
Ġsubs ervient
Ġsubs tituted
Ġresub mit
Ġresub mitted
Ġresub division
ĠModi fication
ĠEN TER
ĠEN VIR
ĠUN LAWFUL
Ġrub rum
Ġrub bish
Ġroot s
ĠHE ALTH
Ġartific ially
âĢ¦âĢ¦âĢ¦ .âĢ¦âĢ¦âĢ¦âĢ¦âĢ¦âĢ¦âĢ¦âĢ¦..
Ġsche matic
Ġsche mes
Ġseed ing
Ġseed ed
Ġoblig ation
Ġoblig ated
Ġoblig ations
ĠArterial s
Ġassess ing
Ġassess ment
Ġgraphic s
Ġillustr ations
Ġpharm aceutical
Ġtranspor ting
ĠOFF ICE
Ġ........................................................................ ....
ĠContin uance
Autom atic
ĠĠĠĠĠĠĠĠĠĠĠĠĠĠĠĠĠĠĠĠĠĠĠĠĠĠĠĠĠĠĠĠĠĠĠĠĠĠĠĠĠĠĠĠĠĠĠĠĠĠĠĠĠĠĠĠĠĠĠĠĠĠĠĠĠĠĠĠĠĠĠĠĠĠĠĠĠĠĠĠ ĠĠĠĠĠĠĠĠĠ
ĠĠĠĠĠĠĠĠĠĠĠĠĠĠĠĠĠĠĠĠĠĠĠĠĠĠĠĠĠĠĠĠĠĠĠĠĠĠĠĠĠĠĠĠĠĠĠĠĠĠĠĠĠĠĠĠĠĠĠĠĠĠĠĠĠĠĠĠĠĠĠĠĠĠĠĠĠĠĠĠ ĠĠĠĠĠĠĠĠĠĠĠĠ
ĠĠĠĠĠĠĠĠĠĠĠĠĠĠĠĠĠĠĠĠĠĠĠĠĠĠĠĠĠĠĠĠĠĠĠĠĠĠĠĠĠĠĠĠĠĠĠĠĠĠĠĠĠĠĠĠĠĠĠĠĠĠĠĠĠĠĠĠĠĠĠĠĠĠĠĠĠĠĠĠĠĠĠĠĠĠĠĠĠĠĠĠĠĠĠĠĠĠĠĠĠĠĠĠĠĠĠĠĠĠĠĠĠĠĠĠĠĠĠĠĠĠĠĠĠĠĠĠ ĠĠĠĠĠĠĠ
Ġfunctional ity
ĠPLANN ING
Ġcheck list
ĠAssoci ated
ĠAssoci ations
Ġsusp ension
Ġhabit at
Ġhabit ually
Ġhabit ats
Ġtestim onies
Ġstreng th
ĠCOMM ISSI
ĠADJUST ED
Car port
Car pet
Car issa
Columb arium
Fl ags
HI STORY
Mini ature
Own ership
Pr inting
Res idences
Res ponsibility
US ACE
USE S
Water shed
brew eries
drive way
drive ways
design ation
fort une
gra ded
gra des
ierc ed
let ters
my rtle
now ledgments
rig id
sh aped
set backs
vic us
Ġ00 3
Ġ00 5
Ġamb iguities
ink ler
Ġter race
Ġter ritory
Ġtent ative
Ġtail or
Ġsure ty
Ġsure ties
Ġpent houses
Ġpec uniary
Ġpare nt
Ġpop ulation
Ġbal ance
Ġbir d
Ġfa ureii
Ġfund amental
Ġfeed lot
Ġcree ks
Ġwrec king
Ġwash rooms
Ġmod ern
Ġmod erate
Ġordin ary
Ġrever sion
Ġrecent ly
Ġbeau tician
Ġemit ting
ĠSe vere
ĠSe mitrans
Ġlabor atory
Ġlabor atories
ĠCar issa
ĠCol or
ĠCol ors
ĠCurb s
ĠCurb ing
ĠAcc ent
ĠAcc ordance
ĠAcc ommodations
ĠAcc ountants
ĠAmo unt
Ġwithdra wn
Ġwithdra ws
ĠPen etrations
ĠPen insula
ĠProm ptly
ĠProm otional
ĠPawn shop
Ġhang s
Ġpermis sive
ĠORD INACE
Ġexact ly
Ġdepos it
Ġdepos ited
Ġdepos ition
Ġdepos iting
Ġge ographic
Ġge ographical
ĠRet ain
ĠRet urn
ĠRet aining
ĠRet roactive
dep ending
dep icting
ĠBro ker
ĠBro adcast
Ġadhere nce
Ġunp redict
Ġunp ierced
Ġstrateg ically
Ġrestr ain
Ġrestr aining
ĠMo tion
ĠMo vie
ĠMar quee
ĠMar vyn
ĠMeet ing
ĠMini ature
ĠIm mediate
ĠIm portant
ĠTN D
establis hment
Ġaccent ed
Ġaccent uate
ĠFif ty
ĠFarm s
ĠFarm ers
ĠLess en
ĠLength y
ĠUp land
Ġcoordin ates
Ġplaz a
Ġpreced ent
Ġpreced ents
Ġprevail s
ĠHo ek
ĠParcel s
supp ly
supp lies
Ġsuit ability
Ġsuff er
Ġsuff ix
Ġsuff ered
Ġsuff ering
Ġexplan ation
Ġexplos ives
Ġoverc oming
Ġoverc rowding
Ġwaters heds
Ġgrand child
Ġgrand iora
Ġgrand parents
Stand s
Ġfootpr ints
Ġjunk ed
Ġjunk yards
Ġaffix ing
Ġentit led
Ġinvest ment
Ġinvest ments
Ġ........................................................ ....
Ġ........................................................ ...
Ġ........................................................ .....
Ġ........................................................ .......
box es
Ġpenetr ates
Nonconform ity
ĠClass ification
ĠClass ifications
Ġorigin ating
Ġbroad band
Ġbroad cast
Ġbroad casting
Ġattor neys
Ġswing ing
ĠRespons ibility
Ġsuperv ise
Ġsuperv isory
ĠFlagp ole
Ġadvant ages
Ġslip s
Ġsustain ability
Ġirre levant
Ġweigh ing
Ġfasten ing
Ġimpris oned
Ġguarantee ing
Ġthreat ened
Ġthreat ening
Ġdilig ence
)" ]
Ag ent
Ce mentous
Comp act
Comp utation
Comp arability
Camp ing
Camp grounds
Camp aign
Det ermination
Gr and
Identi fied
Mar vyn
NON CONFORMING
Pl acement
Sac s
Small er
With out
With drawal
circ uit
fron ting
mon ies
mus ic
pa ved
vil le
Ġ_ \
Ġtub e
Ġtub ing
Ġtub es
Ġtasting s
Ġsun set
Ġbath room
Ġfenestr ations
Ġfesti val
Ġanno uncement
Ġcance l
Ġcance led
Ġcance ls
Ġdom iciliary
Ġdram a
Ġdram atically
Ġdram atic
Ġinvent ory
Ġinves ting
Ġinoper ative
Ġmedic ines
Ġred wood
Ġrehab ilitate
Ġey e
Ġproff ering
ĠSit es
ĠSER VIC
Ġlat ter
Ġlik ened
Ġlumber yards
Ġlumin aries
Ġlav atories
Ġlawn s
ĠCR ITERIA
ĠCur vilinear
ĠCustom er
ĠCustom ers
ĠCustom arily
ĠPond s
Ġappare nt
ĠDi fferent
ĠOut patient
Ġextr usion
Ġdelic a
Ġgam es
ĠRest oration
ĠRest oring
ĠRest ored
Ġspr inkler
Ġspons or
Ġspons oring
Ġspons ored
ĠBy laws
ĠBene fit
Ġadhe red
stream s
Ġuncon ditionally
Ġundes ireable
Ġvir tue
Ġvoc al
Ġconsult ants
ĠMeasure ments
ĠTri angle
ĠFlow ering
ĠLet ters
ĠLeg end
Ġris ers
Ġrig s
Ġrain fall
ĠGra de
ĠGra duate
ĠGra veyard
ĠVal et
ĠVal ue
ĠVal ues
ĠVolum es
Ġenerg ized
Ġroutine ly
Ġ74 60
Ġfoun tain
Ġpref abricated
ĠInf irmed
ĠIntegr ally
Ġimped es
Ġartis an
Ġdoll ars
ĠâĢĺ [,
Ġsett les
Ġsett lement
Ġsett led
Ġupward ly
Ġtran quility
........................................ ...
........................................ .......
........................................................ .....
Ġpoly carbon
Ġexpend itures
ĠAdv ise
Ġscul ptors
ĠAlter ations
prec ision
Ġclar ifying
Ġsafegu ards
Ġextreme ly
ĠAttor neys
Stream s
Stream side
Studi es
Ġoutwe ighed
Ġpositive ly
ĠUnd ue
Ġdistinctive ly
Ġtransform er
Ġflor ist
Ġflutter ing
Ġjo ints
Ġkindergarten s
Ġmonot ony
Prof essional
Proper ties
ĠCorn ices
Ġpawn ed
avail able
ĠComb inations
âĢ¦âĢ¦âĢ¦âĢ¦âĢ¦âĢ¦âĢ¦âĢ¦âĢ¦âĢ¦âĢ¦âĢ¦âĢ¦âĢ¦âĢ¦âĢ¦ âĢ¦
âĢ¦âĢ¦âĢ¦âĢ¦âĢ¦âĢ¦âĢ¦âĢ¦âĢ¦âĢ¦âĢ¦âĢ¦âĢ¦âĢ¦âĢ¦âĢ¦ âĢ¦âĢ¦âĢ¦..
âĢ¦âĢ¦âĢ¦âĢ¦âĢ¦âĢ¦âĢ¦âĢ¦âĢ¦âĢ¦âĢ¦âĢ¦âĢ¦âĢ¦âĢ¦âĢ¦ âĢ¦...
âĢ¦âĢ¦âĢ¦âĢ¦âĢ¦âĢ¦âĢ¦âĢ¦âĢ¦âĢ¦âĢ¦âĢ¦âĢ¦âĢ¦âĢ¦âĢ¦âĢ¦âĢ¦âĢ¦âĢ¦ ...
Ġrib bed
Ġrevol ve
ĠPrevent s
Ġswitch ing
ĠIntersection s
Under ground
ĠSurf aces
Ġslab s
ĠAssess or
ĠIssu es
Ġmarin a
Ġnarrow ly
ĠPresent ing
ĠPhot o
ĠPhot ographic
ĠPhot ography
ĠExpansion s
Ġdiverg ent
Ġaerial s
ĠSuperv ise
ĠMonitor ing
Ġmulch ing
Flag pole
HIB ITI
Ġfaith ful
ĠORDINANC E
Ġadvantage ous
Ġdiplo mas
Ġdiscern ible
## /
)- (
AC HED
Ac ts
Ac ceptable
Am usement
Am usements
ACCESS ORY
Billbo ard
Billbo ards
Cer tificate
Cer tified
Com er
Com prehensive
Doc uments
Doc umentation
Dedic ation
Dedic ated
Elev ated
Elev ations
Elec tric
Elec tronic
FH BM
Farm ing
He avy
HED UKE
Lo unge
Lo unges
Lim ited
Lim itations
Loc ated
Loc ations
MU TCD
Modi fication
Modi fications
NL R
Ob scenity
Ob scene
Pet roleum
Sp ace
Sp aces
Sw amps
Sw eetbay
She ets
Sim ple
Sim ultaneous
Supp ort
Supp lemental
Up land
Us able
Us ers
bra ic
buff er
buff ering
cle aning
comp acted
comp rised
park ed
tw enty
tw elve
Âł Ġ
Ġ................ .
Ġ** âĢĿ
Ġ________ __
Ġ________ _______
ref lective
Ġsm ell
Ġsm elting
Ġpal m
Ġpal ette
Ġple asing
Ġple asant
Ġbon a
Ġbon us
organ ic
Ġcro ps
Ġcro sses
Ġcas hed
Ġcas hers
Ġcher t
Ġcher ishes
Ġcott on
Ġcott ages
rolog ic
Ġdict ate
Ġdict ates
Ġdomin ate
Ġdomin ant
Ġwid ows
Ġwid ening
Ġinn ovative
Ġintr usion
Ġintr usive
Ġinfer ior
Ġmag netic
Ġmag azines
Ġmuseum s
Ġbearing s
Ġshot s
Ġshot gun
Ġshore line
Ġshore lines
Ġstair ways
Ġstair wells
Ġstret ches
Ġstret ched
Ġprob able
Ġprob ability
Ġproc uring
Ġproc ured
ĠSC OPE
ĠSC HEDUKE
ĠSk ating
ĠSk ateboard
ĠSix ty
ĠSix teen
ĠScreen ed
ĠSpec ies
ĠSpec ify
ĠAp uil
ĠAp artments
Ġcongreg ation
Ġcongreg ating
Ġcondominium s
ĠPV C
ĠPV T
ĠNOT ES
Ġhos es
Ġhos ted
ĠDrain fiel
ĠDirec tion
ĠDirec tional
Ġlou vers
Ġlou vres
Ġloud speak
Ġexplain ing
Theater s
Ġgun s
ĠRen dered
ĠRen ovating
ĠRemo ving
ĠRemo ves
Ġspect ator
Ġspect ators
Ġspeak er
Ġspeak ers
ĠBack fill
ĠBond s
ĠBarri er
ĠBarri ers
Ġdisrup t
Ġdisrup ting
Ġunat tended
Ġunat tractive
Ġunavail able
Ġunavail ability
Ġvend or
Ġvend ors
Ġinciner ating
Ġinciner ator
Ġattem pt
Ġattem pts
Ġresem ble
Ġresem bles
Ġhedger ow
Ġhedger ows
restric tions
ĠMS A
ĠMS L
ĠMy lar
ĠMy rica
ĠMus ic
ĠMus kog
ĠMail boxes
ĠMotor cyc
ĠIdenti fied
ĠIdenti fy
ĠTurn over
ĠTax odium
Ġaccum ulation
Ġaccum ulations
ĠFr actions
ĠFr aternal
ĠFiel d
ĠFiel ds
Ġdeser t
Ġdeser ts
Ġcompound s
ĠLod ge
ĠLod ges
ĠZel dova
ĠZel kova
ĠEl m
ĠEl ection
ĠEduc ation
ĠEduc ational
ĠEuony mus
ĠEuony mous
ĠUl mus
ĠUl timate
ĠReg istration
ĠReg ional
ĠRequ est
ĠRequ iring
epl ates
ĠStabil ization
ĠStabil izing
ĠGener ation
ĠGener ate
Ġengine ered
Ġacup ressure
Ġacup uncture
Ġpreval ent
Ġpreval ence
ĠHyd raulics
ĠHyd rologic
ĠWh ite
ĠWh olesale
ĠWaiver s
Ġinterchange able
ĠCoordin ation
ĠCoordin ates
Ġtrain ers
ĠBook keep
ĠEnh ance
ĠEnh ancing
Ġinsec ure
Ġinsec ticides
ĠConform ity
ĠConform ities
ĠContrib ute
ĠContrib uting
ĠPeriod ically
Ġindec ent
Ġindec ency
Ġ198 8
SER VICE
Ġperme able
Ġperme ability
ĠAnim ated
ĠAnim als
Storm water
Step s
Ġremode led
Ġremode ling
ĠUnion s
Contract or
Contract ors
Ġtrell is
Ġtrell ises
Shrub bery
Adj acent
Adj acency
Ġamate ur
Ġamate urish
Ġampl ified
Ġampl ification
Ġamphitheater s
Enlar ged
Enlar ging
Ġcelebr ate
Ġcelebr ations
Ġinflu ences
Ġinflu enced
Ġrevital ize
Ġrevital ization
Record ation
Road ways
Roads ide
ĠPrevious ly
ĠâĢĶ_ âĢĶ_
Ġsyn agog
Ġsyn onymous
ĠImprove ment
Ġmailbox es
Ġsuper imposed
Ġphoto cell
Ġfrequent ed
........................................................................ .....
........................................................................ .......
Department al
Ġnightcl ub
Ġnightcl ubs
Ġabsor b
Ġabsor ption
notify ing
ĠClean er
ĠAband oned
ĠAband onment
ĠAbove ground
ĠObs truction
ĠObs truct
Ġcitizen ry
ĠEncro aches
ĠEncro achment
Ġbelong ing
Ġimprac tical
Ġimprac ticable
Ġ........................................................................................................................ ..
Ġrubber ized
ĠHandic ap
ĠHandic apped
ĠĠĠĠĠĠĠĠĠĠĠĠĠĠĠĠĠĠĠĠĠĠĠĠĠĠĠĠĠĠĠĠĠĠĠĠĠĠĠĠĠĠĠĠĠĠĠĠĠĠĠĠĠĠĠĠĠĠĠĠĠĠĠĠĠĠĠĠĠĠĠĠĠĠĠĠĠĠĠĠĠĠĠĠĠĠĠĠĠĠĠĠĠĠĠĠĠĠĠĠĠĠĠĠĠĠĠĠĠĠĠĠĠĠĠĠĠĠĠĠĠĠĠĠĠĠĠĠĠĠĠĠĠĠĠĠĠĠĠĠĠĠĠĠĠĠĠĠĠĠĠĠĠĠĠĠĠĠĠĠĠĠĠĠĠĠĠĠĠĠĠĠĠĠĠĠĠĠĠĠĠĠĠĠĠĠĠĠĠĠĠĠĠĠĠĠĠĠĠĠĠĠĠĠĠĠĠĠĠĠĠĠĠĠĠĠĠĠĠĠĠĠĠĠĠĠĠĠĠĠĠĠĠĠĠĠĠĠĠĠĠĠĠĠĠĠĠĠĠĠĠĠĠĠĠĠ ĠĠĠĠĠĠĠĠĠĠĠĠĠĠĠĠĠĠĠĠĠĠĠĠĠĠĠĠĠĠĠĠĠĠĠĠĠĠĠĠĠĠĠĠĠĠĠĠĠĠĠĠĠĠĠĠĠĠĠĠĠĠĠĠĠĠĠĠĠĠĠĠĠĠĠĠĠĠĠĠĠĠĠĠĠĠĠĠĠĠĠĠĠĠĠĠĠĠĠĠĠĠĠĠĠĠĠĠĠĠĠĠĠĠĠĠĠĠĠĠĠĠĠĠĠĠĠĠĠĠĠĠĠĠĠ
ĠAPPROVED Ahis
Ġannounc ing
Ġannounc ed
Ġrehabilit ation
Ġrehabilit ated
Ġdelicatess en
Ġdelicatess ens
Ġrigid ly
Ġrigid ities
Ġtranscri pt
Ġtranscri bed
Ġsculpture s
Ġsoften ing
Ġsugges ted
Ġsugges tions
Ġcatast rophic
Ġcatast rophe
Ġcumulative ly
Ġcrafts men
Ġconstant ly
ĠDeliver y
ĠDeliver ies
Ġexpediti ous
Ġexpediti ously
Ġdiagnos is
Ġdiagnos tic
.âĢ¦âĢ¦âĢ¦âĢ¦âĢ¦âĢ¦âĢ¦âĢ¦âĢ¦âĢ¦âĢ¦âĢ¦âĢ¦âĢ¦âĢ¦âĢ¦âĢ¦âĢ¦âĢ¦âĢ¦ âĢ¦...
336 116
Ab breviations
Acc ordingly
Aff ordable
Air strip
Ath letic
ATI OS
Ack nowledgments
BU ILDING
Bi osolids
By laws
Bal dcypress
Bot anical
Bur fordi
Bul k
BRE WERY
Brew ery
BMP s
BUS INESS
Barri ers
Birming ham
Ca using
Cre matorium
Cent ral
Cle aning
Cur vilinear
Cand idates
Cond ominium
Chie f
Caf eterias
Crap e
Dor mitory
Dra wings
Dist inctions
Dair ying
Disting uish
Direc tional
Diver se
Detail ed
DIS TILL
Em phasize
Ele ven
Eas tern
Educ ational
Erec ting
Establis hing
EMP LOYMENT
Fo x
Fin ally
Fac ade
Flow ering
Fif ty
Fred rick
Finding s
Fores try
Found ations
Gra de
Gene va
Gink go
HO A
Hards hip
Hel p
Hous ing
Hyd raulic
Hortic ulture
Holid ay
Im plementation
Ir rigation
Iron wood
Jus tification
Janit orial
Law s
Leg ally
Libr ary
License e
Laundrom ats
Mc Coy
Mon ument
Mul ch
Mod ular
Move ment
MIS CELLAN
Mode l
Measure ments
Nam eplates
Norm al
Natc hez
Out patient
Orient ed
OFF ICE
Po ols
Pay ment
Pres ence
Perm ission
Prec ast
PER MANENT
PRO HIBITI
Polic e
Ret aining
Rest oration
Reg ardless
Sa ucer
Sam ford
Slu dge
Spor ting
Ste ep
Sour wood
SUB URBAN
SFH A
Symb ols
Ta verns
Tre asurer
Tul ip
Turb ine
Uph olstery
Vis ibility
Vol t
Veter ans
Wet land
_Â ¢
aut o
bak eries
can not
card board
cap acity
comm on
cross ing
communic ative
dr ugs
dri ven
drain ed
direc ted
detail ing
elev ated
fu ture
gues thouse
hal o
home owner
label ed
mat uring
mard ii
mir ror
multi ple
mars h
plan ning
sit ting
sim ple
serv ing
sho e
some times
special ty
stry a
voc ational
vari able
wrec king
watt age
ylan ic
yog a
Ġure thane
Ġut ensils
Ġip ica
Ġ@_ ]
Ġauc tions
Ġaud itory
Ġaward ed
Ġaware ness
Ġtit led
Ġtess en
Ġtight ly
Ġtut oring
Ġtem perature
Ġtel escop
Ġtong ue
Ġtren ds
Ġtrow eled
Ġtattoo ing
Ġouts tanding
Ġoutr ight
require ments
rest aurants
Ġsis ters
Ġsac charinum
Ġsem inars
Ġscon ces
Ġstit ched
Ġswal es
Ġsedi ment
Ġsanit arium
Ġslat s
Ġsearch lights
Ġsomet hing
altern ating
Ġtherap ist
Ġthermop lastic
enact ment
engine ered
Ġpes ticides
Ġpig s
Ġpra irie
Ġpap ers
Ġpist ols
Ġpian o
Ġpedi ments
annex ations
Ġbit uminous
Ġbab y
Ġbum per
Ġbord ers
Ġbric ks
Ġbrie f
Ġfur thest
Ġfenc erows
Ġfav oring
Ġfoli age
Ġfriend lier
Ġanest hetic
Ġanch ors
Ġcres ts
Ġcere monies
Ġculti vation
Ġcell ars
Ġcriter ion
Ġcru de
Ġcamps ites
arch y
Ġdus ters
Ġdot ted
Ġdir t
Ġdred ging
Ġdang ers
Ġdress making
Ġdump ing
Ġwom en
Ġwate red
Ġwra pping
Ġwides pread
Ġwitness es
Ġwrong ly
Ġwedding s
Ġinher itance
Ġinver t
Ġinund ated
Ġinhib itive
Ġinex pensive
Ġinscri be
Ġmim ic
Ġmut ual
Ġmater ially
Ġmill inery
Ġmone y
Ġmere ly
Ġmist ake
Ġmedi ans
Ġmech anism
Ġmalf unction
Ġmosa ic
Ġorna mentations
Ġrele ased
Ġreim burse
Ġrevi vals
Ġrevers ed
Ġredec orating
Ġreinv estment
Ġreinfor ced
Ġtouris m
Ġtoler ant
Ġtobac co
Ġbeac on
Ġshum mardii
Ġshut tle
vehic le
veget ation
Ġnur se
Ġnep hews
Ġnick el
Ġnutr ient
Ġniec es
Ġstain less
ĠSlop e
ĠSam ples
ĠSew age
ĠSund ay
ĠSoc ial
ĠSeg regation
ĠSaving s
ĠSatis factory
ĠSymb ol
Ġforfe ited
Ġlun ch
Ġlay outs
Ġlum ens
Ġlam inated
Ġlitig ation
Ġlaund ries
Ġlyr ata
ĠCance llation
ĠCab inet
ĠCap ability
ĠCerc is
ĠCong ressional
ĠClos er
ĠCash iers
ĠCamp grounds
ĠCott age
ĠCOU RT
ĠColumb arium
ĠAtr ract
ĠAmb ulance
ĠAmp eres
ĠAudi o
ĠAuditorium s
ĠAUTH ORITY
Ġwithhol ding
ĠPur suant
ĠPos itive
ĠPop lar
ĠPort land
ĠPAR ALLE
ĠPyr us
ĠNum bers
ĠNuis ance
Ġhortic ultural
Ġhamm erhead
Ġhier archy
Ġhatc heries
Ġhybrid s
Ġhomog eneous
ĠDup licative
ĠDorm ers
ĠDoc uments
ĠDirect ors
ĠDET ACHED
ĠDanger ous
ĠDIR ECTION
ĠDeline ation
ĠDANG EROUS
Ġperish able
Ġperipher y
ĠOcc urrence
ĠONL Y
ĠOxyd endrum
Ġdeform ations
Ġgir ders
Ġglu ed
Ġgang s
Ġgase ous
Ġglos s
Ġgram matical
Ġgaug e
Ġganan thera
Ġparvif olia
ĠRem ains
ĠRail road
ĠRecess ed
Ġspill way
Ġspear s
Ġsparing ly
depar ture
ĠBir ch
ĠBeat y
ĠBrid ges
ĠBright ness
ĠBench marks
Ġadhes ives
stamp ed
Ġdistic hum
Ġdismis s
Ġunsu itable
Ġunso und
Ġunbuil dable
Ġunimp roved
Ġuncle ar
Ġuninter rupted
Ġunrestric ted
Ġvap or
Ġvist as
Ġvomitor ia
ĠOrgan izing
Ġathen a
Ġalco ves
Ġalge braic
Ġalph abetic
Ġaltitu de
Ġsubjec ts
Ġsubmerg ed
Ġrestruct uring
Ġresched uling
Ġresurvey ed
Ġhelicop ter
ĠMem bership
ĠMad ison
ĠMond ay
ĠMak ers
ĠMortic ian
ĠMuseum s
ĠMyr tle
ĠMilit ary
ĠMIX ED
ĠMcFar land
ĠTail or
ĠTour ists
ĠTex tured
ĠTER MS
ĠTud or
ĠTues day
ĠTechn ological
ĠTupp erware
ĠTrespass ing
ĠTern stroemia
ĠTornad oes
ĠFore st
ĠFurn ishing
ĠFenestr ation
ĠFreew ay
Ġdescri ptions
Ġcompress or
Ġcompeti tion
ĠLEVE L
ĠLawn s
ĠLager stroemia
ĠLiri odendron
ĠEco logical
ĠEmb ellishment
ĠEmp loyment
ĠEvid ent
ĠEphe meral
ĠReloc ation
Ġintens ified
Ġcoop eration
Ġcohes ive
Ġcoccine a
Ġmaxim ize
ĠStudi os
Ġracquet ball
ĠGreens pace
ĠDiscour aged
ĠVAR IANCES
Ġoptim al
Ġenvir ons
Ġimmin ent
Ġacknow ledge
ONMENT AL
Ġprecon dition
Ġprefer able
Ġprejud ice
ĠInvent ory
ĠInves tigation
ĠIniti ation
ĠIndirect ly
ĠIndustr ies
ĠHear ings
ĠHob bs
ĠHunts ville
ĠHurric anes
Ġnoncon formance
Ġnondec iduous
Ġnoninter ference
Ġnonref undable
Ġwallpap ering
Invas ive
Integr ation
ĠWast e
ĠWashing ton
ĠWax myrtle
ĠWaver ly
Ġarbit rary
Ġcommodi ties
ĠâĢ¦âĢ¦âĢ¦âĢ¦âĢ¦âĢ¦âĢ¦âĢ¦âĢ¦âĢ¦âĢ¦âĢ¦âĢ¦âĢ¦âĢ¦âĢ¦âĢ¦âĢ¦âĢ¦âĢ¦âĢ¦ .
Ġnego tiated
Ġtravers ing
Ġuphol d
Ġabore um
Ġabrup t
Ġsaving s
Ġintercon nection
Ġinterfer ing
Ġinterming led
Annex ation
ECOLO GICAL
Ġdecomp osed
Ġsoulang iana
Ġflouris hed
Ġhomebuil der
convales cent
Ġpollut ants
Ġundergo es
Ġundertak en
Ġundergrow th
Ġsciss ors
ĠAltern atives
ĠAlloc ated
Ġreclass ified
Ġcantile ver
Ġoverpay ment
Ġoverbur den
Ġporcel ain
Ġrefresh ments
ĠConcer ning
ĠContract or
ĠProxim ity
ĠExper tise
ĠExcav ation
Ġindeterm inate
ĠArtis ts
ĠĉĠĉĠĉĠĉĠĉĠĉĠĉĠĉ ĠĉĠĉĠĠ
Ġ-âĢĶâĢĶ âĢĶ>
SEVER ABILITY
Ġdivers ified
Ġintoxic ating
Ġdefinit eness
Ġelastic ity
Ġembr acing
Perpet ual
ĠUniroy al
Ġphospho rescent
Ġtransfe ree
Ġfluct uations
utscho vicus
Ġjurisdic tional
Ġjewel ry
Ġworkman like
Ġkia utschovicus
Ġquoti ent
Ġcarbure tors
Ġcarniv als
ĠJunk yard
Ġcaretak er
Rehearing s
ĠNeutr ality
ĠReclam ation
Ġpenns ylanic
ĠSpeak er
Ġguardians hip
Ġfulfill ed
ĠSecret ary
Ġlongitudin ally
ĠChrist mas
ĠManhatt an
REMO VAL
Ġteleg raph
ĠYOLO ATIOS
ĠYaup on
Ġbasket ball
ĠRESER VED
Ġameric ana
Ġamelior ate
Ġ|\} <âĢĶ
ĠAppurten ances
Ġpractition er
Ġthemsel ves
ĠHOSP ITALITY
ĠâĢĶâĢĶ> ]
Ġhandcra fted
ĠPrivile ge
Uniform ity
Ġsupermark et
Ġcosme tics
ĠPrincip le
Discus sions
Disallow ed
ĠRESIDEN TAL
Ġhydrolog ically
ĠKtay br
Ġphotomet ric
ĠBUNG ALOW
ĠBUREA U
Ġilleg ally
........................................................................................................ ......
Consolid ation
Ġnamepl ate
FRONTLO TLINE
nightcl ub
Ġherbic ides
Ġsmokel ess
ĠCleyer a
ĠCONVEN TIONAL
ĠCONTINU ED
QUANTITA TIVE
Ġmisconstr ued
Ġmicroorgan isms
Ġmicroclim ate
ĠSEPTE MBER
Ġvolunte ers
ĠEXTEN DED
Ġdrink able
ĠSupermark ets
ĠATHEN S
distill eries
Ġpredeterm ined
ĠSafegu ard
ĠENTER TAINMENT
ĠENVIR ONMENTAL
Ġpharmaceutical s
ĠCOMMISSI ON
ĠSemitrans parent
Ġunpredict able
Ġgrandchild ren
ĠSERVIC ES
Ġpolycarbon ate
ĠDrainfiel ds
Ġloudspeak ers
ĠMuskog ee
ĠMotorcyc le
ĠBookkeep ers
Ġsynagog ue
Airstrip s
DISTILL ERY
MISCELLAN EOUS
PROHIBITI ED
Ġtelescop ing
ĠPARALLE L
