{"<s>":0,"</s>":1,"<pad>":2,"<unk>":3,"<mask>":4,"!":5,"\"":6,"#":7,"$":8,"%":9,"&":10,"'":11,"(":12,")":13,"*":14,"+":15,",":16,"-":17,".":18,"/":19,"0":20,"1":21,"2":22,"3":23,"4":24,"5":25,"6":26,"7":27,"8":28,"9":29,":":30,";":31,"<":32,"=":33,">":34,"?":35,"@":36,"A":37,"B":38,"C":39,"D":40,"E":41,"F":42,"G":43,"H":44,"I":45,"J":46,"K":47,"L":48,"M":49,"N":50,"O":51,"P":52,"Q":53,"R":54,"S":55,"T":56,"U":57,"V":58,"W":59,"X":60,"Y":61,"Z":62,"[":63,"\\":64,"]":65,"^":66,"_":67,"`":68,"a":69,"b":70,"c":71,"d":72,"e":73,"f":74,"g":75,"h":76,"i":77,"j":78,"k":79,"l":80,"m":81,"n":82,"o":83,"p":84,"q":85,"r":86,"s":87,"t":88,"u":89,"v":90,"w":91,"x":92,"y":93,"z":94,"{":95,"|":96,"}":97,"~":98,"¡":99,"¢":100,"£":101,"¤":102,"¥":103,"¦":104,"§":105,"¨":106,"©":107,"ª":108,"«":109,"¬":110,"®":111,"¯":112,"°":113,"±":114,"²":115,"³":116,"´":117,"µ":118,"¶":119,"·":120,"¸":121,"¹":122,"º":123,"»":124,"¼":125,"½":126,"¾":127,"¿":128,"À":129,"Á":130,"Â":131,"Ã":132,"Ä":133,"Å":134,"Æ":135,"Ç":136,"È":137,"É":138,"Ê":139,"Ë":140,"Ì":141,"Í":142,"Î":143,"Ï":144,"Ð":145,"Ñ":146,"Ò":147,"Ó":148,"Ô":149,"Õ":150,"Ö":151,"×":152,"Ø":153,"Ù":154,"Ú":155,"Û":156,"Ü":157,"Ý":158,"Þ":159,"ß":160,"à":161,"á":162,"â":163,"ã":164,"ä":165,"å":166,"æ":167,"ç":168,"è":169,"é":170,"ê":171,"ë":172,"ì":173,"í":174,"î":175,"ï":176,"ð":177,"ñ":178,"ò":179,"ó":180,"ô":181,"õ":182,"ö":183,"÷":184,"ø":185,"ù":186,"ú":187,"û":188,"ü":189,"ý":190,"þ":191,"ÿ":192,"Ā":193,"ā":194,"Ă":195,"ă":196,"Ą":197,"ą":198,"Ć":199,"ć":200,"Ĉ":201,"ĉ":202,"Ċ":203,"ċ":204,"Č":205,"č":206,"Ď":207,"ď":208,"Đ":209,"đ":210,"Ē":211,"ē":212,"Ĕ":213,"ĕ":214,"Ė":215,"ė":216,"Ę":217,"ę":218,"Ě":219,"ě":220,"Ĝ":221,"ĝ":222,"Ğ":223,"ğ":224,"Ġ":225,"ġ":226,"Ģ":227,"ģ":228,"Ĥ":229,"ĥ":230,"Ħ":231,"ħ":232,"Ĩ":233,"ĩ":234,"Ī":235,"ī":236,"Ĭ":237,"ĭ":238,"Į":239,"į":240,"İ":241,"ı":242,"Ĳ":243,"ĳ":244,"Ĵ":245,"ĵ":246,"Ķ":247,"ķ":248,"ĸ":249,"Ĺ":250,"ĺ":251,"Ļ":252,"ļ":253,"Ľ":254,"ľ":255,"Ŀ":256,"ŀ":257,"Ł":258,"ł":259,"Ń":260,"Ġa":261,"in":262,"Ġt":263,"Ġo":264,"re":265,"Ġs":266,"he":267,"on":268,"ĠĠ":269,"al":270,"er":271,"Ġthe":272,"en":273,"ti":274,"Ġp":275,"ing":276,"ed":277,"an":278,"es":279,"Ġb":280,"Ġf":281,"Ġof":282,"or":283,"Ġan":284,"it":285,"is":286,"tion":287,"Ġc":288,"ro":289,"ar":290,"ic":291,"Ġand":292,"ent":293,"at":294,"Ġd":295,"..":296,"Ġw":297,"Ġin":298,"Ġm":299,"Ġor":300,"all":301,"Ġre":302,"lo":303,"Ġto":304,"Ġbe":305,"Ġsh":306,"ce":307,"il":308,"ig":309,"et":310,"Ġshall":311,"ve":312,"us":313,"ec":314,"ment":315,"ation":316,"Ġth":317,"Ġn":318,"id":319,"Ġst":320,"le":321,"Ġe":322,"ĠĠĠĠ":323,"ac":324,"Ġpro":325,"ĠS":326,"....":327,"Ġ(":328,"im":329,"Ġfor":330,"Ġl":331,"ĠC":332,"as":333,"pp":334,"ding":335,"om":336,"ĠA":337,"ign":338,"uc":339,"Ġcon":340,"ith":341,"un":342,"Ġwith":343,"ot":344,"qu":345,"ay":346,"ĠP":347,"tr":348,"ur":349,"Ġon":350,"Ġare":351,"ance":352,"Ġus":353,"Ġapp":354,"ĠN":355,"ul":356,"lan":357,"Ġh":358,"ub":359,"ure":360,"ire":361,"ĠD":362,"Ġper":363,"Ġis":364,"lic":365,"Ġlo":366,"ity":367,"ess":368,"uil":369,"ted":370,"ll":371,"and":372,"ĠO":373,"ab":374,"Ġas":375,"uilding":376,"Ġex":377,"Ġde":378,"ion":379,"ate":380,"um":381,"ard":382,"her":383,"ter":384,"The":385,"ts":386,"igh":387,"os":388,"Ġby":389,"Ġ1":390,"di":391,"Ġsign":392,"Ġnot":393,"quire":394,"Ġg":395,"lop":396,"ection":397,"........":398,"velop":399,"Ġpar":400,"ag":401,"ĠR":402,"ain":403,"cc":404,"ial":405,"ly":406,"ol":407,"Ġthat":408,"Ġprop":409,"Ġany":410,"ated":411,"din":412,"reet":413,"ther":414,"Ġbuilding":415,"mit":416,"Ġrequire":417,"hic":418,"ff":419,"ments":420,"ver":421,"Ġ2":422,"Ġĉ":423,"Ġsp":424,"Ġuse":425,"de":426,"ations":427,"dinance":428,"tric":429,"Ġthis":430,"ture":431,"âĢ":432,"eet":433,"ra":434,"ri":435,"ight":436,"ut":437,"Ġcom":438,"ĠB":439,"velopment":440,"Ġad":441,"Ġother":442,"Ġprov":443,"st":444,"low":445,"king":446,"ir":447,"Ġdis":448,"ide":449,"00":450,"uch":451,"rom":452,"ty":453,"ary":454,"if":455,"oning":456,"Ġun":457,"Ġplan":458,"am":459,"dition":460,"Ġfrom":461,"age":462,"Ġv":463,"Ġinc":464,"enti":465,"able":466,"Ġmay":467,"end":468,"ĠOr":469,"ting":470,"rov":471,"od":472,"ision":473,"Ġat":474,"Ġsuch":475,"ĠPlan":476,"ĠĠĠĠĠĠĠĠ":477,"Ġal":478,"ucture":479,"Ġstreet":480,"ow":481,"Ġapplic":482,"Ġstr":483,"ater":484,"Ġfeet":485,"Ġcons":486,"ace":487,"imum":488,"Ġsub":489,"Ġres":490,"Ġwhic":491,"Ġhe":492,"Ġmo":493,"th":494,"res":495,"ap":496,"ĠM":497,"ite":498,"ĠOrdinance":499,"Ġwhich":500,"ĠI":501,"up":502,"ards":503,"Ġpermit":504,"ĠT":505,"est":506,"Ġstructure":507,"Ġacc":508,"trict":509,"Ġloc":510,"lu":511,"se":512,"Ġdevelopment":513,"identi":514,"Ġarea":515,"Ġall":516,"ine":517,"ew":518,"ĠF":519,"ect":520,"Ġproper":521,"ublic":522,"em":523,"orm":524,"Ġdes":525,"ĠSection":526,"Ġwithin":527,"ties":528,"ĠĉĠĉ":529,"Ġcomp":530,"ers":531,"hed":532,"el":533,"iz":534,"way":535,"idential":536,"Ġparking":537,"Ġthan":538,"ĠL":539,"ĠZ":540,"erv":541,"................":542,"sion":543,"ĠCity":544,"omm":545,"Ġch":546,"Ġland":547,"Ġinclu":548,"ning":549,"Ġapprov":550,"Ġpublic":551,"are":552,"ib":553,"tain":554,"ĠE":555,"ip":556,"gul":557,"und":558,"tic":559,"ber":560,"ont":561,"osed":562,"ho":563,"por":564,"ĠU":565,"of":566,"ĠRe":567,"Ġlot":568,"andards":569,"Ġdesign":570,"cre":571,"Ġwhe":572,"Ġint":573,"Ġrequired":574,"form":575,"inimum":576,"Ġproperty":577,"vi":578,"Ġuses":579,"ant":580,"ill":581,"Ġz":582,"Ġno":583,"ollow":584,"Ġone":585,"Ġfollow":586,"Ġsite":587,"ĠNo":588,"Ġco":589,"we":590,"Ġha":591,"Ġprovid":592,"red":593,"ep":594,"Ġareas":595,"ditional":596,"Ġma":597,"ĠSt":598,"Ġit":599,"aterial":600,"ĠĠĠĠĠ":601,"Ġexce":602,"Ġ6":603,"Ġoff":604,"Ġr":605,"ĠG":606,"ĠDis":607,"Ġlocated":608,"ffic":609,"wn":610,"ĠĠĠ":611,"Ġfollowing":612,"Ġtw":613,"Ġmore":614,"gulations":615,"ust":616,"Ġfac":617,"Ġproposed":618,"Ġsigns":619,"ĠV":620,"ang":621,"ront":622,"Ġop":623,"ally":624,"Ġrequirements":625,"der":626,"Ġen":627,"ĠZoning":628,"Ġim":629,"mend":630,"Ġro":631,"tive":632,"II":633,"isions":634,"Ġprovided":635,"Ġspec":636,"ĠPlanning":637,"Ġstandards":638,"Ġmaterial":639,"ach":640,"ous":641,"Ġ20":642,"Ġpermitted":643,"sc":644,"lis":645,"truc":646,"ĠThe":647,"ĠComm":648,"Ġac":649,"Ġminimum":650,"anc":651,"ited":652,"Ġpr":653,"pos":654,"ad":655,"Ġle":656,"ive":657,"eral":658,"ied":659,"Ġaccess":660,"Ġ3":661,"erm":662,"Ġ7":663,"ten":664,"Ġdet":665,"ervic":666,"op":667,"TI":668,"Ġfo":669,"ities":670,"No":671,"ission":672,"ks":673,"Ġdistrict":674,"ablis":675,"ON":676,"Ġpl":677,"ix":678,"iness":679,"scap":680,"usiness":681,"Ġhave":682,"Ġpre":683,"ase":684,"ĠIn":685,"Ġfront":686,"ĠH":687,"one":688,"ome":689,"ory":690,"ĠDistrict":691,"ord":692,"Ġordinance":693,"Ġnon":694,"Ġused":695,"Ġspace":696,"Ġresidential":697,"ch":698,"Ġzoning":699,"view":700,"aces":701,"ee":702,"ies":703,"ily":704,"ĠBuilding":705,"Ġpur":706,"div":707,"pt":708,"Ġest":709,"ree":710,"Ġve":711,"Ġown":712,"eneral":713,"ject":714,"ĠSign":715,"Ġexis":716,"âĢĻ":717,"20":718,"Ġwall":719,"ĠDe":720,"In":721,"ail":722,"Ġestablis":723,"Ġocc":724,"10":725,"Ġbuildings":726,"Ġheight":727,"lling":728,"Ġsur":729,"Ġmain":730,"Ġlim":731,"own":732,"ĠW":733,"Ġwhere":734,"Ġbusiness":735,"Ġimp":736,"Ġspecif":737,"Ġfacil":738,"ct":739,"Ġadj":740,"Ġar":741,"ise":742,"Ġdo":743,"Ġgro":744,"Ġapproval":745,"ĠCommission":746,"ached":747,"ast":748,"TION":749,"ons":750,"Ġcomm":751,"ĠâĢ":752,"Ġset":753,"Ġapplication":754,"Ġstructures":755,"Ġ8":756,"Ġne":757,"co":758,"Ġtra":759,"Ġeach":760,"Ġconstruc":761,"welling":762,"ere":763,"Ġup":764,"ens":765,"art":766,"Ġline":767,"Ġapproved":768,"ade":769,"Ġlots":770,"iv":771,"Ġab":772,"Ġsa":773,"Ġservic":774,"Ġcont":775,"Ġside":776,"Ġy":777,"Ġcondition":778,"ĠĠĠĠĠĠĠĠĠĠĠĠĠĠĠĠ":779,"Ġallow":780,"Ġme":781,"Ġreview":782,"Ġspaces":783,"ack":784,"Ġunit":785,"Â§":786,"Ġinter":787,"ize":788,"mber":789,"pl":790,"ĠCo":791,"Ġdevelop":792,"Ġvehic":793,"mitted":794,"ame":795,"tions":796,"creen":797,"ist":798,"An":799,"Ġ5":800,"hen":801,"Ġdwelling":802,"port":803,"EC":804,"ans":805,"Ġincluding":806,"ximum":807,"enc":808,"Ġdec":809,"Ġwill":810,"ĠPar":811,"ses":812,"ug":813,"Ġregulations":814,"use":815,"mendment":816,"Ġexisting":817,"Ġbo":818,"Ġchang":819,"Ġso":820,"Ġmeet":821,"Ġ200":822,"Ġstreets":823,"Ġft":824,"ural":825,"âĢ¦":826,"ual":827,"Ġmust":828,"Ġflo":829,"idth":830,"uld":831,"Ġexceed":832,"Ġmaterials":833,"ior":834,"Ġhome":835,"Ġapplicable":836,"Ġtim":837,"su":838,"acent":839,"amily":840,"Ġinclude":841,"Ġtwo":842,"ĠVII":843,"aÃ":844,"con":845,"fic":846,"Ġman":847,"ile":848,"ible":849,"Ġpurpos":850,"aÃ§":851,"oc":852,"section":853,"ind":854,"Ġtr":855,"cent":856,"Ġpri":857,"vember":858,"Ġadjacent":859,"ven":860,"til":861,"ĠNovember":862,"ances":863,"Ġoccup":864,"12":865,"Ġif":866,"ECTION":867,"tional":868,"ari":869,"mo":870,"Ġcompl":871,"................................":872,"ould":873,"inc":874,"Ġsu":875,"âĢ¦âĢ¦":876,"les":877,"ult":878,"ĠDevelopment":879,"ner":880,"erc":881,"rive":882,"ear":883,"quare":884,"ugh":885,"Ġpo":886,"ingle":887,"imary":888,"Ġprovide":889,"Ġunder":890,"ong":891,"Ġappro":892,"irect":893,"vent":894,"Ġsim":895,"Ġ10":896,"tricts":897,"empor":898,"emporary":899,"yp":900,"Ġcor":901,"All":902,"Ġtime":903,"Ġbut":904,"ass":905,"ii":906,"Ġscreen":907,"act":908,"ĠBo":909,"Ġapplicant":910,"Ġlandscap":911,"eat":912,"te":913,"Ġsquare":914,"Ġonly":915,"Ġexp":916,"artment":917,"uff":918,"Ġthere":919,"Ġprovisions":920,"Ġright":921,"Ġfacilities":922,"ik":923,"Ġpercent":924,"),":925,"ient":926,"ption":927,"Ġsame":928,"ĠfaÃ§":929,"Ġwidth":930,"unc":931,"ĠAd":932,"Ġsc":933,"Ġlight":934,"ĠAl":935,"Ġlimited":936,"rees":937,"ical":938,"Ġele":939,"Ġcontain":940,"inis":941,"tit":942,"ended":943,"ood":944,"Ġrec":945,"Ġrequ":946,"Ġ9":947,"Ġlocation":948,"eren":949,"hib":950,"umber":951,"ized":952,"__":953,"his":954,"Ġbet":955,"ween":956,"Ġroof":957,"Ġ4":958,"ence":959,"ility":960,"street":961,"Ġupon":962,"ined":963,"ale":964,"Ġday":965,"ative":966,"ĠOp":967,"Ġvis":968,"forming":969,"Ġleast":970,"Ġbetween":971,"less":972,"Ġse":973,"ational":974,"Ġsubject":975,"ĠRequire":976,"ĠRegulations":977,"Ġopen":978,"Ġmaintain":979,"ercial":980,"ines":981,"hes":982,"Ġpart":983,"Ġvi":984,"Ġdeterm":985,"Ġsurf":986,"Ġent":987,"ĠUses":988,"gine":989,"ular":990,"ures":991,"Ġits":992,"Ġoper":993,"Ġowner":994,"ipal":995,"Ġoffic":996,"Ġconditions":997,"terior":998,"Ġvari":999,"tern":1000,"Ġmaximum":1001,"Ġallowed":1002,"Ġfloor":1003,"Ġcan":1004,"Ġaccord":1005,"ĠEn":1006,"Ġconstruction":1007,"ge":1008,"Ġover":1009,"bor":1010,"ĠSigns":1011,"Ġ2007":1012,"11":1013,"ore":1014,"Ġaut":1015,"Ġtyp":1016,"Ġrel":1017,"Ġrep":1018,"ilar":1019,"âĢĿ":1020,"Ġob":1021,"ond":1022,"000":1023,"rit":1024,"ating":1025,"ĠDate":1026,"ighbor":1027,"Ġsimilar":1028,"ĠBoard":1029,"ĠfaÃ§ade":1030,"Ġaccordance":1031,"Ġsection":1032,"Ġpor":1033,"ĠSECTION":1034,"ĠProv":1035,"Ġestablish":1036,"gineer":1037,"Ġmet":1038,"Ġref":1039,"ĠSub":1040,"ĠĉĠĠ":1041,"Any":1042,"ĠĉĠ":1043,"elik":1044,"elika":1045,"wal":1046,"Ġu":1047,"los":1048,"duc":1049,"ne":1050,"anent":1051,"Ġins":1052,"ress":1053,"Ġchar":1054,"Ġexcept":1055,"orage":1056,"Ġform":1057,"Ġless":1058,"Ġhas":1059,"ĠOpelika":1060,").":1061,"ati":1062,"back":1063,"bile":1064,"out":1065,"pre":1066,"Ġsingle":1067,"enty":1068,"conforming":1069,"Ġsize":1070,"ĠGeneral":1071,"ss":1072,"ĠCon":1073,"ason":1074,"irc":1075,"Ġprimary":1076,"tached":1077,"estr":1078,"Ġservice":1079,"incipal":1080,"This":1081,"mis":1082,"Ġdrive":1083,"Ġpers":1084,"Ġsurface":1085,"Ġutil":1086,"21":1087,"eal":1088,"Ġnumber":1089,"ĠPer":1090,"ĠPro":1091,"ĠDep":1092,"Ġadop":1093,"ĠUse":1094,"ĠVIII":1095,"Ġag":1096,"ors":1097,"ecess":1098,"Ġtwenty":1099,"division":1100,"Ġtraffic":1101,"ading":1102,"Ġfeat":1103,"ccess":1104,"fter":1105,"ian":1106,"rough":1107,"acter":1108,"ĠEx":1109,"25":1110,"ke":1111,"ue":1112,"ĠAmendment":1113,"Ġbuff":1114,"Ġcl":1115,"residential":1116,"Ġspecific":1117,"mises":1118,"ones":1119,"tific":1120,"edestr":1121,"hibited":1122,"Ġcharacter":1123,"pri":1124,"Ġind":1125,"Ġinst":1126,"ĠAr":1127,"Ġwhen":1128,"ĠâĢľ":1129,"ĠDepartment":1130,"loc":1131,"Ġissu":1132,"Ġ19":1133,"Ġunits":1134,"ecessary":1135,"oth":1136,"ĠĉĠĉĠĉĠĉ":1137,"ticle":1138,"divid":1139,"Ġsaf":1140,"ĠParking":1141,"hor":1142,"Ġ-":1143,"Ġpres":1144,"Ġdep":1145,"ways":1146,"ĠProvisions":1147,"priate":1148,"SE":1149,"air":1150,"cess":1151,"ph":1152,"Ġwater":1153,"Ġgr":1154,"Ġhere":1155,"pec":1156,"Ġcity":1157,"Ġdi":1158,"Ġshould":1159,"Ġapply":1160,"ĠOffic":1161,"here":1162,"Ġbeen":1163,"Ġconditional":1164,"ulti":1165,"Ġcomply":1166,"Ġintended":1167,"50":1168,"ever":1169,"inal":1170,"Ġprincipal":1171,"ove":1172,"ĠĠĠĠĠĠĠ":1173,"Ġplanting":1174,"hood":1175,"Ġestablished":1176,"Ġtrees":1177,"asure":1178,"Ġdesigned":1179,"Ġappropriate":1180,"ĠRequirements":1181,"IN":1182,"ys":1183,"Ġtemporary":1184,"esidential":1185,"pplic":1186,"omes":1187,"ulation":1188,"indow":1189,"Ġsupp":1190,"ighborhood":1191,"Ġperm":1192,"Ġinto":1193,"Ġdecision":1194,"See":1195,"Ġsix":1196,"Ġthree":1197,"ving":1198,"wise":1199,"Ġequ":1200,"Ġass":1201,"Ġunless":1202,"edestrian":1203,"Ġext":1204,"Ġdef":1205,"umin":1206,"Ġdistricts":1207,"chit":1208,"Ġabove":1209,"Ġyard":1210,"Ġpoin":1211,"Ġentr":1212,"ety":1213,"Ġpark":1214,"raditional":1215,"Ġotherwise":1216,"Ġacti":1217,"uncil":1218,"Sign":1219,"Ġthese":1220,"Ġnecessary":1221,"ĠAn":1222,"ĠAt":1223,"Ġattached":1224,"ensity":1225,"Ġexterior":1226,"Ġalong":1227,"ĠLand":1228,"ĠStandards":1229,"Ġ2021":1230,"Ġprior":1231,"Zoning":1232,"ved":1233,"round":1234,"igure":1235,"aster":1236,"Ġconf":1237,"ights":1238,"ose":1239,"ram":1240,"Ġdesignated":1241,"Ġcomplet":1242,"Ġpermanent":1243,"St":1244,"ork":1245,"Ġspecified":1246,"Ġdays":1247,"cri":1248,"Ġtheir":1249,"ension":1250,"Ġmin":1251,"Ġsubmitted":1252,"hens":1253,"Ġnew":1254,"ĠLot":1255,"Ġmeasure":1256,"play":1257,"Ġinstall":1258,"Ġstorage":1259,"Ġeff":1260,"imension":1261,"ages":1262,"Ġaddition":1263,"Ġplans":1264,"irector":1265,"ĠEngineer":1266,"If":1267,"family":1268,"rea":1269,"anding":1270,"Ġcer":1271,"Ġel":1272,"Ġgre":1273,"irport":1274,"titu":1275,"Ġauthor":1276,"chitect":1277,"hip":1278,"Ġout":1279,"ates":1280,"Ġground":1281,"Ġadopted":1282,"ric":1283,"tal":1284,"Ġsep":1285,"aring":1286,"cept":1287,"Ġaccessory":1288,"Ġdoes":1289,"Ġpurposes":1290,"ft":1291,"vate":1292,"Ġten":1293,"Ġpos":1294,"Ġfif":1295,"Ġthrough":1296,"Ġem":1297,"urb":1298,"Ġpurpose":1299,"so":1300,"Ġfive":1301,"Ġlar":1302,"Ġgra":1303,"tical":1304,"Ġchanges":1305,"ixed":1306,"atib":1307,"ded":1308,"jec":1309,"ents":1310,"Ġremo":1311,"ustr":1312,"ĠDirector":1313,"stem":1314,"Ġsidewal":1315,"Ġperson":1316,"Ġbuffer":1317,"aw":1318,"ales":1319,"tice":1320,"ants":1321,"esign":1322,"vel":1323,"Ġconform":1324,"ĠIX":1325,"Ġproperties":1326,"Ġpremises":1327,"Ġterm":1328,"Ġindivid":1329,"Ġprohibited":1330,"Ġlines":1331,"Ġdisplay":1332,"RD":1333,"ystem":1334,"ĠX":1335,"Ġill":1336,"Ġpedestrian":1337,"rove":1338,"Ġinform":1339,"unt":1340,"Ġwithout":1341,"ĠStreet":1342,"Ġcommercial":1343,"ĠOfficial":1344,"Ġver":1345,"Ġlic":1346,"idered":1347,"Ġconsidered":1348,"Ġsubsection":1349,"ancy":1350,"ĠArticle":1351,"For":1352,"Per":1353,"ST":1354,"ased":1355,"ĠUn":1356,"Ġarchitect":1357,"Ġsepar":1358,"our":1359,"Ġwindow":1360,"Ġrecre":1361,"cel":1362,"Ġmade":1363,"ĠCouncil":1364,"EN":1365,"ced":1366,"ned":1367,"oor":1368,"Ġph":1369,"aced":1370,"Ġgeneral":1371,"Ġservices":1372,"Ġcase":1373,"Ġregul":1374,"Ġshown":1375,"unity":1376,"uring":1377,"Ġloading":1378,"Ġdist":1379,"Ġmobile":1380,"tenance":1381,"Ġtrans":1382,"rain":1383,"als":1384,"Ġcle":1385,"Ġrear":1386,"mental":1387,"Ġconn":1388,"abam":1389,"ĠResidential":1390,"ĠTable":1391,"Ġplace":1392,"Ġelev":1393,"abama":1394,"jor":1395,"Ġfl":1396,"Ġwrit":1397,"etc":1398,"Ġthose":1399,"Ġhomes":1400,"Ġowners":1401,"Ġwalls":1402,"Ġvehicle":1403,"Ġchange":1404,"Ġlighting":1405,"ini":1406,"ense":1407,"Ġevent":1408,"ĠAccess":1409,"ĠĉĠĉĠ":1410,"Ġfoot":1411,"Ġfour":1412,"ĠIns":1413,"ĠAlabama":1414,"lock":1415,"uf":1416,"ings":1417,"Ġdate":1418,"Ġnat":1419,"ĠAll":1420,"Ġnonconforming":1421,"Ġlimit":1422,"Ġsetback":1423,"erence":1424,"Ġmaintained":1425,"Ġillumin":1426,"Ex":1427,"iance":1428,"uts":1429,"ves":1430,"Ġj":1431,"Ġetc":1432,"Ġamendment":1433,"Ġthey":1434,"Ġsto":1435,"Ġ100":1436,"Ġdetached":1437,"oci":1438,"ĠLandscap":1439,"eg":1440,"over":1441,"omp":1442,"ĠDesign":1443,"Ġalso":1444,"ĠTraditional":1445,"Ġzone":1446,"Ġspecial":1447,"Ġsaid":1448,"Ġscreening":1449,"Ġrequest":1450,"Ġtype":1451,"Ġmeasured":1452,"15":1453,"minis":1454,"ry":1455,"eter":1456,"Ġprot":1457,"Ġinches":1458,"owever":1459,"Ġresp":1460,"Ġhearing":1461,"Ġnotice":1462,"Ġcontro":1463,"Ġdevelopments":1464,"âĢ¦âĢ¦âĢ¦âĢ¦":1465,"rid":1466,"rec":1467,"Ġcre":1468,"Ġorder":1469,"ective":1470,"14":1471,"pr":1472,"ĠMinimum":1473,"ipment":1474,"Ġlandscape":1475,"Ġindividual":1476,"ple":1477,"val":1478,"ĠÂ§":1479,"Ġaff":1480,"Ġserv":1481,"ither":1482,"Ġcent":1483,"Ġren":1484,"Ġproject":1485,"ĠZones":1486,"Ġ30":1487,"Ġprivate":1488,"Ġfeatures":1489,"Ġcomplete":1490,"13":1491,"Ġsales":1492,"Ġtop":1493,"Ġtotal":1494,"tructure":1495,"Ġappeal":1496,"Ġhous":1497,"ĠOrd":1498,"Ġcop":1499,"Ġimprove":1500,"Ġvisible":1501,"Ġvariance":1502,"Ġsafety":1503,"Ġafter":1504,"Ġpat":1505,"Ġcal":1506,"Ġcirc":1507,"Ġmap":1508,"Ġappear":1509,"ters":1510,"ific":1511,"crete":1512,"Ġfacility":1513,"Ġneighborhood":1514,"Ġconstructed":1515,"Ġvehicles":1516,"tificate":1517,"18":1518,"40":1519,"ie":1520,"Ġwork":1521,"ases":1522,"ubs":1523,"Ġparcel":1524,"Ġsubdivision":1525,"Ġenc":1526,"Ġdeveloper":1527,"ĠAdj":1528,"Ġgreater":1529,"Ġk":1530,"Ġbeing":1531,"Ġlan":1532,"Ġresid":1533,"Ġmanner":1534,"Ġrecord":1535,"Ġ199":1536,"ell":1537,"iod":1538,"edi":1539,"ort":1540,"orth":1541,"Ġmulti":1542,"Ġreg":1543,"Ġreason":1544,"acks":1545,"ĠSite":1546,"land":1547,"ared":1548,"Ġintent":1549,"____":1550,"Ġviol":1551,"Ġassoci":1552,"ministr":1553,"AN":1554,"Ġ&":1555,"Ġsec":1556,"Ġsid":1557,"Ġclos":1558,"Ġret":1559,"unding":1560,"Ġ16":1561,"Ġalle":1562,"Ġcompatib":1563,"vities":1564,"Ġlandscaping":1565,"Ġdiff":1566,"ĠAny":1567,"titutional":1568,"Ġfifty":1569,"ustrial":1570,"IC":1571,"It":1572,"door":1573,"five":1574,"lay":1575,"Ġ\"":1576,"Ġblock":1577,"Ġperiod":1578,"ute":1579,"Ġroad":1580,"Ġbound":1581,"ventional":1582,"Ġactivities":1583,"Ġinformation":1584,"Permitted":1585,"Ġrecreational":1586,"ES":1587,"Ġamend":1588,"Ġsystem":1589,"erve":1590,"ider":1591,"Ġstand":1592,"Ġconcrete":1593,"Ġrequirement":1594,"Ġadult":1595,"iron":1596,"ustment":1597,"Ġview":1598,"Ġrepair":1599,"Ġgran":1600,"ĠAthens":1601,"When":1602,"Where":1603,"ex":1604,"get":1605,"mall":1606,"vity":1607,"rounding":1608,"Ġshow":1609,"Ġeither":1610,"Ġprocess":1611,"ĠServic":1612,"unted":1613,"Ġsurrounding":1614,"ĠCode":1615,"Ġportion":1616,"Ġelec":1617,"19":1618,"AL":1619,"ak":1620,"Ġav":1621,"ream":1622,"Ġwould":1623,"Ġhund":1624,"Ġdeem":1625,"Ġconsider":1626,"Ġrestric":1627,"Ġmajor":1628,"Ġnonresidential":1629,"Ġmaintenance":1630,"Ġcontin":1631,"Ġrelated":1632,"Ġindic":1633,"Ġentrance":1634,"crib":1635,"Ġvertical":1636,"Ġretail":1637,"Ġhundred":1638,"02":1639,"Ġra":1640,"ren":1641,"reest":1642,"Ġface":1643,"Ġcol":1644,"Ġbelow":1645,"Ġadditional":1646,"Ġprovision":1647,"ency":1648,"ences":1649,"Ġherein":1650,"rainage":1651,"reestanding":1652,"Such":1653,"fied":1654,"Ġqu":1655,"ining":1656,"Ġsew":1657,"Ġmon":1658,"Ġadver":1659,"ades":1660,"ixture":1661,"ĠâĢĵ":1662,"Ġclear":1663,"Building":1664,"ER":1665,"gal":1666,"line":1667,"viron":1668,"Ġever":1669,"acture":1670,"ĠSet":1671,"other":1672,"raph":1673,"Ġconsist":1674,"Ġhaz":1675,"Ġneed":1676,"ĠSubsection":1677,"ufacture":1678,"ĠAdjustment":1679,"Figure":1680,"UD":1681,"ia":1682,"ark":1683,"ĠĠĠĠĠĠ":1684,"quate":1685,"Ġadd":1686,"Ġsubst":1687,"house":1688,"ĠDistricts":1689,"truction":1690,"Ġmeans":1691,"Ġcompliance":1692,"aximum":1693,"fy":1694,"to":1695,"Ġwho":1696,"Ġorient":1697,"Ġtow":1698,"ĠAmend":1699,"aged":1700,"Ġyear":1701,"Ġarchitectural":1702,"backs":1703,"cer":1704,"Ġenti":1705,"Ġairport":1706,"anti":1707,"Ġfinal":1708,"arking":1709,"Ġdirect":1710,"Ġstate":1711,"ĠArea":1712,"Ġgover":1713,"Ġval":1714,"Ġwhether":1715,"Ġcoll":1716,"fficient":1717,"ĠĠĠĠĠĠĠĠĠĠĠĠĠĠĠĠĠĠĠĠĠĠĠĠĠĠĠĠĠĠĠĠ":1718,"ocation":1719,"Ġscreened":1720,"Ġdetermined":1721,"Ġestablishment":1722,"pecial":1723,"Ġlarg":1724,"Ġcopy":1725,"Ġimprovements":1726,"%)":1727,".)":1728,"ehic":1729,"uous":1730,"ination":1731,"Ġfire":1732,"Ġway":1733,"Ġmaster":1734,"Ġerec":1735,"Ġlaw":1736,"Ġhigh":1737,"verage":1738,"hool":1739,"Ġplus":1740,"Ġpursu":1741,"Ġutility":1742,"ĠPermit":1743,"Ġequipment":1744,"Ġinstalled":1745,"Ġgrade":1746,"Ġwritten":1747,"Ġcontrol":1748,"**":1749,"fore":1750,"tem":1751,"Ġidenti":1752,"ross":1753,"Ġthir":1754,"Ġmodi":1755,"izont":1756,"Ġcour":1757,"Ġoccur":1758,"Ġmeeting":1759,"inished":1760,"Ġofficial":1761,"Ġissued":1762,"rame":1763,"Ġminim":1764,"Ġnatural":1765,"utside":1766,"Ġdeemed":1767,"iqu":1768,"Ġcar":1769,"Ġinv":1770,"Ġrece":1771,"Ġforth":1772,"ash":1773,"ote":1774,"ost":1775,"Ġ25":1776,"ange":1777,"pose":1778,"Ġlevel":1779,"Ġfrontage":1780,"Ġcommon":1781,"Ġvehicular":1782,"Ġthereof":1783,"Ġelements":1784,"Ġoffice":1785,"ING":1786,"Ġpoints":1787,"16":1788,"30":1789,"One":1790,"Pro":1791,"Ġ0":1792,"Ġsale":1793,"eng":1794,"orizont":1795,"arding":1796,"ice":1797,"Ġwh":1798,"ets":1799,"dinances":1800,"dequate":1801,"Ġenviron":1802,"Ġscale":1803,"erent":1804,"pret":1805,"Street":1806,"ĠEngineering":1807,"Ġauthorized":1808,"STR":1809,"eight":1810,"ued":1811,"Ġtree":1812,"ateway":1813,"ommod":1814,"cour":1815,"Ġmetal":1816,"ridor":1817,"pril":1818,"Applic":1819,"des":1820,"ious":1821,"og":1822,"Ġsmall":1823,"Ġrest":1824,"ild":1825,"ĠCor":1826,"ĠPRD":1827,"ĠNorth":1828,"ĠOver":1829,"Ġaccommod":1830,"Ġfound":1831,"Ġprevent":1832,"Ġimpact":1833,"istor":1834,"Ġemp":1835,"Ġpursuant":1836,"aff":1837,"rubs":1838,"Ġoutside":1839,"Ġpa":1840,"Ġfir":1841,"ator":1842,"Ġmat":1843,"Ġmixed":1844,"loy":1845,"Ġease":1846,"ections":1847,"Ġcomb":1848,"Ġapplications":1849,"Ġgross":1850,"ternative":1851,"Ġlicense":1852,"ĠAccessory":1853,"Ġviolation":1854,"for":1855,"alth":1856,"ected":1857,"pprov":1858,"ability":1859,"Ġconstit":1860,"Ġhealth":1861,"ĠFor":1862,"ibility":1863,"Ġrun":1864,"Ġdefined":1865,"Ġgranted":1866,"100":1867,"MEN":1868,"ful":1869,"tig":1870,"Ġboth":1871,"its":1872,"Ġeight":1873,"ĠStructure":1874,"Ġexc":1875,"Ġgar":1876,"ccup":1877,"luding":1878,"Ġmake":1879,"Ġ2012":1880,"Ġfood":1881,"Ġ50":1882,"Ġdwellings":1883,"Ġoccupancy":1884,"Ġreques":1885,"Ġoperation":1886,"Ġelevation":1887,"Ġaddress":1888,"istoric":1889,".,":1890,"ED":1891,"Section":1892,"ause":1893,"ud":1894,"yc":1895,"ĠJ":1896,"Ġsq":1897,"Ġanother":1898,"Ġcare":1899,"Ġmess":1900,"Ġstream":1901,"Ġpartic":1902,"oles":1903,"Ġincre":1904,"Ġmanufacture":1905,"Ġcorn":1906,"Ġrecomm":1907,"Ġdriveways":1908,"rick":1909,"ĠLandscape":1910,"Ġavail":1911,"ĠSetback":1912,"Ġsubstanti":1913,"Ġthirty":1914,"orizontal":1915,"Ġemploy":1916,"ISTR":1917,"Re":1918,"Ġ................................":1919,"Ġfr":1920,"Ġcap":1921,"aries":1922,"arily":1923,"alls":1924,"Ġrem":1925,"ech":1926,"Ġprojec":1927,"Ġconduc":1928,"ĠGC":1929,"Ġintern":1930,"ĠExce":1931,"Ġspecifically":1932,"Ġpoint":1933,"Ġdistance":1934,"ĠServices":1935,"av":1936,"bo":1937,"not":1938,"tis":1939,"isting":1940,"Ġdimension":1941,"Ġwell":1942,"Ġstone":1943,"Ġstore":1944,"acts":1945,"Ġproduc":1946,"pping":1947,"ody":1948,"iii":1949,"Ġconsistent":1950,"OR":1951,"aur":1952,"obile":1953,"ps":1954,"ually":1955,"Ġadequate":1956,"Ġwood":1957,"ĠNe":1958,"abel":1959,"ĠRec":1960,"holic":1961,"aterials":1962,"Ġrights":1963,"ustom":1964,"Ġplaced":1965,"Ġveget":1966,"coholic":1967,"Ġabut":1968,"Ġcontained":1969,"Ġobs":1970,"riter":1971,"Ġextent":1972,"Ġseparate":1973,"Ġenclos":1974,"Ġassociated":1975,"ĠNorthport":1976,"by":1977,"evelopment":1978,"ered":1979,"uary":1980,"anit":1981,"Ġdrainage":1982,"ĠDISTR":1983,"Ġ15":1984,"ondary":1985,"Ġsidewalks":1986,"Ġdifferent":1987,"ICT":1988,"Ġhazard":1989,"riteria":1990,"ĠDISTRICT":1991,"Con":1992,"General":1993,"May":1994,"Parking":1995,"SECTION":1996,"bers":1997,"du":1998,"ees":1999,"ition":2000,"town":2001,"Ġsol":2002,"Ġpen":2003,"Ġpain":2004,"Ġfu":2005,"Ġrepl":2006,"urn":2007,"ĠPlanner":2008,"ĠCommunity":2009,"owntown":2010,"encing":2011,"Ġflood":2012,"ĠSubdivision":2013,"Ġsidewalk":2014,"Ġrespons":2015,"Ġcloser":2016,"cribed":2017,"ixtures":2018,"Ġerected":2019,"ength":2020,"Ġparticular":2021,"Ġavailable":2022,"04":2023,"mb":2024,"ories":2025,"Ġcustom":2026,"Ġdra":2027,"ĠSp":2028,"ĠSep":2029,"ĠPublic":2030,"umption":2031,"Ġgu":2032,"ĠGateway":2033,"teen":2034,"Ġforms":2035,"ĠConventional":2036,"Ġpresent":2037,"Ġwindows":2038,"ĠOverlay":2039,"AR":2040,"Access":2041,"IF":2042,"Site":2043,"Ġed":2044,"Ġtre":2045,"Ġbased":2046,"Ġful":2047,"Ġcases":2048,"Ġdam":2049,"uses":2050,"Ġprom":2051,"imeter":2052,"Ġdem":2053,"Ġgl":2054,"ĠZone":2055,"Ġzones":2056,"Ġroom":2057,"Ġdetail":2058,"opy":2059,"Ġinterpret":2060,"asonry":2061,"Ġfeature":2062,"Ġeffective":2063,"Ġremoved":2064,"Ġcenter":2065,"Ġappearance":2066,"Ġreasonable":2067,"Ġcompatible":2068,"Ġstandard":2069,"tember":2070,"Ġfirst":2071,"MENT":2072,"ĠSeptember":2073,"01":2074,"Non":2075,"Sh":2076,"TN":2077,"ches":2078,"fare":2079,"gre":2080,"Ġthen":2081,"Ġbody":2082,"Ġfence":2083,"arm":2084,"Ġwas":2085,"lood":2086,"ĠSec":2087,"ĠSpecial":2088,"Ġforty":2089,"ĠAg":2090,"Ġhowever":2091,"Ġsubmit":2092,"ĠMap":2093,"ĠĉĠĉĠĉĠĠ":2094,"formance":2095,"Ġhaving":2096,"Ġlegal":2097,"Ġschool":2098,"Ġoutdoor":2099,"Ġposs":2100,"Ġstores":2101,"Ġentire":2102,"ument":2103,"isted":2104,"Ġdensity":2105,"allel":2106,"lev":2107,"lex":2108,"acing":2109,"Ġprof":2110,"Ġproced":2111,"Ġlong":2112,"Ġlength":2113,"ĠCh":2114,"ĠCent":2115,"Ġhorizontal":2116,"ĠOff":2117,"Ġdev":2118,"ift":2119,"Ġplanned":2120,"Ġmounted":2121,"ĠMaterials":2122,"Ġpermits":2123,"ector":2124,"ĠReview":2125,"Ġinteg":2126,"Ġyards":2127,"Ġdeveloped":2128,"Ġrepres":2129,"Ġutilities":2130,"Ġterms":2131,"Ġcompletely":2132,"Ġsewer":2133,"Ġevery":2134,"Ġinvol":2135,"ĠStructures":2136,"ĠException":2137,"duce":2138,"Ġintegr":2139,"IT":2140,"hod":2141,"rimary":2142,"Ġshe":2143,"Ġback":2144,"Ġfamily":2145,"Ġbefore":2146,"ĠCl":2147,"Ġhis":2148,"irec":2149,"Ġgood":2150,"rip":2151,"Ġalter":2152,"ĠMan":2153,"ĠTr":2154,"Ġtypes":2155,"Ġsafe":2156,"Signs":2157,"Ġcertificate":2158,"Ġlanes":2159,"Ġmonth":2160,"Ġgovern":2161,"Ġconstitute":2162,"br":2163,"ins":2164,"Ġsf":2165,"oned":2166,"Ġfreestanding":2167,"Ġmasonry":2168,"Ġtown":2169,"Ġshrubs":2170,"ĠSide":2171,"ĠApplic":2172,"urpose":2173,"ĠOccup":2174,"Ġpropos":2175,"ĠBusiness":2176,"Ġconsumption":2177,"ops":2178,"Ġbusinesses":2179,"Ġsetbacks":2180,"creening":2181,"ĠAdministr":2182,"Ġextend":2183,"imensional":2184,"Ġphys":2185,"Ġserved":2186,"Ġlargest":2187,"ĠCorridor":2188,"Ġmessage":2189,"IFS":2190,"Ad":2191,"Or":2192,"iel":2193,"ough":2194,"ener":2195,"Ġfinished":2196,"Ġcriteria":2197,"Ġduring":2198,"Ġcontr":2199,"ĠNon":2200,"Ġ14":2201,"Ġparks":2202,"Ġplanted":2203,"Ġresult":2204,"elve":2205,"Ġchild":2206,"Ġlands":2207,"Ġincluded":2208,"Ġnoise":2209,"ĠState":2210,"ĠHeight":2211,"Ġgroup":2212,"ensed":2213,"ĠRequired":2214,"ĠConditional":2215,"Ġclass":2216,"Ġremoval":2217,"Ġadverse":2218,"Ġminimize":2219,"Ġenvironment":2220,"RE":2221,"iver":2222,"mission":2223,"sure":2224,"site":2225,"Ġaverage":2226,"Ġte":2227,"onic":2228,"Ġbase":2229,"Ġbrick":2230,"Ġcurb":2231,"ental":2232,"Ġwa":2233,"lement":2234,"ĠST":2235,"ĠSh":2236,"Ġlisted":2237,"ĠCom":2238,"unic":2239,"tronic":2240,"Ġappl":2241,"Ġhour":2242,"ĠOF":2243,"Ġexten":2244,"These":2245,"Ġ11":2246,"Ġ18":2247,"Ġconstr":2248,"Ġtwelve":2249,"Ġplat":2250,"Ġtrail":2251,"iving":2252,"Ġsufficient":2253,"tered":2254,"Ġsched":2255,"Ġenter":2256,"ternal":2257,"Ġobtain":2258,"initions":2259,"Ġcalc":2260,"Ġsiding":2261,"Ġalley":2262,"Ġmanufactured":2263,"Ġvegetation":2264,"Ġabutting":2265,"Ġpossible":2266,"24":2267,"Purpose":2268,"Yes":2269,"ground":2270,"Ġair":2271,"Ġsit":2272,"Ġpot":2273,"Ġfin":2274,"Ġdirec":2275,"ĠCer":2276,"ĠPUD":2277,"urren":2278,"Ġlow":2279,"Ġparallel":2280,"ighting":2281,"Ġplanning":2282,"els":2283,"Ġprep":2284,"Ġadjo":2285,"Ġflag":2286,"Ġilluminated":2287,"Ġhousing":2288,"Ġcirculation":2289,"lands":2290,"Ġ025":2291,"anitary":2292,"26":2293,"Minimum":2294,"dic":2295,"led":2296,"ms":2297,"posed":2298,"ĠY":2299,"inary":2300,"ene":2301,"Ġfil":2302,"icyc":2303,"Ġmot":2304,"Ġmem":2305,"Ġshift":2306,"Ġnor":2307,"Ġlabel":2308,"omobile":2309,"uck":2310,"Ġconven":2311,"ession":2312,"agraph":2313,"Ġuntil":2314,"Ġincludes":2315,"ĠVehic":2316,"Ġengineer":2317,"Ġaction":2318,"Ġacres":2319,"Ġimpacts":2320,"ĠPark":2321,"Ġboard":2322,"unction":2323,"Ġdetermine":2324,"Ġmethod":2325,"Ġpersons":2326,"Ġownership":2327,"Ġelectric":2328,"Ġconsideration":2329,"Ġaccommodate":2330,"Ġrecommend":2331,"Ord":2332,"urrent":2333,"Each":2334,"LA":2335,"uis":2336,"yond":2337,"Ġend":2338,"Ġpe":2339,"ilities":2340,"ĠOther":2341,"terial":2342,"ĠBuff":2343,"odes":2344,"ĠPlans":2345,"Ġhel":2346,"apter":2347,"ĠMay":2348,"ĠTemporary":2349,"Ġintensity":2350,"ĠCommercial":2351,"Ġexposed":2352,"ĠAllow":2353,"Ġissuance":2354,"Ġconference":2355,"Ġrestrictions":2356,"Ġrequested":2357,"Ġemployee":2358,"Ġinternal":2359,"Ġproducts":2360,"Ġenclosed":2361,"Ġadjoining":2362,"60":2363,"However":2364,"On":2365,"To":2366,"fer":2367,"per":2368,"wning":2369,"Ġer":2370,"reational":2371,"Ġserve":2372,"ederal":2373,"Ġbas":2374,"Ġbuil":2375,"Ġdiv":2376,"Ġbeyond":2377,"etail":2378,"Ġstorm":2379,"Ġstories":2380,"Ġhig":2381,"Ġperimeter":2382,"Ġ17":2383,"ĠRE":2384,"stablis":2385,"ified":2386,"ĠTh":2387,"ĠFigure":2388,"Ġintere":2389,"Ġproviding":2390,"Ġgrow":2391,"Ġmean":2392,"mooth":2393,"including":2394,"Ġestablishments":2395,"Ġrefuse":2396,"ĠPermitted":2397,"cription":2398,"Ġlarge":2399,"Ġillumination":2400,"Ġamendments":2401,"Ġclearly":2402,"pproval":2403,"Ġtreat":2404,"Ġinterpretation":2405,"Ġinterest":2406,"03":2407,"07":2408,"LO":2409,"ZA":2410,"hing":2411,"medi":2412,"pend":2413,"ule":2414,"Ġais":2415,"Ġacre":2416,"Ġta":2417,"ery":2418,"Ġbr":2419,"Ġdue":2420,"...":2421,"Ġorig":2422,"Ġbever":2423,"ects":2424,"Ġstaff":2425,"ĠSingle":2426,"ĠCons":2427,"Ġhol":2428,"Ġ12":2429,"Ġsignage":2430,"acement":2431,"Ġensure":2432,"Ġrow":2433,"ĠBuildings":2434,"Ġboarding":2435,"Ġoccupation":2436,"Ġapprove":2437,"Ġdepth":2438,"Ġsuppor":2439,"ĠUnit":2440,"Ġbeverages":2441,"Al":2442,"April":2443,"Lot":2444,"Location":2445,"after":2446,"dustrial":2447,"finitions":2448,"lat":2449,"phic":2450,"Ġi":2451,"Ġtak":2452,"Ġsanitary":2453,"Ġpow":2454,"Ġbar":2455,"Ġfixtures":2456,"ised":2457,"Ġden":2458,"Ġordinances":2459,"Ġstation":2460,"ithin":2461,"unty":2462,"ately":2463,"ĠRed":2464,"iring":2465,"ential":2466,"Ġalcoholic":2467,"Ġaltered":2468,"ĠMaximum":2469,"Ġ2020":2470,"ĠWidth":2471,"fication":2472,"Ġoccupied":2473,"Ġoperations":2474,"irculation":2475,"Ġindustrial":2476,"Ġactivity":2477,"ĠLots":2478,"Ġinstallation":2479,"Ġlicensed":2480,"ĠInsp":2481,"Ġshowing":2482,"Ġoriented":2483,"tiguous":2484,"Ġfron":2485,"At":2486,"ptions":2487,"uties":2488,"ying":2489,"Ġanim":2490,"Ġcross":2491,"Ġwal":2492,"Ġmass":2493,"vement":2494,"idental":2495,"acity":2496,"ucco":2497,"ays":2498,"ulated":2499,"Ġaccomp":2500,"erved":2501,"ermanent":2502,"Ġroofs":2503,"Ġinsp":2504,"Ġdriveway":2505,"Ġsides":2506,"Ġboundary":2507,"ext":2508,"Ġrestaur":2509,"Ġremain":2510,"Ġdimensions":2511,"ĠCertificate":2512,"ĠAllowed":2513,"gan":2514,"iti":2515,"ns":2516,"pon":2517,"Ġslop":2518,"Ġban":2519,"Ġflow":2520,"Ġname":2521,"ided":2522,"Ġsty":2523,"Ġstucco":2524,"Ġlet":2525,"Ġcontiguous":2526,"Ġexem":2527,"ols":2528,"ĠPlanned":2529,"Ġalternative":2530,"Ġfacing":2531,"ĠWhen":2532,"Ġdoc":2533,"Ġcommunity":2534,"Ġcorner":2535,"Ġexpress":2536,"Ġvisual":2537,"nex":2538,"Ġdepic":2539,"hensive":2540,"Ġplacement":2541,"inition":2542,"âĢ¦âĢ¦âĢ¦âĢ¦âĢ¦âĢ¦âĢ¦âĢ¦":2543,"Ġlane":2544,"Ġboundaries":2545,"Ġamended":2546,"force":2547,"Ġprojecting":2548,"Ġresponsible":2549,"Ġedge":2550,"Ġprofession":2551,"ĠOccupancy":2552,"Ġphysical":2553,"icycle":2554,"75":2555,"Land":2556,"RO":2557,"ges":2558,"ming":2559,"pro":2560,"ward":2561,"Ġke":2562,"Ġtable":2563,"Ġopp":2564,"Ġser":2565,"tivity":2566,"Ġcause":2567,"Ġinde":2568,"Ġrez":2569,"Ġreco":2570,"Ġreport":2571,"Ġreduc":2572,"vey":2573,"Ġstrip":2574,"uris":2575,"Ġonto":2576,"ĠRo":2577,"ĠBZA":2578,"amp":2579,"Ġincidental":2580,"see":2581,"izes":2582,"Ġcover":2583,"Ġcode":2584,"Ġ60":2585,"Ġimmedi":2586,"ĠDefinitions":2587,"Ins":2588,"ĠWhere":2589,"onstr":2590,"Ġbuffers":2591,"Ġplantings":2592,"Ġcreate":2593,"Ġpattern":2594,"ificant":2595,"Ġsecondary":2596,"Ġsubstantial":2597,"Ġ................................................................":2598,"Ġfuture":2599,"Ġrepresent":2600,"stablish":2601,"Ġoriginal":2602,"Ġfronting":2603,"FA":2604,"Family":2605,"IS":2606,"Maximum":2607,"lus":2608,"mp":2609,"ues":2610,"Ġ=":2611,"alf":2612,"Ġfencing":2613,"Ġannex":2614,"room":2615,"Ġmark":2616,"Ġbec":2617,"Ġbeh":2618,"Ġthous":2619,"ĠSc":2620,"ĠSho":2621,"pped":2622,"uct":2623,"quent":2624,"urther":2625,"Ġadministr":2626,"apet":2627,"ĠIf":2628,"ization":2629,"ervation":2630,"Ġexception":2631,"Ġarr":2632,"Ġarterial":2633,"ived":2634,"ĠĠĠĠĠĠĠĠĠĠĠĠĠĠĠĠĠĠ":2635,"ĠĠĠĠĠĠĠĠĠĠĠĠĠĠĠĠĠĠĠĠĠ":2636,"Ġcontaining":2637,"Ġ40":2638,"Ġrefer":2639,"Ġagent":2640,"tification":2641,"othing":2642,"Ġdefinition":2643,"Ġeasement":2644,"Ġcornice":2645,"Ġcapacity":2646,"Ġconducted":2647,"ĠNeighborhood":2648,"Ġpromote":2649,"Ġdemonstr":2650,"Ġalteration":2651,"Ġhours":2652,"Ġconstrued":2653,"Ġtaken":2654,"Ġthousand":2655,"'s":2656,"22":2657,"az":2658,"ution":2659,"xim":2660,"Ġam":2661,"inity":2662,"reas":2663,"Ġsome":2664,"erg":2665,"tim":2666,"icinity":2667,"Ġdri":2668,"ectivity":2669,"Ġnorm":2670,"imarily":2671,"agement":2672,"Ġattr":2673,"ĠMulti":2674,"ĠII":2675,"ĠThis":2676,"ĠFlood":2677,"tainment":2678,"iper":2679,"houses":2680,"vious":2681,"scape":2682,"ĠHome":2683,"Ġintersection":2684,"Ġbox":2685,"Ġrequiring":2686,"Ġcanopy":2687,"premises":2688,"Ġcompleted":2689,"Ġminor":2690,"Ġeffect":2691,"Ġregulation":2692,"Ġprotect":2693,"Ġtopog":2694,"________":2695,"Ġelectronic":2696,"Ġtoward":2697,"Ġmonths":2698,"Ġproposal":2699,"Ġmotor":2700,"Ġstyle":2701,"DA":2702,"LE":2703,"Residential":2704,"Side":2705,"Traditional":2706,"VE":2707,"hie":2708,"lim":2709,"min":2710,"oading":2711,"tent":2712,"Ġ|":2713,"Ġes":2714,"Ġri":2715,"rect":2716,"ĠĠĉ":2717,"ality":2718,"Ġpan":2719,"Ġfences":2720,"Ġfees":2721,"orough":2722,"ices":2723,"Ġwide":2724,"Ġwel":2725,"Ġreduce":2726,"cember":2727,"etr":2728,"Ġthorough":2729,"Ġliqu":2730,"ĠApp":2731,"ĠAirport":2732,"Ġislands":2733,"umst":2734,"raphic":2735,"Ġdispos":2736,"Ġplane":2737,"Ġstruct":2738,"sequent":2739,"ommercial":2740,"Ġencour":2741,"Ġ35":2742,"TIONS":2743,"Ġsour":2744,"neys":2745,"Ġconformity":2746,"Ġelevations":2747,"Ġprotection":2748,"Ġcircumst":2749,"Ġprocedures":2750,"Ġpotential":2751,"ĠYard":2752,"Ġmembers":2753,"forcement":2754,"Ġkeep":2755,"urisdic":2756,");":2757,"En":2758,"af":2759,"ling":2760,"ole":2761,"sac":2762,"Ġite":2763,"rew":2764,"ordin":2765,"itable":2766,"Ġce":2767,"Ġcurrent":2768,"Ġinf":2769,"Ġmost":2770,"Ġnet":2771,"Ġnum":2772,"ĠCont":2773,"Ġhards":2774,"Ġexam":2775,"Ġgas":2776,"Ġgener":2777,"Ġsubsequent":2778,"ĠTra":2779,"ĠFamily":2780,"ĠLocation":2781,"ĠLighting":2782,"Ġachie":2783,"tenn":2784,"Ġexist":2785,"ĠDecember":2786,"Ġdoor":2787,"count":2788,"Ġtraditional":2789,"Ġreviewed":2790,"ock":2791,"ultural":2792,"venty":2793,"Ġseventy":2794,"Ġreference":2795,"Ġadoption":2796,"Ġsixty":2797,"Ġconflic":2798,"Ġfifteen":2799,"Ġregular":2800,"Ġrespect":2801,"Ġpath":2802,"Ġresidents":2803,"Ġregard":2804,"Ġalleys":2805,"Ġcompatibility":2806,"Ġcourt":2807,"Ġcombination":2808,"Ġincrease":2809,"echn":2810,"Ġbuilt":2811,"Institutional":2812,"Ġwelfare":2813,"urisdiction":2814,"Temporary":2815,"ces":2816,"frame":2817,"lar":2818,"off":2819,"wo":2820,"Ġamo":2821,"int":2822,"Ġsmooth":2823,"hever":2824,"ention":2825,"Ġantenn":2826,"ically":2827,"ather":2828,"Ġrev":2829,"Ġstep":2830,"Ġproj":2831,"imneys":2832,"ĠCirculation":2833,"ĠAN":2834,"Ġusing":2835,"Ġvicinity":2836,"Ġwhichever":2837,"ĠFe":2838,"ĠFront":2839,"Ġdescribed":2840,"arest":2841,"Ġimage":2842,"Ġact":2843,"Ġprac":2844,"Ġprimarily":2845,"adding":2846,"Ġart":2847,"Ġnearest":2848,"Ġinterf":2849,"ĠCounty":2850,"ĠfaÃ§ades":2851,"Ġconnection":2852,"Ġlimitations":2853,"Ġserving":2854,"Ġkn":2855,"Ġresidence":2856,"Ġindicating":2857,"Ġvalue":2858,"ĠDISTRICTS":2859,"Ġpainted":2860,"Ġfull":2861,"ĠSidewal":2862,"ĠAdministrator":2863,"Ġapplied":2864,"ĠVehicle":2865,"Ġprofessional":2866,"Ġbehind":2867,"Ġcircumstances":2868,"Ġhardship":2869,"05":2870,"17":2871,"35":2872,"As":2873,"Ch":2874,"Drive":2875,"Rec":2876,"Uses":2877,"gn":2878,"ience":2879,"law":2880,"mise":2881,"ners":2882,"partment":2883,"vid":2884,"Ġec":2885,"Ġthem":2886,"Ġpic":2887,"edic":2888,"Ġbays":2889,"ording":2890,"orks":2891,"Ġcodes":2892,"Ġshiel":2893,"etached":2894,"ĠScreening":2895,"Ġhistoric":2896,"There":2897,"olum":2898,"ĠBe":2899,"story":2900,"Ġvac":2901,"ĠOrdinances":2902,"ĠĠĠĠĠĠĠĠĠĠ":2903,"Ġdescription":2904,"ĠLim":2905,"ĠEIFS":2906,"tics":2907,"ĠUSE":2908,"Ġfaces":2909,"Ġ75":2910,"ĠIndustrial":2911,"ĠHO":2912,"Ġinterior":2913,"fications":2914,"ĠAdd":2915,"Ġcontains":2916,"Ġcannot":2917,"Ġoverall":2918,"Ġporches":2919,"prehensive":2920,"Ġequal":2921,"Ġauthority":2922,"Ġwriting":2923,"Ġevents":2924,"Except":2925,"ompatib":2926,"Ġorientation":2927,"Ġeasements":2928,"Ġsold":2929,"Ġdraw":2930,"Ġgoods":2931,"bruary":2932,"Ġtownhouse":2933,"Ġschedule":2934,"Ġprepared":2935,"Ġelectrical":2936,"ĠRedevelopment":2937,"Ġwalk":2938,"Ġrezoning":2939,"Ġrecogn":2940,"ergency":2941,"Ġsteps":2942,"ĠFebruary":2943,"Ro":2944,"Vehic":2945,"four":2946,"go":2947,"oid":2948,"water":2949,"work":2950,"Ġaround":2951,"Ġtall":2952,"ending":2953,"Ġbro":2954,"Ġbene":2955,"Ġfree":2956,"Ġframe":2957,"orpor":2958,"Ġcost":2959,"Ġorgan":2960,"Ġevid":2961,"ĠApril":2962,"Ġconcer":2963,"ĠPre":2964,"urs":2965,"uration":2966,"urally":2967,"Ġparapet":2968,"Ġatt":2969,"uplex":2970,"ĠTo":2971,"Ġlocations":2972,"ĠFl":2973,"ĠFire":2974,"ervious":2975,"illbo":2976,"Ġfollows":2977,"divisions":2978,"2020":2979,"Ġdoors":2980,"ĠâĢĶ":2981,"Ġsatis":2982,"plain":2983,"ĠParagraph":2984,"Ġexceeding":2985,"ike":2986,"Ġcontainers":2987,"Ġvisibility":2988,"Ġsex":2989,"Ġdetermination":2990,"Ġsupport":2991,"Ġentrances":2992,"Ġcertain":2993,"urban":2994,"Ġnature":2995,"Ġlimits":2996,"Ġjurisdiction":2997,"Ġcaliper":2998,"Ġsystems":2999,"Ġcolor":3000,"raphy":3001,"ashing":3002,"ĠRecreational":3003,"Ġreplacement":3004,"Ġdamage":3005,"Ġglare":3006,"ĠComprehensive":3007,"Ġsites":3008,"Ġlabeled":3009,"Ġgrowth":3010,"Ġaccompan":3011,"lusive":3012,"liminary":3013,"Ġriver":3014,"etrations":3015,"ĠAND":3016,"Ar":3017,"De":3018,"Development":3019,"EVE":3020,"PUD":3021,"RT":3022,"ipped":3023,"lines":3024,"ob":3025,"pted":3026,"Ġ/":3027,"Ġsw":3028,"ering":3029,"erch":3030,"tified":3031,"Ġpoles":3032,"anical":3033,"anuary":3034,"Ġfee":3035,"Ġword":3036,"Ġiniti":3037,"Ġrede":3038,"Ġshared":3039,"Ġlin":3040,"Ġliving":3041,"ĠCare":3042,"omical":3043,"que":3044,"trib":3045,"urch":3046,"ules":3047,"ĠDowntown":3048,"lly":3049,"andise":3050,"Ġexcess":3051,"ateg":3052,"umps":3053,"Ġconsisting":3054,"ĠIN":3055,"Ġcompon":3056,"........................":3057,"Ġenh":3058,"ancial":3059,"ĠHistoric":3060,"2040":3061,"ivic":3062,"Ġaband":3063,"aÃ§ade":3064,"Ġtruck":3065,"Ġcorpor":3066,"Ġoffices":3067,"Ġporch":3068,"Ġrefl":3069,"Ġcharacterized":3070,"reak":3071,"ricultural":3072,"Ġdisplayed":3073,"ĠXX":3074,"Ġconnectivity":3075,"ĠLandscaping":3076,"Ġcreated":3077,"Ġcenters":3078,"ification":3079,"Ġidentify":3080,"Ġreceip":3081,"Ġmatter":3082,"Ġgarage":3083,"ĠJanuary":3084,"tising":3085,"Ġobstruction":3086,"Conditional":3087,"ĠSpaces":3088,"Accessory":3089,"green":3090,"ĠTrans":3091,"Ġentertainment":3092,"Ġheld":3093,"Ġdivided":3094,"Ġtreatment":3095,"Ġexempt":3096,"Ġseries":3097,"Ġannexation":3098,"Ġnormal":3099,"Ġdisposal":3100,"Ġitems":3101,"erchandise":3102,"500":3103,"Plan":3104,"Public":3105,"PMENT":3106,"Primary":3107,"SP":3108,"clu":3109,"eed":3110,"fit":3111,"front":3112,"none":3113,"sp":3114,"Ġsy":3115,"Ġsee":3116,"alcon":3117,"Ġpit":3118,"edical":3119,"ansion":3120,"Ġbicycle":3121,"Ġreal":3122,"ceed":3123,"Ġstated":3124,"Ġstory":3125,"acilities":3126,"Ġproceed":3127,"Ġforward":3128,"uly":3129,"Ġhand":3130,"Ġ13":3131,"Ġgiv":3132,"state":3133,"Ġdiscount":3134,"ife":3135,"Ġincorpor":3136,"ĠTrees":3137,"Ġlocal":3138,"ĠRev":3139,"Ġdesignation":3140,"Ġ800":3141,"Ġtravel":3142,"artments":3143,"Ġallowable":3144,"Ġchanged":3145,"Ġtimes":3146,"Ġoccupants":3147,"Ġlandscaped":3148,"Ġspecifications":3149,"ĠAttached":3150,"ĠXI":3151,"Ġseparated":3152,"Ġhouse":3153,"Ġrecorded":3154,"edium":3155,"Ġmultiple":3156,"Ġdirectly":3157,"Ġvalid":3158,"Ġlawful":3159,"Ġstreams":3160,"echanical":3161,"Ġsolid":3162,"Ġguide":3163,"ĠAgree":3164,"ĠCenter":3165,"Ġextension":3166,"Ġbasis":3167,"LOPMENT":3168,"ĠĠĉĠĠ":3169,"Ġliquor":3170,"Ġsource":3171,"ĠTraffic":3172,"Ġsexual":3173,"EVELOPMENT":3174,"Ġgiven":3175,"28":3176,"Aut":3177,"LAN":3178,"Th":3179,"UR":3180,"eres":3181,"ged":3182,"itional":3183,"ken":3184,"ma":3185,"pit":3186,"Ġtri":3187,"Ġanat":3188,"itle":3189,"ict":3190,"lot":3191,"vered":3192,"Ġnuis":3193,"Ġste":3194,"Ġstat":3195,"Ġstations":3196,"ĠSystem":3197,"Ġlights":3198,"ĠPri":3199,"ĠPrimary":3200,"ĠPRO":3201,"Ġhood":3202,"ĠDrive":3203,"Ġexternal":3204,"Ġsignificant":3205,"ĠRes":3206,"utdoor":3207,"Ġdisa":3208,"Ġplants":3209,"ape":3210,"ĠMain":3211,"ĠIll":3212,"ĠTree":3213,"ĠTyp":3214,"semb":3215,"ewer":3216,"ĠĉĠĉĠĠ":3217,"ĠEach":3218,"illage":3219,"ĠStorage":3220,"ĠStaff":3221,"anged":3222,"truct":3223,"Ġleg":3224,"Ġfore":3225,"Ġprevious":3226,"Ġowned":3227,"ĠCour":3228,"Ġsoil":3229,"conform":3230,"Ġoccupations":3231,"Ġwidths":3232,"Ġelement":3233,"Ġroofline":3234,"Ġoverlay":3235,"Ġinstitu":3236,"Ġinstitutional":3237,"eals":3238,"ĠProject":3239,"Ġdepartment":3240,"Ġhereby":3241,"Ġeffects":3242,"Ġflat":3243,"Ġrender":3244,"Ġindicated":3245,"Ġradi":3246,"Ġadvertising":3247,"ĠĠĠĠĠĠĠĠĠĠĠĠĠĠĠĠĠĠĠĠĠĠĠĠĠĠĠĠĠĠĠĠĠĠĠĠĠĠĠĠĠĠĠĠĠĠĠĠĠĠĠĠĠĠĠĠĠĠĠĠĠĠĠĠ":3248,"Ġlarger":3249,"Applications":3250,"Ġfoundation":3251,"Ġcombined":3252,"Ġrunway":3253,"Ġgarages":3254,"Ġsubstantially":3255,"Ġcustomer":3256,"Ġrooms":3257,"Ġgovernmental":3258,"Ġkeeping":3259,"Ġexample":3260,"Ġamount":3261,"Ġantennas":3262,"Ġredevelopment":3263,"Ġanatomical":3264,"Date":3265,"Dimensional":3266,"ID":3267,"IL":3268,"OW":3269,"Offic":3270,"Sho":3271,"TE":3272,"aque":3273,"gram":3274,"hol":3275,"half":3276,"ness":3277,"upp":3278,"udi":3279,"with":3280,"yl":3281,"Ġawning":3282,"inyl":3283,"Ġsk":3284,"hest":3285,"Ġfail":3286,"Ġfind":3287,"Ġfurther":3288,"Ġdedic":3289,"lemental":3290,"imming":3291,"ĠAreas":3292,"ired":3293,"ĠDensity":3294,"Ġperformance":3295,"ĠOn":3296,"ospit":3297,"Ġparts":3298,"Ġ21":3299,"raft":3300,"Ġuniqu":3301,"through":3302,"ĠIt":3303,"ĠImp":3304,"Ġchapter":3305,"Ġchurch":3306,"Ġmail":3307,"ĠGFA":3308,"Ġaccept":3309,"ĠInter":3310,"ĠWindow":3311,"ĠâĢ¢":3312,"Ġsole":3313,"Ġmeets":3314,"Ġoperated":3315,"Ġvariances":3316,"Ġautomobile":3317,"Ġobjec":3318,"ĠPerformance":3319,"ĠĉĠĉĠĉĠĉĠ":3320,"Ġgrant":3321,"Ġbuffering":3322,"RDS":3323,"ĠStreets":3324,"Ġfootage":3325,"Ġstored":3326,"Ġaffixed":3327,"Ġprocessing":3328,"Ġwholly":3329,"Ġtowards":3330,"ĠAmendments":3331,"cery":3332,"Ġcollective":3333,"Ġmodifications":3334,"udy":3335,"Ġdrawn":3336,"Ġglass":3337,"ĠParkway":3338,"Ġhigher":3339,"Ġaisles":3340,"Ġinspection":3341,"Ġtopography":3342,"lawful":3343,"Ġevidence":3344,"110":3345,"AD":3346,"ET":3347,"Nothing":3348,"PE":3349,"Pri":3350,"Un":3351,"gress":3352,"ians":3353,"lec":3354,"na":3355,"yd":3356,"ĠQ":3357,"Ġsight":3358,"Ġsup":3359,"alt":3360,"Ġpage":3361,"Ġbed":3362,"Ġfurn":3363,"Ġfunction":3364,"ortic":3365,"Ġcul":3366,"Ġcos":3367,"rol":3368,"row":3369,"ata":3370,"atory":3371,"Ġduties":3372,"Ġread":3373,"Ġshade":3374,"ecu":3375,"ĠSize":3376,"Ġlit":3377,"pper":3378,"ĠApproval":3379,"ĠPr":3380,"ĠNot":3381,"ulations":3382,"Ġhow":3383,"ĠDay":3384,"osion":3385,"verse":3386,"standing":3387,"Ġdistrib":3388,"Ġund":3389,"Ġplant":3390,"entives":3391,"Ġsubmission":3392,"Ġsubdivisions":3393,"ĠMa":3394,"ĠMaster":3395,"Ġaccording":3396,"ĠFederal":3397,"Ġproperly":3398,"ĠĉĠĉĠĉĠ":3399,"ĠLoading":3400,"ĠZON":3401,"Ġchimneys":3402,"tically":3403,"Ġrather":3404,"anger":3405,"Ġopaque":3406,"Ġenforcement":3407,"opies":3408,"Ġsurvey":3409,"ĠWalls":3410,"onstruction":3411,"portation":3412,"Ġmanagement":3413,"Ġpole":3414,"acturing":3415,"Ġvisually":3416,"Ġdetermines":3417,"ĠProt":3418,"divided":3419,"Ġpreserve":3420,"Ġentry":3421,"Ġrecreation":3422,"ufacturing":3423,"Ġassociation":3424,"Ġcontinue":3425,"Ġcontinued":3426,"Ġcolors":3427,"Ġquality":3428,"Ġneeded":3429,"Ġyears":3430,"Ġcollector":3431,"Application":3432,"Ġexclusive":3433,"Ġfloodplain":3434,"Ġfully":3435,"Ġdamaged":3436,"Nonconforming":3437,"levant":3438,"ĠCenters":3439,"ĠApplication":3440,"ĠNonconforming":3441,"unicipal":3442,"Ġfinding":3443,"Ġfiled":3444,"Ġmethods":3445,"Ġpeti":3446,"Ġerosion":3447,"Ġopport":3448,"Ġindex":3449,"ĠShopping":3450,"afe":3451,"ordinate":3452,"Ġconflict":3453,"Ġecon":3454,"ĠFlag":3455,"Ġnuisance":3456,"Ġcollectively":3457,"79":3458,"95":3459,"Front":3460,"IG":3461,"Other":3462,"Upon":3463,"cill":3464,"finished":3465,"lit":3466,"oint":3467,"Ġurban":3468,"hetic":3469,"Ġfunc":3470,"ish":3471,"Ġdowntown":3472,"Ġmerchandise":3473,"Ġmunicipal":3474,"Ġreloc":3475,"Ġshops":3476,"Ġstage":3477,"Ġefficient":3478,"acking":3479,"ĠSee":3480,"Ġconventional":3481,"ott":3482,"quipment":3483,"ĠPl":3484,"ĠPermanent":3485,"uble":3486,"ĠDRT":3487,"andard":3488,"Ġassemb":3489,"Ġdeg":3490,"Ġpropor":3491,"Ġspacing":3492,"âĢĶ":3493,"Ġdisc":3494,"Ġdiscre":3495,"Ġunlawful":3496,"Ġheights":3497,"ĠFreestanding":3498,"arehouse":3499,"taining":3500,"ipe":3501,"Ġfact":3502,"Ġfacade":3503,"Ġ2019":3504,"ĠIntent":3505,"ĠHous":3506,"Ġcommission":3507,"Ġ500":3508,"Ġdecor":3509,"Ġcorres":3510,"ĠAlternative":3511,"hibit":3512,"Ġsell":3513,"Ġseven":3514,"Ġvariety":3515,"Ġrelation":3516,"ĠProced":3517,"Ġagency":3518,"Ġhereafter":3519,"Ġsupplement":3520,"Ġconfig":3521,"Ġtermin":3522,"Ġchangeable":3523,"ĠInstitutional":3524,"ief":3525,"Ġ1991":3526,"ANDA":3527,"Ġroads":3528,"Ġviews":3529,"ĠService":3530,"Ġcolum":3531,"Ġques":3532,"Ġsewage":3533,"Ġmonument":3534,"Ġstatement":3535,"Ġwhile":3536,"Ġsmaller":3537,"Ġconduct":3538,"Ġcustomarily":3539,"Ġintegral":3540,"Ġchildren":3541,"Ġclassification":3542,"ĠSTANDA":3543,"Ġrecommendation":3544,"ĠBuffer":3545,"pendent":3546,"Ġrows":3547,"Ġpowers":3548,"Ġanimals":3549,"Ġdemonstrates":3550,"Ġpanels":3551,"Ġstructural":3552,"ĠControl":3553,"echnical":3554,"Ġshielded":3555,"ĠUSES":3556,"Ġtaller":3557,"Ġenhance":3558,"Ġabandoned":3559,"Ġcosts":3560,"cillary":3561,"Ġdiscretion":3562,"200":3563,"EIFS":3564,"Man":3565,"Prov":3566,"Special":3567,"Trees":3568,"Within":3569,"applic":3570,"cal":3571,"denti":3572,"ium":3573,"itive":3574,"ls":3575,"sity":3576,"Ġturn":3577,"Ġseat":3578,"Ġsizes":3579,"head":3580,"ony":3581,"tify":3582,"Ġpil":3583,"Ġpub":3584,"oration":3585,"ists":3586,"Ġclo":3587,"Ġdata":3588,"Ġwet":3589,"Ġwast":3590,"Ġmach":3591,"Ġmechanical":3592,"Ġrelevant":3593,"Ġbeer":3594,"Ġsho":3595,"ecting":3596,"Ġeven":3597,"acy":3598,"ĠSupp":3599,"astic":3600,"ĠAP":3601,"ĠAut":3602,"ayout":3603,"ĠPLAN":3604,"Ġhipped":3605,"Ġperform":3606,"ables":3607,"Ġexpos":3608,"Ġ110":3609,"Ġnoted":3610,"Ġparty":3611,"Ġ24":3612,"Ġsplit":3613,"Ġuns":3614,"Ġincompatib":3615,"Ġstrict":3616,"Ġhear":3617,"Ġmode":3618,"Ġcompr":3619,"ĠElec":3620,"ofs":3621,"Ġinteres":3622,"Ġaccessible":3623,"Ġnonconform":3624,"change":3625,"Ġpurch":3626,"2019":3627,"2079":3628,"istered":3629,"Ġdecl":3630,"Ġvariation":3631,"ircraft":3632,"ealth":3633,"ĠProjec":3634,"Ġagain":3635,"ĠExcept":3636,"Ġissue":3637,"Ġprescribed":3638,"Ġsupply":3639,"Ġposted":3640,"Ġemergency":3641,"Ġregulate":3642,"Ġstoops":3643,"Ġrental":3644,"Ġappeals":3645,"Ġneighborhoods":3646,"Ġregarding":3647,"Ġrati":3648,"Ġclearance":3649,"Ġhazards":3650,"Ġneeds":3651,"Ġhighway":3652,"Ġidentified":3653,"angement":3654,"Prohibited":3655,"Ġreplaced":3656,"Ġdevices":3657,"ĠCladding":3658,"Ġtrailers":3659,"Ġdirection":3660,"Ġconvenience":3661,"Ġrecommendations":3662,"Ġrestaurants":3663,"Ġslope":3664,"Ġexpressly":3665,"Ġadministrative":3666,"Ġreferred":3667,"Ġencourage":3668,"Ġnumbers":3669,"Ġachieve":3670,"Ġregardless":3671,"Ġbroken":3672,"ĠCourt":3673,"Ġunique":3674,"Ġeconom":3675,"Ġcolumns":3676,"application":3677,"70":3678,"802":3679,"Commercial":3680,"Dis":3681,"Ground":3682,"Min":3683,"Screening":3684,"Use":3685,"ave":3686,"ares":3687,"ader":3688,"face":3689,"fast":3690,"ially":3691,"me":3692,"sets":3693,"ĠÂ":3694,"Ġsel":3695,"erior":3696,"Ġbul":3697,"Ġfill":3698,"Ġfederal":3699,"istics":3700,"Ġca":3701,"Ġcred":3702,"Ġcateg":3703,"ars":3704,"Ġtoget":3705,"igious":3706,"Ġstra":3707,"leph":3708,"legal":3709,"Ġprogram":3710,"ĠSur":3711,"ĠSales":3712,"ĠPlat":3713,"Ġdead":3714,"Ġgo":3715,"ĠRES":3716,"ĠRetail":3717,"Ġsubordinate":3718,"Ġmovement":3719,"ĠMin":3720,"ĠTen":3721,"estaur":3722,"ĠFacilities":3723,"ĠEstablish":3724,"ĠEquipment":3725,"Ġdesignee":3726,"Ġnotification":3727,"Ġcouncil":3728,"Ġcount":3729,"Ġcovered":3730,"ĠStore":3731,"Ġrules":3732,"Ġfacades":3733,"ĠVari":3734,"Ġenlar":3735,"ads":3736,"tention":3737,"ĠHortic":3738,"ĠHealth":3739,"ĠWithin":3740,"Ġimposed":3741,"Ġarticle":3742,"Ġnear":3743,"Ġ2003":3744,"Ġapproxim":3745,"Ġexpansion":3746,"Ġinside":3747,"atives":3748,"ĠOffice":3749,"Ġsuppl":3750,"Ġextended":3751,"asters":3752,"Ġpermanently":3753,"Ġseparation":3754,"Ġconnections":3755,"Exterior":3756,"Ġrecords":3757,"Ġ1995":3758,"Ġsecond":3759,"Ġviewed":3760,"Ġgranting":3761,"Ġindicate":3762,"Ġwhole":3763,"ĠPermits":3764,"Ġmodified":3765,"Ġlevels":3766,"Ġwhat":3767,"Ġenvironmental":3768,"Ġpaved":3769,"pproved":3770,"Ġincreased":3771,"Ġcorners":3772,"Require":3773,"ĠNeighbor":3774,"Ġpenetrations":3775,"Ġfuel":3776,"ARK":3777,"Ġdetails":3778,"Ġcenterline":3779,"greg":3780,"Ġextending":3781,"LATIONS":3782,"ĠBuffers":3783,"Ġhighest":3784,"Ġacreage":3785,"Ġrestaurant":3786,"Ġdocument":3787,"Ġreduced":3788,"Ġimmediate":3789,"Ġestim":3790,"Ġthoroughfare":3791,"Ġrecognized":3792,"going":3793,"Article":3794,"Ġlink":3795,"clude":3796,"IDEN":3797,"Ġacceptable":3798,"ĠQu":3799,"Ġpetition":3800,"Ġquestion":3801,"ĠSTANDARDS":3802,"Ġincompatible":3803,"Ġratio":3804,"Ġtogether":3805,"ATION":3806,"Establish":3807,"FOR":3808,"Flood":3809,"GU":3810,"Multi":3811,"Not":3812,"Table":3813,"aid":3814,"ds":3815,"from":3816,"ging":3817,"itig":3818,"rup":3819,"uments":3820,"Ġaest":3821,"Ġaircraft":3822,"Ġtext":3823,"eration":3824,"Ġtheater":3825,"Ġpedestr":3826,"Ġbillbo":3827,"itor":3828,"icular":3829,"Ġdrain":3830,"Ġdumps":3831,"Ġwine":3832,"Ġwind":3833,"log":3834,"letion":3835,"Ġegress":3836,"access":3837,"Ġlike":3838,"Ġconforming":3839,"urist":3840,"ĠNumber":3841,"Ġharm":3842,"Ġhyd":3843,"ĠDo":3844,"ĠDEVELOPMENT":3845,"anded":3846,"ĠOwn":3847,"uman":3848,"Ġ150":3849,"aining":3850,"oli":3851,"rie":3852,"ried":3853,"uty":3854,"ĠBever":3855,"Ġadv":3856,"Ġadded":3857,"iform":3858,"ditions":3859,"Ġmoving":3860,"Ġpermitting":3861,"estock":3862,"ibr":3863,"Ġcounted":3864,"Ġprovides":3865,"ept":3866,"ĠVillage":3867,"Ġeng":3868,"Ġimpose":3869,"Ġ2018":3870,"tence":3871,"TIAL":3872,"ĠHigh":3873,"Ġexistence":3874,"Ġ80":3875,"Ġneighbor":3876,"Ġlinear":3877,"ivestock":3878,"Ġdecide":3879,"Ġexceeds":3880,"Ġtract":3881,"Ġoccupy":3882,"earing":3883,"Ġpolic":3884,"Ġcorridor":3885,"Ġautom":3886,"Ġobsc":3887,"Ġportions":3888,"Ġreferen":3889,"phas":3890,"phalt":3891,"Ġgrading":3892,"Ġconformance":3893,"Ġindividually":3894,"Ġtransitional":3895,"Ġclean":3896,"Ġaffected":3897,"Ġpatr":3898,"Ġkept":3899,"Ġclosest":3900,"Ġevergreen":3901,"Ġrestoration":3902,"Ġrecommended":3903,"Ġhazardous":3904,"levision":3905,"ĠChapter":3906,"Ġinvolve":3907,"Ġsheet":3908,"Ġteleph":3909,"Ġfinancial":3910,"Ġconvenient":3911,"Ġerr":3912,"ĠREGU":3913,"pendicular":3914,"Ġaisle":3915,"Ġmassing":3916,"Ġletter":3917,"Ġimmediately":3918,"Ġattrac":3919,"Ġnetwork":3920,"ĠFrontage":3921,"Ġinterfere":3922,"Ġvacant":3923,"Ġcomponents":3924,"Ġreceipt":3925,"Ġsymb":3926,"Ġtriang":3927,"ĠIllumin":3928,"ĠZONING":3929,"Ġshopping":3930,"Ġexposure":3931,"Ġagainst":3932,"IDENTIAL":3933,"Ġpedestrians":3934,"ĠREGULATIONS":3935,"23":3936,"36":3937,"80":3938,"AA":3939,"CLE":3940,"Detached":3941,"Fences":3942,"Number":3943,"Pre":3944,"Town":3945,"au":3946,"ov":3947,"ĠK":3948,"Ġ[":3949,"Ġing":3950,"Ġod":3951,"Ġshed":3952,"Ġpass":3953,"Ġbreak":3954,"Ġfit":3955,"Ġfarm":3956,"orking":3957,"ising":3958,"Ġcast":3959,"Ġcamp":3960,"roup":3961,"arning":3962,"ators":3963,"Ġdanger":3964,"Ġinj":3965,"Ġmunt":3966,"Ġmitig":3967,"Ġstating":3968,"Ġproduce":3969,"......":3970,"Ġligh":3971,"ĠAL":3972,"unities":3973,"otel":3974,"ĠPER":3975,"ĠDimensional":3976,"Ġperpendicular":3977,"ably":3978,"abric":3979,"osite":3980,"veloped":3981,"velopments":3982,"Ġparties":3983,"Ġrequires":3984,"vers":3985,"dered":3986,"irable":3987,"Ġvolum":3988,"Ġvinyl":3989,"tinguis":3990,"Ġconsecu":3991,"Ġsubdivided":3992,"Ġresul":3993,"resh":3994,"ĠFinis":3995,"ĠFaÃ§ade":3996,"Ġdescrib":3997,"Ġcompletion":3998,"izing":3999,"ontin":4000,"ĠRef":4001,"ĠRear":4002,"Ġcoven":4003,"Ġmaking":4004,"Ġacce":4005,"Ġleft":4006,"Ġ300":4007,"erms":4008,"Ġ77":4009,"Ġdeterior":4010,"TICLE":4011,"Ġplastic":4012,"Ġimplement":4013,"Ġimpervious":4014,"Ġdeveloping":4015,"istance":4016,"encies":4017,"Ġdecisions":4018,"ĠParks":4019,"Ġtrim":4020,"Ġtrash":4021,"arian":4022,"ulturist":4023,"Ġpools":4024,"Ġsimulated":4025,"Ġexpanded":4026,"Ġfloors":4027,"118":4028,"Ġtypically":4029,"Ġreligious":4030,"Ġutilized":4031,"ĠProhibited":4032,"tificates":4033,"Ġcharacteristics":4034,"ĠĉĠĉĠĉĠĉĠĉĠĠ":4035,"Ġgrass":4036,"pecific":4037,"Ġmeasurement":4038,"Ġemphas":4039,"ĠInsulation":4040,"Existing":4041,"Ġ1002":4042,"Ġaffect":4043,"Ġmaps":4044,"Ġ1997":4045,"ANC":4046,"Ġsecure":4047,"Ġroadway":4048,"Ġcontinuous":4049,"Proposed":4050,"Ġhealthy":4051,"Ġexcav":4052,"ĠJuly":4053,"Ġinternally":4054,"ĠRecord":4055,"Ġobstruct":4056,"ĠSpace":4057,"Ġschools":4058,"Ġdevice":4059,"Ġinvolving":4060,"Ġshel":4061,"ĠManual":4062,"Ġcontract":4063,"Ġobtained":4064,"Ġdirected":4065,"perty":4066,"Ġstormwater":4067,"ĠThin":4068,"Ġtake":4069,"Ġsupported":4070,"Ġbarri":4071,"ĠInspector":4072,"Ġletters":4073,"Ġpatterns":4074,"Ġarrangement":4075,"Sidewal":4076,"Ġgenerally":4077,"Ġpractic":4078,"Ġknown":4079,"Vehicular":4080,"Ġaccompanied":4081,"Ġswimming":4082,"Ġsteep":4083,"ĠPrivate":4084,"withstanding":4085,"ĠPrincipal":4086,"Ġsurveyor":4087,"Ġopportunities":4088,"Ġpilasters":4089,"Ġwaste":4090,"ĠAutomobile":4091,"Ġdeclared":4092,"Ġstraight":4093,"ĠHorticulturist":4094,"Ġneighboring":4095,"Ġtelephone":4096,"Ġmuntins":4097,"Ġconsecutive":4098,"ĠFinishing":4099,".âĢĿ":4100,"09":4101,"27":4102,"App":4103,"Apartment":4104,"Di":4105,"GC":4106,"MP":4107,"Ma":4108,"MIT":4109,"Permanent":4110,"Retail":4111,"Servic":4112,"Walls":4113,"WTN":4114,"bage":4115,"fo":4116,"gative":4117,"grie":4118,"ok":4119,"par":4120,"pair":4121,"uation":4122,"inic":4123,"inion":4124,"Ġsl":4125,"Ġsti":4126,"Ġsens":4127,"Ġsized":4128,"aled":4129,"alent":4130,"ero":4131,"ests":4132,"Ġbalcon":4133,"Ġbott":4134,"Ġfile":4135,"Ġfresh":4136,"orient":4137,"Ġcab":4138,"roof":4139,"arge":4140,"ath":4141,"ats":4142,"atest":4143,"Ġwire":4144,"Ġwere":4145,"Ġshape":4146,"iling":4147,"iles":4148,"mentation":4149,"Ġstudy":4150,"lements":4151,"Ġeave":4152,"Ġlife":4153,"Ġlayout":4154,"Ġconver":4155,"unk":4156,"ĠPARK":4157,"urance":4158,"uled":4159,"lane":4160,"lank":4161,"ĠDuties":4162,"ĠOne":4163,"Ġdel":4164,"Ġdeed":4165,"Ġdeline":4166,"arden":4167,"ĠRow":4168,"Ġ250":4169,"âĢľ":4170,"uting":4171,"utters":4172,"ĠBO":4173,"iration":4174,"ĠItem":4175,"ĠFinal":4176,"ĠFences":4177,"ĠFAA":4178,"ipher":4179,"ports":4180,"ĠUS":4181,"ĠRepair":4182,"ĠStandard":4183,"Ġexceptions":4184,"Ġ65":4185,"Ġopinion":4186,"lished":4187,"Ġplay":4188,"ĠHaz":4189,"ailure":4190,"ĠWall":4191,"ĠWorks":4192,"Ġnegative":4193,"ensities":4194,"ivalent":4195,"venue":4196,"Ġcorrect":4197,"Ġthereon":4198,"Ġsurfaces":4199,"âĢĿ,":4200,"Ġformal":4201,"Ġagricultural":4202,"Ġaggrie":4203,"ĠExterior":4204,"Ġdepartments":4205,"Ġequivalent":4206,"Ġassign":4207,"Ġparked":4208,"Ġcertified":4209,"Ġelim":4210,"Ġgreen":4211,"Ġinformational":4212,"Ġvertically":4213,"Ġphot":4214,"Ġdistances":4215,"Ġtransfer":4216,"egal":4217,"Ġprotected":4218,"Ġhouses":4219,"Ġcopies":4220,"Ġimprovement":4221,"Ġavoid":4222,"Ġrestriction":4223,"Ġcollection":4224,"Ġmodification":4225,"Ġcarry":4226,"Ġpavement":4227,"Ġmatters":4228,"olesale":4229,"Ġremed":4230,"Ġdetailed":4231,"Ġprocedure":4232,"Ġrepresents":4233,"Ġtownhouses":4234,"Ġcontrary":4235,"Ġtelevision":4236,"Ġwaived":4237,"ĠShall":4238,"ĠShow":4239,"Ġscheduled":4240,"Ġcalculated":4241,"Ġcalculations":4242,"Ġflagp":4243,"Ġhelp":4244,"Ġsupporting":4245,"ĠInspections":4246,"Ġanimal":4247,"ponding":4248,"Ġarranged":4249,"Ġdrives":4250,"rewp":4251,"Ġregularly":4252,"Ġprojection":4253,"Ġprojections":4254,"Ġactual":4255,"ĠSidewalk":4256,"ĠSidewalks":4257,"ĠLimit":4258,"ĠHOD":4259,"Ġwalkways":4260,"Roofs":4261,"ĠTransportation":4262,"ĠRevised":4263,"Ġlawfully":4264,"Ġguidelines":4265,"ĠAgreements":4266,"Ġfinds":4267,"ĠProtection":4268,"Ġfunctions":4269,"Ġcorresponding":4270,"ĠSupplemental":4271,"Ġinterests":4272,"Ġeconomic":4273,"Ġbulk":4274,"Ġcategory":4275,"ĠRESIDENTIAL":4276,"Ġingress":4277,"roofed":4278,"Ġaggrieved":4279,"):":4280,"06":4281,"31":4282,"32":4283,"52":4284,"97":4285,"Area":4286,"Airport":4287,"Failure":4288,"Home":4289,"Height":4290,"Lighting":4291,"MA":4292,"Rear":4293,"Sub":4294,"Tr":4295,"UP":4296,"adi":4297,"avi":4298,"ck":4299,"ched":4300,"commercial":4301,"een":4302,"jection":4303,"junction":4304,"nt":4305,"necessary":4306,"olog":4307,"rub":4308,"rant":4309,"sed":4310,"structure":4311,"uter":4312,"where":4313,"yards":4314,"Ġpay":4315,"anopy":4316,"Ġbl":4317,"Ġbur":4318,"Ġfewer":4319,"Ġfabric":4320,"Ġche":4321,"icro":4322,"Ġbeg":4323,"used":4324,"Ġnurs":4325,"Ġstop":4326,"Ġstudi":4327,"Ġerect":4328,".....":4329,"Ġlater":4330,"ĠComp":4331,"ompl":4332,"ĠAss":4333,"Ġconcept":4334,"urity":4335,"ĠNC":4336,"Ġhuman":4337,"ĠDet":4338,"ĠDwelling":4339,"essed":4340,"ĠBU":4341,"Ġdisp":4342,"ideo":4343,"Ġuniform":4344,"Ġunnecessary":4345,"Ġvary":4346,"Ġincentives":4347,"Ġattention":4348,"ĠPlanting":4349,"ĠĠĠĠĠĠĠĠĠĠĠ":4350,"Ġheavi":4351,"aper":4352,"ĠIs":4353,"emo":4354,"Ġdesirable":4355,"ĠEstate":4356,"ĠUtil":4357,"formation":4358,"Ġzoned":4359,"Ġcould":4360,"Ġoffer":4361,"Ġacross":4362,"anch":4363,"Ġaccessed":4364,"ONS":4365,"Ġpreliminary":4366,"Ġexists":4367,"Ġcommunic":4368,"ackage":4369,"Ġtraining":4370,"Ġsuitable":4371,"Ġpool":4372,"Ġapproach":4373,"ĠBound":4374,"Ġthereafter":4375,"ĠAlcoholic":4376,"Ġoperate":4377,"Ġcanopies":4378,"Ġoverhead":4379,"Ġrelative":4380,"ĠSubmission":4381,"Ġclub":4382,"Ġ1975":4383,"Ġpreserved":4384,"Ġwatercour":4385,"pected":4386,"Ġdiffic":4387,"Ġapplying":4388,"Ġcertificates":4389,"Ġtenant":4390,"ĠUnder":4391,"Ġarchitecturally":4392,"Ġdisturb":4393,"eget":4394,"plex":4395,"Ġregistered":4396,"Ġstands":4397,"ĠSetbacks":4398,"certain":4399,"Ġentity":4400,"Ġgoverning":4401,"Ġvalues":4402,"Ġerection":4403,"Ġmodify":4404,"Ġreceived":4405,"ographic":4406,"Ġrunoff":4407,"Ġeighteen":4408,"Ġrequests":4409,"Ġcapable":4410,"Ġprojects":4411,"Ġpaint":4412,"Ġpromot":4413,"ĠSecondary":4414,"insul":4415,"Adult":4416,"enerally":4417,"Ġclassified":4418,"Ġwaiver":4419,"Ġtrailer":4420,"Ġflags":4421,"Ġtreatments":4422,"ĠConservation":4423,"Ġbanner":4424,"Landscape":4425,"Ġindependent":4426,"Ġreduction":4427,"ISI":4428,"rooms":4429,"Ġmarket":4430,"Ġdriving":4431,"sacs":4432,"Ġceiling":4433,"entioned":4434,"Driveway":4435,"Recreational":4436,"Ġdrawing":4437,"Ġconcerning":4438,"Ġcorporation":4439,"Ġidentifying":4440,"Ġpitch":4441,"ĠMaintenance":4442,"Ġforegoing":4443,"Ġpreviously":4444,"Ġradius":4445,"namental":4446,"Ġdecorative":4447,"ĠProcedures":4448,"Ġconfiguration":4449,"dentification":4450,"Ġnonconformity":4451,"ĠProjects":4452,"Ġapproximately":4453,"gregate":4454,"olitical":4455,"Ġpatrons":4456,"Ġerror":4457,"Ġdescribing":4458,"Ġaccepted":4459,"Ġemphasis":4460,"Ġexcavation":4461,"oriented":4462,"ipheral":4463,"Ġheavier":4464,"29":4465,"34":4466,"45":4467,"65":4468,"After":4469,"BA":4470,"City":4471,"HE":4472,"MH":4473,"Op":4474,"Off":4475,"PO":4476,"Two":4477,"awn":4478,"bre":4479,"building":4480,"day":4481,"fits":4482,"fares":4483,"hab":4484,"odi":4485,"ptional":4486,"Ġil":4487,"inent":4488,"inations":4489,"Ġtan":4490,"Ġtur":4491,"reen":4492,"Ġsus":4493,"Ġfre":4494,"ishing":4495,"Ġcivic":4496,"Ġwild":4497,"Ġmedical":4498,"Ġmedium":4499,"Ġreader":4500,"ete":4501,"Ġthro":4502,"iding":4503,"ides":4504,"lease":4505,"Ġeas":4506,"acades":4507,"Ġproxim":4508,".......":4509,"imed":4510,"ĠAct":4511,"Ġconjunction":4512,"une":4513,"unts":4514,"oted":4515,"ĠPedestrian":4516,"try":4517,"ĠNothing":4518,"ulture":4519,"ĠDetached":4520,"ĠOption":4521,"ĠOutdoor":4522,"Ġparti":4523,"ĠRun":4524,"ĠROW":4525,"ĠRestaur":4526,"olf":4527,"Ġuseable":4528,"rient":4529,"typ":4530,"Ġvents":4531,"Ġvote":4532,"Ġreserved":4533,"ĠMark":4534,"ĠIII":4535,"ĠTe":4536,"ĠFo":4537,"ĠFund":4538,"ĠFeat":4539,"ĠFOR":4540,"emi":4541,"Ġcompan":4542,"Ġcomposed":4543,"ĠLee":4544,"ĠLoc":4545,"ĠLabel":4546,"Ġchain":4547,"Ġdesigns":4548,"viation":4549,"ollowing":4550,"Ġexceptional":4551,"ĠVI":4552,"ĠVR":4553,"ĠThere":4554,"Ġ32":4555,"Ġ36":4556,"TIES":4557,"Ġprec":4558,"ĠInterior":4559,"ĠHomes":4560,"Inc":4561,"Internal":4562,"Ġimprov":4563,"Ġdouble":4564,"cohol":4565,"Ġcontact":4566,"Ġcontext":4567,"Ġmeas":4568,"Ġinterrup":4569,"center":4570,"Ġoccupant":4571,"124":4572,"mounted":4573,"................................................................":4574,"ught":4575,"Ġunderground":4576,"Ġcorrec":4577,"Ġthereto":4578,"Ġmaintaining":4579,"Ġdetermining":4580,"Ġauto":4581,"Ġsections":4582,"ĠProvide":4583,"Ġinspected":4584,"Ġagree":4585,"Ġagencies":4586,"ĠExisting":4587,"Ġinstances":4588,"ĠĉĠĉĠĉĠĉĠĉĠĉĠĉĠĉĠĉĠĠ":4589,"INST":4590,"Ġauthorize":4591,"Ġoutl":4592,"Ġphr":4593,"Ġphase":4594,"Ġconnect":4595,"eterinary":4596,"Ġserves":4597,"Ġkind":4598,"except":4599,"Ġrestrictive":4600,"ufactured":4601,"Ġways":4602,"Ġidentical":4603,"Ġcourts":4604,"Ġcarried":4605,"Ġreceive":4606,"Ġwhose":4607,"Ġmessages":4608,"Ġpeninsul":4609,"Ġpresented":4610,"Ġdevoted":4611,"Ġinvolved":4612,"Ġintegrated":4613,"Ġgovernment":4614,"Ġextends":4615,"Ġcontrib":4616,"REET":4617,"ĠSTREET":4618,"ĠCompl":4619,"Only":4620,"Ġbasic":4621,"Ġholder":4622,"Ġdenied":4623,"Ġrepresentative":4624,"Ġattract":4625,"Ġintersections":4626,"Ġthoroughfares":4627,"Ġpicture":4628,"Ġdrawings":4629,"ĠPreliminary":4630,"Ġreflect":4631,"Prior":4632,"IGN":4633,"Ġassembly":4634,"Ġproportion":4635,"ĠHouse":4636,"Ġseats":4637,"Ġpublished":4638,"Ġwetlands":4639,"Ġmodels":4640,"Ġself":4641,"Ġenlarged":4642,"Ġaesthetic":4643,"Ġbillboard":4644,"ĠBeverage":4645,"Ġpolicies":4646,"Ġattractive":4647,"ĠPERMIT":4648,"ĠHazard":4649,"rewpub":4650,"08":4651,"96":4652,"Are":4653,"CC":4654,"Cons":4655,"Day":4656,"Dep":4657,"DWTN":4658,"Frame":4659,"Fixtures":4660,"HN":4661,"IR":4662,"IAL":4663,"Light":4664,"ME":4665,"Main":4666,"NG":4667,"Ne":4668,"OT":4669,"Outdoor":4670,"Single":4671,"Said":4672,"TB":4673,"UC":4674,"Wh":4675,"Wood":4676,"aund":4677,"ble":4678,"based":4679,"ction":4680,"current":4681,"eas":4682,"gment":4683,"ober":4684,"oors":4685,"ount":4686,"ral":4687,"the":4688,"uations":4689,"warehouse":4690,"Ġx":4691,"Ġap":4692,"inding":4693,"inted":4694,"reation":4695,"eric":4696,"tives":4697,"Ġpet":4698,"ingles":4699,"Ġbond":4700,"Ġfixture":4701,"Ġflex":4702,"Ġancillary":4703,"iting":4704,"Ġcur":4705,"rocery":4706,"arage":4707,"Ġdone":4708,"Ġdown":4709,"Ġdark":4710,"Ġdensities":4711,"Ġinl":4712,"Ġmar":4713,"Ġornamental":4714,"loor":4715,"Ġshingles":4716,"igit":4717,"Ġnar":4718,"Ġnight":4719,"Ġnam":4720,"Ġnine":4721,"Ġstanding":4722,"Ġstamp":4723,"letic":4724,"Ġeval":4725,"action":4726,"Ġprohibit":4727,"ĠSuch":4728,"ime":4729,"Ġlive":4730,"ĠCul":4731,"asons":4732,"ĠAug":4733,"ĠAvenue":4734,"ĠPart":4735,"urten":4736,"Ġusable":4737,"ĠNational":4738,"Ġhall":4739,"ĠDes":4740,"ĠDimension":4741,"ĠDrainage":4742,"Ġisland":4743,"Ġlod":4744,"lla":4745,"lled":4746,"ĠOrient":4747,"abled":4748,"Ġasphalt":4749,"Ġexerc":4750,"Ġexchange":4751,"umer":4752,"dies":4753,"Ġsigned":4754,"Ġparagraph":4755,"agram":4756,"ĠRel":4757,"aints":4758,"fferent":4759,"very":4760,"ries":4761,"utes":4762,"utter":4763,"irting":4764,"tyard":4765,"Ġuncertain":4766,"ameter":4767,"Ġinch":4768,"Ġath":4769,"ĠĠĠĠĠĠĠĠĠ":4770,"ĠĠĠĠĠĠĠĠĠĠĠĠ":4771,"Ġalign":4772,"Ġalone":4773,"Ġrespec":4774,"Ġresour":4775,"Ġmove":4776,"thing":4777,"ression":4778,"ĠMedium":4779,"ĠTown":4780,"ĠTitle":4781,"luded":4782,"sel":4783,"ersed":4784,"ĠLight":4785,"ĠLow":4786,"sions":4787,"ĠStream":4788,"Ġoffense":4789,"Ġoffered":4790,"ĠGood":4791,"ĠDisplay":4792,"Ġenfor":4793,"Ġ2010":4794,"Ġactions":4795,"posts":4796,"tensity":4797,"Ġplaces":4798,"Ġpremise":4799,"ĠHe":4800,"ĠHearing":4801,"Ġestate":4802,"ctober":4803,"Ġarrow":4804,"Ġgrocery":4805,"Ġapprovals":4806,"Ġsetting":4807,"Ġabs":4808,"Ġability":4809,"Ġcontour":4810,"Ġconditioning":4811,"Ġreviewing":4812,"Ġbodies":4813,"Ġpriv":4814,"Ġexper":4815,"Ġexpiration":4816,"inish":4817,"Ġreconstruction":4818,"Ġopenings":4819,"Ġvia":4820,"Ġoperating":4821,"Ġrelating":4822,"âĢĿ.":4823,"losed":4824,"premise":4825,"ĠProperty":4826,"Ġclubs":4827,"Ġissues":4828,"chitectural":4829,"Ġterminal":4830,"ĠStreetscape":4831,"Ġjud":4832,"Ġcontrolling":4833,"Ġcontrolled":4834,"ridge":4835,"Ġafford":4836,"Ġrenov":4837,"131":4838,"Ġ1996":4839,"ortable":4840,"Ġrail":4841,"Ġcourtyard":4842,"Ġcommonly":4843,"Ġfoundations":4844,"Ġpaving":4845,"1002":4846,"Ġexcluding":4847,"Ġemployees":4848,"Ġpainting":4849,"Ġresponsibility":4850,"ARTICLE":4851,"Ġeduc":4852,"Shall":4853,"Show":4854,"Shrubs":4855,"ĠAgricultural":4856,"Ġentirely":4857,"Ġbackground":4858,"ĠManagement":4859,"ĠTruck":4860,"ĠApplicability":4861,"ĠAdministration":4862,"Additional":4863,"Ġconstraints":4864,"Ġentering":4865,"dicate":4866,"Ġmember":4867,"Ġengineering":4868,"ferred":4869,"Ġtaking":4870,"ĠConstruction":4871,"Ġpower":4872,"Ġdenial":4873,"Ġcrossings":4874,"Ġslopes":4875,"Ġdocuments":4876,"Ġdepicting":4877,"ĠRoof":4878,"Ġbecause":4879,"ĠScale":4880,"ĠAppeals":4881,"Ġstructurally":4882,"Ġencouraged":4883,"Ġpaths":4884,"ĠHOME":4885,"Ġbenefit":4886,"Ġorganization":4887,"Ġattend":4888,"URES":4889,"ĠTypes":4890,"Ġlegally":4891,"Office":4892,"Ġdedicated":4893,"ADE":4894,"Unless":4895,"Ġundue":4896,"ĠMajor":4897,"Ġmunicipality":4898,"ĠPlacement":4899,"Ġsupplemented":4900,"Ġunsafe":4901,"ĠElectronic":4902,"Ġpurchase":4903,"Ġfilling":4904,"Ġgoals":4905,"Required":4906,"Ġestimated":4907,"Ġobscure":4908,"Ġsymbols":4909,"Ġodor":4910,"Ġinjur":4911,"Ġlighter":4912,"Ġcovenants":4913,"Sidewalks":4914,"Ġsensitive":4915,"Ġbalcony":4916,"Ġbottom":4917,"Ġelimin":4918,"Ġflagpole":4919,"emoval":4920,"Ġwatercourses":4921,"ISIONS":4922,"Ġillegal":4923,"Ġproximity":4924,"Ġinterruption":4925,"Ġpeninsulas":4926,"ĠAugust":4927,"33":4928,"Comm":4929,"Design":4930,"Drainage":4931,"Eff":4932,"FR":4933,"FaÃ§ade":4934,"Facades":4935,"Loading":4936,"Mass":4937,"New":4938,"Pen":4939,"Rep":4940,"Set":4941,"TU":4942,"Upper":4943,"VER":4944,"ake":4945,"aired":4946,"auty":4947,"bat":4948,"den":4949,"iew":4950,"iers":4951,"lated":4952,"lass":4953,"lights":4954,"life":4955,"mar":4956,"no":4957,"night":4958,"oy":4959,"two":4960,"tinent":4961,"uit":4962,"xt":4963,"zone":4964,"Ġ.":4965,"Ġher":4966,"Ġol":4967,"ret":4968,"read":4969,"related":4970,"Ġsmo":4971,"alties":4972,"erk":4973,"eness":4974,"Ġpipe":4975,"Ġbinding":4976,"Ġfer":4977,"orts":4978,"iture":4979,"atural":4980,"Ġdorm":4981,"Ġdining":4982,"Ġduplex":4983,"Ġwee":4984,"Ġworking":4985,"Ġinval":4986,"Ġretaining":4987,"Ġreasons":4988,"Ġbeverage":4989,"Ġshop":4990,"Ġnorth":4991,"Ġnav":4992,"Ġstag":4993,"Ġstacking":4994,"ĠSquare":4995,"ĠSmall":4996,"ĠSIGN":4997,"Ġlap":4998,"ĠCal":4999,"ĠCle":5000,"ĠCON":5001,"oming":5002,"ĠAb":5003,"ĠAm":5004,"Ġconce":5005,"Ġconges":5006,"ĠPres":5007,"ĠPipe":5008,"tration":5009,"trance":5010,"trip":5011,"Ġonce":5012,"Ġappurten":5013,"Ġhab":5014,"Ġhospit":5015,"Ġgen":5016,"Ġgive":5017,"lying":5018,"Ġ22":5019,"Ġspaced":5020,"ationship":5021,"rimental":5022,"ĠBreak":5023,"ditionally":5024,"Ġvision":5025,"Ġvideo":5026,"Ġalcohol":5027,"owers":5028,"Ġstring":5029,"Ġrestrict":5030,"Ġheard":5031,"Ġheav":5032,"Ġmotion":5033,"Ġmoved":5034,"ĠMixed":5035,"Ġaccount":5036,"emeter":5037,"ĠSections":5038,"Ġcompact":5039,"elec":5040,"ĠLegal":5041,"Ġapproving":5042,"ibilities":5043,"illars":5044,"Ġcoverage":5045,"ĠStation":5046,"Ġitsel":5047,"Ġrange":5048,"ĠGround":5049,"ĠGreen":5050,"ffice":5051,"ĠView":5052,"Ġoption":5053,"Ġimit":5054,"Ġspecies":5055,"Ġ2011":5056,"Ġ2014":5057,"lish":5058,"Ġactive":5059,"Ġlease":5060,"Ġplaster":5061,"Ġpreclude":5062,"ĠInformation":5063,"ĠDevelopments":5064,"Industrial":5065,"101":5066,"102":5067,"owner":5068,"owners":5069,"ĠWood":5070,"Ġspecifying":5071,"Ġarchit":5072,"Ġcommence":5073,"Ġnext":5074,"Ġtrade":5075,"ives":5076,"isturb":5077,"Ġdecre":5078,"Ġ2009":5079,"Ġexpire":5080,"Ġexpense":5081,"Ġexpected":5082,"hibition":5083,"Ġroofed":5084,"ĠOpen":5085,"Ġsever":5086,"Ġvariations":5087,"ternally":5088,"113":5089,"Ġobjection":5090,"ritten":5091,"Ġestablishing":5092,"Ġinstr":5093,"ĠConf":5094,"ĠProf":5095,"Ġaggregate":5096,"orship":5097,"ĠExem":5098,"Ġclad":5099,"Ġcladding":5100,"ĠĉĠĉĠĉĠĉĠĉĠĉĠ":5101,"ĠĉĠĉĠĉĠĉĠĉĠĉĠĉĠĠ":5102,"Ġgrid":5103,"ĠOffices":5104,"Storage":5105,"Ġgrounds":5106,"Ġseptic":5107,"ustration":5108,"Ġpersonal":5109,"Ġdisplays":5110,"rovements":5111,"ĠUnless":5112,"ĠUnits":5113,"Ġlimitation":5114,"ridors":5115,"Ġrented":5116,"Ġrendered":5117,"138":5118,"Ġparcels":5119,"ellish":5120,"Ġregion":5121,"ESS":5122,"Ġviewing":5123,"Whenever":5124,"Ġconsidering":5125,"Ġqual":5126,"Ġquanti":5127,"ĠSubsections":5128,"Ġtowers":5129,"hools":5130,"Ġminimizes":5131,"Ġwholesale":5132,"Applicability":5133,"Ġgarbage":5134,"uditor":5135,"ĠJune":5136,"Review":5137,"board":5138,"Ġenclosure":5139,"Ġpresentation":5140,"Ġintegrity":5141,"ĠBusinesses":5142,"Add":5143,"Ġwaive":5144,"Ġplatted":5145,"Ġobtaining":5146,"Ġcalculation":5147,"Ġlower":5148,"Ġbright":5149,"Ġhold":5150,"Ġholding":5151,"Ġdeny":5152,"Ġaccomplish":5153,"Ġbanners":5154,"Ġexempted":5155,"profit":5156,"ĠRoad":5157,"Ġbecome":5158,"Ġbecomes":5159,"ĠShops":5160,"Ġamong":5161,"Ġtopographic":5162,"________________":5163,"Ġpanel":5164,"Ġinfr":5165,"Ġpractical":5166,"Ġbenefits":5167,"Ġsatisfy":5168,"Ġwords":5169,"ĠINT":5170,"Ġcorporate":5171,"Ġincorporated":5172,"Ġstreamside":5173,"ĠAgreement":5174,"URPO":5175,"ĠType":5176,"Ġinstitution":5177,"Shopping":5178,"Ġsupersed":5179,"Ġreadily":5180,"Ġdistribution":5181,"Ġfloodplains":5182,"ĠFlags":5183,"Ġdegree":5184,"Ġdiscontin":5185,"Ġcomprising":5186,"ĠÂ·":5187,"ĠMinor":5188,"ĠEstablishment":5189,"Establishments":5190,"FORM":5191,"Ġdumpsters":5192,"Ġharmony":5193,"ĠOwner":5194,"Ġengaged":5195,"ĠIllumination":5196,"Townhouses":5197,"tinguished":5198,"Ġsteeples":5199,"Different":5200,"Service":5201,"foot":5202,"inics":5203,"ĠPARKING":5204,"adium":5205,"ological":5206,"ĠBoundaries":5207,"Ġdifficul":5208,"Ġwildlife":5209,"Ġeasily":5210,"Neighborhood":5211,"Ġnames":5212,"Ġathletic":5213,"Ġresources":5214,"Ġjudgment":5215,"Ġrailro":5216,"batten":5217,"Ġinvalid":5218,"Ġnavig":5219,"Ġcongestion":5220,"Ġitself":5221,"Ġobjectionable":5222,"uditorium":5223,"URPOSE":5224,"90":5225,"92":5226,"99":5227,"APE":5228,"CE":5229,"CADE":5230,"Door":5231,"Form":5232,"Further":5233,"Horizontal":5234,"Imp":5235,"ITIONS":5236,"Identification":5237,"Nurs":5238,"OB":5239,"OM":5240,"Par":5241,"QU":5242,"VISIONS":5243,"bellish":5244,"dimensional":5245,"flow":5246,"fact":5247,"faced":5248,"jections":5249,"joy":5250,"man":5251,"mic":5252,"mergency":5253,"nel":5254,"oding":5255,"oke":5256,"pet":5257,"pond":5258,"pati":5259,"parking":5260,"side":5261,"smooth":5262,"uted":5263,"vals":5264,"wood":5265,"Ġum":5266,"Ġir":5267,"Ġrip":5268,"iner":5269,"inancial":5270,"Ġtechn":5271,"Ġouter":5272,"Ġsum":5273,"Ġsco":5274,"erth":5275,"enity":5276,"Ġpip":5277,"Ġpond":5278,"Ġpati":5279,"Ġpillars":5280,"ane":5281,"Ġbor":5282,"Ġfram":5283,"Ġfash":5284,"Ġanc":5285,"Ġang":5286,"Ġcut":5287,"Ġcup":5288,"Ġciti":5289,"arant":5290,"arters":5291,"ature":5292,"Ġdur":5293,"Ġwe":5294,"Ġwar":5295,"Ġworks":5296,"Ġmis":5297,"Ġmixture":5298,"Ġmicro":5299,"Ġrect":5300,"loading":5301,"Ġshrub":5302,"ecture":5303,"ids":5304,"leys":5305,"actions":5306,"Ġpros":5307,"Ġproof":5308,"ĠStrip":5309,"Ġlivestock":5310,"ĠCFR":5311,"asting":5312,"astructure":5313,"ĠAD":5314,"ĠApartment":5315,"ucks":5316,"ĠPo":5317,"ĠPURPOSE":5318,"ĠNO":5319,"Ġpertinent":5320,"ĠOb":5321,"ĠOak":5322,"ĠOctober":5323,"ĠOVER":5324,"Ġdeal":5325,"atement":5326,"Ġgabled":5327,"agn":5328,"ained":5329,"Ġspir":5330,"Ġspeed":5331,"developed":5332,"riend":5333,"ĠBrick":5334,"Ġadap":5335,"Ġdiscour":5336,"001":5337,"Ġvoid":5338,"entive":5339,"Ġaltern":5340,"Ġstreetscap":5341,"Ġconsent":5342,"Ġresol":5343,"Ġreserve":5344,"ĠMA":5345,"ĠMobile":5346,"ĠMOB":5347,"ĠIV":5348,"ĠTow":5349,"ĠFu":5350,"ĠFive":5351,"Ġcompens":5352,"ership":5353,"ĠLe":5354,"ĠLAN":5355,"ommunic":5356,"tained":5357,"ĠEmergency":5358,"hout":5359,"ĠUsed":5360,"ills":5361,"Ġcoun":5362,"Ġcounty":5363,"Ġprovider":5364,"Ġoffsets":5365,"ĠGenerally":5366,"ustments":5367,"anges":5368,"Ġenjoy":5369,"scale":5370,"ĠThese":5371,"Ġacade":5372,"Ġdetrimental":5373,"oper":5374,"ople":5375,"TING":5376,"ords":5377,"âĢĻ-":5378,"ĠWith":5379,"Ġimpair":5380,"Ġspecify":5381,"Ġarc":5382,"cover":5383,"Ġconstruct":5384,"Ġabuts":5385,"Ġcontent":5386,"Ġmeals":5387,"enced":5388,"ughout":5389,"Ġboards":5390,"Ġsought":5391,"Ġmeetings":5392,"Ġ2002":5393,"Ġmanufacturing":5394,"Ġtrucks":5395,"Ġcomplies":5396,"Ġsuffice":5397,"Ġunderstory":5398,"Ġsimul":5399,"eath":5400,"Ġpercentage":5401,"ĠAdditional":5402,"titute":5403,"Ġrecyc":5404,"Ġ90":5405,"Ġ45":5406,"Ġseam":5407,"Ġselling":5408,"Ġvarious":5409,"gered":5410,"111":5411,"Ġtypical":5412,"Ġrelief":5413,"Ġmeters":5414,"Ġinsure":5415,"ĠConditions":5416,"ĠPerimeter":5417,"ĠProcess":5418,"Ġindirect":5419,"dividual":5420,"Ġpresence":5421,"Ġdiverse":5422,"Ġdiameter":5423,"INT":5424,"Ġsixteen":5425,"Ġposts":5426,"Ġembellish":5427,"Ġbufferyards":5428,"Ġconforms":5429,"Ġtransition":5430,"Ġfourteen":5431,"ĠInsurance":5432,"Exam":5433,"minister":5434,"Ġhearings":5435,"Ġorderly":5436,"ieu":5437,"Ġencro":5438,"Ġresiding":5439,"Ġ1992":5440,"Ġviolations":5441,"Ġdiffering":5442,"Ġrepairs":5443,"Ġrestricted":5444,"Ġcontinu":5445,"Ġgoverned":5446,"Ġlaws":5447,"ĠPermitting":5448,"Ġthird":5449,"Ġcourses":5450,"Proced":5451,"engaged":5452,"pretation":5453,"MEND":5454,"Ġ........................................":5455,"Ġprojected":5456,"ĠRecreation":5457,"anitation":5458,"ARY":5459,"Ġdemand":5460,"Ġdemol":5461,"Ġdetailing":5462,"Ġinterpretations":5463,"Shutters":5464,"ĠChief":5465,"ITY":5466,"Ġsheets":5467,"ĠVehicular":5468,"Ġpeople":5469,"Ġbuild":5470,"ĠThat":5471,"Ġtax":5472,"Ġbring":5473,"Also":5474,"ĠWidths":5475,"Ġexpressed":5476,"Ġdepicted":5477,"Ġdepicts":5478,"Ġrepresented":5479,"Ġrepresentatives":5480,"FACADE":5481,"Ġmarked":5482,"Ġcurrently":5483,"Ġconflicts":5484,"Ġinterference":5485,"Ġknow":5486,"Ġpick":5487,"ompatibility":5488,"Ġsatisfied":5489,"Ġinitial":5490,"Ġinitiated":5491,"Ġexcessive":5492,"Ġcomponent":5493,"Ġreceipts":5494,"Ġpitched":5495,"Ġproceeding":5496,"Ġincorporate":5497,"Author":5498,"That":5499,"making":5500,"ĠDriveway":5501,"Ġsignificantly":5502,"Ġdisapproval":5503,"Ġinstitutions":5504,"Ġfails":5505,"Ġdedication":5506,"Ġsolely":5507,"Ġterminated":5508,"Provide":5509,"Ġclose":5510,"Ġnearby":5511,"Ġsupplied":5512,"Ġreferenced":5513,"Ġcleaning":5514,"Ġtriangle":5515,"Ġvolume":5516,"ĠRefuse":5517,"Ġdeteriorated":5518,"Ġimplementation":5519,"Ġbarrier":5520,"Ġpracticable":5521,"Ġconverted":5522,"Ġdelineated":5523,"Ġstudio":5524,"Ġconceptual":5525,"ĠDeterm":5526,"ĠUtilities":5527,"ĠUnderstory":5528,"Ġdisturbance":5529,"Open":5530,"Ġthroughout":5531,"ĠTeam":5532,"ĠFeatures":5533,"Ġcompany":5534,"Ġimproved":5535,"Ġpictures":5536,"Depending":5537,"ĠDescription":5538,"Ġlodging":5539,"ĠOrientation":5540,"ĠTownhouse":5541,"ĠGoods":5542,"Massing":5543,"Ġolder":5544,"Ġsmoke":5545,"Ġdormers":5546,"Ġweek":5547,"Ġstaggered":5548,"ĠAmeric":5549,"ĠBreakfast":5550,"Ġstringent":5551,"Ġarchitecture":5552,"Ġinfrastructure":5553,"factory":5554,"Ġumbre":5555,"Ġriparian":5556,"Ġfashion":5557,"Ġcupol":5558,"Ġcitiz":5559,"Ġstreetscapes":5560,"ĠLAND":5561,"Ġacademic":5562,"72":5563,"Approval":5564,"ATE":5565,"Be":5566,"Bed":5567,"Ban":5568,"BIL":5569,"CON":5570,"Construction":5571,"Dwelling":5572,"DING":5573,"Downtown":5574,"Duplex":5575,"EF":5576,"Freestanding":5577,"Following":5578,"GE":5579,"Gateway":5580,"Group":5581,"Garden":5582,"HT":5583,"None":5584,"OU":5585,"Specific":5586,"TA":5587,"TED":5588,"VI":5589,"Wall":5590,"Way":5591,"aving":5592,"around":5593,"be":5594,"buil":5595,"cy":5596,"cons":5597,"dge":5598,"eu":5599,"eti":5600,"ead":5601,"friend":5602,"hang":5603,"lation":5604,"light":5605,"med":5606,"nap":5607,"nels":5608,"ores":5609,"outs":5610,"occup":5611,"pass":5612,"ray":5613,"sing":5614,"such":5615,"snap":5616,"table":5617,"Ġice":5618,"Ġaway":5619,"inet":5620,"inct":5621,"Ġtes":5622,"Ġturb":5623,"Ġtitle":5624,"Ġtechnical":5625,"rehensive":5626,"Ġsle":5627,"Ġsod":5628,"hether":5629,"erations":5630,"eries":5631,"Ġpackage":5632,"Ġball":5633,"Ġbest":5634,"Ġberm":5635,"Ġblank":5636,"Ġfall":5637,"Ġfine":5638,"Ġfinish":5639,"Ġoften":5640,"oring":5641,"Ġcall":5642,"ropriate":5643,"aration":5644,"arable":5645,"Ġder":5646,"Ġdance":5647,"Ġdust":5648,"Ġdry":5649,"Ġdigit":5650,"Ġwashing":5651,"Ġworship":5652,"Ġmid":5653,"Ġmand":5654,"Ġmix":5655,"Ġmile":5656,"Ġmentioned":5657,"Ġrecept":5658,"Ġreverse":5659,"Ġtoil":5660,"Ġbeam":5661,"Ġbeauty":5662,"igures":5663,"ush":5664,"using":5665,"Ġnin":5666,"iders":5667,"iduous":5668,"Ġstub":5669,"Ġstadium":5670,"lebr":5671,"Ġear":5672,"ĠSE":5673,"ĠShe":5674,"ĠCodes":5675,"ĠCanopy":5676,"asion":5677,"ĠAs":5678,"ĠAwning":5679,"uneral":5680,"quests":5681,"ĠPh":5682,"ull":5683,"ĠDec":5684,"Ġpertaining":5685,"Ġlog":5686,"abor":5687,"Ġexternally":5688,"Ġnote":5689,"Ġgall":5690,"Ġgate":5691,"Ġgates":5692,"ĠRight":5693,"ĠREC":5694,"oline":5695,"olia":5696,"vering":5697,"Ġ26":5698,"trical":5699,"rading":5700,"utation":5701,"Ġcomments":5702,"ĠBan":5703,"ĠBicycle":5704,"ĠBillbo":5705,"Ġadminister":5706,"Ġdisag":5707,"ifying":5708,"Ġundeveloped":5709,"Ġvol":5710,"Ġventi":5711,"Ġvibr":5712,"Ġveterinary":5713,"Ġincons":5714,"endar":5715,"Ġstrong":5716,"Ġresistance":5717,"Ġhead":5718,"ĠMedical":5719,"ĠText":5720,"ĠTechnical":5721,"ĠTHE":5722,"estone":5723,"ĠFood":5724,"ĠFence":5725,"ĠFinancial":5726,"Ġdesired":5727,"Ġcompet":5728,"Ġcomplex":5729,"Ġcomposite":5730,"Ġcomprehensive":5731,"Ġcomparable":5732,"erson":5733,"ĠLine":5734,"ĠLOT":5735,"Ġchan":5736,"Ġchass":5737,"ĠEX":5738,"ĠEST":5739,"gular":5740,"ticles":5741,"hop":5742,"Ġzero":5743,"Ġnotified":5744,"Ġnotify":5745,"ĠNotice":5746,"ĠStone":5747,"ĠStates":5748,"ĠStudy":5749,"Ġrise":5750,"Ġrule":5751,"ĠGroup":5752,"ĠGrocery":5753,"ĠVeget":5754,"ously":5755,"ope":5756,"ĠIndicate":5757,"Ġartic":5758,"Ġsets":5759,"Ġneon":5760,"Ġneither":5761,"Ġservicing":5762,"Ġallowing":5763,"Ġinterpre":5764,"ples":5765,"ĠColl":5766,"istent":5767,"Ġsound":5768,"Ġmanual":5769,"Ġmaneu":5770,"Ġtracts":5771,"Ġcompli":5772,"ultane":5773,"ercus":5774,"earch":5775,"Ġcorr":5776,"Ġcorridors":5777,"eather":5778,"ĠAdult":5779,"Ġrecessed":5780,"hibits":5781,"Ġroofing":5782,"Ġseason":5783,"Ġopening":5784,"Ġpartners":5785,"gineers":5786,"Ġoperable":5787,"Ġoperator":5788,"Ġofficer":5789,"ĠEnc":5790,"ĠEnforcement":5791,"ĠEngineers":5792,"Ġovernight":5793,"Ġoverhang":5794,"Ġrepeal":5795,"Ġrepaired":5796,"âĢĿ)":5797,"Ġmeter":5798,"Ġupper":5799,"outh":5800,"ĠConven":5801,"asonable":5802,"ĠExp":5803,"Ġcla":5804,"Ġindoor":5805,"Ġinstance":5806,"ĠArticles":5807,"Ġdepending":5808,"pecified":5809,"pecially":5810,"Ġdiver":5811,"asured":5812,"INITIONS":5813,"Ġelection":5814,"Ġgreatest":5815,"Ġtenants":5816,"Ġpost":5817,"Ġposition":5818,"Permit":5819,"ĠUnited":5820,"ENT":5821,"Ġgeneralized":5822,"Ġdistinct":5823,"Ġtransmitted":5824,"Ġtransmission":5825,"Ġconnected":5826,"Ġflashing":5827,"Ġilluminate":5828,"Ġjus":5829,"Ġjoint":5830,"Ġ1003":5831,"ĠLandscaped":5832,"overn":5833,"ompass":5834,"Ġcreating":5835,"Ġcalendar":5836,"Ġenclo":5837,"Ġencompass":5838,"edimentation":5839,"Ġreasonably":5840,"Ġsecurity":5841,"Ġdifference":5842,"Ġperiods":5843,"Ġmajority":5844,"Buildings":5845,"Ġcollect":5846,"Ġidentification":5847,"Ġoccurs":5848,"Ġcarports":5849,"Ġreceiving":5850,"angeable":5851,"Streets":5852,"Applicants":5853,"Ġpaid":5854,"Ġpavers":5855,"Ġmatch":5856,"Ġconstituting":5857,"Ġincreases":5858,"Ref":5859,"ĠExceptions":5860,"ĠClerk":5861,"Ġproposals":5862,"ĠNonresidential":5863,"Ġairsp":5864,"ledge":5865,"Ġfiling":5866,"Ġmotel":5867,"Ġpeak":5868,"ĠREQU":5869,"Ġmeaning":5870,"LOW":5871,"ĠInspection":5872,"Ġremaining":5873,"âĢ¦âĢ¦âĢ¦âĢ¦âĢ¦âĢ¦âĢ¦âĢ¦âĢ¦âĢ¦âĢ¦âĢ¦":5874,"Ġopposite":5875,"Ġserious":5876,"Ġcovering":5877,"Ġ........................................................................................":5878,"Ġmarkers":5879,"ĠSchools":5880,"Ġadministrator":5881,"Ġdemonstrate":5882,"Ġmotorists":5883,"Ġespecially":5884,"rewed":5885,"Ġgenerated":5886,"Ġachieved":5887,"Ġpathways":5888,"Chimneys":5889,"Recomm":5890,"ĠLimestone":5891,"Ġorganized":5892,"Ġattach":5893,"Ġsatisfactory":5894,"ĠParagraphs":5895,"Ġaccompanying":5896,"Develop":5897,"Ġseeking":5898,"alconies":5899,"Ġhousehol":5900,"Ġextensions":5901,"Ġstatus":5902,"ĠPROC":5903,"ĠRestric":5904,"Ġdisapproved":5905,"Ġlegible":5906,"ILDING":5907,"Ġskirting":5908,"Ġfailure":5909,"Ġobjects":5910,"Ġobjectives":5911,"Private":5912,"Ġbeds":5913,"Ġbedroom":5914,"Ġfurniture":5915,"Ġlites":5916,"IGHT":5917,"Ġrelocated":5918,"Ġdiscretionary":5919,"Ġturnaround":5920,"Ġmachines":5921,"ĠAPP":5922,"Ġstrictly":5923,"measured":5924,"Ġcredit":5925,"Ġcredited":5926,"Ġsupplies":5927,"ĠQuercus":5928,"Notwithstanding":5929,"Ġdrainable":5930,"ĠDouble":5931,"ĠHighway":5932,"Ġtriangles":5933,"Ġshelters":5934,"Appeals":5935,"Ġstill":5936,"Ġdeliver":5937,"ĠItems":5938,"Ġassigned":5939,"Ġremedies":5940,"Trans":5941,"Ġbegin":5942,"Ġnursing":5943,"ompliance":5944,"anchion":5945,"Ġpromoting":5946,"Ġtanks":5947,"Ġturning":5948,"Ġpartially":5949,"typical":5950,"ĠMarket":5951,"Ġagreement":5952,"Ġflexibility":5953,"Ġcurve":5954,"Ġstamped":5955,"ĠRelated":5956,"Ġuncertainty":5957,"Ġrespective":5958,"Ġenforced":5959,"Ġcontours":5960,"Ġexperi":5961,"Ġrenovations":5962,"Ġeliminate":5963,"Effect":5964,"Penetrations":5965,"ĠSIGNS":5966,"Ġappurtenances":5967,"elecommunic":5968,"Ġseveral":5969,"Ġquantity":5970,"Ġbrightness":5971,"Ġsupersede":5972,"erths":5973,"Ġdurable":5974,"Ġwarrant":5975,"Ġrectang":5976,"Ġspirit":5977,"Ġresolution":5978,"Ġcompensation":5979,"ĠLevel":5980,"Ġrecycling":5981,"Ġumbrella":5982,"CONFORM":5983,"EFINITIONS":5984,"friendly":5985,"Ġreceptac":5986,"Ġventilation":5987,"Ġchassis":5988,"Ġmaneuvering":5989,"Ġpartnership":5990,"Ġairspace":5991,"elecommunications":5992,",\"":5993,".\"":5994,"48":5995,"64":5996,"804":5997,"902":5998,"Adequate":5999,"Awning":6000,"Bo":6001,"Business":6002,"Circulation":6003,"Civic":6004,"Doors":6005,"EST":6006,"GS":6007,"High":6008,"Historic":6009,"ILE":6010,"ITIES":6011,"Mixed":6012,"Natural":6013,"Ph":6014,"Por":6015,"PEC":6016,"Red":6017,"Rel":6018,"RUC":6019,"SC":6020,"SS":6021,"Sc":6022,"Tot":6023,"Tri":6024,"Typ":6025,"TURES":6026,"UB":6027,"Vi":6028,"app":6029,"atically":6030,"case":6031,"chen":6032,"culation":6033,"civic":6034,"dec":6035,"dra":6036,"ey":6037,"flic":6038,"ger":6039,"holes":6040,"itions":6041,"iency":6042,"like":6043,"llegal":6044,"nectivity":6045,"neath":6046,"oil":6047,"olic":6048,"ode":6049,"otive":6050,"public":6051,"pare":6052,"pfront":6053,"ru":6054,"ran":6055,"rants":6056,"sec":6057,"sign":6058,"six":6059,"uate":6060,"uther":6061,"vas":6062,"vated":6063,"vail":6064,"wing":6065,"ze":6066,"Ġ$":6067,"Ġ*":6068,"Ġii":6069,"Ġaer":6070,"Ġage":6071,"Ġauditorium":6072,"inch":6073,"Ġtex":6074,"Ġoil":6075,"reasonable":6076,"Ġsal":6077,"Ġsuc":6078,"onment":6079,"enities":6080,"tise":6081,"Ġplot":6082,"Ġpolitical":6083,"Ġbay":6084,"Ġbloc":6085,"Ġbicyc":6086,"Ġberms":6087,"Ġbrewpub":6088,"Ġbrewed":6089,"Ġfas":6090,"Ġfum":6091,"Ġfow":6092,"Ġflu":6093,"Ġfem":6094,"Ġfair":6095,"Ġfiel":6096,"Ġfigures":6097,"itch":6098,"itals":6099,"itchen":6100,"ished":6101,"Ġcand":6102,"arages":6103,"ick":6104,"icense":6105,"atto":6106,"Ġdr":6107,"Ġdim":6108,"Ġdomes":6109,"Ġduration":6110,"Ġduty":6111,"Ġwarning":6112,"Ġweather":6113,"Ġinade":6114,"Ġinapp":6115,"Ġmort":6116,"Ġrehe":6117,"Ġrelease":6118,"Ġbel":6119,"Ġnational":6120,"Ġnecess":6121,"Ġstay":6122,"ĠSH":6123,"ĠSup":6124,"ĠSel":6125,"ĠSpecific":6126,"ĠSanitation":6127,"ĠSPEC":6128,"Ġ(+":6129,"imp":6130,"Ġlist":6131,"Ġlatest":6132,"ĠCre":6133,"ĠCirc":6134,"ĠCross":6135,"ĠCriteria":6136,"ĠCUP":6137,"asing":6138,"omin":6139,"ĠAT":6140,"ĠAfter":6141,"ĠADA":6142,"ĠAviation":6143,"Ġconcent":6144,"Ġconcurrent":6145,"quet":6146,"quee":6147,"quency":6148,"quacy":6149,"ĠPortable":6150,"tract":6151,"urations":6152,"Ġusually":6153,"ully":6154,"lant":6155,"Ġhard":6156,"Ġhorizont":6157,"Ġhalls":6158,"Ġhole":6159,"ĠDuplex":6160,"ĠDEFINITIONS":6161,"Ġpervious":6162,"essage":6163,"abil":6164,"Ġaside":6165,"Ġexit":6166,"Ġdevi":6167,"Ġdefic":6168,"ump":6169,"tertainment":6170,"osing":6171,"Ġ120":6172,"Ġgiving":6173,"Ġgarden":6174,"ager":6175,"aging":6176,"ĠRS":6177,"ĠRate":6178,"ĠRED":6179,"ĠRemoval":6180,"ainted":6181,"Ġanywhere":6182,"Ġ23":6183,"Ġ27":6184,"Ġ28":6185,"dependent":6186,"dequacy":6187,"tured":6188,"ĠBed":6189,"ĠBerms":6190,"storage":6191,"Ġdistinguished":6192,"ify":6193,"Ġunified":6194,"Ġunreasonable":6195,"Ġven":6196,"Ġvar":6197,"Ġincentive":6198,"entially":6199,"ender":6200,"endent":6201,"Ġalloc":6202,"Ġapplicants":6203,"Ġconsists":6204,"Ġsuburban":6205,"respass":6206,"ĠMon":6207,"ĠMust":6208,"ĠMagn":6209,"ĠMessage":6210,"ĠTw":6211,"ĠTwo":6212,"Ġaccur":6213,"ĠFeet":6214,"ĠFencing":6215,"ĠLo":6216,"ĠList":6217,"ĠLaw":6218,"ĠLiqu":6219,"ĠLivestock":6220,"Ġcho":6221,"Ġpublication":6222,"bery":6223,"hored":6224,"ĠRegul":6225,"Ġwheel":6226,"Ġwheels":6227,"Ġintention":6228,"ĠNotification":6229,"eping":6230,"ĠStock":6231,"ĠStores":6232,"Ġ611":6233,"Ġoffering":6234,"Ġrural":6235,"ĠGe":6236,"ĠGu":6237,"Ġfacts":6238,"ĠVer":6239,"Ġenact":6240,"Ġimpos":6241,"Ġrot":6242,"Ġ2013":6243,"Ġ2016":6244,"lists":6245,"tructed":6246,"Ġ70":6247,"Ġfoc":6248,"scaping":6249,"ĠInc":6250,"ĠIntensity":6251,"ĠHospit":6252,"Inter":6253,"Ġoccasion":6254,"ĠWater":6255,"Ġimpr":6256,"ctor":6257,"TIONAL":6258,"Ġ85":6259,"Ġ802":6260,"ensive":6261,"Ġabout":6262,"Ġyiel":6263,"Ġconditioned":6264,"Ġinters":6265,"Ancillary":6266,"Ġboats":6267,"Ġchanging":6268,"Ġ2000":6269,"Ġmanaged":6270,"Ġmanholes":6271,"122":6272,"incip":6273,"Ġunderneath":6274,"Ġsimultane":6275,"Ġtherein":6276,"Ġthereby":6277,"ĠAlleys":6278,"ĠOperations":6279,"Ġseal":6280,"Ġrelie":6281,"Ġobject":6282,"Ġportable":6283,"ĠSubzone":6284,"ressed":6285,"Ġlesser":6286,"ĠConcept":6287,"ĠProposed":6288,"Ġclause":6289,"Ġindustr":6290,"ĠArt":6291,"ĠĉĠĉĠĉĠĉĠĉĠ":6292,"ĠĉĠĉĠĉĠĉĠĉĠĉĠĉĠĉĠ":6293,"hort":6294,"Ġ--":6295,"Ġpreservation":6296,"Ġdiagram":6297,"Ġsupplemental":6298,"Ġequipped":6299,"Ġdefinitions":6300,"Significant":6301,"Standards":6302,"Ġnewsp":6303,"Ġadditions":6304,"Ġcertify":6305,"riculture":6306,"Ġversion":6307,"Peripheral":6308,"celeration":6309,"Ġregulated":6310,"Ġtransmit":6311,"Ġtransportation":6312,"ĠInstitute":6313,"Exp":6314,"Ġcreation":6315,"Ġaffecting":6316,"Ġcentral":6317,"Ġrenew":6318,"Ġresident":6319,"Ġresidences":6320,"______":6321,"Ġclosed":6322,"Ġdiffers":6323,"Ġprocessed":6324,"akes":6325,"Ġdeems":6326,"Ġconsiderations":6327,"Ġquarters":6328,"ERC":6329,"Ġsubstations":6330,"ĠCorner":6331,"Ġprevents":6332,"Ġfirm":6333,"Ġrunning":6334,"Ġexcluded":6335,"Ġmanufacturer":6336,"Requests":6337,"Ġfraction":6338,"ORARY":6339,"Ġobstruc":6340,"Ġseparately":6341,"Conflic":6342,"Ġpenalties":6343,"Ġresponsibilities":6344,"Ġguests":6345,"Ġguarant":6346,"Ġtreated":6347,"MENTS":6348,"ĠAgency":6349,"Ġprofit":6350,"Ġlonger":6351,"ITE":6352,"Ġalterations":6353,"ĠManufacturing":6354,"ĠAdministrative":6355,"Ġadversely":6356,"Ġbasement":6357,"ĠSTRUC":6358,"Ġapplies":6359,"Ġ180":6360,"grounds":6361,"Ġsituations":6362,"Ġpotentially":6363,"Ġgrowing":6364,"Ġholid":6365,"Ġsupports":6366,"Allow":6367,"Alternative":6368,"Lots":6369,"Ġbarns":6370,"ĠReduc":6371,"Landscaping":6372,"Ġ................................................................................................":6373,"Ġadministration":6374,"Ġamenities":6375,"Ġnormally":6376,"ĠFloodway":6377,"Ġsources":6378,"Driveways":6379,"Vehicle":6380,"obiles":6381,"Ġinitiate":6382,"Ġreflective":6383,"Plans":6384,"cludes":6385,"Ġseeks":6386,"Ġproceedings":6387,"ĠPrior":6388,"ĠPROVISIONS":6389,"ĠIllustration":6390,"Ġforest":6391,"OWN":6392,"Shopfront":6393,"ĠImprovements":6394,"ĠInterstate":6395,"ĠWindows":6396,"Ġobjective":6397,"1106":6398,"PEAL":6399,"Ġexclusively":6400,"Ġrelocation":6401,"Ġdegrees":6402,"Ġproportions":6403,"Ġdiscus":6404,"ĠProcedure":6405,"Ġconfigurations":6406,"Manufactured":6407,"Ġseating":6408,"Ġwetland":6409,"Ġmachine":6410,"ĠPLANS":6411,"Ġperformed":6412,"ĠSurvey":6413,"ĠSurface":6414,"ĠVariances":6415,"Ġdocumentation":6416,"ĠQuad":6417,"Establishment":6418,"Ġhydrants":6419,"Ġautomobiles":6420,"Ġcamping":6421,"Ġmitigate":6422,"Ġmitigating":6423,"ĠALLOW":6424,"Ġvolumes":6425,"Ġsecured":6426,"Ġbarriers":6427,"Ġpractices":6428,"MPORARY":6429,"Max":6430,"Major":6431,"Ġstip":6432,"Ġcabinet":6433,"ĠRows":6434,"Subdivision":6435,"ĠDwellings":6436,"ĠBUILDING":6437,"habitable":6438,"Ġfrequency":6439,"ĠRestaurant":6440,"ĠLocated":6441,"Ġmeasures":6442,"Ġoutlined":6443,"Ġphrases":6444,"Maintenance":6445,"While":6446,"aundry":6447,"Ġapart":6448,"Ġinlets":6449,"ĠDimensions":6450,"Ġalignment":6451,"Ġprivacy":6452,"Ġaffordable":6453,"Ġinjury":6454,"Repair":6455,"Setbacks":6456,"Ġgenitals":6457,"emetery":6458,"isturbed":6459,"Ġdecrease":6460,"Ġinstrument":6461,"Ġdifficulty":6462,"Ġrailroad":6463,"patient":6464,"Ġtechniqu":6465,"Ġpipes":6466,"Ġborder":6467,"Ġanchored":6468,"Ġworkshop":6469,"ĠNOTE":6470,"Ġdiscouraged":6471,"ĠMOBILE":6472,"ĠTowards":6473,"Ġencroach":6474,"Ġdemolition":6475,"ĠAmerican":6476,"Ġcupolas":6477,"Ġcitizens":6478,"ĠLANDSC":6479,"occupied":6480,"Ġsleeping":6481,"Ġninety":6482,"Ġearth":6483,"Ġdisagrees":6484,"Ġinconsistent":6485,"Ġcompetent":6486,"Ġchannel":6487,"ĠVegetative":6488,"Ġclaimed":6489,"Ġenclose":6490,"ĠPROCED":6491,"Ġexperiencing":6492,"Ġreceptacles":6493,"Total":6494,"Triplex":6495,"Viol":6496,"Ġsuccess":6497,"Ġfumes":6498,"Ġfowl":6499,"attoo":6500,"Ġdomestic":6501,"Ġinadequate":6502,"Ġinappropriate":6503,"Ġconcentr":6504,"Ġhorizontally":6505,"ĠMagnolia":6506,"ĠLiquor":6507,"Ġsimultaneously":6508,"Ġindustry":6509,"Ġnewspaper":6510,"ĠSTRUCTURES":6511,"\",":6512,")(":6513,")]":6514,"--":6515,"020":6516,"150":6517,"37":6518,"38":6519,"320":6520,"400":6521,"55":6522,"98":6523,"ARD":6524,"Areas":6525,"Action":6526,"Bec":6527,"Buff":6528,"Block":6529,"Cl":6530,"Cal":6531,"Cor":6532,"Cont":6533,"Contin":6534,"Canopy":6535,"DI":6536,"Dec":6537,"Direct":6538,"Density":6539,"Dumps":6540,"EET":6541,"EMA":6542,"Every":6543,"FF":6544,"Flat":6545,"Floor":6546,"Hospit":6547,"IES":6548,"JU":6549,"JEC":6550,"Materials":6551,"Over":6552,"Occup":6553,"PRE":6554,"Political":6555,"Person":6556,"River":6557,"Restaur":6558,"Sk":6559,"Sep":6560,"Tra":6561,"Util":6562,"UTU":6563,"Vari":6564,"Veget":6565,"Window":6566,"atic":6567,"aves":6568,"ban":6569,"ball":6570,"band":6571,"but":6572,"bered":6573,"cr":6574,"cing":6575,"car":6576,"cand":6577,"cial":6578,"care":6579,"cible":6580,"cape":6581,"compliance":6582,"dis":6583,"epp":6584,"eak":6585,"fies":6586,"gr":6587,"gar":6588,"ganged":6589,"iances":6590,"ked":6591,"ld":6592,"lig":6593,"lap":6594,"may":6595,"mant":6596,"made":6597,"mical":6598,"mentioned":6599,"nis":6600,"oking":6601,"otic":6602,"ored":6603,"oons":6604,"pot":6605,"pts":6606,"pons":6607,"ron":6608,"ring":6609,"sive":6610,"tes":6611,"tor":6612,"tle":6613,"ux":6614,"uity":6615,"uage":6616,"ulev":6617,"vable":6618,"wide":6619,"wimming":6620,"year":6621,"Â°":6622,"Â·":6623,"Ġ'":6624,"Ġ\\":6625,"Ġ{":6626,"Ġram":6627,"Ġedi":6628,"Ġiron":6629,"Ġ........................":6630,"Ġaimed":6631,"inery":6632,"Ġtrespass":6633,"Ġsing":6634,"Ġsent":6635,"Ġsate":6636,"Ġsemi":6637,"Ġsedimentation":6638,"heck":6639,"alys":6640,"enu":6641,"ened":6642,"enic":6643,"endi":6644,"enial":6645,"till":6646,"Ġpest":6647,"Ġpred":6648,"Ġpad":6649,"Ġpie":6650,"Ġpits":6651,"Ġpaper":6652,"Ġpiers":6653,"Ġpump":6654,"anopies":6655,"Ġbi":6656,"Ġbat":6657,"Ġblu":6658,"Ġbenc":6659,"Ġberths":6660,"Ġfeas":6661,"Ġann":6662,"Ġantic":6663,"itness":6664,"ism":6665,"ises":6666,"isten":6667,"istration":6668,"Ġcr":6669,"Ġcable":6670,"Ġcass":6671,"Ġcyc":6672,"rop":6673,"roy":6674,"role":6675,"rosion":6676,"rown":6677,"ician":6678,"ently":6679,"Ġda":6680,"Ġdest":6681,"Ġdies":6682,"Ġduly":6683,"ĠdBA":6684,"Ġworth":6685,"Ġmus":6686,"Ġmul":6687,"Ġmarking":6688,"lots":6689,"Ġshap":6690,"Ġshare":6691,"Ġshort":6692,"iler":6693,"iguration":6694,"etween":6695,"ethod":6696,"ettes":6697,"usted":6698,"usion":6699,"usole":6700,"Ġthre":6701,"Ġthough":6702,"Ġnull":6703,"ident":6704,"idates":6705,"Ġstren":6706,"Ġstud":6707,"Ġstalls":6708,"Ġstops":6709,"Ġstained":6710,"leg":6711,"aches":6712,"Ġprol":6713,"Ġpromo":6714,"ĠSaf":6715,"ĠSUB":6716,"ĠSoil":6717,"Ġ(âĢľ":6718,"imal":6719,"Ġli":6720,"Ġlang":6721,"Ġlast":6722,"Ġlack":6723,"Ġlying":6724,"Ġlibr":6725,"Ġlux":6726,"ĠCond":6727,"ĠCOM":6728,"pprove":6729,"ĠAc":6730,"ĠAub":6731,"ĠApproved":6732,"ĠAction":6733,"ĠAMEND":6734,"Ġconting":6735,"ungal":6736,"ĠPages":6737,"urred":6738,"ĠNew":6739,"ĠNone":6740,"ulic":6741,"ulate":6742,"Ġhalf":6743,"ires":6744,"ĠDra":6745,"ĠDem":6746,"ĠDiv":6747,"ĠDetail":6748,"ĠDenial":6749,"Ġperipheral":6750,"Ġperpet":6751,"Ġloan":6752,"Ġload":6753,"Ġlogo":6754,"llite":6755,"llution":6756,"andem":6757,"abilities":6758,"abolic":6759,"Ġexhibit":6760,"Ġdebr":6761,"umed":6762,"osition":6763,"Ġsignal":6764,"quired":6765,"Ġgain":6766,"Ġgather":6767,"ĠRV":6768,"mittent":6769,"Ġsports":6770,"âĢ¢":6771,"âĢĵ":6772,"rad":6773,"rap":6774,"raulic":6775,"utres":6776,"ĠBl":6777,"ĠBlock":6778,"ĠBridge":6779,"Ġadmin":6780,"irty":6781,"Ġdise":6782,"Ġdisch":6783,"Ġdismant":6784,"Ġunus":6785,"Ġuncons":6786,"Ġplanes":6787,"Ġvene":6788,"Ġincurred":6789,"odity":6790,"ĠĠĠĠĠĠĠĠĠĠĠĠĠ":6791,"Ġsubs":6792,"Ġresub":6793,"Ġreserv":6794,"aprooms":6795,"ĠMaterial":6796,"ĠMerchandise":6797,"ĠMechanical":6798,"ĠModi":6799,"ĠIllegal":6800,"ĠFaÃ§":6801,"ĠFloor":6802,"ĠFully":6803,"ĠFUTU":6804,"empl":6805,"ĠLicense":6806,"...................":6807,"Ġpublicly":6808,"tains":6809,"ĠEN":6810,"ĠElements":6811,"ipate":6812,"ipated":6813,"undation":6814,"ĠUN":6815,"ĠReal":6816,"Ġdesignate":6817,"vii":6818,"illing":6819,"ĠNoise":6820,"Ġcore":6821,"Ġcooking":6822,"Ġproviders":6823,"ĠStop":6824,"Ġrid":6825,"Ġrub":6826,"ĠGas":6827,"ĠGross":6828,"ĠDiscount":6829,"ĠVC":6830,"Ġimages":6831,"Ġroot":6832,"ouse":6833,"scenity":6834,"Ġprun":6835,"Ġprincip":6836,"Ġaccessibility":6837,"Ġaccessories":6838,"tensions":6839,"Ġdetention":6840,"TIVE":6841,"Ġplain":6842,"Ġpreferred":6843,"ĠIndoor":6844,"ĠHE":6845,"ĠHand":6846,"ptly":6847,"201":6848,"Include":6849,"106":6850,"Ġmains":6851,"ĠWritten":6852,"Ġadjustment":6853,"Ġadjusted":6854,"Ġarts":6855,"Ġartific":6856,"Ġdoctor":6857,"Ġcommodity":6858,"erell":6859,"ensing":6860,"ivil":6861,"Ġabate":6862,"Ġconditionally":6863,"ĠĠĠĠĠĠĠĠĠĠĠĠĠĠĠĠĠĠĠ":6864,"ackets":6865,"Ġintervals":6866,"place":6867,"enclosed":6868,"Ġdeciduous":6869,"useum":6870,"Ġbook":6871,"Ġsocial":6872,"Ġ2001":6873,"Ġflooding":6874,"Ġhomeowners":6875,"ficial":6876,"industrial":6877,"vening":6878,"vention":6879,"128":6880,"âĢ¦âĢ¦âĢ¦":6881,"ercially":6882,"Ġunderlying":6883,"ĠBox":6884,"ĠBoards":6885,"Ġtherefore":6886,"Ġsche":6887,"Ġscaled":6888,"erences":6889,"Ġbetter":6890,"Ġ48":6891,"Ġvisit":6892,"Ġseen":6893,"Ġseed":6894,"Ġsealed":6895,"Ġmaintains":6896,"Ġsurfaced":6897,"Ġsurfacing":6898,"Ġoperators":6899,"ternet":6900,"Ġcanvas":6901,"ĠEnsure":6902,"ĠEntrance":6903,"Ġoverlap":6904,"Ġrelationship":6905,"Ġoblig":6906,"ĠProviders":6907,"ney":6908,"Ġinstruction":6909,"ressure":6910,"ĠConnectivity":6911,"Ġutilization":6912,"ĠDepartments":6913,"rought":6914,"ĠExtensions":6915,"250":6916,"Ġclap":6917,"ĠArterial":6918,"ĠĉĠĉĠĉĠĉĠĠ":6919,"Ġcomplying":6920,"Ġappropriately":6921,"INANC":6922,"Ġpermission":6923,"Ġassess":6924,"Ġassist":6925,"Ġdefine":6926,"Ġparkway":6927,"Ġactivated":6928,"Ġconfer":6929,"Statement":6930,"Ġmeasurements":6931,"titution":6932,"Ġposting":6933,"soever":6934,"Ġgraphic":6935,"jected":6936,"Ġremove":6937,"Ġillustr":6938,"untary":6939,"ENER":6940,"Ġpharm":6941,"Ġregulatory":6942,"Ġtranspor":6943,"Exem":6944,"ociety":6945,"Ġspecialized":6946,"Ġprotective":6947,"Ġcreates":6948,"primary":6949,"Ġindividuals":6950,"Ġrent":6951,"Ġappealed":6952,"Ġcalming":6953,"ifications":6954,"ĠAdjustments":6955,"Ġkitchen":6956,"Ġ1998":6957,"Ġmultifamily":6958,"Ġalleged":6959,"ICE":6960,"Ġroadways":6961,"exc":6962,"Ġshows":6963,"Ġprocesses":6964,"Ġsurroundings":6965,"cribe":6966,"Ġraised":6967,"Ġevergre":6968,"Ġorientations":6969,"Ġcontrols":6970,"Ġcourse":6971,"Ġminimal":6972,"Ġcars":6973,"Ġcarport":6974,"Ġ01":6975,"pretations":6976,"STREET":6977,"courage":6978,"Ġsmallest":6979,"Ġaccommodation":6980,"Ġaccommodated":6981,"Ġaccommodations":6982,"Ġmatches":6983,"Ġcombinations":6984,"Ġconstitutes":6985,"Ġeighty":6986,"Ġrequesting":6987,"Ġaddressing":6988,"Ġparticipate":6989,"Ġcornices":6990,"Ġavailability":6991,"Ġdimensional":6992,"Ġproduct":6993,"Ġadequately":6994,"Ġvegetative":6995,"Conforming":6996,"Conventional":6997,"Ġpending":6998,"Ġparticularly":6999,"Ġguest":7000,"Ġlongest":7001,"ĠManufactured":7002,"ĠApplications":7003,"ĠOccupation":7004,"ĠOccupations":7005,"Ġphysically":7006,"REA":7007,"Ġappliances":7008,"ĠOFF":7009,"Ġtrails":7010,"Ġdirectional":7011,"Ġpreparation":7012,"Ġfilms":7013,"LAY":7014,"Ġdivision":7015,"Ġmeanings":7016,"latable":7017,"Ġstationing":7018,"Ġcrossing":7019,"Ġwalks":7020,"Ġinspector":7021,"Ġdepiction":7022,"ROV":7023,"projections":7024,"Ġrezoned":7025,"Ġ........................................................................":7026,"Ġannexed":7027,"time":7028,"ĠMultiple":7029,"Ġelectronically":7030,"ĠAppeal":7031,"Environ":7032,"Ġcement":7033,"Ġnumbered":7034,"ĠContin":7035,"Ġgasoline":7036,"Ġgenerate":7037,"Ġpathway":7038,"Ġamounts":7039,"Ġantenna":7040,"Ġrevisions":7041,"Ġrevoke":7042,"Ġtheme":7043,"Therefore":7044,"olumb":7045,"Ġbeneficial":7046,"Architectural":7047,"Developments":7048,"obby":7049,"Planning":7050,"Ġsynt":7051,"Ġhandic":7052,"Autom":7053,"Three":7054,"max":7055,"Ġstatue":7056,"Ġstatues":7057,"Ġhooded":7058,"Ġdisapprove":7059,"Ġsoils":7060,"Ġradio":7061,"ĠĠĠĠĠĠĠĠĠĠĠĠĠĠĠĠĠĠĠĠĠĠĠĠĠĠĠĠĠĠĠĠĠĠĠĠĠĠĠĠĠĠĠĠĠĠĠĠĠĠĠĠĠĠĠĠĠĠĠĠĠĠĠĠĠĠĠĠĠĠĠĠĠĠĠĠĠĠĠĠ":7062,"ĠĠĠĠĠĠĠĠĠĠĠĠĠĠĠĠĠĠĠĠĠĠĠĠĠĠĠĠĠĠĠĠĠĠĠĠĠĠĠĠĠĠĠĠĠĠĠĠĠĠĠĠĠĠĠĠĠĠĠĠĠĠĠĠĠĠĠĠĠĠĠĠĠĠĠĠĠĠĠĠĠĠĠĠĠĠĠĠĠĠĠĠĠĠĠĠĠĠĠĠĠĠĠĠĠĠĠĠĠĠĠĠĠĠĠĠĠĠĠĠĠĠĠĠĠĠĠĠ":7063,"Offices":7064,"Official":7065,"Should":7066,"ĠOnly":7067,"ĠImpact":7068,"Ġfurnish":7069,"Ġready":7070,"Ġfindings":7071,"Ġopportunity":7072,"ointment":7073,"Ġfunctional":7074,"Ġrelocate":7075,"Ġfactors":7076,"Ġdecorations":7077,"Ġcorrespond":7078,"Ġterminate":7079,"Manufacturing":7080,"Ġclothing":7081,"ĠPLANN":7082,"Ġ1108":7083,"Ġcomprise":7084,"ĠElectrical":7085,"Ġnonconformities":7086,"ĠProjecting":7087,"Districts":7088,"ĠVariance":7089,"Ġwhatsoever":7090,"Ġpetitioner":7091,"Ġdumpster":7092,"Ġlikely":7093,"Ġhydrant":7094,"Ġengage":7095,"Ġautomatically":7096,"Ġsymbol":7097,"Townhouse":7098,"Ġpassive":7099,"Ġbreakfast":7100,"Ġcampers":7101,"Ġresults":7102,"Ġresulting":7103,"Ġcontinuously":7104,"Ġslides":7105,"ĠBOARD":7106,"Ġphotographic":7107,"Truck":7108,"Ġblack":7109,"Ġburden":7110,"Ġcheck":7111,"Ġchemical":7112,"Ġbegun":7113,"omplete":7114,"ĠAssoci":7115,"Ġvarying":7116,"Ġcommunication":7117,"Ġpromotes":7118,"Ġsusp":7119,"ĠRunway":7120,"ĠRestaurants":7121,"Ġmeasuring":7122,"Ġphrase":7123,"Ġcontribute":7124,"ĠCompliance":7125,"ĠPERMITTED":7126,"CCESS":7127,"Ġnarra":7128,"Ġevaluation":7129,"Ġexercise":7130,"ĠHeights":7131,"Ġarrows":7132,"Ġeducation":7133,"Ġeducational":7134,"marks":7135,"Ġconceal":7136,"Ġhabit":7137,"Ġhospital":7138,"Ġheavy":7139,"Ġimitating":7140,"ĠProfile":7141,"ĠExemptions":7142,"Ġregional":7143,"ĠINTENT":7144,"Ġdiscontinued":7145,"Ġnavigable":7146,"Impervious":7147,"Nursing":7148,"Ġangle":7149,"Ġshrubbery":7150,"Ġprosecu":7151,"ĠADJU":7152,"ĠOVERLAY":7153,"Ġdealing":7154,"Ġenjoyment":7155,"Ġarcades":7156,"Ġknowledge":7157,"Authority":7158,"built":7159,"Ġtestim":7160,"Ġturbine":7161,"Ġballoons":7162,"Ġmandatory":7163,"lebration":7164,"Ġlogos":7165,"ĠBillboards":7166,"Ġvoluntary":7167,"Ġinterpreted":7168,"ĠEnclosed":7169,"ĠConvenience":7170,"overnment":7171,"Refuse":7172,"Ġhousehold":7173,"ĠAPPROV":7174,"Ġbeginning":7175,"anchions":7176,"Ġrectangle":7177,"CONFORMING":7178,"Ġconcurrently":7179,"Ġvenues":7180,"ĠLoan":7181,"Ġintentionally":7182,"ĠQuadplex":7183,"Ġtechniques":7184,"ĠLANDSCAPE":7185,"Violations":7186,"Because":7187,"JECT":7188,"Occupancy":7189,"epperell":7190,"ulevard":7191,"Ġedition":7192,"Ġsingular":7193,"Ġsatellite":7194,"alysis":7195,"endix":7196,"Ġpiece":7197,"Ġbenches":7198,"Ġanticipated":7199,"istency":7200,"Ġcassettes":7201,"roleum":7202,"usoleum":7203,"Ġstreng":7204,"Ġstudents":7205,"Ġlanguage":7206,"ĠCOMM":7207,"ĠAuburn":7208,"Ġcontingent":7209,"ungalow":7210,"Ġdebris":7211,"utrescible":7212,"Ġadministered":7213,"Ġunconstitutional":7214,"Ġveneer":7215,"ĠFaÃ§ades":7216,"ĠFUTURE":7217,"ENERAL":7218,"Ġevergreens":7219,"Ġsynthetic":7220,"ĠADJUST":7221,"39":7222,"300":7223,"42":7224,"46":7225,"49":7226,"54":7227,"59":7228,"71":7229,"74":7230,"85":7231,"Amend":7232,"Ass":7233,"Approved":7234,"Bungalow":7235,"Co":7236,"Car":7237,"Columb":7238,"DY":7239,"During":7240,"EW":7241,"EMPORARY":7242,"Fl":7243,"Five":7244,"Food":7245,"Fees":7246,"Fencing":7247,"Golf":7248,"Garage":7249,"HI":7250,"IK":7251,"Junk":7252,"LIN":7253,"Legal":7254,"LIK":7255,"Material":7256,"Mini":7257,"Mobile":7258,"Medical":7259,"Menu":7260,"Name":7261,"Necessary":7262,"Note":7263,"OD":7264,"OO":7265,"Own":7266,"Pr":7267,"Pedestrian":7268,"PRD":7269,"Powers":7270,"Res":7271,"RTICLE":7272,"Removal":7273,"Sever":7274,"Structure":7275,"Sewer":7276,"Struct":7277,"Title":7278,"TATION":7279,"Tattoo":7280,"US":7281,"USE":7282,"VING":7283,"Water":7284,"Words":7285,"Yard":7286,"ZON":7287,"aiver":7288,"avement":7289,"bed":7290,"brew":7291,"ders":7292,"drive":7293,"design":7294,"easure":7295,"fall":7296,"feet":7297,"ford":7298,"food":7299,"fort":7300,"figuration":7301,"gments":7302,"gra":7303,"gover":7304,"garage":7305,"hs":7306,"hy":7307,"high":7308,"iary":7309,"ierc":7310,"kes":7311,"lor":7312,"let":7313,"lieu":7314,"mn":7315,"my":7316,"mail":7317,"mark":7318,"mator":7319,"nts":7320,"now":7321,"nants":7322,"pay":7323,"pedestrian":7324,"rig":7325,"right":7326,"rban":7327,"sh":7328,"set":7329,"servic":7330,"sible":7331,"suring":7332,"tof":7333,"toc":7334,"tended":7335,"uance":7336,"uters":7337,"uits":7338,"vic":7339,"vage":7340,"vices":7341,"war":7342,"ware":7343,"wings":7344,"works":7345,"xious":7346,"ïĤ":7347,"Ġ,":7348,"Ġ00":7349,"Ġiii":7350,"ĠïĤ":7351,"Ġamb":7352,"Ġapartment":7353,"Ġafo":7354,"Ġadequacy":7355,"ink":7356,"ints":7357,"inking":7358,"inder":7359,"intensity":7360,"Ġter":7361,"Ġtent":7362,"Ġtail":7363,"Ġtandem":7364,"rep":7365,"reed":7366,"Ġsure":7367,"hetics":7368,"onse":7369,"erie":7370,"enestr":7371,"ennels":7372,"tifies":7373,"Ġpent":7374,"Ġpec":7375,"Ġpare":7376,"Ġpop":7377,"Ġpack":7378,"Ġpads":7379,"Ġpressure":7380,"ingerie":7381,"edian":7382,"ana":7383,"anes":7384,"ested":7385,"Ġbal":7386,"Ġbus":7387,"Ġbir":7388,"Ġbreas":7389,"Ġbrought":7390,"Ġfa":7391,"Ġfund":7392,"Ġfeed":7393,"orting":7394,"Ġanus":7395,"Ġanalysis":7396,"itate":7397,"isles":7398,"Ġcub":7399,"Ġcard":7400,"Ġcree":7401,"Ġcivil":7402,"roduc":7403,"arber":7404,"arized":7405,"atus":7406,"atch":7407,"Ġdil":7408,"Ġdirector":7409,"Ġdressed":7410,"Ġwrec":7411,"Ġwash":7412,"Ġwarehouse":7413,"Ġwearing":7414,"Ġmod":7415,"Ġmans":7416,"Ġmph":7417,"Ġordin":7418,"Ġrever":7419,"Ġretain":7420,"Ġreject":7421,"Ġrecon":7422,"Ġrecent":7423,"Ġrebuilding":7424,"Ġrebuilt":7425,"losion":7426,"lored":7427,"load":7428,"Ġbeau":7429,"ceive":7430,"ils":7431,"iltration":7432,"ethe":7433,"vere":7434,"ationally":7435,"Ġnative":7436,"idav":7437,"Ġstable":7438,"Ġstages":7439,"Ġstock":7440,"Ġstables":7441,"Ġstabil":7442,"lege":7443,"leges":7444,"Ġemit":7445,"acted":7446,"acant":7447,"Ġprogress":7448,"Ġprohibition":7449,"ĠSe":7450,"ĠSale":7451,"ĠSewer":7452,"ĠSemi":7453,"ĠSociety":7454,"Ġforce":7455,"Ġlanding":7456,"Ġlabor":7457,"Ġlakes":7458,"Ġlaundry":7459,"Ġlingerie":7460,"ĠCar":7461,"ĠCol":7462,"ĠCred":7463,"ĠCurb":7464,"ĠCOR":7465,"ĠCopy":7466,"ĠCompatibility":7467,"ĠCemetery":7468,"asic":7469,"asses":7470,"asphalt":7471,"oms":7472,"ĠAre":7473,"ĠAcc":7474,"ĠAmo":7475,"ĠARTICLE":7476,"ĠAisles":7477,"uction":7478,"Ġconvey":7479,"unior":7480,"unge":7481,"Ġwithdra":7482,"otor":7483,"otels":7484,"ĠPen":7485,"ĠPor":7486,"ĠProm":7487,"ĠPist":7488,"ĠPawn":7489,"urface":7490,"Ġarena":7491,"Ġappra":7492,"ĠNON":7493,"ĠName":7494,"Ġhang":7495,"Ġholes":7496,"Ġhotel":7497,"Ġpermis":7498,"licit":7499,"Ġloss":7500,"ĠORD":7501,"ĠOutside":7502,"ĠOPE":7503,"ĠOCC":7504,"Ġaspec":7505,"Ġascribed":7506,"Ġexact":7507,"Ġexhibits":7508,"Ġdepos":7509,"ardens":7510,"term":7511,"tering":7512,"They":7513,"Ġsignals":7514,"Ġnotwithstanding":7515,"Ġnotarized":7516,"Ġge":7517,"Ġgal":7518,"Ġgame":7519,"Ġgift":7520,"Ġgaz":7521,"Ġgutters":7522,"Ġgender":7523,"Ġgardens":7524,"veloper":7525,"ags":7526,"ĠRet":7527,"ĠRules":7528,"olid":7529,"Ġanything":7530,"hich":7531,"Ġspray":7532,"dep":7533,"rix":7534,"Ġcomes":7535,"Ġcommit":7536,"ĠBro":7537,"ĠBuil":7538,"ĠBody":7539,"ĠBMP":7540,"Ġadhere":7541,"Ġothers":7542,"start":7543,"irm":7544,"Ġdisposed":7545,"iferation":7546,"Ġunp":7547,"Ġunmar":7548,"Ġunenclosed":7549,"Ġplanner":7550,"amm":7551,"Ġinclus":7552,"ends":7553,"tings":7554,"ĠĠĠĠĠĠĠĠĠĠĠĠĠĠ":7555,"Ġalread":7556,"ows":7557,"owered":7558,"Ġstrateg":7559,"Ġsubpar":7560,"Ġrestr":7561,"Ġheads":7562,"Ġhedge":7563,"thm":7564,"resent":7565,"resaid":7566,"ĠMo":7567,"ĠMar":7568,"ĠMeet":7569,"ĠMore":7570,"ĠMini":7571,"ĠIm":7572,"ĠIdentification":7573,"ĠTN":7574,"ĠTRE":7575,"ĠTime":7576,"ĠTelecommunications":7577,"ĠTEMPORARY":7578,"establis":7579,"Ġaccent":7580,"Ġlocate":7581,"sewhere":7582,"identially":7583,"ĠFP":7584,"ĠFif":7585,"ĠFast":7586,"ĠFees":7587,"ĠFarm":7588,"ĠFunction":7589,"ĠFollowing":7590,"emote":7591,"Ġcomputed":7592,"Ġcomposition":7593,"eling":7594,"eline":7595,"ellant":7596,"ĠLess":7597,"ĠLength":7598,"ĠLayout":7599,"ĠLarge":7600,"ĠLuther":7601,".......................":7602,"Ġlandowner":7603,"areho":7604,"unded":7605,"tices":7606,"ĠUp":7607,"ĠUrban":7608,"ĠReader":7609,"crease":7610,"viii":7611,"vival":7612,"Ġfollowed":7613,"Ġcoordin":7614,"weight":7615,"ĠStations":7616,"ĠStorm":7617,"ĠStep":7618,"Ġ600":7619,"Ġoffers":7620,"Ġrhy":7621,"ĠGLA":7622,"ĠGraphic":7623,"ĠGolf":7624,"ĠGrading":7625,"ĠGENERAL":7626,"ĠVis":7627,"ĠVIL":7628,"ĠVinyl":7629,"ĠVacant":7630,"Ġoptions":7631,"Ġimport":7632,"Ġrough":7633,"aching":7634,"Ġ206":7635,"Ġacted":7636,"Ġacts":7637,"Ġacquired":7638,"ancing":7639,"add":7640,"Ġleased":7641,"Ġ34":7642,"ermination":7643,"Ġplaz":7644,"Ġpreced":7645,"Ġprevail":7646,"asement":7647,"ĠInternal":7648,"ĠIndividual":7649,"ĠIndec":7650,"ĠInternet":7651,"ĠHN":7652,"ĠHo":7653,"ĠHall":7654,"Ġnonprofit":7655,"Ġexisted":7656,"âĢĻ)":7657,"Individual":7658,"Includes":7659,"Ġestablishes":7660,"108":7661,"ĠWhich":7662,"Ġcommercially":7663,"Ġcommuters":7664,"covered":7665,"Ġtraditionally":7666,"enses":7667,"artin":7668,"Ġlineal":7669,"ivable":7670,"acked":7671,"ackground":7672,"Ġintermittent":7673,"Ġintervening":7674,"Ġdevelopers":7675,"Ġdeck":7676,"Ġdecks":7677,"Ġdeclar":7678,"ĠParcel":7679,"ĠParapet":7680,"ugated":7681,"usement":7682,"Ġboat":7683,"supp":7684,"sufficient":7685,"Ġoccupying":7686,"125":7687,"arium":7688,"Ġsuit":7689,"Ġsuff":7690,"Ġunderstanding":7691,"Ġundergoing":7692,"Ġsimulation":7693,"Ġbuttoc":7694,"tegr":7695,"Ġexplan":7696,"Ġexplos":7697,"Ġexplosion":7698,"Ġexplicit":7699,"ikew":7700,"Ġscope":7701,"Ġscenic":7702,"Ġlightweight":7703,"Ġdaycare":7704,"Ġsea":7705,"Ġpartly":7706,"Ġoperational":7707,"Ġofficers":7708,"ĠEntry":7709,"gement":7710,"Ġoverc":7711,"115":7712,"116":7713,"Ġrepeti":7714,"Ġreproduc":7715,"Ġsimilarly":7716,"ĠProviding":7717,"gineering":7718,"Ġrefers":7719,"ĠSubdivisions":7720,"Ġinsurance":7721,"Ġcharge":7722,"Ġcharged":7723,"Ġutilize":7724,"Ġutilizing":7725,"Ġnumbering":7726,"Ġadopt":7727,"Ġagents":7728,"Ġagreed":7729,"Ġfeaturing":7730,"ĠExposed":7731,"Ġclient":7732,"Ġclinics":7733,"Ġinstead":7734,"ĠArchitectural":7735,"locity":7736,"Ġpreserv":7737,"Ġdepression":7738,"airy":7739,"airman":7740,"Ġwaters":7741,"Ġgrand":7742,"Ġheretof":7743,"IND":7744,"Ġassessed":7745,"igured":7746,"Ġconfigured":7747,"Stand":7748,"Ġminors":7749,"Ġefforts":7750,"Ġelsewhere":7751,"Ġauthorization":7752,"Ġgroundcover":7753,"Ġposes":7754,"Ġgravel":7755,"Ġgrades":7756,"Ġphases":7757,"Ġclearing":7758,"Ġelevated":7759,"Ġflush":7760,"Ġfootpr":7761,"Ġjunk":7762,"egu":7763,"Ġresponse":7764,"Ġaffix":7765,"Ġaffidav":7766,"Ġprivately":7767,"Ġhoused":7768,"Ġcircle":7769,"Ġworkplace":7770,"ĠAdjacent":7771,"Ġkennels":7772,"Ġregistration":7773,"ANG":7774,"Ġ160":7775,"ALL":7776,"Ġcontinues":7777,"Ġindicates":7778,"Ġadvertise":7779,"ERS":7780,"ERPRE":7781,"Ġentit":7782,"Ġhighly":7783,"Ġhighways":7784,"Ġminimizing":7785,"Ġinvest":7786,"Ġinvited":7787,"160":7788,"Project":7789,"Ġ04":7790,"ography":7791,"Ġfirms":7792,"atories":7793,"Ġmatrix":7794,"Ġrunways":7795,"Ġexclu":7796,"Ġfoods":7797,"Ġaddressed":7798,"Ġemployed":7799,"Ġ........................................................":7800,"Ġfruits":7801,"Ġremote":7802,"box":7803,"boarding":7804,"Ġproduced":7805,"ORT":7806,"ORY":7807,"Ġobserved":7808,"Ġpenetr":7809,"Ġreplace":7810,"Ġcustomary":7811,"ĠSpacing":7812,"Ġpresently":7813,"IFIC":7814,"Ġpromptly":7815,"Nonresidential":7816,"Nonconform":7817,"ĠAgriculture":7818,"Ġsubmitting":7819,"ĠChangeable":7820,"ĠChairman":7821,"Ġinvolves":7822,"ITS":7823,"ĠClass":7824,"ĠClubs":7825,"ĠTrash":7826,"ĠApplicable":7827,"Ġproposes":7828,"Ġphysician":7829,"Additionally":7830,"Ġclassifications":7831,"Ġenvironmentally":7832,"iversity":7833,"Ġcurbs":7834,"ĠShrubs":7835,"Ġsufficiently":7836,"Ġairports":7837,"Ġsituation":7838,"Ġfinance":7839,"ĠCertain":7840,"Ġlowest":7841,"Ġprepare":7842,"Ġconvention":7843,"essional":7844,"ĠVehicles":7845,"LAGE":7846,"Ġends":7847,"Once":7848,"ferably":7849,"Ġdivide":7850,"ĠREAR":7851,"ĠREVI":7852,"stablished":7853,"ĠThirty":7854,"Ġorigin":7855,"Ġdepths":7856,"Alcoholic":7857,"Ġtakes":7858,"Ġbars":7859,"Attached":7860,"Ġinspect":7861,"Ġinspections":7862,"Ġremains":7863,"Ġbanks":7864,"Ġbanquet":7865,"Ġflows":7866,"Ġflowline":7867,"Ġdocks":7868,"proposed":7869,"Ġopposing":7870,"Ġrecover":7871,"ĠRoofs":7872,"Instruction":7873,"Ġ.....................................................................":7874,"ISTING":7875,"Ġbehalf":7876,"Ġdemonstrating":7877,"minor":7878,"tenths":7879,"Ġescape":7880,"ĠAppendix":7881,"Entrance":7882,"Entertainment":7883,"Engineering":7884,"Ġitem":7885,"Ġinfill":7886,"Ġinfiltration":7887,"Ġrevised":7888,"Ġrevok":7889,"laws":7890,"Ġecological":7891,"Ġwalkway":7892,"Rooming":7893,"Vehicles":7894,"Ġbroad":7895,"Ġconcern":7896,"Ġattor":7897,"obility":7898,"Ġswing":7899,"Ġlinks":7900,"ĠTransitional":7901,"Plant":7902,"spacing":7903,"Ġhandling":7904,"Ġincorporates":7905,"Auto":7906,"Automobile":7907,"Through":7908,"Ġtrips":7909,"Ġsteel":7910,"Ġstatute":7911,"ĠPROJECT":7912,"ĠRespons":7913,"ĠMaintain":7914,"Ġinstituted":7915,"Ġrenderings":7916,"ĠImpacts":7917,"Ġmailed":7918,"ĠInterpretation":7919,"ĠInterpretations":7920,"1108":7921,"ADING":7922,"Ġsuperv":7923,"Ġfurnishing":7924,"Ġliteral":7925,"Ġdistributed":7926,"Ġundisturbed":7927,"ĠMausoleum":7928,"Ġopaquely":7929,"ĠFlagp":7930,"ĠPlain":7931,"âĢĶâĢĶ":7932,"ĠHousing":7933,"Provided":7934,"Ġpubic":7935,"Ġcloth":7936,"Ġmachinery":7937,"ĠAPPEAL":7938,"Ġ1107":7939,"Ġunsight":7940,"Ġmodel":7941,"Ġinterested":7942,"Ġpurchased":7943,"District":7944,"Ġcauses":7945,"Ġcaused":7946,"Ġprograms":7947,"ĠPlats":7948,"Ġenlargement":7949,"Ġapproximate":7950,"Requirement":7951,"Ġfueling":7952,"Ġestimates":7953,"Multiple":7954,"Ġaesthetics":7955,"Ġbillboards":7956,"ĠOwnership":7957,"ĠBeverages":7958,"Ġadvance":7959,"Ġadvant":7960,"Ġreferences":7961,"Premise":7962,"aux":7963,"ĠKing":7964,"Ġdangerous":7965,"Ġlighted":7966,"ĠALL":7967,"Ġresulted":7968,"Ġcovenant":7969,"ANCE":7970,"Ġshelter":7971,"Ġcontractor":7972,"Sidewalk":7973,"Appeal":7974,"Diagram":7975,"Services":7976,"paration":7977,"Ġslip":7978,"Ġwires":7979,"Ġconversion":7980,"Ġdeeds":7981,"ĠBODY":7982,"ĠUSGS":7983,"Ġplaygrounds":7984,"Ġremedy":7985,"ĠLimitations":7986,"Ġburied":7987,"Ġnursery":7988,"ĠComputation":7989,"ĠIsland":7990,"ĠUtility":7991,"Ġcommunications":7992,"Ġwaivers":7993,"BAMA":7994,"HEIGHT":7995,"Ġtank":7996,"Ġsustain":7997,"Ġpartial":7998,"Ġprecast":7999,"Including":8000,"Incentives":8001,"Ġcorrection":8002,"Ġcorrected":8003,"Conservation":8004,"IRED":8005,"thening":8006,"Ġpetroleum":8007,"Ġinlet":8008,"Ġaligned":8009,"Ġsettings":8010,"Ġabsence":8011,"Ġprivile":8012,"Ġterminals":8013,"Common":8014,"Community":8015,"ĠCaliper":8016,"ĠClear":8017,"ĠPreservation":8018,"Ġhabitable":8019,"Ġhospitals":8020,"Ġheavily":8021,"Ġcommencement":8022,"ĠExempt":8023,"Ġsatisfying":8024,"ĠINTERPRE":8025,"Ġnavigation":8026,"Ġirre":8027,"Ġscore":8028,"Ġscored":8029,"Ġweigh":8030,"ĠObscenity":8031,"Ġalternatives":8032,"ĠMASS":8033,"ĠFuture":8034,"Ġcounting":8035,"Ġsimulators":8036,"Ġembellishment":8037,"Ġembellishments":8038,"Example":8039,"Examples":8040,"Procedure":8041,"Procedures":8042,"Ġ...........................................":8043,"Banners":8044,"BILITIES":8045,"Ġcalled":8046,"Ġderived":8047,"Ġtoilet":8048,"ĠSheet":8049,"ĠEXISTING":8050,"ĠCollector":8051,"Ġcompliment":8052,"Ġcorrugated":8053,"Ġrepealed":8054,"ĠREQUIRED":8055,"Recommended":8056,"ĠRestrictions":8057,"Ġdelivery":8058,"Porches":8059,"Typical":8060,"ranting":8061,"secondary":8062,"Ġtextured":8063,"Ġblocks":8064,"Ġfasten":8065,"Ġfluids":8066,"Ġfemale":8067,"Ġfield":8068,"Ġcandidates":8069,"Ġrehearing":8070,"ĠSelected":8071,"ĠSPECIFIC":8072,"ĠCircuit":8073,"Ġdeviations":8074,"ĠREDEVELOPMENT":8075,"ĠTwenty":8076,"Ġaccurately":8077,"ĠVertical":8078,"Ġenactment":8079,"Ġfocus":8080,"ĠHospitality":8081,"Interpretation":8082,"Ġimpris":8083,"Ġyielded":8084,"Ġintersect":8085,"Ġrelieve":8086,"Ġdiagrams":8087,"ERCIAL":8088,"Conflict":8089,"Ġguarantee":8090,"Ġholiday":8091,"ĠPROCEDURES":8092,"Ġsuccessful":8093,"Buffers":8094,"Calculation":8095,"Variances":8096,"crimp":8097,"garten":8098,"potential":8099,"Ġsentence":8100,"tillery":8101,"Ġpredomin":8102,"Ġblue":8103,"Ġcyclists":8104,"royed":8105,"Ġdaily":8106,"Ġdestroyed":8107,"Ġthreat":8108,"Ġproliferation":8109,"ĠSafety":8110,"ĠDemand":8111,"ĠDivision":8112,"Ġdischarge":8113,"Ġunusual":8114,"ĠModifications":8115,"Ġartificial":8116,"âĢ¦âĢ¦âĢ¦..":8117,"Ġtransported":8118,"Automotive":8119,"Ġcorrespondence":8120,"ĠPLANNED":8121,"Ġsuspended":8122,"Ġtestimony":8123,"Ġstrengthening":8124,"ĠCOMMERCIAL":8125,"ĠADJUSTMENT":8126,"Assisted":8127,"Council":8128,"LIKA":8129,"Severability":8130,"ZONING":8131,"governing":8132,"matorium":8133,"service":8134,"ĠïĤ§":8135,"Ġaforesaid":8136,"indergarten":8137,"Ġbreasts":8138,"Ġcubic":8139,"Ġdilig":8140,"Ġmansard":8141,"Ġreconfiguration":8142,"Ġstabilized":8143,"ĠCredit":8144,"ĠPistac":8145,"Ġappraised":8146,"ĠOPELIKA":8147,"ĠOCCUP":8148,"Ġaspects":8149,"Ġgaze":8150,"Ġspraying":8151,"Ġunmarried":8152,"Ġinclusion":8153,"Ġalready":8154,"Ġsubparagraph":8155,"arehousing":8156,"Ġrhythm":8157,"ĠVILLAGE":8158,"Ġroughly":8159,"ĠIndecency":8160,"Ġdeclaration":8161,"Ġbuttocks":8162,"Ġrepetitive":8163,"Ġreproductions":8164,"Ġheretofore":8165,"Ġaffidavit":8166,"ĠREVIEW":8167,"Ġrevoked":8168,"ĠAPPEALS":8169,"ĠINTERPRETATION":8170,"\")":8171,"\".":8172,")\"":8173,"112":8174,"1000":8175,"41":8176,"43":8177,"44":8178,"56":8179,"57":8180,"61":8181,"67":8182,"68":8183,"76":8184,"807":8185,"805":8186,"<âĢĶ":8187,"AG":8188,"AY":8189,"Ag":8190,"ABIL":8191,"Aband":8192,"Bus":8193,"Brick":8194,"Bicycle":8195,"BLAN":8196,"Blank":8197,"Balconies":8198,"Bld":8199,"Background":8200,"CS":8201,"Ce":8202,"Cul":8203,"Comp":8204,"Cross":8205,"Camp":8206,"Compatibility":8207,"Canopies":8208,"Det":8209,"Due":8210,"Director":8211,"DEVELOPMENT":8212,"Distance":8213,"Element":8214,"Elements":8215,"Erosion":8216,"Feet":8217,"Fast":8218,"Facilities":8219,"Funeral":8220,"Gr":8221,"Gas":8222,"Generally":8223,"Grocery":8224,"Garages":8225,"Hig":8226,"Hotel":8227,"HANG":8228,"IA":8229,"Ill":8230,"IRE":8231,"Identi":8232,"LL":8233,"LED":8234,"Mar":8235,"More":8236,"MIN":8237,"NA":8238,"NC":8239,"NON":8240,"PA":8241,"Pl":8242,"PARK":8243,"Package":8244,"Portable":8245,"Right":8246,"Rural":8247,"Rever":8248,"RCS":8249,"Sac":8250,"Slop":8251,"Small":8252,"Safe":8253,"South":8254,"TAL":8255,"TER":8256,"UL":8257,"Using":8258,"Vicinity":8259,"Veterinary":8260,"VICE":8261,"With":8262,"Warehouse":8263,"Written":8264,"Warehousing":8265,"WAY":8266,"Yards":8267,"Zero":8268,"ax":8269,"aus":8270,"apped":8271,"ba":8272,"bro":8273,"bur":8274,"base":8275,"block":8276,"barge":8277,"cl":8278,"cks":8279,"circ":8280,"class":8281,"dle":8282,"doors":8283,"disturb":8284,"fts":8285,"fill":8286,"facilities":8287,"fills":8288,"fron":8289,"gs":8290,"haus":8291,"iar":8292,"iking":8293,"ienti":8294,"iable":8295,"iencies":8296,"iries":8297,"kers":8298,"lies":8299,"laz":8300,"liner":8301,"mon":8302,"mus":8303,"mini":8304,"nd":8305,"non":8306,"nic":8307,"nection":8308,"nial":8309,"oes":8310,"ound":8311,"oided":8312,"ointed":8313,"pa":8314,"ract":8315,"rins":8316,"rangement":8317,"rackets":8318,"structed":8319,"tance":8320,"top":8321,"utr":8322,"uated":8323,"vil":8324,"void":8325,"ws":8326,"working":8327,"whether":8328,"xis":8329,"yr":8330,"yard":8331,"yze":8332,"zen":8333,"zoning":8334,"Â½":8335,"âī":8336,"Ġ_":8337,"Ġix":8338,"Ġiv":8339,"Ġ__":8340,"Ġ________________":8341,"Ġaid":8342,"Ġapr":8343,"Ġafore":8344,"Ġaudi":8345,"Ġaxis":8346,"inv":8347,"ince":8348,"inum":8349,"inks":8350,"Ġtub":8351,"Ġtents":8352,"Ġtables":8353,"Ġtinted":8354,"Ġtasting":8355,"Ġtelecommunications":8356,"Ġtaprooms":8357,"Ġowning":8358,"Ġought":8359,"Ġowing":8360,"recre":8361,"rels":8362,"reme":8363,"rella":8364,"Ġsun":8365,"Ġsqu":8366,"Ġsince":8367,"only":8368,"alyze":8369,"erous":8370,"erint":8371,"Ġtheat":8372,"ening":8373,"enior":8374,"tique":8375,"Ġped":8376,"Ġpens":8377,"Ġpumps":8378,"aning":8379,"esti":8380,"eside":8381,"Ġbure":8382,"Ġbra":8383,"Ġbike":8384,"Ġbath":8385,"Ġbeside":8386,"Ġfro":8387,"Ġfar":8388,"Ġfam":8389,"Ġfib":8390,"Ġfast":8391,"Ġfigure":8392,"Ġfixed":8393,"Ġfalls":8394,"Ġfenestr":8395,"Ġfaux":8396,"Ġfesti":8397,"orses":8398,"orals":8399,"Ġanno":8400,"ital":8401,"iss":8402,"isture":8403,"isory":8404,"iscel":8405,"Ġcance":8406,"Ġcuts":8407,"Ġcash":8408,"Ġcashing":8409,"rous":8410,"ropri":8411,"arter":8412,"arial":8413,"arri":8414,"aracter":8415,"arget":8416,"arbage":8417,"icil":8418,"icians":8419,"atur":8420,"atum":8421,"atly":8422,"ateness":8423,"Ġdid":8424,"Ġdom":8425,"Ġdated":8426,"Ġdip":8427,"Ġdram":8428,"Ġdrop":8429,"Ġdairy":8430,"Ġwiring":8431,"Ġweed":8432,"Ġinvent":8433,"Ġinves":8434,"Ġinoper":8435,"Ġinsufficient":8436,"Ġmight":8437,"Ġmedic":8438,"Ġmalt":8439,"Ġmedian":8440,"Ġmorals":8441,"Ġorders":8442,"alley":8443,"Ġred":8444,"Ġretention":8445,"Ġrejection":8446,"Ġrehab":8447,"Ġretained":8448,"looding":8449,"Ġtoo":8450,"Ġtot":8451,"Ġbegan":8452,"Ġsharing":8453,"ceip":8454,"ception":8455,"ilt":8456,"ilit":8457,"ilies":8458,"igible":8459,"etal":8460,"etor":8461,"eters":8462,"etch":8463,"ette":8464,"usal":8465,"mented":8466,"mentally":8467,"Ġthings":8468,"Ġthick":8469,"Ġnow":8470,"Ġnodes":8471,"Ġnationally":8472,"idance":8473,"idence":8474,"idences":8475,"idden":8476,"Ġstart":8477,"learning":8478,"Ġey":8479,"Ġeffic":8480,"Ġeating":8481,"Ġeaves":8482,"acher":8483,"acies":8484,"Ġproff":8485,"Ġproble":8486,"ĠSq":8487,"ĠSit":8488,"ĠSell":8489,"ĠSER":8490,"ĠSanitary":8491,"ĠSafe":8492,"ĠSouth":8493,"ĠShort":8494,"ĠSwimming":8495,"Ġlf":8496,"Ġlat":8497,"Ġlik":8498,"Ġlumber":8499,"Ġlumin":8500,"Ġlacks":8501,"Ġlav":8502,"Ġlawn":8503,"Ġlake":8504,"Ġlasting":8505,"Ġlieu":8506,"ĠCR":8507,"ĠCur":8508,"ĠCell":8509,"ĠCustom":8510,"ĠColum":8511,"ĠCITY":8512,"ĠCheck":8513,"asive":8514,"omini":8515,"ĠAE":8516,"ĠAdequate":8517,"ĠALA":8518,"ĠACCESS":8519,"ignment":8520,"ucted":8521,"Ġconvic":8522,"unges":8523,"unloading":8524,"otage":8525,"otating":8526,"otechnical":8527,"quality":8528,"ĠPers":8529,"ĠPond":8530,"ĠPEN":8531,"ĠPurpose":8532,"ĠPole":8533,"ĠPoint":8534,"ĠPath":8535,"ĠPowers":8536,"ĠPepperell":8537,"ĠPierc":8538,"trail":8539,"tractions":8540,"Ġonsite":8541,"Ġusers":8542,"Ġappare":8543,"Ġappointed":8544,"ĠNurs":8545,"ula":8546,"ulating":8547,"uliar":8548,"Ġhost":8549,"Ġhistor":8550,"Ġhitch":8551,"Ġhorses":8552,"Ġhidden":8553,"ured":8554,"ĠDi":8555,"ĠDoor":8556,"ĠDWTN":8557,"ĠDigit":8558,"ĠDatum":8559,"Ġperil":8560,"Ġpertains":8561,"licensed":8562,"essing":8563,"llards":8564,"ĠOut":8565,"Ġextr":8566,"Ġexits":8567,"Ġexhibition":8568,"Ġexhaus":8569,"Ġdelic":8570,"Ġdeath":8571,"Ġdeviation":8572,"Ġdeceleration":8573,"Ġdeleg":8574,"arded":8575,"teries":8576,"osa":8577,"Ġnotation":8578,"Ġgam":8579,"Ġgateway":8580,"Ġgolf":8581,"Ġparap":8582,"Ġparlor":8583,"agation":8584,"aginary":8585,"ĠRest":8586,"ĠRural":8587,"ĠRiver":8588,"ĠRotating":8589,"ainting":8590,"Ġpropri":8591,"Ġpropagation":8592,"verns":8593,"vergreen":8594,"ĠĉĠĠĠ":8595,"Ġspr":8596,"Ġspons":8597,"developer":8598,"riment":8599,"rift":8600,"uth":8601,"utting":8602,"utine":8603,"utors":8604,"Ġcoming":8605,"Ġcomfort":8606,"ĠBY":8607,"ĠBy":8608,"ĠBase":8609,"ĠBased":8610,"ĠBene":8611,"ĠBlank":8612,"ĠBalconies":8613,"ĠBetween":8614,"ĠBrackets":8615,"Ġadhe":8616,"store":8617,"stream":8618,"stead":8619,"irst":8620,"Ġdiscer":8621,"Ġdistractions":8622,"004":8623,"Ġunop":8624,"Ġuncon":8625,"Ġundes":8626,"Ġunob":8627,"Ġunrelated":8628,"Ġunloading":8629,"Ġunifying":8630,"Ġunoccupied":8631,"Ġunbro":8632,"amps":8633,"ameters":8634,"Ġvir":8635,"Ġvoc":8636,"Ġvii":8637,"Ġviii":8638,"Ġvalley":8639,"Ġincome":8640,"Ġinclusive":8641,"Ġincomplete":8642,"ĠĠĠĠĠĠĠĠĠĠĠĠĠĠĠ":8643,"Ġalumin":8644,"Ġstreetscape":8645,"owling":8646,"Ġapplicability":8647,"atering":8648,"Ġconsult":8649,"Ġconservation":8650,"Ġconsumer":8651,"Ġconsistency":8652,"Ġsubdivid":8653,"Ġresearch":8654,"Ġresidentially":8655,"Ġheat":8656,"Ġmoisture":8657,"though":8658,"thouse":8659,"resses":8660,"aproom":8661,"ĠMER":8662,"ĠMicro":8663,"ĠMethod":8664,"ĠMeasure":8665,"ĠMartin":8666,"ĠIlex":8667,"ĠTO":8668,"ĠTri":8669,"ĠTop":8670,"ĠTarget":8671,"estal":8672,"estation":8673,"Ġaccents":8674,"Ġlocating":8675,"sewe":8676,"Ġdevelopmental":8677,"inear":8678,"ework":8679,"ĠFlow":8680,"ĠFee":8681,"ĠFixtures":8682,"ĠFuneral":8683,"ĠFEMA":8684,"ĠFirst":8685,"Ġdesires":8686,"Ġcomplement":8687,"Ġcomputer":8688,"ersal":8689,"hedule":8690,"elting":8691,"izations":8692,"izers":8693,"ĠLet":8694,"ĠLeg":8695,"Ġlandmarks":8696,"aret":8697,"ibutes":8698,"ĠEase":8699,"ĠEast":8700,"ĠEvery":8701,"ĠEstablished":8702,"ĠEvergreen":8703,"iparian":8704,"ĠUmb":8705,"ofar":8706,"ĠRelease":8707,"ĠReceip":8708,"Ġdesignations":8709,"creens":8710,"vie":8711,"vied":8712,"Ġcoated":8713,"Ġcoinc":8714,"Ġcoordinate":8715,"Ġcooper":8716,"Ġhad":8717,"Ġmapping":8718,"ĠStanchions":8719,"ĠStatus":8720,"Ġoffensive":8721,"Ġris":8722,"Ġrig":8723,"Ġration":8724,"Ġrate":8725,"Ġrain":8726,"Ġracks":8727,"Ġrins":8728,"ĠGra":8729,"ĠGroom":8730,"ĠGarages":8731,"ĠGovernment":8732,"ĠDistinguished":8733,"ĠDistance":8734,"ĠVal":8735,"ĠVolum":8736,"Ġenable":8737,"Ġenerg":8738,"Ġenumer":8739,"Ġensuring":8740,"Ġimaginary":8741,"Ġroute":8742,"Ġrounded":8743,"Ġroutine":8744,"scri":8745,"school":8746,"ĠThey":8747,"ĠTheater":8748,"Ġacceleration":8749,"Ġprinted":8750,"Ġlevied":8751,"ivered":8752,"Ġ37":8753,"Ġ350":8754,"Ġ74":8755,"Ġ704":8756,"Ġ705":8757,"Ġ706":8758,"Ġ708":8759,"Ġfoun":8760,"Ġpref":8761,"Ġpreapplication":8762,"Ġprevention":8763,"ĠInf":8764,"ĠIncrease":8765,"ĠIntegr":8766,"ĠHUD":8767,"ĠHotel":8768,"changes":8769,"Ġvelocity":8770,"Ġowns":8771,"Ġwalled":8772,"ĠDeveloped":8773,"ĠDeferred":8774,"ĠDevices":8775,"Indicate":8776,"ailed":8777,"109":8778,"Ġsurround":8779,"Ġsurvival":8780,"ĠWind":8781,"ĠWords":8782,"ĠWhether":8783,"Ġwherein":8784,"Ġwherever":8785,"Ġimped":8786,"Ġadjustments":8787,"Ġarise":8788,"Ġartis":8789,"Ġdoll":8790,"onstructed":8791,"ĠâĢĺ":8792,"Ġsett":8793,"Ġ804":8794,"Ġ807":8795,"Ġ805":8796,"colored":8797,"Ġupland":8798,"Ġupward":8799,"ensis":8800,"arthen":8801,"Ġyet":8802,"ĠĠĠĠĠĠĠĠĠĠĠĠĠĠĠĠĠĠĠĠĠĠĠ":8803,"Ġallowance":8804,"Ġinterstate":8805,"ĠCoverage":8806,"istant":8807,"Animal":8808,"Ġ52":8809,"ĠParabolic":8810,"Ġbollards":8811,"Ġsouth":8812,"uality":8813,"Ġmany":8814,"Ġtran":8815,"Ġtrue":8816,"tilizers":8817,"121":8818,"123":8819,"more":8820,"Ġcomplied":8821,"........................................":8822,"........................................................":8823,"inctive":8824,"Ġsuite":8825,"Ġpoly":8826,"Ġpouring":8827,"Ġpollution":8828,"Ġunderbr":8829,"Ġapproaches":8830,"Ġsimple":8831,"Ġtimely":8832,"actor":8833,"ĠBoulevard":8834,"Ġexpend":8835,"Ġexpired":8836,"ĠAdv":8837,"ĠAdditions":8838,"Ġscul":8839,"ĠAlter":8840,"Ġ96":8841,"Ġ905":8842,"erennial":8843,"hibitions":8844,"Ġ43":8845,"Ġ400":8846,"Ġsegments":8847,"Ġsevere":8848,"inese":8849,"Ġdeterminations":8850,"Ġentries":8851,"Ġoperates":8852,"ĠEncourage":8853,"Ġoverflow":8854,"Ġrelate":8855,"Ġrefusal":8856,"Ġlessee":8857,"atis":8858,"prec":8859,"ĠConcrete":8860,"ĠProhibitions":8861,"Ġfeather":8862,"iana":8863,"ĠExchange":8864,"Ġclar":8865,"Ġclinic":8866,"Ġclutter":8867,"ĠArmy":8868,"Ġsafegu":8869,"horization":8870,"Ġprescription":8871,"Ġdeprive":8872,"Ġdependent":8873,"airs":8874,"INESS":8875,"Ġextreme":8876,"Ġdefect":8877,"umination":8878,"ĠAttor":8879,"Stream":8880,"Studi":8881,"Ġmini":8882,"Ġeligible":8883,"Ġgrey":8884,"Ġoutwe":8885,"Ġoutline":8886,"Ġoutward":8887,"Ġoutfall":8888,"Ġoutdoors":8889,"Ġgroundwater":8890,"ceptable":8891,"Ġpositive":8892,"Ġgraded":8893,"Ġremovable":8894,"ustrades":8895,"Ġillustration":8896,"Performance":8897,"ĠUnd":8898,"ĠUnsewe":8899,"Ġseparator":8900,"ours":8901,"Ġregulating":8902,"Ġdistinctive":8903,"Ġtransit":8904,"Ġtransform":8905,"Ġtransient":8906,"Ġtransaction":8907,"Ġtransactions":8908,"Ġconnecting":8909,"Ġflor":8910,"Ġflutter":8911,"Ġflamm":8912,"etches":8913,"ĠAccessible":8914,"Ġfootings":8915,"Ġilluminating":8916,"Exposed":8917,"Ġjo":8918,"Ġjob":8919,"Ġjunior":8920,"egative":8921,"Ġprotecting":8922,"Ġrespond":8923,"Ġcream":8924,"prises":8925,"plementation":8926,"ĠÂ§Â§":8927,"Ġaffirm":8928,"136":8929,"Ġcircuit":8930,"Ġappearing":8931,"180":8932,"188":8933,"Ġencasement":8934,"Ġkindergarten":8935,"Ġ1999":8936,"elled":8937,"Ġregards":8938,"Ġviolate":8939,"Ġviolating":8940,"Ġassociations":8941,"ICAL":8942,"Ġbounded":8943,"190":8944,"ALTIES":8945,"aked":8946,"Ġavoided":8947,"Ġcontinuation":8948,"024":8949,"Ġraise":8950,"Ġhereinafter":8951,"Ġsewing":8952,"Ġmonot":8953,"raphs":8954,"Ġaddresses":8955,"Ġtowing":8956,"Ġoccurring":8957,"Ġofficials":8958,"Ġinvasive":8959,"angements":8960,"Prof":8961,"Proper":8962,"enger":8963,"ographs":8964,"Ġrestored":8965,"ĠCorn":8966,"ĠCorps":8967,"ĠOverly":8968,"Ġpreventing":8969,"Ġpawn":8970,"Ġlicensee":8971,"ĠForty":8972,"tigation":8973,"Ġstreamers":8974,"ISTRATION":8975,"Receive":8976,"Ġ.......................................................":8977,"Ġcapability":8978,"avy":8979,"avor":8980,"avail":8981,"Ġstorefront":8982,"Ġproduction":8983,"Ġwooded":8984,"Ġwoodworking":8985,"ĠNeon":8986,"Ġvegetables":8987,"Ġenclosures":8988,"Conditions":8989,"Ġpennants":8990,"Ġreplacing":8991,"Ġfloodway":8992,"Ġcustomers":8993,"ĠSpeed":8994,"Ġguidance":8995,"Ġedges":8996,"Ġeffectively":8997,"Shared":8998,"Ġbodywork":8999,"Ġwashes":9000,"ĠSecurity":9001,"Ġsubmittal":9002,"Ġentirety":9003,"Ġprofile":9004,"Ġprocedural":9005,"ĠChild":9006,"ĠCharacter":9007,"ĠCentral":9008,"Ġintegration":9009,"Ġintegrally":9010,"ĠClinics":9011,"Ġmonthly":9012,"Ġgroups":9013,"Ġteaching":9014,"Ġteacher":9015,"Ġbasements":9016,"Ġcurbing":9017,"ĠShared":9018,"ĠShape":9019,"ĠComb":9020,"Ġappliance":9021,"Ġplats":9022,"Ġplatting":9023,"Ġcalculating":9024,"Ġalleyways":9025,"Ġsituated":9026,"267":9027,"ĠYards":9028,"Ġfiles":9029,"Ġboarded":9030,"Ġendanger":9031,"ĠMayor":9032,"Ġbraces":9033,"Ġbranch":9034,"ĠConsumption":9035,"ĠConsumer":9036,"ĠConstitution":9037,"Ġpowder":9038,"Ġpowered":9039,"Ġbarrels":9040,"Athens":9041,"Ġwalking":9042,"Ġmassage":9043,"Ġsloped":9044,"Ġlettered":9045,"âĢ¦âĢ¦âĢ¦âĢ¦âĢ¦âĢ¦âĢ¦âĢ¦âĢ¦âĢ¦âĢ¦âĢ¦âĢ¦âĢ¦âĢ¦âĢ¦":9046,"âĢ¦âĢ¦âĢ¦âĢ¦âĢ¦âĢ¦âĢ¦âĢ¦âĢ¦âĢ¦âĢ¦âĢ¦âĢ¦âĢ¦âĢ¦âĢ¦âĢ¦âĢ¦âĢ¦âĢ¦":9047,"proof":9048,"ĠRooms":9049,"Ġcovers":9050,"Ġ..................................................................":9051,"Ġ......................................................................":9052,"ĠScope":9053,"ĠSchedule":9054,"Ġarrangements":9055,"Ġarterials":9056,"Ġattributes":9057,"Ġelectronics":9058,"Ġmotorized":9059,"limited":9060,"Ġrib":9061,"ĠAppointment":9062,"ĠAppropri":9063,"Ġinflatable":9064,"Ġnumerous":9065,"ĠContents":9066,"ĠTrailer":9067,"Ġrevol":9068,"Ġrevision":9069,"Ġhardships":9070,"Church":9071,"Changes":9072,"Changeable":9073,"Ġpicnic":9074,"Ġshield":9075,"Ġshielding":9076,"Ġvacated":9077,"ĠLimits":9078,"ĠAddress":9079,"Ġwalkable":9080,"Ġrecognize":9081,"Ġrecognition":9082,"Ġrecognizes":9083,"Ġorganizations":9084,"Ġconcerns":9085,"ĠPrevent":9086,"Ġaccompany":9087,"Definitions":9088,"Ġswitch":9089,"Ġliner":9090,"ategories":9091,"Ġabandon":9092,"ĠTransition":9093,"frontage":9094,"Ġ134":9095,"ĠRevoke":9096,"Ġtraveling":9097,"Ġvalidity":9098,"Ġvalidly":9099,"Those":9100,"ĠResearch":9101,"Ġradii":9102,"Ġawnings":9103,"Ġskin":9104,"Ġskills":9105,"Ġsketches":9106,"Ġuniqueness":9107,"ĠIntersection":9108,"1107":9109,"ADMIN":9110,"Under":9111,"ĠQuality":9112,"Ġfunctionally":9113,"ĠPrimarily":9114,"ĠNotes":9115,"Ġdistribute":9116,"Ġdistributors":9117,"Ġunduly":9118,"ĠMax":9119,"Ġaccordingly":9120,"ĠZONES":9121,"ĠProtect":9122,"Ġentryways":9123,"Ġpetitions":9124,"Ġefficiently":9125,"Ġassemble":9126,"Ġassembling":9127,"Ġdegrad":9128,"âĢĶ>":9129,"Ġdiscarded":9130,"Ġfactor":9131,"ĠHouses":9132,"Ġterminates":9133,"ĠAuthorization":9134,"Ġperformances":9135,"Ġcomprised":9136,"Ġeconomy":9137,"Minor":9138,"Ġselected":9139,"Ġfilled":9140,"Ġcategories":9141,"ĠSurf":9142,"ĠEstablishments":9143,"Ġnearly":9144,"Ġseconds":9145,"Ġdocumented":9146,"FORMA":9147,"FORCE":9148,"Floodlights":9149,"Ġdrains":9150,"Ġhydraulic":9151,"Ġtractor":9152,"Ġobscene":9153,"Ġpatron":9154,"Ġerrors":9155,"Ġlettering":9156,"ĠIlluminating":9157,"Premises":9158,"Ġodors":9159,"Ġpassenger":9160,"Ġfittings":9161,"Ġfarms":9162,"tinguishing":9163,"Ġdeteriorating":9164,"Ġgrassed":9165,"ANCES":9166,"ĠRecords":9167,"Ġshelf":9168,"Ġcontractors":9169,"parallel":9170,"Ġslab":9171,"Ġbalconies":9172,"Ġcabaret":9173,"laneous":9174,"Ġdelivered":9175,"ĠUSDA":9176,"ĠRepairs":9177,"Ġelimination":9178,"Ġphotographs":9179,"Ġtransferred":9180,"Ġcarrying":9181,"Ġflagpoles":9182,"Subzone":9183,"adio":9184,"structures":9185,"Ġpayment":9186,"Ġfabrication":9187,"Ġstudies":9188,"Ġlaterals":9189,"ĠAssess":9190,"Ġdispensing":9191,"ĠIssu":9192,"ĠBoundary":9193,"Ġdifficult":9194,"Opelika":9195,"Ġthroat":9196,"ĠFox":9197,"ĠFoundation":9198,"ĠFootage":9199,"ĠFeather":9200,"Ġcompanies":9201,"Ġprecise":9202,"Ġimproves":9203,"......................................................................":9204,"Ġagreements":9205,"Ġcontribution":9206,"ĠComplete":9207,"Ġproportioned":9208,"Wholesale":9209,"aundrom":9210,"easures":9211,"Ġapartments":9212,"Ġflexible":9213,"Ġmarin":9214,"Ġmarquee":9215,"Ġnarrow":9216,"Ġhallways":9217,"Ġexercising":9218,"Ġrespects":9219,"Ġmovements":9220,"ĠStreamside":9221,"Ġenforcing":9222,"Ġattendance":9223,"Ġattendant":9224,"retarial":9225,"Ġfermentation":9226,"Ġfermented":9227,"Ġfertilizers":9228,"Ġduplexes":9229,"ĠCONT":9230,"ĠCONDI":9231,"ĠAbutting":9232,"Ġconcepts":9233,"ĠPresent":9234,"Ġgenus":9235,"emeteries":9236,"Ġimitations":9237,"Ġdecreases":9238,"ĠConference":9239,"ĠProfessional":9240,"Ġqualifying":9241,"Ġqualify":9242,"______________________":9243,"Ġdifficulties":9244,"Ġrailroads":9245,"Furthermore":9246,"Improvements":9247,"OMMEND":9248,"Parks":9249,"Ġpatio":9250,"Ġframes":9251,"Ġframework":9252,"Ġangles":9253,"ĠStriping":9254,"ĠOVERHANG":9255,"Ġdealership":9256,"Ġadapt":9257,"Ġadapted":9258,"ĠFueling":9259,"Ġcountry":9260,"Ġcontinuance":9261,"Authorization":9262,"ĠDetermine":9263,"Before":9264,"GEFORMA":9265,"Ġdigital":9266,"Ġmiddle":9267,"Ġtoilets":9268,"Ġbeams":9269,"Ġstadiums":9270,"ĠAwnings":9271,"ĠPhot":9272,"Ġgallon":9273,"ĠRECOMMEND":9274,"Ġvibration":9275,"Ġvibrations":9276,"Ġarticulated":9277,"Ġcompliant":9278,"Ġcorrals":9279,"Ġoverhangs":9280,"ĠExpansion":9281,"ĠExpiration":9282,"Ġdiverg":9283,"Ġdiversity":9284,"Ġpostmark":9285,"Ġjointly":9286,"ĠREQUIRE":9287,"Recommend":9288,"Developers":9289,"Board":9290,"Reduction":9291,"odetic":9292,"parent":9293,"significant":9294,"Ġaerial":9295,"Ġsalvage":9296,"Ġbicycles":9297,"Ġdiminish":9298,"ĠSHAPE":9299,"ĠSuperv":9300,"ĠSpecifications":9301,"ĠCrematorium":9302,"ĠATP":9303,"Ġdeficiency":9304,"Ġdeficiencies":9305,"Ġvaried":9306,"Ġallocated":9307,"ĠMonitor":9308,"ĠLaws":9309,"Ġchoice":9310,"ĠRegulation":9311,"ĠRegulate":9312,"ĠGeodetic":9313,"ĠGuide":9314,"Ġimposes":9315,"Ġrotate":9316,"ĠIncentives":9317,"Ġcertifying":9318,"Expansion":9319,"Expression":9320,"Ġrenewal":9321,"Ġobstructs":9322,"Allowed":9323,"ĠReducing":9324,"Ġdiscussed":9325,"ĠALLOWED":9326,"Ġstipulated":9327,"Ġencroachment":9328,"Corner":9329,"Continuous":9330,"Dumpster":9331,"Hospitals":9332,"Personal":9333,"Restaurants":9334,"Skirting":9335,"Utility":9336,"Vegetation":9337,"Windows":9338,"candle":9339,"Ġ\\*":9340,"Ġramps":9341,"Ġbatteries":9342,"Ġfeasibility":9343,"Ġannual":9344,"Ġcrime":9345,"Ġmusic":9346,"Ġmulch":9347,"Ġshaped":9348,"Ġpromotions":9349,"Ġlibraries":9350,"ĠConducted":9351,"ĠAMENDMENTS":9352,"ĠDrawings":9353,"ĠDetails":9354,"ĠBlinking":9355,"Ġdismantled":9356,"Ġreserves":9357,"emplate":9358,"ĠENFORCE":9359,"Ġridges":9360,"Ġpruning":9361,"Ġprinciple":9362,"Ġbookstore":9363,"Ġscheme":9364,"Ġvisitors":9365,"Ġclapboard":9366,"Ġassessments":9367,"Exemptions":9368,"excluding":9369,"Environmentally":9370,"Ġhandicap":9371,"Ġchemicals":9372,"ĠAssociation":9373,"Ġnarrative":9374,"Ġprosecuted":9375,"ĠAPPROVAL":9376,"Amendments":9377,"Columbus":9378,"Flag":9379,"HIB":9380,"Owner":9381,"Principal":9382,"brewery":9383,"rigation":9384,"shall":9385,"Ġambient":9386,"Ġpenthouse":9387,"Ġpeculiar":9388,"Ġparents":9389,"Ġpackaging":9390,"Ġbalustrades":9391,"Ġbirds":9392,"Ġfaith":9393,"Ġcardboard":9394,"Ġcreek":9395,"Ġwrecked":9396,"Ġordinarily":9397,"Ġrevert":9398,"Ġbeautification":9399,"ĠAmounts":9400,"Ġpermissible":9401,"ĠORDINANC":9402,"Ġcommitment":9403,"Ġstrategy":9404,"established":9405,"ĠFifteen":9406,"Ġcoordinated":9407,"Ġplazas":9408,"ĠHolly":9409,"Ġexplanatory":9410,"Ġexplosive":9411,"Ġfootprint":9412,"Ġadvertisement":9413,"Ġentitlements":9414,"Ġpenetration":9415,"Nonconformities":9416,"Ġattorney":9417,"ĠResponsibilities":9418,"ĠFlagpoles":9419,"Ġadvantage":9420,"Ġirregular":9421,"Ġweighted":9422,"Ġcomplimentary":9423,"Ġfastened":9424,"Ġimprisonment":9425,"Ġdiligently":9426,"ABILITY":9427,"Abandoned":9428,"BLANK":9429,"Bldg":9430,"Elementary":9431,"Highest":9432,"Illumination":9433,"PARKING":9434,"Reverse":9435,"Sloping":9436,"disturbing":9437,"ientific":9438,"lazing":9439,"rinsing":9440,"âī¥":9441,"Ġ______________________________________":9442,"Ġapron":9443,"Ġaforementioned":9444,"Ġaudible":9445,"recreational":9446,"Ġsquares":9447,"erintendent":9448,"Ġtheatre":9449,"Ġpedestal":9450,"Ġbureau":9451,"Ġbrake":9452,"Ġfrozen":9453,"Ġfamilies":9454,"Ġfibrous":9455,"iscellaneous":9456,"iciliary":9457,"aturated":9458,"Ġdiplo":9459,"Ġthickness":9460,"Ġefficiency":9461,"Ġproblems":9462,"ĠColumn":9463,"ominium":9464,"ĠALABAMA":9465,"Ġconviction":9466,"ĠPersons":9467,"ĠPENALTIES":9468,"ĠPathways":9469,"ĠPiercing":9470,"trailer":9471,"ĠNursery":9472,"Ġhistorical":9473,"ĠDigital":9474,"Ġexhaustive":9475,"Ġdelegated":9476,"Ġparapets":9477,"Ġproprietor":9478,"Ġdiscern":9479,"Ġunopened":9480,"Ġunobstructed":9481,"Ġunbroken":9482,"Ġaluminum":9483,"Ġsubdividing":9484,"ĠMERGEFORMA":9485,"ĠEasements":9486,"ĠUmbrella":9487,"ĠReceipts":9488,"Ġcoincide":9489,"Ġcooperate":9490,"Ġrinsed":9491,"ĠGrooming":9492,"Ġenumerated":9493,"Ġsurrounded":9494,"Ġunderbrush":9495,"Ġseverely":9496,"ĠUnsewered":9497,"Ġflammable":9498,"ĠAppropriateness":9499,"ADMINISTRATION":9500,"Ġdegradation":9501,"ĠCONDITIONAL":9502,"Ġdealerships":9503,"ĠRECOMMENDED":9504,"Ġpostmarked":9505,"ĠREQUIREMENTS":9506,"ĠENFORCEMENT":9507,"ĠMERGEFORMAT":9508,"\"-":9509,"##":9510,")-":9511,")âĢ¦":9512,")...":9513,")âĢĿ.":9514,",âĢĿ":9515,"120":9516,"2000":9517,"47":9518,"51":9519,"53":9520,"58":9521,"560":9522,"531":9523,"62":9524,"63":9525,"66":9526,"69":9527,"73":9528,"78":9529,"750":9530,"707":9531,"705":9532,"81":9533,"800":9534,"94":9535,"904":9536,"903":9537,"907":9538,"905":9539,"AB":9540,"AC":9541,"AT":9542,"Ac":9543,"Am":9544,"AZA":9545,"ATU":9546,"Auditorium":9547,"ACE":9548,"ACCESS":9549,"AVING":9550,"Bloc":9551,"BAN":9552,"Bak":9553,"Body":9554,"BZA":9555,"Billbo":9556,"Balcon":9557,"Brewpub":9558,"Basic":9559,"Bowling":9560,"CA":9561,"CD":9562,"Cer":9563,"Com":9564,"Col":9565,"Criteria":9566,"Clus":9567,"Copies":9568,"CUP":9569,"COU":9570,"Compliance":9571,"Cemetery":9572,"Check":9573,"Des":9574,"Doc":9575,"Dry":9576,"Dedic":9577,"DRT":9578,"DUC":9579,"EG":9580,"EH":9581,"EX":9582,"Elev":9583,"Ens":9584,"Erect":9585,"Elec":9586,"Equipment":9587,"ELL":9588,"FH":9589,"Fire":9590,"Face":9591,"Fore":9592,"Final":9593,"FIC":9594,"Farm":9595,"FIR":9596,"FEMA":9597,"Fitness":9598,"Filling":9599,"GL":9600,"Gall":9601,"Green":9602,"Glass":9603,"Govern":9604,"Government":9605,"Granting":9606,"Glazing":9607,"He":9608,"HED":9609,"HMENT":9610,"Human":9611,"HOU":9612,"Hobby":9613,"HOD":9614,"IM":9615,"Is":9616,"ISE":9617,"IERC":9618,"IVING":9619,"IBILITIES":9620,"Jurisdiction":9621,"Lo":9622,"Lic":9623,"Lim":9624,"Lod":9625,"Low":9626,"Loc":9627,"LIC":9628,"LIS":9629,"Lake":9630,"Liner":9631,"Likew":9632,"MU":9633,"Mo":9634,"Must":9635,"MAN":9636,"MING":9637,"MED":9638,"Masonry":9639,"Meals":9640,"Modi":9641,"Method":9642,"Museum":9643,"Motor":9644,"MALL":9645,"Mobility":9646,"NL":9647,"NT":9648,"North":9649,"NER":9650,"Negative":9651,"NEX":9652,"OP":9653,"Ob":9654,"ORD":9655,"OLO":9656,"ORDS":9657,"October":9658,"OINT":9659,"OADING":9660,"Pet":9661,"Page":9662,"Park":9663,"Plat":9664,"PTIONS":9665,"PONS":9666,"Pepperell":9667,"PORT":9668,"PICAL":9669,"Run":9670,"Rout":9671,"Real":9672,"RES":9673,"RID":9674,"Remote":9675,"Riparian":9676,"SI":9677,"So":9678,"Sp":9679,"Sw":9680,"She":9681,"Sec":9682,"Sim":9683,"Sel":9684,"STI":9685,"Some":9686,"Size":9687,"Sex":9688,"Sanitary":9689,"Smooth":9690,"Supp":9691,"Semi":9692,"SIGN":9693,"Specified":9694,"Short":9695,"Swimming":9696,"SINESS":9697,"TH":9698,"TT":9699,"Ten":9700,"Top":9701,"Tables":9702,"Time":9703,"TOWN":9704,"Termination":9705,"Up":9706,"Us":9707,"USTR":9708,"URE":9709,"UIS":9710,"UTIES":9711,"UIND":9712,"UANCE":9713,"VD":9714,"Village":9715,"VID":9716,"Wine":9717,"Wel":9718,"Work":9719,"Warning":9720,"Waiver":9721,"WELL":9722,"WIM":9723,"YPICAL":9724,"Zone":9725,"])":9726,"aign":9727,"aure":9728,"aking":9729,"ault":9730,"apping":9731,"approval":9732,"aordin":9733,"bs":9734,"bing":9735,"bate":9736,"bos":9737,"bra":9738,"bons":9739,"buff":9740,"bott":9741,"between":9742,"barber":9743,"cor":9744,"cle":9745,"cul":9746,"col":9747,"cut":9748,"cast":9749,"comp":9750,"cia":9751,"circulation":9752,"culations":9753,"culture":9754,"dal":9755,"date":9756,"direct":9757,"density":9758,"drew":9759,"duplex":9760,"distance":9761,"dger":9762,"dominium":9763,"ean":9764,"elo":9765,"eop":9766,"eech":9767,"fe":9768,"fi":9769,"fac":9770,"fas":9771,"fire":9772,"fted":9773,"free":9774,"fined":9775,"ference":9776,"finition":9777,"gin":9778,"gid":9779,"gage":9780,"grading":9781,"han":9782,"hand":9783,"hotel":9784,"hiking":9785,"ier":9786,"iro":9787,"iation":9788,"iard":9789,"ihood":9790,"ilots":9791,"ket":9792,"ler":9793,"luc":9794,"lers":9795,"liness":9796,"long":9797,"lined":9798,"llos":9799,"mas":9800,"main":9801,"mary":9802,"mous":9803,"mium":9804,"nal":9805,"nas":9806,"new":9807,"necting":9808,"ncy":9809,"oop":9810,"oosa":9811,"pes":9812,"pic":9813,"pture":9814,"put":9815,"pip":9816,"part":9817,"park":9818,"ploy":9819,"permanent":9820,"pervious":9821,"point":9822,"plying":9823,"putrescible":9824,"powered":9825,"persal":9826,"rance":9827,"rum":9828,"rally":9829,"rights":9830,"rals":9831,"sities":9832,"size":9833,"safe":9834,"specified":9835,"surface":9836,"tw":9837,"tend":9838,"tach":9839,"tory":9840,"trees":9841,"tors":9842,"tak":9843,"turn":9844,"uce":9845,"uating":9846,"uony":9847,"vy":9848,"vision":9849,"visions":9850,"video":9851,"wards":9852,"west":9853,"walls":9854,"xi":9855,"xic":9856,"yer":9857,"ymb":9858,"ymn":9859,"zor":9860,"Âł":9861,"Ġ+":9862,"Ġ;":9863,"Ġess":9864,"Ġide":9865,"Ġ................":9866,"Ġ____":9867,"Ġ%)":9868,"Ġ**":9869,"Ġ________":9870,"Ġ<âĢĶ":9871,"Ġaqu":9872,"inter":9873,"inine":9874,"inous":9875,"interior":9876,"inforce":9877,"inners":9878,"inarian":9879,"independent":9880,"instead":9881,"inensis":9882,"Ġtar":9883,"Ġtid":9884,"Ġtend":9885,"Ġtied":9886,"Ġtee":9887,"Ġtrip":9888,"Ġtiers":9889,"Ġtethe":9890,"Ġtilt":9891,"Ġost":9892,"ref":9893,"rear":9894,"rezoning":9895,"Ġsm":9896,"Ġsof":9897,"Ġsited":9898,"Ġsug":9899,"Ġsense":9900,"Ġsizing":9901,"Ġsanitation":9902,"Ġsnow":9903,"Ġsags":9904,"Ġscreens":9905,"Ġsaturated":9906,"heater":9907,"heast":9908,"hellos":9909,"onous":9910,"onious":9911,"onau":9912,"alty":9913,"alse":9914,"alism":9915,"ern":9916,"erted":9917,"erial":9918,"erary":9919,"erred":9920,"erical":9921,"erits":9922,"Ġtheft":9923,"entions":9924,"ennel":9925,"eneath":9926,"tiven":9927,"tible":9928,"tidal":9929,"Ġpal":9930,"Ġple":9931,"Ġpas":9932,"Ġpun":9933,"Ġpure":9934,"Ġplu":9935,"Ġpine":9936,"Ġpose":9937,"Ġpock":9938,"Ġpoli":9939,"Ġperennial":9940,"Ġpilots":9941,"Ġphellos":9942,"inge":9943,"ingly":9944,"ingness":9945,"any":9946,"anor":9947,"antive":9948,"angular":9949,"esy":9950,"ester":9951,"Ġbon":9952,"Ġbac":9953,"Ġbod":9954,"Ġbind":9955,"Ġbrea":9956,"Ġbins":9957,"Ġbacking":9958,"Ġbridge":9959,"Ġbread":9960,"Ġbikew":9961,"Ġbaking":9962,"Ġbeneath":9963,"Ġfan":9964,"Ġfol":9965,"Ġfined":9966,"Ġfond":9967,"Ġfuses":9968,"Ġfishing":9969,"Ġfenced":9970,"Ġfender":9971,"Ġfalse":9972,"orations":9973,"oried":9974,"orative":9975,"organ":9976,"Ġantique":9977,"itts":9978,"itating":9979,"itants":9980,"itches":9981,"itheater":9982,"isor":9983,"isable":9984,"isite":9985,"ishes":9986,"isms":9987,"islat":9988,"Ġcro":9989,"Ġcat":9990,"Ġcas":9991,"Ġcum":9992,"Ġcher":9993,"Ġcra":9994,"Ġcust":9995,"Ġcited":9996,"Ġcart":9997,"Ġcans":9998,"Ġcultural":9999,"Ġcott":10000,"Ġcatering":10001,"Ġcemeteries":10002,"roll":10003,"roem":10004,"rolling":10005,"roper":10006,"rolog":10007,"arture":10008,"arry":10009,"arability":10010,"aratory":10011,"arger":10012,"iced":10013,"entrance":10014,"atc":10015,"att":10016,"atess":10017,"Ġdates":10018,"Ġdental":10019,"Ġdict":10020,"Ġdomin":10021,"Ġwid":10022,"Ġwest":10023,"Ġwear":10024,"Ġwines":10025,"Ġweight":10026,"Ġwording":10027,"Ġwishing":10028,"Ġinn":10029,"Ġinqu":10030,"Ġintr":10031,"Ġinhere":10032,"Ġinland":10033,"Ġinlay":10034,"Ġinfer":10035,"Ġinhibit":10036,"Ġinhab":10037,"Ġinpati":10038,"Ġinundation":10039,"Ġinput":10040,"Ġmas":10041,"Ġmag":10042,"Ġmuch":10043,"Ġmuff":10044,"Ġmale":10045,"Ġmiles":10046,"Ġmuseum":10047,"Ġmelting":10048,"Ġoral":10049,"Ġorific":10050,"Ġordered":10051,"allation":10052,"allelo":10053,"Ġreve":10054,"Ġreuse":10055,"Ġreward":10056,"Ġreapplication":10057,"Ġreestablished":10058,"Ġtouch":10059,"Ġtools":10060,"Ġtopped":10061,"Ġbear":10062,"Ġbearing":10063,"Ġshot":10064,"Ġshad":10065,"Ġshore":10066,"Ġshove":10067,"illow":10068,"ighed":10069,"eterm":10070,"eteness":10071,"Ġshallow":10072,"Ġshallown":10073,"uster":10074,"ushed":10075,"ustic":10076,"uscal":10077,"ustible":10078,"mentations":10079,"Ġthread":10080,"Ġthru":10081,"Ġnailed":10082,"ida":10083,"idents":10084,"Ġstall":10085,"Ġstri":10086,"Ġstair":10087,"Ġstubs":10088,"Ġstacks":10089,"Ġstret":10090,"Ġstanchion":10091,"Ġstanchions":10092,"Ġstacked":10093,"Ġstatis":10094,"Ġstaked":10095,"lea":10096,"ley":10097,"Ġell":10098,"Ġeast":10099,"active":10100,"acility":10101,"Ġprob":10102,"Ġproc":10103,"Ġprohibits":10104,"ĠSC":10105,"ĠSk":10106,"ĠSim":10107,"ĠSight":10108,"ĠSix":10109,"ĠSens":10110,"ĠSpl":10111,"ĠSame":10112,"ĠScreen":10113,"ĠSpec":10114,"ĠServe":10115,"ĠSIT":10116,"ĠSiting":10117,"ĠSpecified":10118,"ĠSwing":10119,"ĠSITE":10120,"ĠSolid":10121,"ĠSAVING":10122,"ĠSMALL":10123,"ĠSWIM":10124,"Ġ(\"":10125,"Ġ($":10126,"Ġ(%)":10127,"ima":10128,"iming":10129,"imize":10130,"Ġlate":10131,"Ġlif":10132,"Ġlest":10133,"Ġlens":10134,"Ġlie":10135,"Ġlets":10136,"Ġlamp":10137,"Ġlint":10138,"Ġlists":10139,"ĠCER":10140,"ĠCLA":10141,"ĠCashing":10142,"ĠCraft":10143,"ĠCanopies":10144,"ĠCREA":10145,"ĠCLIN":10146,"ĠCategories":10147,"aser":10148,"aside":10149,"ashes":10150,"asium":10151,"omy":10152,"omet":10153,"omason":10154,"omiciliary":10155,"ĠAp":10156,"ĠAcer":10157,"ĠApprov":10158,"ĠART":10159,"ĠABA":10160,"ĠAIR":10161,"ĠAvail":10162,"ĠAdequacy":10163,"ĠAREA":10164,"Ġconde":10165,"Ġconst":10166,"Ġcondu":10167,"Ġcongreg":10168,"Ġcondominium":10169,"unit":10170,"unting":10171,"unks":10172,"oting":10173,"otos":10174,"otyp":10175,"otlights":10176,"quarters":10177,"ayed":10178,"ayday":10179,"ayette":10180,"ĠPC":10181,"ĠPT":10182,"ĠPV":10183,"ĠPass":10184,"ĠPost":10185,"ĠPLA":10186,"ĠPOW":10187,"ĠPiles":10188,"ĠPackage":10189,"ĠPaving":10190,"ĠPeti":10191,"ĠPainted":10192,"ĠPOO":10193,"ĠPavement":10194,"ĠPIERC":10195,"ĠPOINT":10196,"ĠPitts":10197,"ĠPayday":10198,"urances":10199,"urient":10200,"urned":10201,"urches":10202,"urring":10203,"Ġareol":10204,"Ġarenas":10205,"Ġusual":10206,"Ġappointment":10207,"Ġappellant":10208,"ĠNOT":10209,"ĠNatural":10210,"ĠNRCS":10211,"ĠNUIS":10212,"ĠNfi":10213,"uling":10214,"ulative":10215,"ulins":10216,"lanting":10217,"Ġhim":10218,"Ġhos":10219,"Ġhist":10220,"Ġhose":10221,"Ġhobby":10222,"Ġhotels":10223,"ublished":10224,"urety":10225,"ireless":10226,"ĠDri":10227,"ĠDam":10228,"ĠDenti":10229,"ĠDel":10230,"ĠDown":10231,"ĠDEC":10232,"ĠDrain":10233,"ĠDry":10234,"ĠDog":10235,"ĠDirec":10236,"ĠDIS":10237,"ĠDATE":10238,"ĠDOWN":10239,"ĠDwar":10240,"ĠDUTIES":10241,"ĠDWELL":10242,"Ġperver":10243,"Ġpercol":10244,"lication":10245,"Ġlou":10246,"Ġloans":10247,"Ġloud":10248,"Ġlounge":10249,"esses":10250,"lls":10251,"andalism":10252,"ĠOR":10253,"Ġash":10254,"Ġascertain":10255,"Ġexpose":10256,"Ġexplain":10257,"Ġexotic":10258,"Ġexchanges":10259,"Ġdeep":10260,"Ġdeprec":10261,"ume":10262,"umbing":10263,"hering":10264,"tery":10265,"Theater":10266,"Therea":10267,"osen":10268,"oster":10269,"osol":10270,"osystem":10271,"Ġbylaws":10272,"Ġ1000":10273,"Ġ125":10274,"Ġ118":10275,"Ġ140":10276,"Ġ1111":10277,"Ġsignific":10278,"Ġgun":10279,"Ġgated":10280,"Ġgutter":10281,"ectionery":10282,"Ġparabolic":10283,"Ġparallelo":10284,"ĠRen":10285,"ĠRent":10286,"ĠRange":10287,"ĠRental":10288,"ĠRemo":10289,"ĠRemote":10290,"ĠRadio":10291,"oling":10292,"olving":10293,"olved":10294,"olute":10295,"Ġpropensity":10296,"mitting":10297,"mittal":10298,"ffect":10299,"ffee":10300,"ffits":10301,"vertising":10302,"versions":10303,"Ġ29":10304,"Ġ290":10305,"Ġspect":10306,"Ġspati":10307,"Ġspark":10308,"Ġspillage":10309,"Ġspeak":10310,"Ġspouse":10311,"Ġsporting":10312,"Ġspeech":10313,"Ġspinners":10314,"deos":10315,"deme":10316,"defined":10317,"rails":10318,"uta":10319,"utable":10320,"Ġcome":10321,"ĠBE":10322,"ĠBack":10323,"ĠBond":10324,"ĠBloc":10325,"ĠBoth":10326,"ĠBrewp":10327,"ĠBrewpub":10328,"ĠBerths":10329,"ĠBarber":10330,"ĠBasic":10331,"ĠBarri":10332,"Ġadding":10333,"Ġadmission":10334,"Ġadhering":10335,"stances":10336,"stars":10337,"stroem":10338,"stallation":10339,"irled":10340,"irming":10341,"irling":10342,"Ġdish":10343,"Ġdiscon":10344,"Ġdishes":10345,"Ġdisrup":10346,"Ġdisabilities":10347,"Ġdiscovered":10348,"ifestation":10349,"Ġunat":10350,"Ġunity":10351,"Ġunch":10352,"Ġuninc":10353,"Ġuntit":10354,"Ġundivided":10355,"Ġunwar":10356,"Ġunavail":10357,"Ġunlimited":10358,"amus":10359,"amper":10360,"Ġvend":10361,"Ġvill":10362,"Ġvending":10363,"Ġvillage":10364,"Ġvested":10365,"Ġvinous":10366,"Ġvandalism":10367,"Ġinciner":10368,"Ġincident":10369,"Ġmaybe":10370,"enda":10371,"ĠOrder":10372,"ĠOrnamental":10373,"roved":10374,"Ġattic":10375,"Ġatten":10376,"Ġattem":10377,"Ġattics":10378,"ĠPlant":10379,"Ġallot":10380,"Ġalba":10381,"Ġalthough":10382,"ower":10383,"Ġstrings":10384,"ateral":10385,"aternal":10386,"Ġconserve":10387,"Ġconsiders":10388,"Ġconspic":10389,"Ġsubjected":10390,"Ġreside":10391,"Ġresem":10392,"Ġheated":10393,"Ġheading":10394,"Ġhedger":10395,"Ġmoves":10396,"Ġmounting":10397,"that":10398,"thru":10399,"thrift":10400,"restric":10401,"resee":10402,"apons":10403,"apanes":10404,"aphan":10405,"ĠMS":10406,"ĠMy":10407,"ĠMus":10408,"ĠMid":10409,"ĠMail":10410,"ĠMast":10411,"ĠMass":10412,"ĠMIC":10413,"ĠMining":10414,"ĠMasonry":10415,"ĠMeals":10416,"ĠMotor":10417,"ĠMobility":10418,"ĠMeasures":10419,"ĠMiscellaneous":10420,"ĠMerits":10421,"ĠIdenti":10422,"ĠISS":10423,"ĠTI":10424,"ĠTV":10425,"ĠTie":10426,"ĠTurn":10427,"ĠTIT":10428,"ĠTrip":10429,"ĠTerms":10430,"ĠTOWN":10431,"ĠTaprooms":10432,"ĠTax":10433,"ĠTemplate":10434,"ĠTYPICAL":10435,"ĠTuscal":10436,"Ġaccum":10437,"Ġlocking":10438,"ĠFr":10439,"ĠFrom":10440,"ĠForm":10441,"ĠFill":10442,"ĠFrid":10443,"ĠFiel":10444,"ĠFLO":10445,"ĠFlat":10446,"ĠFIS":10447,"ĠFishing":10448,"ĠFacades":10449,"ĠFitness":10450,"ĠFINANC":10451,"ĠFlooding":10452,"ĠFavor":10453,"ĠFacility":10454,"empt":10455,"empted":10456,"employ":10457,"Ġdeser":10458,"Ġdestruction":10459,"Ġcomputing":10460,"Ġcompound":10461,"ersion":10462,"erserved":10463,"elihood":10464,"ĠLate":10465,"ĠLod":10466,"ĠLong":10467,"ĠLIN":10468,"ĠLibr":10469,"ĠLabor":10470,"ĠLivable":10471,"ĠLaundrom":10472,"ĠLEG":10473,"ĠLIVING":10474,"ĠLOADING":10475,"ĠZel":10476,"ĠZero":10477,"ervances":10478,".....................":10479,"ommended":10480,"Ġchief":10481,"Ġchiro":10482,"Ġchinensis":10483,"Ġchurches":10484,"Ġchosen":10485,"Ġlandfills":10486,"ibly":10487,"tainer":10488,"ĠEQ":10489,"ĠEl":10490,"ĠEvent":10491,"ĠEduc":10492,"ĠEval":10493,"ĠElev":10494,"ĠEdge":10495,"ĠEFF":10496,"ĠErosion":10497,"ĠEarthen":10498,"ĠEuony":10499,"ĠEffect":10500,"ipses":10501,"ipulation":10502,"under":10503,"undations":10504,"undable":10505,"undaries":10506,"ticos":10507,"tician":10508,"ticides":10509,"bert":10510,"hole":10511,"portions":10512,"ĠUl":10513,"ĠReg":10514,"ĠRequ":10515,"ĠReport":10516,"ĠReverse":10517,"ĠRevenue":10518,"ĠReversions":10519,"Ġdesignates":10520,"created":10521,"cretory":10522,"Ġwhene":10523,"Ġintense":10524,"Ġintensive":10525,"Ġintentions":10526,"formational":10527,"illumin":10528,"illiard":10529,"Ġnoxious":10530,"Ġnotices":10531,"ĠNotify":10532,"Ġcopper":10533,"Ġcooling":10534,"Ġcoffee":10535,"weather":10536,"epl":10537,"Ġmakes":10538,"ĠStory":10539,"ĠStacking":10540,"ĠStabil":10541,"Ġ64":10542,"Ġ69":10543,"Ġ640":10544,"Ġ603":10545,"Ġoffsite":10546,"Ġoffset":10547,"Ġrust":10548,"Ġrates":10549,"Ġrays":10550,"ĠGod":10551,"ĠGift":10552,"ĠGener":10553,"ĠGarage":10554,"ĠGlass":10555,"ĠGATE":10556,"ĠGarbage":10557,"ĠDisabilities":10558,"ĠDispersal":10559,"Ġtwice":10560,"ĠVAN":10561,"ĠVET":10562,"ĠVISI":10563,"ĠVEH":10564,"anging":10565,"Ġopacity":10566,"derly":10567,"Ġengine":10568,"Ġenough":10569,"Ġenforce":10570,"Ġenacted":10571,"Ġrocks":10572,"IIES":10573,"Ġspecially":10574,"achment":10575,"scaled":10576,"list":10577,"lishing":10578,"ĠCommon":10579,"Ġacting":10580,"Ġacup":10581,"Ġacry":10582,"Ġminimums":10583,"ancies":10584,"Ġpriced":10585,"Ġprima":10586,"Ġprurient":10587,"posal":10588,"ady":10589,"adult":10590,"Ġleases":10591,"Ġlearning":10592,"Ġleaving":10593,"erals":10594,"Ġaccessways":10595,"Ġ33":10596,"Ġ39":10597,"Ġ3000":10598,"ermark":10599,"Ġ72":10600,"Ġ701":10601,"Ġ707":10602,"tenant":10603,"Ġdetract":10604,"option":10605,"TIFIC":10606,"Ġforesee":10607,"Ġplate":10608,"Ġplural":10609,"Ġplacing":10610,"Ġpliable":10611,"Ġpreval":10612,"Ġpreferably":10613,"Ġpremium":10614,"Ġpreempted":10615,"ĠInn":10616,"ĠInclude":10617,"ĠInlet":10618,"ĠIntended":10619,"ĠInstallation":10620,"Ġfrontages":10621,"ĠHill":10622,"ĠHalls":10623,"ĠHyd":10624,"ĠHave":10625,"ĠHolog":10626,"ĠHours":10627,"ĠHAZA":10628,"ĠHGL":10629,"Ġnoncompliance":10630,"Ġnonethe":10631,"Ġnonputrescible":10632,"Ġpurposed":10633,"ĠSignage":10634,"âĢĻ,":10635,"Interior":10636,"Information":10637,"105":10638,"Ġsurge":10639,"Ġsurren":10640,"ĠWh":10641,"ĠWSE":10642,"ĠWork":10643,"ĠWash":10644,"ĠWIT":10645,"ĠWorship":10646,"ĠWaiver":10647,"ĠWADING":10648,"ĠWORD":10649,"ĠWireless":10650,"Ġimply":10651,"Ġimproper":10652,"Ġimplication":10653,"Ġspecifies":10654,"Ġdoing":10655,"Ġgrown":10656,"Ġcommenced":10657,"Ġ803":10658,"Ġneatly":10659,"covers":10660,"Ġconstructing":10661,"Ġupright":10662,"Ġupload":10663,"Ġuprights":10664,"Ġable":10665,"Ġabridge":10666,"Ġabatement":10667,"Ġcontemporary":10668,"Ġcontempl":10669,"ĠĠĠĠĠĠĠĠĠĠĠĠĠĠĠĠĠĠĠĠ":10670,"Ġallows":10671,"Ġallowances":10672,"Ġmeat":10673,"Ġmeats":10674,"ackaged":10675,"Ġintercour":10676,"Ġinterchange":10677,"ĠCore":10678,"ĠCoordin":10679,"Analyze":10680,"Ġ55":10681,"Ġ57":10682,"Ġ521":10683,"portable":10684,"ECTIVE":10685,"Ġdecent":10686,"Ġdecree":10687,"Ġdecline":10688,"Ġdecided":10689,"Ġdecayed":10690,"Ġwillingness":10691,"ĠParameters":10692,"Ġboulevard":10693,"Ġsoffits":10694,"âĢ¦...":10695,"Ġexceeded":10696,"Ġtiming":10697,"suance":10698,"contiguous":10699,"contained":10700,"Ġmanure":10701,"Ġmanually":10702,"Ġmanager":10703,"Ġmanifestation":10704,"Ġmanipulation":10705,"Ġtrain":10706,"Ġtracing":10707,"Ġtrunk":10708,"Ġtrunks":10709,"129":10710,"included":10711,"Ġsuited":10712,"ercise":10713,"Ġpoor":10714,"Ġ102":10715,"Ġ106":10716,"ypress":10717,"ĠBoarding":10718,"ĠBook":10719,"tease":10720,"Ġexpended":10721,"Ġexpedi":10722,"ients":10723,"unctive":10724,"ĠAddition":10725,"ĠAdvertising":10726,"ĠAdoption":10727,"Ġscientific":10728,"ĠAlong":10729,"ĠAlcohol":10730,"inishes":10731,"Ġrecording":10732,"Ġreconstructed":10733,"Ġrecapping":10734,"Ġrecesses":10735,"Ġrequisite":10736,"Ġ95":10737,"Ġ900":10738,"Ġ902":10739,"Ġ903":10740,"Ġ908":10741,"__.":10742,"Ġrooftop":10743,"streets":10744,"Ġdaylight":10745,"ĠOptions":10746,"ĠOperation":10747,"Ġsegreg":10748,"Ġvariable":10749,"ĠEnh":10750,"ĠEnviron":10751,"ĠEntertainment":10752,"Ġoverview":10753,"1111":10754,"Ġreplant":10755,"Ġrepainting":10756,"Ġreplanting":10757,"Ġreputable":10758,"âĢĿ),":10759,"âĢĿ).":10760,"Ġobno":10761,"Ġporous":10762,"Ġporticos":10763,"ĠProvision":10764,"ĠSubject":10765,"ĠSubmittal":10766,"ĠSubstances":10767,"Ġinsec":10768,"Ġinsect":10769,"Ġinstitute":10770,"Ġinsofar":10771,"Ġinserted":10772,"Ġcharter":10773,"Ġcharitable":10774,"Ġformat":10775,"Ġformula":10776,"Ġlessen":10777,"atio":10778,"outheast":10779,"preferably":10780,"ĠConform":10781,"ĠContrib":10782,"estry":10783,"estrian":10784,"ĠPeriod":10785,"ĠProgram":10786,"ĠProbate":10787,"ĠProportions":10788,"ĠDepth":10789,"ĠExcretory":10790,"keep":10791,"Ġclay":10792,"Ġclerk":10793,"Ġclasses":10794,"Ġclerical":10795,"Ġcluster":10796,"Ġspecification":10797,"Ġcharacters":10798,"Ġindec":10799,"ĠArrangement":10800,"ĠDepartmental":10801,"Ġ197":10802,"Ġ198":10803,"ĠĉĠĉĠĉĠĉĠĉĠĉĠĉĠ":10804,"horizont":10805,"horough":10806,"Ġpresents":10807,"Ġprescrib":10808,"Ġpresumed":10809,"Ġdeparture":10810,"SER":10811,"phitheater":10812,"photos":10813,"Ġwaterline":10814,"Ġhereof":10815,"Ġhereunder":10816,"pective":10817,"Ġdiagn":10818,"Ġdiaphan":10819,"ĠOfficer":10820,"INARY":10821,"INSTI":10822,"ysical":10823,"ysicians":10824,"Ġperme":10825,"Ġequestrian":10826,"Ġassure":10827,"Ġassumed":10828,"Ġassurances":10829,"Ġdefines":10830,"Ġdefects":10831,"Ġdefray":10832,"Ġdeferred":10833,"Ġparkways":10834,"Signage":10835,"ĠAnim":10836,"ĠAncillary":10837,"ĠAnimal":10838,"ĠLands":10839,"Ġpriority":10840,"Ġconfined":10841,"Ġconfines":10842,"Ġconfusion":10843,"Ġconferences":10844,"Ġconfidence":10845,"Ġconfectionery":10846,"Storm":10847,"Step":10848,"Story":10849,"Start":10850,"Stacking":10851,"Standard":10852,"Stoop":10853,"Ġmining":10854,"Ġminute":10855,"Ġminutes":10856,"Ġnewly":10857,"Ġinstalling":10858,"Ġcertification":10859,"Ġelderly":10860,"titutions":10861,"Ġauthorizing":10862,"Ġoutpatient":10863,"Ġtennis":10864,"Ġeminent":10865,"urbation":10866,"Ġgravity":10867,"Ġremode":10868,"stemmed":10869,"ticework":10870,"Ġinformal":10871,"Ġinformed":10872,"ĠOfficials":10873,"Ġlicensing":10874,"Ġsubsections":10875,"Perimeter":10876,"ĠUnion":10877,"ĠUniform":10878,"ĠUniversity":10879,"ĠUnsafe":10880,"ENANCE":10881,"Ġtransparent":10882,"Ġtransluc":10883,"Ġcleared":10884,"Ġconnects":10885,"Ġflight":10886,"Ġflame":10887,"Ġfooting":10888,"ĠInstitutions":10889,"Ġlimiting":10890,"External":10891,"Ġjust":10892,"Ġjail":10893,"Ġjog":10894,"overflow":10895,"ĠDesignated":10896,"151":10897,"159":10898,"eterious":10899,"eterinarian":10900,"Ġprotects":10901,"Ġcreative":10902,"Ġordering":10903,"148":10904,"prone":10905,"prism":10906,"practor":10907,"Ġaffects":10908,"Ġcentrally":10909,"Ġrents":10910,"Ġprojectors":10911,"130":10912,"134":10913,"135":10914,"137":10915,"Ġcopulation":10916,"Ġpatently":10917,"Ġcircles":10918,"Ġappears":10919,"183":10920,"eller":10921,"Ġmultiplying":10922,"landscape":10923,"landowners":10924,"Ġviolated":10925,"Ġviolates":10926,"Ġassociate":10927,"ministration":10928,"Ġsecluded":10929,"Ġsecretarial":10930,"Ġclosets":10931,"Ġreturned":10932,"Ġ164":10933,"Ġdiffer":10934,"ICLE":10935,"Ġblocked":10936,"Ġperiodic":10937,"Ġperiodically":10938,"ideration":10939,"Ġstandpip":10940,"exit":10941,"exempt":10942,"Ġshower":10943,"Ġshowers":10944,"Ġelected":10945,"192":10946,"197":10947,"1999":10948,"Ġconsiderable":10949,"Ġcontinual":10950,"Ġrakes":10951,"Ġrazor":10952,"rence":10953,"Ġcold":10954,"Ġcollege":10955,"Ġcolleges":10956,"Ġquarter":10957,"Ġsewers":10958,"ERY":10959,"ERINARY":10960,"Ġsubstances":10961,"Ġsubstandard":10962,"Ġsubstantive":10963,"Ġtowed":10964,"Ġentities":10965,"Ġfinalized":10966,"Ġdirectory":10967,"Ġstatements":10968,"Ġvalves":10969,"Ġcollected":10970,"uously":10971,"Ġfirearm":10972,"Ġfireworks":10973,"Ġerecting":10974,"***":10975,"Ġidentity":10976,"Ġoccurred":10977,"Ġoccurrence":10978,"Ġminimized":10979,"Ġcarries":10980,"Ġinviting":10981,"Ġreceptions":10982,"Ġreceives":10983,"Ġreceivable":10984,"INGS":10985,"165":10986,"Proof":10987,"Property":10988,"Projections":10989,"Ġ03":10990,"Ġwhom":10991,"Ġenvironments":10992,"Streetscape":10993,"court":10994,"Ġrestrooms":10995,"ĠCorridors":10996,"Ġaccommodating":10997,"Ġaccommodates":10998,"Ġempowered":10999,"Ġempower":11000,"Ġmaturity":11001,"Ġcombustible":11002,"Ġhealthful":11003,"Ġruns":11004,"1003":11005,"tiguity":11006,"EDITS":11007,"udge":11008,"ĠJudge":11009,"Ġincreasing":11010,"Ġcornuta":11011,"Ġemployment":11012,"Refer":11013,"Revisions":11014,"Ġ......................................":11015,"Ġfranch":11016,"Ġcaptive":11017,"Ġconducting":11018,"boards":11019,"bouts":11020,"book":11021,"Ġwells":11022,"Ġstorefron":11023,"Ġproduces":11024,"ORE":11025,"ĠRecommended":11026,"Ġvegetated":11027,"Ġobservances":11028,"Contract":11029,"duate":11030,"Ġpenalty":11031,"Ġguy":11032,"ARIIES":11033,"ARINGS":11034,"Ġtrell":11035,"Ġdamages":11036,"Ġglaz":11037,"Noncompliance":11038,"Shrub":11039,"TND":11040,"armacy":11041,"ĠAggregate":11042,"ĠMaps":11043,"ĠMaple":11044,"Ġpossessing":11045,"Ġprofiles":11046,"ĠChanges":11047,"ĠReviewing":11048,"Ġsewerage":11049,"ITED":11050,"Ġsheared":11051,"ĠClub":11052,"ĠClients":11053,"ĠManaged":11054,"ĠManager":11055,"ĠTrunk":11056,"Ġsafely":11057,"Ġgovernments":11058,"ĠApplicant":11059,"ĠApplicants":11060,"Ġproposing":11061,"Adj":11062,"Administration":11063,"Organ":11064,"Ġgroupings":11065,"Ġclassroom":11066,"REATION":11067,"iversities":11068,"Ġcurbed":11069,"Ġwaiving":11070,"ĠSTATU":11071,"ĠSTORE":11072,"ĠShrub":11073,"ĠComments":11074,"Ġextensive":11075,"Ġ1110":11076,"Ġschedules":11077,"Ġenterprises":11078,"Ġcalculate":11079,"Ġpotable":11080,"Ġpotting":11081,"Ġdirecting":11082,"ĠCertificates":11083,"ĠPUDs":11084,"Ġpreparatory":11085,"Ġprepackaged":11086,"Ġfilm":11087,"Ġboarders":11088,"Ġelectricity":11089,"Ġenduring":11090,"Ġpeace":11091,"ĠBuffery":11092,"Ġerotic":11093,"Ġdividing":11094,"Ġdivides":11095,"ĠREPEAL":11096,"ĠREMED":11097,"ĠThan":11098,"ĠThrough":11099,"ĠThomason":11100,"Ġgrower":11101,"Ġlargely":11102,"mediate":11103,"medium":11104,"Ġtaverns":11105,"Ġbracing":11106,"Ġbrackets":11107,"Ġbrushed":11108,"Ġstaffed":11109,"Ġsupportive":11110,"Altered":11111,"Alleys":11112,"Alley":11113,"Ġbarber":11114,"Ġdenote":11115,"Ġstationary":11116,"ĠReduce":11117,"Ġfronts":11118,"Ġmassive":11119,"Ġsloping":11120,"Ġbank":11121,"Ġflowing":11122,"Ġflowlines":11123,"Ġstyled":11124,"âĢ¦âĢ¦âĢ¦âĢ¦âĢ¦âĢ¦âĢ¦âĢ¦..":11125,"RODUC":11126,"prohibited":11127,"property":11128,"projected":11129,"Ġkey":11130,"Ġrecovery":11131,"Ġreduces":11132,"Ġstriping":11133,"ĠRooming":11134,"ĠRobert":11135,"Ġrepresentations":11136,"FAA":11137,"ISR":11138,"ĠSchool":11139,"ĠScrolling":11140,"ĠShoe":11141,"azard":11142,"Ġamate":11143,"Ġampl":11144,"Ġamenity":11145,"Ġamusement":11146,"Ġamphitheater":11147,"ĠMultifamily":11148,"ĠĠĉĠ":11149,"Ġliquors":11150,"Ġliquids":11151,"Ġdisposition":11152,"Ġcircumstance":11153,"Ġmembership":11154,"Enforcement":11155,"Enlar":11156,"Encourage":11157,"afayette":11158,"Ġcease":11159,"Ġceased":11160,"Ġceases":11161,"Ġcelebr":11162,"Ġcelebration":11163,"Ġinflu":11164,"Ġnetworks":11165,"Ġnumerals":11166,"Ġexamine":11167,"Ġexamples":11168,"Ġsubsequently":11169,"Ġdoorway":11170,"Ġdoorways":11171,"Ġregarded":11172,"Ġcourtesy":11173,"Ġrevital":11174,"ĠANNEX":11175,"Ġactually":11176,"Ġpractice":11177,"Ġinterferes":11178,"Ġknee":11179,"Ġknives":11180,"Change":11181,"Chapter":11182,"Chinese":11183,"Record":11184,"Ġecosystem":11185,"Ġpictor":11186,"Ġhistorically":11187,"ĠBefore":11188,"Ġvacation":11189,"Ġvacancies":11190,"ĠLimited":11191,"Ġwalkability":11192,"Roof":11193,"Road":11194,"Roads":11195,"Ġbrown":11196,"orporated":11197,"Ġorganic":11198,"Ġevidencing":11199,"Ġconcert":11200,"Ġconcerned":11201,"ĠPrevious":11202,"ĠPrevention":11203,"ĠPreparation":11204,"Ġattested":11205,"ĠFlashing":11206,"ĠFlutter":11207,"ĠâĢĶ_":11208,"Ġriverfront":11209,"Deferred":11210,"Definition":11211,"Ġredeveloped":11212,"tribution":11213,"ĠINFORM":11214,"Ġenhances":11215,"Ġenhancing":11216,"Ġabandonment":11217,"Ġcorporations":11218,"Ġreflects":11219,"ĠTranspare":11220,"Plants":11221,"Ġsyn":11222,"Ġpitches":11223,"Ġhandle":11224,"Ġhandrails":11225,"Ġ1320":11226,"ĠRevisions":11227,"ĠRevocation":11228,"ĠRevolving":11229,"280":11230,"URBAN":11231,"matic":11232,"major":11233,"Ġnuisances":11234,"Ġsteady":11235,"ĠSystems":11236,"ĠPROHIB":11237,"ĠPROVID":11238,"ĠReserved":11239,"ĠResidences":11240,"ĠMaintained":11241,"ĠTypical":11242,"sembly":11243,"Ġlegend":11244,"ĠCourts":11245,"ĠCourthouse":11246,"Ġelementary":11247,"Ġrendering":11248,"ĠĠĠĠĠĠĠĠĠĠĠĠĠĠĠĠĠĠĠĠĠĠĠĠĠĠĠĠĠĠĠĠĠĠĠĠĠĠĠĠĠĠĠĠĠĠĠĠĠĠĠĠĠĠĠĠĠĠĠĠĠĠĠĠĠĠĠĠĠĠĠĠĠĠĠĠ":11249,"TEST":11250,"TEMENT":11251,"TEMPORARY":11252,"grams":11253,"Ġsketch":11254,"Ġfailing":11255,"Ġdedicate":11256,"ĠImprove":11257,"ĠImpervious":11258,"Ġmailing":11259,"Ġmailbox":11260,"1109":11261,"ADOP":11262,"Until":11263,"Unlicensed":11264,"Ġsuper":11265,"Ġsuperior":11266,"Ġbedding":11267,"Ġfurnished":11268,"Ġfunctioning":11269,"Ġlittle":11270,"Ġliterary":11271,"ĠNotwithstanding":11272,"Ġunderserved":11273,"ĠMaking":11274,"ĠProtects":11275,"Ġentryway":11276,"Ġeconomical":11277,"Frontage":11278,"ĠPlaces":11279,"Ġsells":11280,"Ġsupplementary":11281,"Ġterminating":11282,"Ġquestions":11283,"ĠSTANDARD":11284,"Manure":11285,"Manufacture":11286,"Provision":11287,"Provisions":11288,"calaure":11289,"Ġpiles":11290,"Ġpublishing":11291,"Ġwastes":11292,"Ġshoe":11293,"Ġevening":11294,"ĠSupply":11295,"ĠAPPO":11296,"Ġperforms":11297,"Ġperformers":11298,"ĠElectric":11299,"Ġpurchases":11300,"Ġdeclares":11301,"Disposal":11302,"Distribution":11303,"ĠÂ©":11304,"ĠÂ½":11305,"Ġcavity":11306,"Ġcausing":11307,"Ġcaustic":11308,"Ġcredits":11309,"Ġstraw":11310,"Ġprogrammed":11311,"Ġdeadline":11312,"ĠRESPONS":11313,"ĠMinimize":11314,"ĠVariable":11315,"ĠHorticulture":11316,"Requirements":11317,"Ġestimate":11318,"Ġlinked":11319,"ĠQuarry":11320,"Floodway":11321,"Floodplain":11322,"Multifamily":11323,"Ġtheaters":11324,"accessory":11325,"Ġharmonious":11326,"ĠDoors":11327,"Ġadvise":11328,"Ġadvisable":11329,"Ġ806":11330,"Ġpolicy":11331,"Ġautomated":11332,"Ġautomotive":11333,"Ġreferencing":11334,"Ġcleanouts":11335,"Ġattracting":11336,"ĠIlluminated":11337,"Prevent":11338,"Preparation":11339,"ova":11340,"ĠKey":11341,"Ġbreaker":11342,"Ġfarmer":11343,"Ġinjunctive":11344,"ĠALTER":11345,"tinguish":11346,"Ġdescribes":11347,"Ġdeteriorate":11348,"Ġimplementing":11349,"Ġtrimmed":11350,"ANCY":11351,"Ġsecurely":11352,"Ġconsecutively":11353,"MITTAL":11354,"aths":11355,"Ġwireless":11356,"Ġdeleterious":11357,"Ġdelineate":11358,"Ġdelineating":11359,"ĠBOX":11360,"ĠBOUIND":11361,"ĠUSAG":11362,"ĠHazards":11363,"Ġcorrectly":11364,"Ġassignment":11365,"Ġassignee":11366,"Ġgreenway":11367,"Ġgreenways":11368,"Ġgreenhouse":11369,"Ġgreenhouses":11370,"Ġphoto":11371,"Ġtransferable":11372,"Ġtransferability":11373,"Ġremedied":11374,"Ġpayday":11375,"Ġblending":11376,"Ġburial":11377,"ĠComply":11378,"ĠCompany":11379,"ĠAssure":11380,"ĠDetriment":11381,"ĠBUFF":11382,"ĠBUSINESS":11383,"Ġdispensed":11384,"Ġdispersion":11385,"Ġuniformity":11386,"ĠPlantings":11387,"Ġcommunicate":11388,"Ġwatercourse":11389,"Ġdisturbing":11390,"Ġdisturbed":11391,"ographical":11392,"brel":11393,"odial":11394,"Ġturgid":11395,"Ġsuspend":11396,"Ġfreight":11397,"Ġfrequent":11398,"type":11399,"ĠMarker":11400,"ĠFoundations":11401,"ĠLocal":11402,"ĠLocations":11403,"........................................................................":11404,"Ġoutlining":11405,"Ġoutlets":11406,"Ġcontributing":11407,"ĠCompleteness":11408,"Ġattractant":11409,"Ġreflectors":11410,"ĠPERMITS":11411,"ĠHazardous":11412,"Consignment":11413,"Department":11414,"UCTIONS":11415,"easible":11416,"Ġxi":11417,"Ġbonds":11418,"Ġdownstream":11419,"Ġnarrown":11420,"Ġnighttime":11421,"Ġnightcl":11422,"Ġevaluate":11423,"Ġevaluating":11424,"ĠDescribe":11425,"Ġexercised":11426,"ĠRelationship":11427,"Ġmoveable":11428,"ĠTownhouses":11429,"ĠHeavy":11430,"Ġabsor":11431,"Ġabsent":11432,"Ġabsolute":11433,"Ġafforded":11434,"Ġrenovation":11435,"Ġinjuries":11436,"Ġinjurious":11437,"Ġeliminating":11438,"Effective":11439,"Represent":11440,"TUTIONAL":11441,"notify":11442,"retail":11443,"ĠCalculation":11444,"ĠCalculations":11445,"ĠClean":11446,"ĠAband":11447,"ĠAbove":11448,"Ġappurtenant":11449,"Ġaccountable":11450,"electrical":11451,"ĠGroundcover":11452,"ĠGreenhouse":11453,"Ġactively":11454,"Ġseverally":11455,"Ġinstruments":11456,"ĠConfined":11457,"Ġqualified":11458,"Ġquantities":11459,"Address":11460,"Ġtopographical":11461,"Ġpanelized":11462,"Ġsuperseded":11463,"Ġdiscontinue":11464,"Ġdiscontinuance":11465,"Ġinvalidate":11466,"CEPTIONS":11467,"Nursery":11468,"Parapet":11469,"Ġirrigation":11470,"Ġsummary":11471,"Ġpipeline":11472,"Ġponds":11473,"Ġpatient":11474,"Ġpatios":11475,"Ġbordered":11476,"Ġframing":11477,"Ġancestry":11478,"arantee":11479,"Ġweapons":11480,"Ġmissing":11481,"Ġmisrep":11482,"Ġmisdeme":11483,"ĠStriptease":11484,"ĠADUL":11485,"ĠPools":11486,"ĠPollution":11487,"ĠPoints":11488,"ĠPURPOSES":11489,"ĠNOISE":11490,"ĠObs":11491,"ĠMAP":11492,"ĠMAINT":11493,"ĠMOBLE":11494,"ĠTower":11495,"Ġenjoyed":11496,"ĠWithout":11497,"Ġarcade":11498,"Ġsimulating":11499,"ĠProcessing":11500,"INTMENT":11501,"INTRODUC":11502,"Ġcontinuing":11503,"Ġcontinuity":11504,"Ġ.............................................":11505,"Ġdemolished":11506,"Ġbuildable":11507,"Ġtaxpay":11508,"Ġknowingly":11509,"Ġpickup":11510,"Ġpickets":11511,"Ġclosely":11512,"ĠDetermined":11513,"ĠDetermination":11514,"Openings":11515,"ĠAmericans":11516,"Ġcupola":11517,"Ġcitizen":11518,"OUS":11519,"Specifically":11520,"TAIL":11521,"TATT":11522,"Ġtesting":11523,"Ġturbo":11524,"Ġsodded":11525,"Ġsodomy":11526,"Ġberming":11527,"Ġmidway":11528,"Ġmandamus":11529,"ĠSEE":11530,"ĠSheets":11531,"ĠPhysicians":11532,"ĠDecision":11533,"ĠDecks":11534,"Ġlogical":11535,"Ġgallons":11536,"ĠRECORDS":11537,"ĠRECREATION":11538,"ĠBanks":11539,"ĠBanner":11540,"ĠBanners":11541,"ĠBillboard":11542,"Ġadministering":11543,"Ġstrongly":11544,"Ġcomplexes":11545,"ĠEXCEPTIONS":11546,"ĠESTAB":11547,"Ġarticulation":11548,"Ġinterpreting":11549,"Ġseasonal":11550,"ĠEncro":11551,"Ġpositioned":11552,"Ġjustice":11553,"Ġjustification":11554,"Ġjustifies":11555,"âĢ¦âĢ¦âĢ¦âĢ¦âĢ¦âĢ¦âĢ¦âĢ¦âĢ¦âĢ¦âĢ¦âĢ¦âĢ¦":11556,"Ġ..........................................................................................":11557,"Ġattachments":11558,"Developer":11559,"Developing":11560,"Ġhouseholds":11561,"ĠRestricted":11562,"IGHTS":11563,"ĠAPPLIC":11564,"Ġdelivering":11565,"Transition":11566,"Transfer":11567,"Transitional":11568,"Ġrectangles":11569,"Ġspirituous":11570,"ĠLevels":11571,"CONFORMITIES":11572,"Awnings":11573,"Boundaries":11574,"Businesses":11575,"Highway":11576,"Phase":11577,"Physical":11578,"Pharmacy":11579,"Porch":11580,"Relation":11581,"Relationship":11582,"Scale":11583,"School":11584,"Type":11585,"ranted":11586,"second":11587,"uthern":11588,"Ġaeronau":11589,"Ġsalon":11590,"Ġblocking":11591,"Ġbicyclists":11592,"Ġfascia":11593,"Ġfluid":11594,"Ġfeminine":11595,"Ġfairs":11596,"Ġfairly":11597,"Ġfields":11598,"Ġcandy":11599,"Ġdrilling":11600,"Ġwarnings":11601,"Ġmortar":11602,"Ġmortgage":11603,"Ġreheard":11604,"Ġbelts":11605,"Ġbelong":11606,"Ġnecessitate":11607,"ĠSHORT":11608,"ĠSuperintendent":11609,"ĠSelf":11610,"ĠSPECIAL":11611,"ĠCreate":11612,"ĠCircular":11613,"ĠATTEST":11614,"Ġhardware":11615,"ĠREDUCTIONS":11616,"Ġallocation":11617,"ĠMonument":11618,"ĠTwirling":11619,"Ġaccurate":11620,"Ġwheeled":11621,"ĠGeological":11622,"ĠGuarantee":11623,"ĠVerification":11624,"Ġfocused":11625,"Ġimprac":11626,"Ġintersecting":11627,"Ġsealant":11628,"Ġrelieves":11629,"ĠConceptual":11630,"Ġobstructions":11631,"Conflicts":11632,"Ġguaranteed":11633,"Ġholidays":11634,"Allowing":11635,"ĠReduced":11636,"Ġ........................................................................................................................":11637,"Ġdiscuss":11638,"Ġstipulate":11639,"ĠBUILDINGS":11640,"Ġearthwork":11641,"ĠPROCEDURE":11642,"Ġsuccessive":11643,"Ġconcentration":11644,"Ġconcentrate":11645,"Ġconcentrated":11646,"Club":11647,"Clinics":11648,"Content":11649,"DIVISIONS":11650,"Decision":11651,"Decorative":11652,"Directory":11653,"Dumpsters":11654,"Hospital":11655,"Riverfront":11656,"Restaurant":11657,"Separation":11658,"Travel":11659,"Trailer":11660,"Utilities":11661,"candles":11662,"distillery":11663,"Ġramp":11664,"Ġpumping":11665,"Ġbiological":11666,"Ġfeasible":11667,"Ġannually":11668,"Ġmusical":11669,"Ġmulches":11670,"Ġpromotion":11671,"ĠSUBMITTAL":11672,"ĠSUBDIVISIONS":11673,"Ġlien":11674,"Ġlibrary":11675,"ĠActivity":11676,"ĠAcceptable":11677,"ĠAMENDMENT":11678,"Ġperpetual":11679,"Ġperpetuity":11680,"Ġloaded":11681,"Ġgainful":11682,"Ġgatherings":11683,"radford":11684,"Ġdisease":11685,"Ġdiseased":11686,"Ġresubdivided":11687,"Ġreservations":11688,"ĠUNIT":11689,"ĠUNITS":11690,"Ġridge":11691,"Ġrubber":11692,"ĠGasoline":11693,"Ġpruned":11694,"Ġprinciples":11695,"Ġplainly":11696,"ĠHEARINGS":11697,"ĠHEIGHTS":11698,"ĠHandic":11699,"ĠHandbook":11700,"Ġobligate":11701,"Ġclapboards":11702,"Ġconferred":11703,"Ġillustrated":11704,"Ġillustrates":11705,"Ġpharmacy":11706,"Ġpharmacies":11707,"Exempt":11708,"exclusive":11709,"Ġ...........................................................................":11710,"Ġ..............................................................................":11711,"Environmental":11712,"ĠContinue":11713,"ĠContinued":11714,"Ġhandicapped":11715,"ĠĠĠĠĠĠĠĠĠĠĠĠĠĠĠĠĠĠĠĠĠĠĠĠĠĠĠĠĠĠĠĠĠĠĠĠĠĠĠĠĠĠĠĠĠĠĠĠĠĠĠĠĠĠĠĠĠĠĠĠĠĠĠĠĠĠĠĠĠĠĠĠĠĠĠĠĠĠĠĠĠĠĠĠĠĠĠĠ":11716,"ĠĠĠĠĠĠĠĠĠĠĠĠĠĠĠĠĠĠĠĠĠĠĠĠĠĠĠĠĠĠĠĠĠĠĠĠĠĠĠĠĠĠĠĠĠĠĠĠĠĠĠĠĠĠĠĠĠĠĠĠĠĠĠĠĠĠĠĠĠĠĠĠĠĠĠĠĠĠĠĠĠĠĠĠĠĠĠĠĠĠĠĠĠĠĠĠĠĠĠĠĠĠĠĠĠĠĠĠĠĠĠĠĠĠĠĠĠĠĠĠĠĠĠĠĠĠĠĠĠĠĠĠĠĠĠĠĠĠĠĠĠĠĠĠĠĠĠĠĠĠĠĠĠĠĠĠĠĠĠĠĠĠĠĠĠĠĠĠĠĠĠĠĠĠĠĠĠĠĠĠĠĠĠĠĠĠĠĠĠĠĠĠĠĠĠĠĠĠĠĠĠĠĠĠĠĠĠĠĠĠĠĠĠĠĠĠĠĠĠĠĠĠĠĠĠĠĠĠĠĠĠĠĠĠĠĠĠĠĠĠĠĠĠĠĠĠĠĠĠĠĠĠĠĠĠĠ":11717,"Ġfurnishings":11718,"Ġnarratives":11719,"Ġhabitation":11720,"Ġprosecutions":11721,"ĠAPPROVED":11722,"Ġsingularly":11723,"Ġunconstitutionality":11724,"7460":11725,"Junkyards":11726,"Junkyard":11727,"LINE":11728,"Reserved":11729,"Structures":11730,"Structural":11731,"Structurally":11732,"USGS":11733,"grade":11734,"mnation":11735,"Ġ006":11736,"Ġterrain":11737,"Ġtenth":11738,"Ġtailoring":11739,"repellant":11740,"Ġpopulations":11741,"Ġfunds":11742,"Ġmodular":11743,"loaded":11744,"ĠSea":11745,"ĠColleges":11746,"ĠCORNER":11747,"ĠCORRID":11748,"Ġconveyed":11749,"Ġconveyance":11750,"Ġwithdrawal":11751,"ĠPenalties":11752,"ĠPortions":11753,"ĠPorches":11754,"ĠPromote":11755,"Ġhanging":11756,"Ġgeotechnical":11757,"depth":11758,"ĠBrokers":11759,"ĠBuild":11760,"ĠBuilt":11761,"Ġunpainted":11762,"Ġrestrained":11763,"resentation":11764,"ĠMoving":11765,"ĠMarch":11766,"ĠMeetings":11767,"ĠImplementation":11768,"ĠTREE":11769,"ĠTREES":11770,"ĠStormwater":11771,"ĠGraphics":11772,"ĠVisible":11773,"ĠVisibility":11774,"Ġimportance":11775,"Ġimportant":11776,"Ġprecedence":11777,"Ġprevailing":11778,"supporting":11779,"Ġsuitably":11780,"Ġexplicitly":11781,"Ġovercome":11782,"Ġpreserving":11783,"Ġpreserves":11784,"Ġdepressional":11785,"INDUSTR":11786,"Ġinvestor":11787,"Ġexclude":11788,"Ġexcludes":11789,"Ġoriginally":11790,"Ġsupervision":11791,"Ġunsightly":11792,"Ġunsightliness":11793,"Ġprivilege":11794,"Ġprivileges":11795,"ĠClearance":11796,"ĠClearly":11797,"Ġsuccessfully":11798,"Ġpredominant":11799,"Ġpredominately":11800,"Ġcubicles":11801,"ĠPistache":11802,"ĠPistacia":11803,"ĠOCCUPATION":11804,"ĠOCCUPANCY":11805,"Ġgazebo":11806,"Ġgazebos":11807,"Agriculture":11808,"Celebration":11809,"Detention":11810,"Grass":11811,"Identify":11812,"Marquee":11813,"Moreover":11814,"NATIVE":11815,"NONCONFORMITIES":11816,"Places":11817,"burse":11818,"circles":11819,"month":11820,"paulins":11821,"vilinear":11822,"involved":11823,"Ġsunlight":11824,"Ġbathrooms":11825,"Ġfarther":11826,"Ġfenestration":11827,"Ġfestivals":11828,"Ġannounc":11829,"issa":11830,"Ġdomain":11831,"Ġweeds":11832,"Ġinventoried":11833,"Ġinvestigation":11834,"Ġinoperable":11835,"Ġmedicine":11836,"Ġrehabilit":11837,"Ġtotally":11838,"Ġeyes":11839,"Ġproffered":11840,"ĠSituations":11841,"ĠSERVICE":11842,"Ġlatticework":11843,"Ġlikelihood":11844,"Ġluminance":11845,"Ġlavatory":11846,"ĠCREDITS":11847,"ĠCurve":11848,"ĠACCESSORY":11849,"Ġapparel":11850,"ĠDiameter":11851,"Ġextraordin":11852,"Ġdelicatess":11853,"Ġgambrel":11854,"ĠRiverfront":11855,"Ġsprings":11856,"ĠBenefits":11857,"Ġadheres":11858,"Ġunconventional":11859,"Ġundesirable":11860,"Ġvirgin":11861,"Ġvocational":11862,"ĠMethods":11863,"ĠMeasurement":11864,"ĠTopographic":11865,"ĠLetter":11866,"ĠLegislat":11867,"Ġrisk":11868,"Ġrigid":11869,"Ġrainwater":11870,"ĠVolume":11871,"Ġenergy":11872,"Ġfountains":11873,"Ġprefixed":11874,"ĠInflatable":11875,"ĠIntegrated":11876,"Ġimpede":11877,"Ġartistic":11878,"Ġdollar":11879,"Ġtranscri":11880,"..........................................................":11881,"Ġpolyester":11882,"Ġexpenditure":11883,"ĠAdvisory":11884,"Ġsculpture":11885,"ĠAlteration":11886,"Ġclarified":11887,"Ġsafeguard":11888,"ĠAttorney":11889,"Studios":11890,"Ġoutweigh":11891,"ĠUndisturbed":11892,"Ġtransformers":11893,"Ġflorida":11894,"Ġjoined":11895,"Ġmonotonous":11896,"Profile":11897,"ĠCornus":11898,"ĠCharacteristics":11899,"ĠCombined":11900,"Ġribbons":11901,"Ġrevolves":11902,"Ġpicnicking":11903,"Understory":11904,"ĠSurfacing":11905,"ĠAssessment":11906,"ĠIssue":11907,"Ġmarinas":11908,"ĠPresentment":11909,"Ġadaptability":11910,"Ġdivergence":11911,"Recommendation":11912,"ĠSupervisor":11913,"ĠGuidelines":11914,"ĠORDINANCES":11915,"Ġ_______________________________________":11916,"Ġdiploma":11917,"Ġdiscernable":11918,"ATP":11919,"Blocking":11920,"Bakery":11921,"Balcony":11922,"College":11923,"Clustering":11924,"COUNT":11925,"Describe":11926,"Ensuring":11927,"Forecourt":11928,"FIRM":11929,"Gallery":11930,"Governmental":11931,"HOUSE":11932,"Issuance":11933,"Licensed":11934,"Lodging":11935,"LISHMENT":11936,"Likewise":11937,"Movie":11938,"MANENT":11939,"Runway":11940,"Routine":11941,"RESIDENTIAL":11942,"Southern":11943,"Secondary":11944,"Self":11945,"Tennis":11946,"Topography":11947,"Welding":11948,"bottom":11949,"corner":11950,"culine":11951,"drews":11952,"eopath":11953,"facie":11954,"fasts":11955,"maintenance":11956,"tachments":11957,"vyn":11958,"ymnasium":11959,"Ġessential":11960,"Ġideal":11961,"Ġ____,":11962,"Ġaquatic":11963,"Ġtarpaulins":11964,"Ġtidal":11965,"Ġtethered":11966,"Ġosteopath":11967,"Ġsoften":11968,"Ġsugges":11969,"tiveness":11970,"Ġpasted":11971,"Ġpunished":11972,"Ġplugs":11973,"Ġpocket":11974,"Ġpolitic":11975,"Ġbaccalaure":11976,"Ġbodily":11977,"Ġbreaks":11978,"Ġbreadth":11979,"Ġbikeways":11980,"Ġfolded":11981,"Ġfondling":11982,"Ġcatast":11983,"Ġcumulative":11984,"Ġcrafts":11985,"Ġcustodial":11986,"Ġinquiries":11987,"Ġinherent":11988,"Ġinhabitants":11989,"Ġinpatients":11990,"Ġmasculine":11991,"Ġmufflers":11992,"Ġorifice":11993,"Ġreveals":11994,"Ġtouching":11995,"Ġshadow":11996,"Ġshovels":11997,"Ġshallowness":11998,"Ġstrips":11999,"Ġstatistics":12000,"Ġellipses":12001,"ĠSimilar":12002,"ĠSensitive":12003,"ĠSplit":12004,"ĠSITTING":12005,"ĠSwinging":12006,"ĠSWIMMING":12007,"Ġlifts":12008,"Ġlintels":12009,"ĠCERTIFIC":12010,"ĠCLAUSE":12011,"ĠCREATING":12012,"ĠCLINIC":12013,"ĠApprovals":12014,"ĠABATEMENT":12015,"ĠAIRPORT":12016,"ĠAvailability":12017,"Ġcondemnation":12018,"Ġconstant":12019,"Ġconduits":12020,"otypical":12021,"ĠPassive":12022,"ĠPLAIN":12023,"ĠPOWERS":12024,"ĠPetitions":12025,"ĠPOOL":12026,"ĠPIERCING":12027,"ĠPOINTS":12028,"Ġareola":12029,"ĠNUISANCES":12030,"ĠNfiPA":12031,"Ġhistory":12032,"ĠDriving":12033,"ĠDamage":12034,"ĠDentist":12035,"ĠDeliver":12036,"ĠDowns":12037,"ĠDECISIONS":12038,"ĠDogwood":12039,"ĠDISCOUNT":12040,"ĠDOWNTOWN":12041,"ĠDwarf":12042,"ĠDWELLING":12043,"Ġperverted":12044,"Ġpercolation":12045,"Ġdepreciation":12046,"Thereafter":12047,"osolids":12048,"Ġsignificance":12049,"Ġparallelograms":12050,"Ġspatial":12051,"ĠBlocks":12052,"ĠBrewpubs":12053,"stroemia":12054,"Ġdisconnecting":12055,"Ġunchanged":12056,"Ġunincorporated":12057,"Ġuntitled":12058,"Ġunwarranted":12059,"Ġvillages":12060,"Ġattending":12061,"Ġallotted":12062,"Ġconspicuously":12063,"Ġheadings":12064,"apanese":12065,"ĠMasturbation":12066,"ĠMassage":12067,"ĠMICRO":12068,"ĠISSUANCE":12069,"ĠTITLE":12070,"ĠTOWNHOUSE":12071,"ĠTuscaloosa":12072,"ĠForms":12073,"ĠFriday":12074,"ĠFLOOD":12075,"ĠFINANCIAL":12076,"ĠFavorable":12077,"employee":12078,"ĠLINES":12079,"ĠLibraries":12080,"ĠLaboratories":12081,"ĠLaundromat":12082,"ĠLEGAL":12083,"Ġchiropractor":12084,"ĠEvaluate":12085,"ĠElevation":12086,"ĠEFFECTIVE":12087,"Ġwhenever":12088,"illuminated":12089,"ĠGATEWAY":12090,"ĠVETERINARY":12091,"ĠVISIBILITIES":12092,"ĠVEHICLE":12093,"Ġacrylic":12094,"Ġforeseeable":12095,"ĠHolographic":12096,"ĠHAZARDS":12097,"Ġnonetheless":12098,"Ġsurgeon":12099,"Ġsurrender":12100,"ĠWITH":12101,"Ġcontemplated":12102,"Ġintercourse":12103,"Ġ5219":12104,"Ġexpediti":12105,"Ġsegregated":12106,"ĠEnvironmental":12107,"Ġobnoxious":12108,"horizontal":12109,"horoughfare":12110,"Ġprescribing":12111,"Ġdiagnos":12112,"Ġdiaphanous":12113,"INSTITUTIONAL":12114,"Ġtranslucent":12115,"Ġjogging":12116,"Ġstandpipes":12117,"Ġfirearms":12118,"Ġfranchise":12119,"Ġstorefronts":12120,"Ġglazed":12121,"Organization":12122,"ĠSTATUS":12123,"ĠBufferyard":12124,"ĠREMEDIES":12125,"ĠANNEXATION":12126,"Ġpictorial":12127,"ĠINFORMATION":12128,"ĠTransparency":12129,"ĠPROHIBITED":12130,"ĠPROVIDERS":12131,"ADOPTED":12132,"ĠAPPOINTMENT":12133,"ĠRESPONSIBILITIES":12134,"ĠQuarrying":12135,"ĠALTERNATIVE":12136,"ĠBOUINDARIIES":12137,"ĠUSAGES":12138,"ĠBUFFER":12139,"Ġnarrowness":12140,"Representatives":12141,"Ġmisrepresentation":12142,"Ġmisdemeanor":12143,"ĠADULT":12144,"ĠMAINTENANCE":12145,"INTRODUCTION":12146,"Ġtaxpayer":12147,"TATTOO":12148,"ĠRECREATIONAL":12149,"ĠESTABLISHMENT":12150,"ĠAPPLICABILITY":12151,"Ġaeronautical":12152,"ĠCORRIDOR":12153,"INDUSTRIAL":12154,"Ġextraordinary":12155,"Ġvirginiana":12156,"ĠLegislature":12157,"ymnasiums":12158,"Ġbaccalaureate":12159,"ĠCERTIFICATE":12160,"%.":12161,"%).":12162,"'-":12163,"');":12164,"'âĢĶ>":12165,"))":12166,")/":12167,")âĢ¦âĢ¦âĢ¦âĢ¦âĢ¦âĢ¦âĢ¦âĢ¦":12168,"*,":12169,"*.":12170,"-,":12171,"-.":12172,"./":12173,".:":12174,".;":12175,".).":12176,".âĢ¦âĢ¦âĢ¦âĢ¦âĢ¦âĢ¦âĢ¦âĢ¦âĢ¦âĢ¦âĢ¦âĢ¦âĢ¦âĢ¦âĢ¦âĢ¦âĢ¦âĢ¦âĢ¦âĢ¦":12177,".âĢ¦âĢ¦âĢ¦âĢ¦âĢ¦âĢ¦âĢ¦âĢ¦..":12178,"/.":12179,"012":12180,"240":12181,"2122":12182,"336":12183,"600":12184,"77":12185,"82":12186,"83":12187,"84":12188,"89":12189,"91":12190,"93":12191,"911":12192,";*":12193,">|":12194,"@_":12195,"AM":12196,"Ab":12197,"Acc":12198,"Aff":12199,"Air":12200,"Ath":12201,"Acre":12202,"ATI":12203,"Amendment":12204,"Ahis":12205,"ASE":12206,"ADA":12207,"Aircraft":12208,"Ack":12209,"APRE":12210,"Auction":12211,"ABAMA":12212,"BB":12213,"BM":12214,"BU":12215,"Bi":12216,"By":12217,"Bal":12218,"Bot":12219,"Bur":12220,"Bul":12221,"Base":12222,"Both":12223,"Based":12224,"BER":12225,"BRE":12226,"BLE":12227,"Brew":12228,"BMP":12229,"Bridge":12230,"BUS":12231,"Barri":12232,"Birming":12233,"Bradford":12234,"Ca":12235,"Cre":12236,"Cent":12237,"Cle":12238,"Cur":12239,"Cand":12240,"Cart":12241,"Cond":12242,"Cover":12243,"Copy":12244,"Chie":12245,"Caf":12246,"Cashing":12247,"Cars":12248,"Creation":12249,"Class":12250,"Coy":12251,"Code":12252,"Crap":12253,"Complete":12254,"CIA":12255,"Categories":12256,"Cemeteries":12257,"CMU":12258,"Camper":12259,"DC":12260,"Dor":12261,"Dra":12262,"Dist":12263,"Dress":12264,"Dair":12265,"Dimension":12266,"DED":12267,"Disting":12268,"Direc":12269,"Diver":12270,"Detail":12271,"Duties":12272,"DIS":12273,"Densities":12274,"DOT":12275,"DITIONS":12276,"DEFINITIONS":12277,"Does":12278,"Domiciliary":12279,"EA":12280,"EM":12281,"Em":12282,"Es":12283,"Ele":12284,"Eas":12285,"East":12286,"Educ":12287,"Erec":12288,"Establis":12289,"EMP":12290,"Easement":12291,"Established":12292,"EOUS":12293,"Fo":12294,"Fin":12295,"Far":12296,"Fac":12297,"Flow":12298,"Fif":12299,"Fine":12300,"Fred":12301,"Four":12302,"Faced":12303,"Finished":12304,"FAR":12305,"Federal":12306,"FIS":12307,"Finding":12308,"Financial":12309,"Fores":12310,"Full":12311,"Fully":12312,"FPA":12313,"FUL":12314,"Found":12315,"Flooding":12316,"Flea":12317,"Foster":12318,"Gated":12319,"Gra":12320,"Game":12321,"Gates":12322,"Gross":12323,"Gene":12324,"Grading":12325,"GENERAL":12326,"Gink":12327,"Garbage":12328,"GICAL":12329,"GVD":12330,"HO":12331,"HP":12332,"Hards":12333,"Hel":12334,"Hous":12335,"Homes":12336,"HEN":12337,"Hyd":12338,"Hortic":12339,"Health":12340,"Having":12341,"Holid":12342,"Hazard":12343,"IX":12344,"Im":12345,"Ir":12346,"ITI":12347,"IOR":12348,"Illegal":12349,"Iron":12350,"IANCES":12351,"Jus":12352,"Janit":12353,"Junior":12354,"Japanese":12355,"KE":12356,"Key":12357,"Kennel":12358,"KCIA":12359,"Less":12360,"Law":12361,"Leg":12362,"LLAN":12363,"Libr":12364,"Livestock":12365,"Large":12366,"Lieu":12367,"Labor":12368,"License":12369,"Lakes":12370,"Links":12371,"Laundrom":12372,"Larger":12373,"Lafayette":12374,"MO":12375,"MS":12376,"Mc":12377,"Mon":12378,"Mul":12379,"Mod":12380,"Map":12381,"Mill":12382,"Move":12383,"Master":12384,"Marking":12385,"Most":12386,"MIS":12387,"Medium":12388,"Malt":12389,"Municipal":12390,"Motel":12391,"Micro":12392,"Mode":12393,"Measure":12394,"Martin":12395,"Metal":12396,"Mailed":12397,"Measures":12398,"Miscellaneous":12399,"MCA":12400,"Mean":12401,"MBER":12402,"NU":12403,"Nor":12404,"Net":12405,"Nam":12406,"Norm":12407,"National":12408,"Nodes":12409,"Newer":12410,"Nana":12411,"NRCS":12412,"Natc":12413,"OF":12414,"OS":12415,"Out":12416,"Outside":12417,"OPE":12418,"OLATIONS":12419,"Orient":12420,"OFF":12421,"PH":12422,"Po":12423,"Pay":12424,"Pres":12425,"Pest":12426,"Perm":12427,"Prec":12428,"PER":12429,"Post":12430,"PRO":12431,"Pole":12432,"Pending":12433,"PTE":12434,"Point":12435,"Pawn":12436,"PURPOSE":12437,"Paving":12438,"Polic":12439,"Pick":12440,"Painted":12441,"Putrescible":12442,"Pavement":12443,"RS":12444,"Ret":12445,"Rest":12446,"Rational":12447,"Reg":12448,"Rental":12449,"Rules":12450,"RADE":12451,"Radio":12452,"RIOR":12453,"Sa":12454,"Sam":12455,"Slu":12456,"Spor":12457,"Six":12458,"Square":12459,"Ste":12460,"Sour":12461,"Siting":12462,"Sedimentation":12463,"SUB":12464,"Spot":12465,"Society":12466,"Surface":12467,"Senior":12468,"SFH":12469,"Symb":12470,"Surety":12471,"Southeast":12472,"Ta":12473,"Tre":12474,"Tul":12475,"Tire":12476,"Tree":12477,"Turb":12478,"TEN":12479,"TLO":12480,"Technical":12481,"Tilt":12482,"Taproom":12483,"Template":12484,"TCD":12485,"Timing":12486,"TLINE":12487,"Thoroughfare":12488,"Uph":12489,"Used":12490,"UTH":12491,"UKE":12492,"Vis":12493,"Vol":12494,"VII":12495,"VEN":12496,"Veter":12497,"VIC":12498,"VAL":12499,"VED":12500,"Vinyl":12501,"VIR":12502,"VAC":12503,"Wet":12504,"Wire":12505,"West":12506,"Wind":12507,"Working":12508,"Whether":12509,"WCA":12510,"Willow":12511,"WERY":12512,"WFUL":12513,"XX":12514,"YMENT":12515,"Yawn":12516,"[,":12517,"\\}":12518,"_.":12519,"_Â":12520,"aver":12521,"aut":12522,"aup":12523,"aug":12524,"aved":12525,"amental":12526,"aised":12527,"aution":12528,"aircraft":12529,"aerial":12530,"bon":12531,"bal":12532,"bes":12533,"bit":12534,"bic":12535,"bment":12536,"bac":12537,"bay":12538,"bure":12539,"bles":12540,"bility":12541,"brid":12542,"bak":12543,"bark":12544,"bud":12545,"brick":12546,"bby":12547,"bish":12548,"bused":12549,"brewpub":12550,"balconies":12551,"barium":12552,"can":12553,"cus":12554,"cation":12555,"card":12556,"cra":12557,"cking":12558,"cap":12559,"cup":12560,"comm":12561,"cho":12562,"cop":12563,"cles":12564,"cue":12565,"comes":12566,"curb":12567,"cort":12568,"cades":12569,"chool":12570,"cross":12571,"cyc":12572,"cav":12573,"constr":12574,"clim":12575,"cording":12576,"cashing":12577,"craft":12578,"construction":12579,"casting":12580,"communic":12581,"crop":12582,"catering":12583,"curring":12584,"cypress":12585,"cFar":12586,"dn":12587,"do":12588,"dr":12589,"dance":12590,"dum":12591,"dri":12592,"dable":12593,"dwelling":12594,"dens":12595,"dustr":12596,"drain":12597,"direc":12598,"dental":12599,"detail":12600,"dness":12601,"danger":12602,"dairy":12603,"dova":12604,"dcypress":12605,"ek":12606,"eve":12607,"eties":12608,"etic":12609,"eks":12610,"ease":12611,"elling":12612,"eue":12613,"efied":12614,"efficient":12615,"elev":12616,"elebration":12617,"emitting":12618,"fu":12619,"fine":12620,"fers":12621,"fee":12622,"fles":12623,"fence":12624,"freestanding":12625,"fiel":12626,"further":12627,"files":12628,"fortable":12629,"feasible":12630,"gation":12631,"gun":12632,"glow":12633,"gree":12634,"general":12635,"gical":12636,"gmental":12637,"gateway":12638,"gues":12639,"graphic":12640,"grow":12641,"generally":12642,"grown":12643,"hal":12644,"hment":12645,"hum":12646,"ham":12647,"home":12648,"homes":12649,"hatt":12650,"hazard":12651,"iet":12652,"iec":12653,"ias":12654,"iri":12655,"ilos":12656,"iences":12657,"iaries":12658,"ipping":12659,"irie":12660,"iroy":12661,"jud":12662,"ko":12663,"ker":12664,"kel":12665,"kets":12666,"kog":12667,"know":12668,"kindergarten":12669,"kova":12670,"las":12671,"lter":12672,"lam":12673,"lable":12674,"lative":12675,"liance":12676,"lective":12677,"lared":12678,"lets":12679,"label":12680,"living":12681,"lastic":12682,"lawn":12683,"lete":12684,"lake":12685,"laundry":12686,"lier":12687,"men":12688,"mes":12689,"mat":12690,"mard":12691,"mated":12692,"mir":12693,"minimum":12694,"mill":12695,"must":12696,"meral":12697,"mop":12698,"mory":12699,"mens":12700,"multi":12701,"mixed":12702,"mother":12703,"most":12704,"materials":12705,"merg":12706,"mars":12707,"motel":12708,"metal":12709,"nce":12710,"nation":12711,"nine":12712,"nant":12713,"nad":12714,"niv":12715,"nual":12716,"north":12717,"note":12718,"nections":12719,"nition":12720,"natural":12721,"oon":12722,"oti":12723,"oks":12724,"oven":12725,"otional":12726,"oining":12727,"oices":12728,"office":12729,"oured":12730,"pe":12731,"phe":12732,"pid":12733,"plan":12734,"pting":12735,"pace":12736,"pap":12737,"pite":12738,"pse":12739,"pect":12740,"pho":12741,"pile":12742,"pension":12743,"pages":12744,"pole":12745,"pave":12746,"plane":12747,"person":12748,"painted":12749,"pensive":12750,"pavement":12751,"pening":12752,"pelled":12753,"published":12754,"paths":12755,"poured":12756,"ror":12757,"rated":12758,"rary":12759,"rist":12760,"rans":12761,"rong":12762,"rass":12763,"rued":12764,"rised":12765,"rata":12766,"rtle":12767,"rmop":12768,"sf":12769,"sq":12770,"she":12771,"sit":12772,"sim":12773,"sag":12774,"sod":12775,"shed":12776,"serv":12777,"sho":12778,"some":12779,"sses":12780,"square":12781,"single":12782,"sures":12783,"sales":12784,"small":12785,"special":12786,"screening":12787,"specific":12788,"stry":12789,"strip":12790,"shop":12791,"south":12792,"short":12793,"sident":12794,"saturated":12795,"southeast":12796,"tc":12797,"ton":12798,"tay":12799,"tten":12800,"tee":12801,"tree":12802,"tail":12803,"temporary":12804,"tue":12805,"tanding":12806,"tops":12807,"thest":12808,"tinted":12809,"taproom":12810,"udin":12811,"utive":12812,"uities":12813,"utical":12814,"uded":12815,"umental":12816,"uaries":12817,"va":12818,"vd":12819,"vo":12820,"vs":12821,"van":12822,"vation":12823,"vir":12824,"vif":12825,"vres":12826,"vise":12827,"vile":12828,"voc":12829,"vari":12830,"vales":12831,"vice":12832,"vins":12833,"vinyl":12834,"vacy":12835,"vature":12836,"ventive":12837,"vaging":12838,"wall":12839,"will":12840,"when":12841,"wrec":12842,"within":12843,"warning":12844,"written":12845,"watt":12846,"wdness":12847,"xing":12848,"xiv":12849,"xii":12850,"xiii":12851,"xyd":12852,"xinum":12853,"ym":12854,"ylan":12855,"yog":12856,"yman":12857,"ybrid":12858,"zed":12859,"zones":12860,"zoned":12861,"zero":12862,"¦âĢ¦âĢ¦âĢ¦âĢ¦âĢ¦âĢ¦âĢ¦âĢ¦âĢ¦âĢ¦âĢ¦âĢ¦âĢ¦âĢ¦âĢ¦âĢ¦âĢ¦âĢ¦âĢ¦âĢ¦":12863,"©sident":12864,"Â¶":12865,"Â»":12866,"Â¾":12867,"ÃĹ":12868,"Ã©sident":12869,"ĉĠ":12870,"Ġ#":12871,"Ġ)":12872,"Ġ:":12873,"Ġ>":12874,"Ġ`":12875,"Ġq":12876,"Ġ}":12877,"Ġ~":12878,"Ġet":12879,"Ġure":12880,"Ġut":12881,"Ġip":12882,"Ġ000":12883,"ĠYes":12884,"Ġ);":12885,"Ġ.âĢĿ":12886,"Ġ______":12887,"Ġ...................":12888,"Ġ.......................":12889,"Ġ@_":12890,"ĠÃĹ":12891,"Ġaa":12892,"Ġail":12893,"Ġale":12894,"Ġauc":12895,"Ġaur":12896,"Ġaud":12897,"Ġaward":12898,"Ġahead":12899,"Ġaeration":12900,"Ġavenue":12901,"Ġaunts":12902,"Ġaviation":12903,"Ġaware":12904,"Ġako":12905,"init":12906,"inate":12907,"inated":12908,"inting":12909,"inner":12910,"inical":12911,"inets":12912,"infor":12913,"inafter":12914,"inatory":12915,"inars":12916,"information":12917,"inball":12918,"inlets":12919,"Ġton":12920,"Ġtit":12921,"Ġtire":12922,"Ġtess":12923,"Ġtag":12924,"Ġtight":12925,"Ġtut":12926,"Ġtem":12927,"Ġtel":12928,"Ġtack":12929,"Ġtile":12930,"Ġtear":12931,"Ġtong":12932,"Ġtie":12933,"Ġtren":12934,"Ġtrow":12935,"Ġtune":12936,"Ġtattoo":12937,"Ġtires":12938,"Ġtenses":12939,"Ġtacked":12940,"Ġteller":12941,"ĠoS":12942,"Ġos":12943,"Ġore":12944,"Ġour":12945,"Ġomitted":12946,"Ġouts":12947,"Ġoutr":12948,"Ġoaths":12949,"Ġomens":12950,"real":12951,"require":12952,"rest":12953,"reew":12954,"review":12955,"reast":12956,"reens":12957,"reading":12958,"refer":12959,"reverse":12960,"relevant":12961,"retaining":12962,"retention":12963,"required":12964,"reception":12965,"regation":12966,"Ġsis":12967,"Ġsac":12968,"Ġsand":12969,"Ġsend":12970,"Ġsem":12971,"Ġsill":12972,"Ġsory":12973,"Ġsail":12974,"Ġscon":12975,"Ġstit":12976,"Ġswal":12977,"Ġsedi":12978,"Ġsanit":12979,"Ġslat":12980,"Ġsills":12981,"Ġsearch":12982,"Ġsenior":12983,"Ġsomet":12984,"Ġsilos":12985,"hez":12986,"height":12987,"hewn":12988,"hearing":12989,"held":12990,"hews":12991,"onor":12992,"onent":12993,"onding":12994,"onies":12995,"onze":12996,"alide":12997,"alable":12998,"alone":12999,"along":13000,"altern":13001,"alvage":13002,"era":13003,"erce":13004,"erate":13005,"erating":13006,"erhead":13007,"erries":13008,"erware":13009,"erows":13010,"Ġthel":13011,"Ġtherap":13012,"Ġthermop":13013,"ench":13014,"enact":13015,"engine":13016,"enge":13017,"enographic":13018,"enacted":13019,"tied":13020,"tition":13021,"tile":13022,"tiated":13023,"tist":13024,"tially":13025,"tises":13026,"tivities":13027,"tiered":13028,"tivated":13029,"Ġpf":13030,"Ġpp":13031,"Ġpes":13032,"Ġpig":13033,"Ġpra":13034,"Ġpap":13035,"Ġpist":13036,"Ġpian":13037,"Ġpages":13038,"Ġpedi":13039,"Ġpins":13040,"Ġpacking":13041,"Ġplease":13042,"Ġpull":13043,"Ġputrescible":13044,"Ġpasses":13045,"Ġpairs":13046,"Ġpinball":13047,"Ġponding":13048,"ingo":13049,"eding":13050,"edding":13051,"edge":13052,"edlots":13053,"ank":13054,"anan":13055,"anted":13056,"anse":13057,"another":13058,"annex":13059,"annels":13060,"anism":13061,"esh":13062,"esting":13063,"escop":13064,"Ġbit":13065,"Ġbab":13066,"Ġbum":13067,"Ġbare":13068,"Ġbof":13069,"Ġbord":13070,"Ġbones":13071,"Ġbanding":13072,"Ġbric":13073,"Ġbases":13074,"Ġbacks":13075,"Ġbark":13076,"Ġburn":13077,"Ġbuses":13078,"Ġblood":13079,"Ġbrie":13080,"Ġberth":13081,"Ġbaked":13082,"Ġbilliard":13083,"Ġbreast":13084,"Ġberries":13085,"Ġfed":13086,"Ġfur":13087,"Ġfly":13088,"Ġfide":13089,"Ġfix":13090,"Ġfenc":13091,"Ġfines":13092,"Ġfading":13093,"Ġfunding":13094,"Ġfav":13095,"Ġfish":13096,"Ġfoli":13097,"Ġflying":13098,"Ġfriend":13099,"Ġfuneral":13100,"Ġfavor":13101,"Ġfinishes":13102,"ĠofA":13103,"orial":13104,"ordinance":13105,"orse":13106,"orating":13107,"orists":13108,"ornad":13109,"Ġanest":13110,"Ġanch":13111,"Ġangular":13112,"Ġanalyze":13113,"iton":13114,"ites":13115,"itation":13116,"itance":13117,"itated":13118,"itations":13119,"itage":13120,"itory":13121,"itures":13122,"itality":13123,"itarian":13124,"itudin":13125,"ison":13126,"ister":13127,"istic":13128,"ismatic":13129,"iscation":13130,"islative":13131,"tioned":13132,"ĠcS":13133,"Ġcres":13134,"Ġcere":13135,"Ġculti":13136,"Ġclock":13137,"Ġcell":13138,"Ġcalls":13139,"Ġcriter":13140,"Ġcafe":13141,"Ġcables":13142,"Ġcasters":13143,"Ġcats":13144,"Ġciting":13145,"Ġcru":13146,"Ġcrown":13147,"Ġcatch":13148,"Ġcows":13149,"Ġcamps":13150,"Ġcypress":13151,"road":13152,"rophic":13153,"rosive":13154,"roactive":13155,"rodeos":13156,"rotten":13157,"arn":13158,"arted":13159,"arate":13160,"arting":13161,"arch":13162,"arterial":13163,"arges":13164,"arrow":13165,"architectural":13166,"arlet":13167,"aratus":13168,"arinum":13169,"arpening":13170,"ica":13171,"ich":13172,"icial":13173,"icture":13174,"icting":13175,"enth":13176,"enture":13177,"enthouse":13178,"atted":13179,"atures":13180,"atuity":13181,"Ġdt":13182,"Ġdus":13183,"Ġdot":13184,"Ġdde":13185,"Ġdir":13186,"Ġdine":13187,"Ġdred":13188,"Ġdang":13189,"Ġdating":13190,"Ġdress":13191,"Ġdense":13192,"Ġdues":13193,"Ġdimming":13194,"Ġdump":13195,"Ġdrown":13196,"Ġdrought":13197,"Ġdancing":13198,"Ġditches":13199,"Ġdinner":13200,"Ġws":13201,"Ġwing":13202,"Ġwig":13203,"Ġwom":13204,"Ġwate":13205,"Ġwra":13206,"Ġwading":13207,"Ġwings":13208,"Ġwired":13209,"Ġwides":13210,"Ġwives":13211,"Ġwitness":13212,"Ġwarehousing":13213,"Ġwishes":13214,"Ġwoven":13215,"Ġwrong":13216,"Ġwedding":13217,"Ġink":13218,"Ġinher":13219,"Ġinver":13220,"Ġinund":13221,"Ġinhib":13222,"Ġinex":13223,"Ġinhibits":13224,"Ġinpatient":13225,"Ġinscri":13226,"Ġmall":13227,"Ġmim":13228,"Ġmut":13229,"Ġmater":13230,"Ġmill":13231,"Ġmone":13232,"Ġmere":13233,"Ġmist":13234,"Ġmural":13235,"Ġmedi":13236,"Ġmange":13237,"Ġmud":13238,"Ġmalls":13239,"Ġmech":13240,"Ġmixtures":13241,"Ġmodes":13242,"Ġmalf":13243,"Ġmowers":13244,"Ġmenu":13245,"Ġmils":13246,"Ġmosa":13247,"Ġmesh":13248,"Ġorange":13249,"Ġorna":13250,"allic":13251,"allow":13252,"alleries":13253,"alloon":13254,"allenge":13255,"Ġrele":13256,"Ġreim":13257,"Ġrevi":13258,"Ġreading":13259,"Ġrevers":13260,"Ġreused":13261,"Ġrelying":13262,"Ġredec":13263,"Ġrejected":13264,"Ġreaching":13265,"Ġreinv":13266,"Ġreinforce":13267,"Ġreinfor":13268,"loba":13269,"lounges":13270,"lobes":13271,"Ġtoe":13272,"Ġtoy":13273,"Ġtool":13274,"Ġtouris":13275,"Ġtourist":13276,"Ġtoler":13277,"Ġtoxic":13278,"Ġtobac":13279,"Ġbeac":13280,"Ġshum":13281,"Ġshut":13282,"Ġshine":13283,"Ġshutters":13284,"Ġshakes":13285,"Ġshipping":13286,"Ġsharpening":13287,"cement":13288,"cell":13289,"ceway":13290,"ceptions":13291,"ceived":13292,"ceives":13293,"iled":13294,"ilation":13295,"ilver":13296,"ilasters":13297,"ilitate":13298,"igra":13299,"igger":13300,"iguities":13301,"eth":13302,"eted":13303,"etula":13304,"vehic":13305,"veys":13306,"veget":13307,"velocity":13308,"usts":13309,"usive":13310,"ustice":13311,"usins":13312,"ushing":13313,"usband":13314,"ustering":13315,"uspension":13316,"ecution":13317,"ectiveness":13318,"mentous":13319,"Ġthing":13320,"Ġthus":13321,"Ġthrift":13322,"Ġnur":13323,"Ġnep":13324,"Ġnights":13325,"Ġnience":13326,"Ġnick":13327,"Ġnutr":13328,"Ġniec":13329,"Ġnigra":13330,"idge":13331,"idges":13332,"Ġstain":13333,"Ġstout":13334,"Ġstability":13335,"Ġstays":13336,"Ġstatic":13337,"Ġstenographic":13338,"Ġstarted":13339,"lead":13340,"level":13341,"Ġeo":13342,"Ġeee":13343,"Ġeights":13344,"Ġearthen":13345,"acting":13346,"acities":13347,"acons":13348,"actional":13349,"acency":13350,"acerations":13351,"acquet":13352,"according":13353,"activated":13354,"Ġprove":13355,"Ġpropped":13356,"ĠSF":13357,"ĠSlop":13358,"ĠSam":13359,"ĠSse":13360,"ĠSew":13361,"ĠSund":13362,"ĠSoc":13363,"ĠSaw":13364,"ĠSeg":13365,"ĠSports":13366,"ĠSills":13367,"ĠSaving":13368,"ĠSedimentation":13369,"ĠSenior":13370,"ĠScreens":13371,"ĠSatis":13372,"ĠSymb":13373,"ĠSurety":13374,"ĠSalvage":13375,"ĠSilver":13376,"ĠSuspension":13377,"Ġ(.":13378,"imes":13379,"imate":13380,"imposed":13381,"iminatory":13382,"Ġfort":13383,"Ġforfe":13384,"Ġlun":13385,"Ġlay":13386,"Ġlab":13387,"Ġlum":13388,"Ġlam":13389,"Ġlend":13390,"Ġlies":13391,"Ġlisting":13392,"Ġlacking":13393,"Ġlitig":13394,"Ġlaund":13395,"Ġlager":13396,"Ġlenses":13397,"Ġlyr":13398,"Ġlamps":13399,"Ġlaser":13400,"Ġlacerations":13401,"ĠCc":13402,"ĠCance":13403,"ĠCab":13404,"ĠCard":13405,"ĠCap":13406,"ĠCast":13407,"ĠCerc":13408,"ĠCong":13409,"ĠClos":13410,"ĠCash":13411,"ĠCurrent":13412,"ĠCamp":13413,"ĠCultural":13414,"ĠCott":13415,"ĠCake":13416,"ĠCOU":13417,"ĠCivil":13418,"ĠColumb":13419,"ĠCamper":13420,"ĠCaution":13421,"ĠCelebration":13422,"asant":13423,"asma":13424,"omed":13425,"omog":13426,"omitor":13427,"omeric":13428,"ombment":13429,"ĠAO":13430,"ĠAS":13431,"ĠAid":13432,"ĠAtr":13433,"ĠAir":13434,"ĠAcre":13435,"ĠAverage":13436,"ĠAmb":13437,"ĠAmp":13438,"ĠAudi":13439,"ĠAMP":13440,"ĠAuditorium":13441,"ĠAvoid":13442,"ĠAerial":13443,"ĠAUTH":13444,"ignia":13445,"ucer":13446,"uced":13447,"Ġconve":13448,"Ġconcludes":13449,"Ġcontiguity":13450,"Ġconcurring":13451,"unte":13452,"uneration":13453,"untry":13454,"uniary":13455,"university":13456,"uncement":13457,"Ġwithhol":13458,"quence":13459,"quility":13460,"quees":13461,"quarter":13462,"ĠPf":13463,"ĠPet":13464,"ĠPur":13465,"ĠPos":13466,"ĠPop":13467,"ĠPear":13468,"ĠPort":13469,"ĠPlay":13470,"ĠPits":13471,"ĠPoles":13472,"ĠPAR":13473,"ĠPervious":13474,"ĠPaid":13475,"ĠPaper":13476,"ĠPolitical":13477,"ĠPillars":13478,"ĠPVI":13479,"ĠPerson":13480,"ĠPledge":13481,"ĠPeak":13482,"ĠPutrescible":13483,"ĠPyr":13484,"ĠPainting":13485,"ĠPerennial":13486,"ĠPublished":13487,"ĠPatio":13488,"ĠPRIOR":13489,"ĠPaved":13490,"ĠPicture":13491,"ĠPenthouse":13492,"ĠPilasters":13493,"trade":13494,"trances":13495,"trified":13496,"tractive":13497,"tridges":13498,"urities":13499,"uries":13500,"urric":13501,"urvey":13502,"urford":13503,"Ġuser":13504,"Ġusage":13505,"Ġappended":13506,"Ġapparatus":13507,"ĠNn":13508,"ĠNum":13509,"ĠNight":13510,"ĠNote":13511,"ĠNuis":13512,"ĠNature":13513,"ĠNana":13514,"ĠNegative":13515,"ĠNFPA":13516,"ĠNarrow":13517,"ulance":13518,"ults":13519,"ulty":13520,"ulting":13521,"ulsion":13522,"ulang":13523,"ulings":13524,"ulators":13525,"ulbouts":13526,"Ġhot":13527,"Ġhay":13528,"Ġhire":13529,"Ġhide":13530,"Ġhip":13531,"Ġhue":13532,"Ġhortic":13533,"Ġhatch":13534,"Ġhamm":13535,"Ġhiking":13536,"Ġhoes":13537,"Ġhier":13538,"Ġhatc":13539,"Ġhybrid":13540,"Ġhonor":13541,"Ġhalide":13542,"Ġhusband":13543,"Ġhomog":13544,"ubling":13545,"ubdivided":13546,
[...]
